__attribute__((section("network_model_sec"), aligned(16))) char model_pte[] = {
0x3c, 0x00, 0x00, 0x00, 0x45, 0x54, 0x31, 0x32, 0x65, 0x68, 0x30, 0x30, 0x18, 0x00, 0x00, 0x00, 0xb8, 0x4e, 0x00, 0x00, 0x00, 0x00, 0x00, 0x00, 0x00, 0x4f, 0x00, 0x00, 0x00, 0x00, 0x00, 0x00, 
0x00, 0x00, 0x00, 0x00, 0x00, 0x00, 0x00, 0x00, 0x00, 0x00, 0x00, 0x00, 0x10, 0x00, 0x18, 0x00, 0x00, 0x00, 0x04, 0x00, 0x08, 0x00, 0x0c, 0x00, 0x10, 0x00, 0x14, 0x00, 0x10, 0x00, 0x00, 0x00, 
0x74, 0x00, 0x00, 0x00, 0x6c, 0x00, 0x00, 0x00, 0x64, 0x00, 0x00, 0x00, 0x40, 0x00, 0x00, 0x00, 0x04, 0x00, 0x00, 0x00, 0x44, 0xea, 0xff, 0xff, 0x04, 0x00, 0x00, 0x00, 0x05, 0x00, 0x00, 0x00, 
0x00, 0x00, 0x00, 0x00, 0x00, 0x00, 0x00, 0x00, 0x00, 0x00, 0x00, 0x00, 0x00, 0x00, 0x00, 0x00, 0x30, 0x00, 0x00, 0x00, 0x00, 0x00, 0x00, 0x00, 0xc0, 0x00, 0x00, 0x00, 0x00, 0x00, 0x00, 0x00, 
0xf0, 0x00, 0x00, 0x00, 0x00, 0x00, 0x00, 0x00, 0x00, 0x00, 0x00, 0x00, 0x01, 0x00, 0x00, 0x00, 0x0c, 0x00, 0x00, 0x00, 0x08, 0x00, 0x10, 0x00, 0x00, 0x00, 0x04, 0x00, 0x08, 0x00, 0x00, 0x00, 
0x20, 0x01, 0x00, 0x00, 0x00, 0x00, 0x00, 0x00, 0x00, 0x00, 0x00, 0x00, 0x00, 0x00, 0x00, 0x00, 0x00, 0x00, 0x00, 0x00, 0x01, 0x00, 0x00, 0x00, 0x1c, 0x00, 0x00, 0x00, 0x00, 0x00, 0x16, 0x00, 
0x28, 0x00, 0x04, 0x00, 0x08, 0x00, 0x0c, 0x00, 0x10, 0x00, 0x14, 0x00, 0x18, 0x00, 0x1c, 0x00, 0x20, 0x00, 0x24, 0x00, 0x16, 0x00, 0x00, 0x00, 0xd4, 0x4d, 0x00, 0x00, 0x80, 0x4c, 0x00, 0x00, 
0x6c, 0x15, 0x00, 0x00, 0x60, 0x15, 0x00, 0x00, 0x54, 0x15, 0x00, 0x00, 0x94, 0x02, 0x00, 0x00, 0x28, 0x00, 0x00, 0x00, 0x20, 0x00, 0x00, 0x00, 0x04, 0x00, 0x00, 0x00, 0x02, 0x00, 0x00, 0x00, 
0x00, 0x00, 0x00, 0x00, 0x00, 0x00, 0x00, 0x00, 0x40, 0x05, 0x00, 0x00, 0x00, 0x00, 0x00, 0x00, 0x00, 0x00, 0x00, 0x00, 0x00, 0x00, 0x00, 0x00, 0x0d, 0x00, 0x00, 0x00, 0x40, 0x02, 0x00, 0x00, 
0x08, 0x02, 0x00, 0x00, 0xd8, 0x01, 0x00, 0x00, 0xa4, 0x01, 0x00, 0x00, 0x68, 0x01, 0x00, 0x00, 0x40, 0x01, 0x00, 0x00, 0x08, 0x01, 0x00, 0x00, 0xe0, 0x00, 0x00, 0x00, 0xa8, 0x00, 0x00, 0x00, 
0x7c, 0x00, 0x00, 0x00, 0x54, 0x00, 0x00, 0x00, 0x2c, 0x00, 0x00, 0x00, 0x04, 0x00, 0x00, 0x00, 0xfc, 0xb3, 0xff, 0xff, 0x10, 0x00, 0x00, 0x00, 0x04, 0x00, 0x00, 0x00, 0x03, 0x00, 0x00, 0x00, 
0x6f, 0x75, 0x74, 0x00, 0x09, 0x00, 0x00, 0x00, 0x61, 0x74, 0x65, 0x6e, 0x3a, 0x3a, 0x63, 0x61, 0x74, 0x00, 0x00, 0x00, 0x20, 0xb4, 0xff, 0xff, 0x10, 0x00, 0x00, 0x00, 0x04, 0x00, 0x00, 0x00, 
0x03, 0x00, 0x00, 0x00, 0x6f, 0x75, 0x74, 0x00, 0x09, 0x00, 0x00, 0x00, 0x61, 0x74, 0x65, 0x6e, 0x3a, 0x3a, 0x6d, 0x75, 0x6c, 0x00, 0x00, 0x00, 0x44, 0xb4, 0xff, 0xff, 0x10, 0x00, 0x00, 0x00, 
0x04, 0x00, 0x00, 0x00, 0x03, 0x00, 0x00, 0x00, 0x6f, 0x75, 0x74, 0x00, 0x0a, 0x00, 0x00, 0x00, 0x61, 0x74, 0x65, 0x6e, 0x3a, 0x3a, 0x74, 0x61, 0x6e, 0x68, 0x00, 0x00, 0x68, 0xb4, 0xff, 0xff, 
0x10, 0x00, 0x00, 0x00, 0x04, 0x00, 0x00, 0x00, 0x03, 0x00, 0x00, 0x00, 0x6f, 0x75, 0x74, 0x00, 0x0d, 0x00, 0x00, 0x00, 0x61, 0x74, 0x65, 0x6e, 0x3a, 0x3a, 0x73, 0x69, 0x67, 0x6d, 0x6f, 0x69, 
0x64, 0x00, 0x00, 0x00, 0x90, 0xb4, 0xff, 0xff, 0x10, 0x00, 0x00, 0x00, 0x04, 0x00, 0x00, 0x00, 0x03, 0x00, 0x00, 0x00, 0x6f, 0x75, 0x74, 0x00, 0x1b, 0x00, 0x00, 0x00, 0x61, 0x74, 0x65, 0x6e, 
0x3a, 0x3a, 0x73, 0x70, 0x6c, 0x69, 0x74, 0x5f, 0x77, 0x69, 0x74, 0x68, 0x5f, 0x73, 0x69, 0x7a, 0x65, 0x73, 0x5f, 0x63, 0x6f, 0x70, 0x79, 0x00, 0xc4, 0xb4, 0xff, 0xff, 0x10, 0x00, 0x00, 0x00, 
0x04, 0x00, 0x00, 0x00, 0x03, 0x00, 0x00, 0x00, 0x6f, 0x75, 0x74, 0x00, 0x09, 0x00, 0x00, 0x00, 0x61, 0x74, 0x65, 0x6e, 0x3a, 0x3a, 0x61, 0x64, 0x64, 0x00, 0x00, 0x00, 0xe8, 0xb4, 0xff, 0xff, 
0x18, 0x00, 0x00, 0x00, 0x04, 0x00, 0x00, 0x00, 0x0a, 0x00, 0x00, 0x00, 0x54, 0x65, 0x6e, 0x73, 0x6f, 0x72, 0x5f, 0x6f, 0x75, 0x74, 0x00, 0x00, 0x10, 0x00, 0x00, 0x00, 0x61, 0x74, 0x65, 0x6e, 
0x3a, 0x3a, 0x73, 0x6c, 0x69, 0x63, 0x65, 0x5f, 0x63, 0x6f, 0x70, 0x79, 0x00, 0x00, 0x00, 0x00, 0x1c, 0xb5, 0xff, 0xff, 0x10, 0x00, 0x00, 0x00, 0x04, 0x00, 0x00, 0x00, 0x03, 0x00, 0x00, 0x00, 
0x6f, 0x75, 0x74, 0x00, 0x0b, 0x00, 0x00, 0x00, 0x61, 0x74, 0x65, 0x6e, 0x3a, 0x3a, 0x61, 0x64, 0x64, 0x6d, 0x6d, 0x00, 0x40, 0xb5, 0xff, 0xff, 0x14, 0x00, 0x00, 0x00, 0x04, 0x00, 0x00, 0x00, 
0x07, 0x00, 0x00, 0x00, 0x64, 0x65, 0x66, 0x61, 0x75, 0x6c, 0x74, 0x00, 0x18, 0x00, 0x00, 0x00, 0x65, 0x78, 0x65, 0x63, 0x75, 0x74, 0x6f, 0x72, 0x63, 0x68, 0x5f, 0x70, 0x72, 0x69, 0x6d, 0x3a, 
0x3a, 0x65, 0x74, 0x5f, 0x76, 0x69, 0x65, 0x77, 0x00, 0x00, 0x00, 0x00, 0x78, 0xb5, 0xff, 0xff, 0x10, 0x00, 0x00, 0x00, 0x04, 0x00, 0x00, 0x00, 0x03, 0x00, 0x00, 0x00, 0x6f, 0x75, 0x74, 0x00, 
0x14, 0x00, 0x00, 0x00, 0x61, 0x74, 0x65, 0x6e, 0x3a, 0x3a, 0x75, 0x6e, 0x73, 0x71, 0x75, 0x65, 0x65, 0x7a, 0x65, 0x5f, 0x63, 0x6f, 0x70, 0x79, 0x00, 0x00, 0x00, 0x00, 0xa8, 0xb5, 0xff, 0xff, 
0x10, 0x00, 0x00, 0x00, 0x04, 0x00, 0x00, 0x00, 0x03, 0x00, 0x00, 0x00, 0x6f, 0x75, 0x74, 0x00, 0x12, 0x00, 0x00, 0x00, 0x61, 0x74, 0x65, 0x6e, 0x3a, 0x3a, 0x70, 0x65, 0x72, 0x6d, 0x75, 0x74, 
0x65, 0x5f, 0x63, 0x6f, 0x70, 0x79, 0x00, 0x00, 0xd4, 0xb5, 0xff, 0xff, 0x18, 0x00, 0x00, 0x00, 0x04, 0x00, 0x00, 0x00, 0x08, 0x00, 0x00, 0x00, 0x64, 0x69, 0x6d, 0x73, 0x5f, 0x6f, 0x75, 0x74, 
0x00, 0x00, 0x00, 0x00, 0x12, 0x00, 0x00, 0x00, 0x61, 0x74, 0x65, 0x6e, 0x3a, 0x3a, 0x73, 0x71, 0x75, 0x65, 0x65, 0x7a, 0x65, 0x5f, 0x63, 0x6f, 0x70, 0x79, 0x00, 0x00, 0x08, 0xb6, 0xff, 0xff, 
0x10, 0x00, 0x00, 0x00, 0x04, 0x00, 0x00, 0x00, 0x03, 0x00, 0x00, 0x00, 0x6f, 0x75, 0x74, 0x00, 0x0a, 0x00, 0x00, 0x00, 0x61, 0x74, 0x65, 0x6e, 0x3a, 0x3a, 0x66, 0x75, 0x6c, 0x6c, 0x00, 0x00, 
0x01, 0x00, 0x00, 0x00, 0x10, 0x00, 0x00, 0x00, 0x00, 0x00, 0x0a, 0x00, 0x10, 0x00, 0x04, 0x00, 0x08, 0x00, 0x0c, 0x00, 0x0a, 0x00, 0x00, 0x00, 0xa0, 0x12, 0x00, 0x00, 0x98, 0x12, 0x00, 0x00, 
0x04, 0x00, 0x00, 0x00, 0x62, 0x00, 0x00, 0x00, 0x5c, 0x12, 0x00, 0x00, 0x30, 0x12, 0x00, 0x00, 0x00, 0x12, 0x00, 0x00, 0xd0, 0x11, 0x00, 0x00, 0xa0, 0x11, 0x00, 0x00, 0x70, 0x11, 0x00, 0x00, 
0x40, 0x11, 0x00, 0x00, 0x14, 0x11, 0x00, 0x00, 0xe4, 0x10, 0x00, 0x00, 0xa8, 0x10, 0x00, 0x00, 0x7c, 0x10, 0x00, 0x00, 0x40, 0x10, 0x00, 0x00, 0x04, 0x10, 0x00, 0x00, 0xc8, 0x0f, 0x00, 0x00, 
0x8c, 0x0f, 0x00, 0x00, 0x50, 0x0f, 0x00, 0x00, 0x20, 0x0f, 0x00, 0x00, 0xf0, 0x0e, 0x00, 0x00, 0xc0, 0x0e, 0x00, 0x00, 0x90, 0x0e, 0x00, 0x00, 0x60, 0x0e, 0x00, 0x00, 0x34, 0x0e, 0x00, 0x00, 
0x04, 0x0e, 0x00, 0x00, 0xc8, 0x0d, 0x00, 0x00, 0x9c, 0x0d, 0x00, 0x00, 0x68, 0x0d, 0x00, 0x00, 0x34, 0x0d, 0x00, 0x00, 0x08, 0x0d, 0x00, 0x00, 0xdc, 0x0c, 0x00, 0x00, 0xb0, 0x0c, 0x00, 0x00, 
0x84, 0x0c, 0x00, 0x00, 0x54, 0x0c, 0x00, 0x00, 0x24, 0x0c, 0x00, 0x00, 0xf0, 0x0b, 0x00, 0x00, 0xc4, 0x0b, 0x00, 0x00, 0x94, 0x0b, 0x00, 0x00, 0x68, 0x0b, 0x00, 0x00, 0x38, 0x0b, 0x00, 0x00, 
0xfc, 0x0a, 0x00, 0x00, 0xd0, 0x0a, 0x00, 0x00, 0x9c, 0x0a, 0x00, 0x00, 0x68, 0x0a, 0x00, 0x00, 0x3c, 0x0a, 0x00, 0x00, 0x10, 0x0a, 0x00, 0x00, 0xe4, 0x09, 0x00, 0x00, 0xb8, 0x09, 0x00, 0x00, 
0x88, 0x09, 0x00, 0x00, 0x58, 0x09, 0x00, 0x00, 0x24, 0x09, 0x00, 0x00, 0xf8, 0x08, 0x00, 0x00, 0xc8, 0x08, 0x00, 0x00, 0x9c, 0x08, 0x00, 0x00, 0x6c, 0x08, 0x00, 0x00, 0x30, 0x08, 0x00, 0x00, 
0x04, 0x08, 0x00, 0x00, 0xd0, 0x07, 0x00, 0x00, 0x9c, 0x07, 0x00, 0x00, 0x70, 0x07, 0x00, 0x00, 0x44, 0x07, 0x00, 0x00, 0x18, 0x07, 0x00, 0x00, 0xec, 0x06, 0x00, 0x00, 0xbc, 0x06, 0x00, 0x00, 
0x8c, 0x06, 0x00, 0x00, 0x58, 0x06, 0x00, 0x00, 0x2c, 0x06, 0x00, 0x00, 0xfc, 0x05, 0x00, 0x00, 0xd0, 0x05, 0x00, 0x00, 0xa0, 0x05, 0x00, 0x00, 0x64, 0x05, 0x00, 0x00, 0x38, 0x05, 0x00, 0x00, 
0x04, 0x05, 0x00, 0x00, 0xd0, 0x04, 0x00, 0x00, 0xa4, 0x04, 0x00, 0x00, 0x78, 0x04, 0x00, 0x00, 0x4c, 0x04, 0x00, 0x00, 0x20, 0x04, 0x00, 0x00, 0xf0, 0x03, 0x00, 0x00, 0xc0, 0x03, 0x00, 0x00, 
0x8c, 0x03, 0x00, 0x00, 0x60, 0x03, 0x00, 0x00, 0x30, 0x03, 0x00, 0x00, 0x04, 0x03, 0x00, 0x00, 0xd4, 0x02, 0x00, 0x00, 0x98, 0x02, 0x00, 0x00, 0x6c, 0x02, 0x00, 0x00, 0x38, 0x02, 0x00, 0x00, 
0x04, 0x02, 0x00, 0x00, 0xd8, 0x01, 0x00, 0x00, 0xac, 0x01, 0x00, 0x00, 0x80, 0x01, 0x00, 0x00, 0x54, 0x01, 0x00, 0x00, 0x24, 0x01, 0x00, 0x00, 0xf4, 0x00, 0x00, 0x00, 0xc0, 0x00, 0x00, 0x00, 
0x94, 0x00, 0x00, 0x00, 0x64, 0x00, 0x00, 0x00, 0x34, 0x00, 0x00, 0x00, 0x04, 0x00, 0x00, 0x00, 0x28, 0xb8, 0xff, 0xff, 0x00, 0x00, 0x00, 0x01, 0x04, 0x00, 0x00, 0x00, 0xe8, 0xb7, 0xff, 0xff, 
0x02, 0x00, 0x00, 0x00, 0x04, 0x00, 0x00, 0x00, 0x04, 0x00, 0x00, 0x00, 0x20, 0x01, 0x00, 0x00, 0x27, 0x01, 0x00, 0x00, 0x23, 0x01, 0x00, 0x00, 0x23, 0x01, 0x00, 0x00, 0x54, 0xb8, 0xff, 0xff, 
0x00, 0x00, 0x00, 0x01, 0x04, 0x00, 0x00, 0x00, 0x14, 0xb8, 0xff, 0xff, 0x0c, 0x00, 0x00, 0x00, 0x04, 0x00, 0x00, 0x00, 0x04, 0x00, 0x00, 0x00, 0x21, 0x01, 0x00, 0x00, 0x22, 0x01, 0x00, 0x00, 
0x20, 0x01, 0x00, 0x00, 0x20, 0x01, 0x00, 0x00, 0x80, 0xb8, 0xff, 0xff, 0x00, 0x00, 0x00, 0x01, 0x04, 0x00, 0x00, 0x00, 0x40, 0xb8, 0xff, 0xff, 0x0b, 0x00, 0x00, 0x00, 0x04, 0x00, 0x00, 0x00, 
0x04, 0x00, 0x00, 0x00, 0x19, 0x01, 0x00, 0x00, 0x1e, 0x01, 0x00, 0x00, 0x1f, 0x01, 0x00, 0x00, 0x1f, 0x01, 0x00, 0x00, 0xac, 0xb8, 0xff, 0xff, 0x00, 0x00, 0x00, 0x01, 0x04, 0x00, 0x00, 0x00, 
0x6c, 0xb8, 0xff, 0xff, 0x0a, 0x00, 0x00, 0x00, 0x04, 0x00, 0x00, 0x00, 0x03, 0x00, 0x00, 0x00, 0x1c, 0x01, 0x00, 0x00, 0x1e, 0x01, 0x00, 0x00, 0x1e, 0x01, 0x00, 0x00, 0xd4, 0xb8, 0xff, 0xff, 
0x00, 0x00, 0x00, 0x01, 0x04, 0x00, 0x00, 0x00, 0x94, 0xb8, 0xff, 0xff, 0x07, 0x00, 0x00, 0x00, 0x04, 0x00, 0x00, 0x00, 0x05, 0x00, 0x00, 0x00, 0x1a, 0x01, 0x00, 0x00, 0x1b, 0x01, 0x00, 0x00, 
0x1d, 0x01, 0x00, 0x00, 0x1c, 0x01, 0x00, 0x00, 0x1c, 0x01, 0x00, 0x00, 0x04, 0xb9, 0xff, 0xff, 0x00, 0x00, 0x00, 0x01, 0x04, 0x00, 0x00, 0x00, 0xc4, 0xb8, 0xff, 0xff, 0x0b, 0x00, 0x00, 0x00, 
0x04, 0x00, 0x00, 0x00, 0x04, 0x00, 0x00, 0x00, 0x16, 0x01, 0x00, 0x00, 0x18, 0x01, 0x00, 0x00, 0x1b, 0x01, 0x00, 0x00, 0x1b, 0x01, 0x00, 0x00, 0x30, 0xb9, 0xff, 0xff, 0x00, 0x00, 0x00, 0x01, 
0x04, 0x00, 0x00, 0x00, 0xf0, 0xb8, 0xff, 0xff, 0x0b, 0x00, 0x00, 0x00, 0x04, 0x00, 0x00, 0x00, 0x04, 0x00, 0x00, 0x00, 0x17, 0x01, 0x00, 0x00, 0xf4, 0x00, 0x00, 0x00, 0x1a, 0x01, 0x00, 0x00, 
0x1a, 0x01, 0x00, 0x00, 0x5c, 0xb9, 0xff, 0xff, 0x00, 0x00, 0x00, 0x01, 0x04, 0x00, 0x00, 0x00, 0x1c, 0xb9, 0xff, 0xff, 0x09, 0x00, 0x00, 0x00, 0x04, 0x00, 0x00, 0x00, 0x03, 0x00, 0x00, 0x00, 
0x0d, 0x01, 0x00, 0x00, 0x19, 0x01, 0x00, 0x00, 0x19, 0x01, 0x00, 0x00, 0x84, 0xb9, 0xff, 0xff, 0x00, 0x00, 0x00, 0x01, 0x04, 0x00, 0x00, 0x00, 0x44, 0xb9, 0xff, 0xff, 0x0a, 0x00, 0x00, 0x00, 
0x04, 0x00, 0x00, 0x00, 0x03, 0x00, 0x00, 0x00, 0x0c, 0x01, 0x00, 0x00, 0x18, 0x01, 0x00, 0x00, 0x18, 0x01, 0x00, 0x00, 0xac, 0xb9, 0xff, 0xff, 0x00, 0x00, 0x00, 0x01, 0x04, 0x00, 0x00, 0x00, 
0x6c, 0xb9, 0xff, 0xff, 0x09, 0x00, 0x00, 0x00, 0x04, 0x00, 0x00, 0x00, 0x03, 0x00, 0x00, 0x00, 0x0b, 0x01, 0x00, 0x00, 0x17, 0x01, 0x00, 0x00, 0x17, 0x01, 0x00, 0x00, 0xd4, 0xb9, 0xff, 0xff, 
0x00, 0x00, 0x00, 0x01, 0x04, 0x00, 0x00, 0x00, 0x94, 0xb9, 0xff, 0xff, 0x09, 0x00, 0x00, 0x00, 0x04, 0x00, 0x00, 0x00, 0x03, 0x00, 0x00, 0x00, 0x0a, 0x01, 0x00, 0x00, 0x16, 0x01, 0x00, 0x00, 
0x16, 0x01, 0x00, 0x00, 0xfc, 0xb9, 0xff, 0xff, 0x00, 0x00, 0x00, 0x01, 0x04, 0x00, 0x00, 0x00, 0xbc, 0xb9, 0xff, 0xff, 0x08, 0x00, 0x00, 0x00, 0x04, 0x00, 0x00, 0x00, 0x05, 0x00, 0x00, 0x00, 
0x08, 0x01, 0x00, 0x00, 0x12, 0x01, 0x00, 0x00, 0x13, 0x01, 0x00, 0x00, 0x14, 0x01, 0x00, 0x00, 0x15, 0x01, 0x00, 0x00, 0x2c, 0xba, 0xff, 0xff, 0x00, 0x00, 0x00, 0x01, 0x04, 0x00, 0x00, 0x00, 
0xec, 0xb9, 0xff, 0xff, 0x07, 0x00, 0x00, 0x00, 0x04, 0x00, 0x00, 0x00, 0x05, 0x00, 0x00, 0x00, 0x07, 0x01, 0x00, 0x00, 0x55, 0x00, 0x00, 0x00, 0x09, 0x01, 0x00, 0x00, 0x08, 0x01, 0x00, 0x00, 
0x08, 0x01, 0x00, 0x00, 0x5c, 0xba, 0xff, 0xff, 0x00, 0x00, 0x00, 0x01, 0x04, 0x00, 0x00, 0x00, 0x1c, 0xba, 0xff, 0xff, 0x04, 0x00, 0x00, 0x00, 0x04, 0x00, 0x00, 0x00, 0x03, 0x00, 0x00, 0x00, 
0x00, 0x01, 0x00, 0x00, 0x06, 0x01, 0x00, 0x00, 0x07, 0x01, 0x00, 0x00, 0x84, 0xba, 0xff, 0xff, 0x00, 0x00, 0x00, 0x01, 0x04, 0x00, 0x00, 0x00, 0x44, 0xba, 0xff, 0xff, 0x05, 0x00, 0x00, 0x00, 
0x04, 0x00, 0x00, 0x00, 0x07, 0x00, 0x00, 0x00, 0x03, 0x00, 0x00, 0x00, 0xfb, 0x00, 0x00, 0x00, 0xfc, 0x00, 0x00, 0x00, 0x01, 0x01, 0x00, 0x00, 0x02, 0x01, 0x00, 0x00, 0x00, 0x01, 0x00, 0x00, 
0x00, 0x01, 0x00, 0x00, 0xbc, 0xba, 0xff, 0xff, 0x00, 0x00, 0x00, 0x01, 0x04, 0x00, 0x00, 0x00, 0x7c, 0xba, 0xff, 0xff, 0x02, 0x00, 0x00, 0x00, 0x04, 0x00, 0x00, 0x00, 0x04, 0x00, 0x00, 0x00, 
0x01, 0x00, 0x00, 0x00, 0xff, 0x00, 0x00, 0x00, 0xfc, 0x00, 0x00, 0x00, 0xfc, 0x00, 0x00, 0x00, 0xe8, 0xba, 0xff, 0xff, 0x00, 0x00, 0x00, 0x01, 0x04, 0x00, 0x00, 0x00, 0xa8, 0xba, 0xff, 0xff, 
0x04, 0x00, 0x00, 0x00, 0x04, 0x00, 0x00, 0x00, 0x03, 0x00, 0x00, 0x00, 0xf7, 0x00, 0x00, 0x00, 0xfa, 0x00, 0x00, 0x00, 0xfb, 0x00, 0x00, 0x00, 0x10, 0xbb, 0xff, 0xff, 0x00, 0x00, 0x00, 0x01, 
0x04, 0x00, 0x00, 0x00, 0xd0, 0xba, 0xff, 0xff, 0x0b, 0x00, 0x00, 0x00, 0x04, 0x00, 0x00, 0x00, 0x04, 0x00, 0x00, 0x00, 0xf1, 0x00, 0x00, 0x00, 0xf6, 0x00, 0x00, 0x00, 0xf7, 0x00, 0x00, 0x00, 
0xf7, 0x00, 0x00, 0x00, 0x3c, 0xbb, 0xff, 0xff, 0x00, 0x00, 0x00, 0x01, 0x04, 0x00, 0x00, 0x00, 0xfc, 0xba, 0xff, 0xff, 0x0a, 0x00, 0x00, 0x00, 0x04, 0x00, 0x00, 0x00, 0x03, 0x00, 0x00, 0x00, 
0xf4, 0x00, 0x00, 0x00, 0xf6, 0x00, 0x00, 0x00, 0xf6, 0x00, 0x00, 0x00, 0x64, 0xbb, 0xff, 0xff, 0x00, 0x00, 0x00, 0x01, 0x04, 0x00, 0x00, 0x00, 0x24, 0xbb, 0xff, 0xff, 0x07, 0x00, 0x00, 0x00, 
0x04, 0x00, 0x00, 0x00, 0x05, 0x00, 0x00, 0x00, 0xf2, 0x00, 0x00, 0x00, 0xf3, 0x00, 0x00, 0x00, 0xf5, 0x00, 0x00, 0x00, 0xf4, 0x00, 0x00, 0x00, 0xf4, 0x00, 0x00, 0x00, 0x94, 0xbb, 0xff, 0xff, 
0x00, 0x00, 0x00, 0x01, 0x04, 0x00, 0x00, 0x00, 0x54, 0xbb, 0xff, 0xff, 0x0b, 0x00, 0x00, 0x00, 0x04, 0x00, 0x00, 0x00, 0x04, 0x00, 0x00, 0x00, 0xee, 0x00, 0x00, 0x00, 0xf0, 0x00, 0x00, 0x00, 
0xf3, 0x00, 0x00, 0x00, 0xf3, 0x00, 0x00, 0x00, 0xc0, 0xbb, 0xff, 0xff, 0x00, 0x00, 0x00, 0x01, 0x04, 0x00, 0x00, 0x00, 0x80, 0xbb, 0xff, 0xff, 0x0b, 0x00, 0x00, 0x00, 0x04, 0x00, 0x00, 0x00, 
0x04, 0x00, 0x00, 0x00, 0xef, 0x00, 0x00, 0x00, 0xcc, 0x00, 0x00, 0x00, 0xf2, 0x00, 0x00, 0x00, 0xf2, 0x00, 0x00, 0x00, 0xec, 0xbb, 0xff, 0xff, 0x00, 0x00, 0x00, 0x01, 0x04, 0x00, 0x00, 0x00, 
0xac, 0xbb, 0xff, 0xff, 0x09, 0x00, 0x00, 0x00, 0x04, 0x00, 0x00, 0x00, 0x03, 0x00, 0x00, 0x00, 0xe5, 0x00, 0x00, 0x00, 0xf1, 0x00, 0x00, 0x00, 0xf1, 0x00, 0x00, 0x00, 0x14, 0xbc, 0xff, 0xff, 
0x00, 0x00, 0x00, 0x01, 0x04, 0x00, 0x00, 0x00, 0xd4, 0xbb, 0xff, 0xff, 0x0a, 0x00, 0x00, 0x00, 0x04, 0x00, 0x00, 0x00, 0x03, 0x00, 0x00, 0x00, 0xe4, 0x00, 0x00, 0x00, 0xf0, 0x00, 0x00, 0x00, 
0xf0, 0x00, 0x00, 0x00, 0x3c, 0xbc, 0xff, 0xff, 0x00, 0x00, 0x00, 0x01, 0x04, 0x00, 0x00, 0x00, 0xfc, 0xbb, 0xff, 0xff, 0x09, 0x00, 0x00, 0x00, 0x04, 0x00, 0x00, 0x00, 0x03, 0x00, 0x00, 0x00, 
0xe3, 0x00, 0x00, 0x00, 0xef, 0x00, 0x00, 0x00, 0xef, 0x00, 0x00, 0x00, 0x64, 0xbc, 0xff, 0xff, 0x00, 0x00, 0x00, 0x01, 0x04, 0x00, 0x00, 0x00, 0x24, 0xbc, 0xff, 0xff, 0x09, 0x00, 0x00, 0x00, 
0x04, 0x00, 0x00, 0x00, 0x03, 0x00, 0x00, 0x00, 0xe2, 0x00, 0x00, 0x00, 0xee, 0x00, 0x00, 0x00, 0xee, 0x00, 0x00, 0x00, 0x8c, 0xbc, 0xff, 0xff, 0x00, 0x00, 0x00, 0x01, 0x04, 0x00, 0x00, 0x00, 
0x4c, 0xbc, 0xff, 0xff, 0x08, 0x00, 0x00, 0x00, 0x04, 0x00, 0x00, 0x00, 0x05, 0x00, 0x00, 0x00, 0xe0, 0x00, 0x00, 0x00, 0xea, 0x00, 0x00, 0x00, 0xeb, 0x00, 0x00, 0x00, 0xec, 0x00, 0x00, 0x00, 
0xed, 0x00, 0x00, 0x00, 0xbc, 0xbc, 0xff, 0xff, 0x00, 0x00, 0x00, 0x01, 0x04, 0x00, 0x00, 0x00, 0x7c, 0xbc, 0xff, 0xff, 0x07, 0x00, 0x00, 0x00, 0x04, 0x00, 0x00, 0x00, 0x05, 0x00, 0x00, 0x00, 
0xdf, 0x00, 0x00, 0x00, 0x52, 0x00, 0x00, 0x00, 0xe1, 0x00, 0x00, 0x00, 0xe0, 0x00, 0x00, 0x00, 0xe0, 0x00, 0x00, 0x00, 0xec, 0xbc, 0xff, 0xff, 0x00, 0x00, 0x00, 0x01, 0x04, 0x00, 0x00, 0x00, 
0xac, 0xbc, 0xff, 0xff, 0x04, 0x00, 0x00, 0x00, 0x04, 0x00, 0x00, 0x00, 0x03, 0x00, 0x00, 0x00, 0xd8, 0x00, 0x00, 0x00, 0xde, 0x00, 0x00, 0x00, 0xdf, 0x00, 0x00, 0x00, 0x14, 0xbd, 0xff, 0xff, 
0x00, 0x00, 0x00, 0x01, 0x04, 0x00, 0x00, 0x00, 0xd4, 0xbc, 0xff, 0xff, 0x05, 0x00, 0x00, 0x00, 0x04, 0x00, 0x00, 0x00, 0x07, 0x00, 0x00, 0x00, 0x03, 0x00, 0x00, 0x00, 0xd3, 0x00, 0x00, 0x00, 
0xd4, 0x00, 0x00, 0x00, 0xd9, 0x00, 0x00, 0x00, 0xda, 0x00, 0x00, 0x00, 0xd8, 0x00, 0x00, 0x00, 0xd8, 0x00, 0x00, 0x00, 0x4c, 0xbd, 0xff, 0xff, 0x00, 0x00, 0x00, 0x01, 0x04, 0x00, 0x00, 0x00, 
0x0c, 0xbd, 0xff, 0xff, 0x02, 0x00, 0x00, 0x00, 0x04, 0x00, 0x00, 0x00, 0x04, 0x00, 0x00, 0x00, 0x01, 0x00, 0x00, 0x00, 0xd7, 0x00, 0x00, 0x00, 0xd4, 0x00, 0x00, 0x00, 0xd4, 0x00, 0x00, 0x00, 
0x78, 0xbd, 0xff, 0xff, 0x00, 0x00, 0x00, 0x01, 0x04, 0x00, 0x00, 0x00, 0x38, 0xbd, 0xff, 0xff, 0x04, 0x00, 0x00, 0x00, 0x04, 0x00, 0x00, 0x00, 0x03, 0x00, 0x00, 0x00, 0xcf, 0x00, 0x00, 0x00, 
0xd2, 0x00, 0x00, 0x00, 0xd3, 0x00, 0x00, 0x00, 0xa0, 0xbd, 0xff, 0xff, 0x00, 0x00, 0x00, 0x01, 0x04, 0x00, 0x00, 0x00, 0x60, 0xbd, 0xff, 0xff, 0x0b, 0x00, 0x00, 0x00, 0x04, 0x00, 0x00, 0x00, 
0x04, 0x00, 0x00, 0x00, 0xc9, 0x00, 0x00, 0x00, 0xce, 0x00, 0x00, 0x00, 0xcf, 0x00, 0x00, 0x00, 0xcf, 0x00, 0x00, 0x00, 0xcc, 0xbd, 0xff, 0xff, 0x00, 0x00, 0x00, 0x01, 0x04, 0x00, 0x00, 0x00, 
0x8c, 0xbd, 0xff, 0xff, 0x0a, 0x00, 0x00, 0x00, 0x04, 0x00, 0x00, 0x00, 0x03, 0x00, 0x00, 0x00, 0xcc, 0x00, 0x00, 0x00, 0xce, 0x00, 0x00, 0x00, 0xce, 0x00, 0x00, 0x00, 0xf4, 0xbd, 0xff, 0xff, 
0x00, 0x00, 0x00, 0x01, 0x04, 0x00, 0x00, 0x00, 0xb4, 0xbd, 0xff, 0xff, 0x07, 0x00, 0x00, 0x00, 0x04, 0x00, 0x00, 0x00, 0x05, 0x00, 0x00, 0x00, 0xca, 0x00, 0x00, 0x00, 0xcb, 0x00, 0x00, 0x00, 
0xcd, 0x00, 0x00, 0x00, 0xcc, 0x00, 0x00, 0x00, 0xcc, 0x00, 0x00, 0x00, 0x24, 0xbe, 0xff, 0xff, 0x00, 0x00, 0x00, 0x01, 0x04, 0x00, 0x00, 0x00, 0xe4, 0xbd, 0xff, 0xff, 0x0b, 0x00, 0x00, 0x00, 
0x04, 0x00, 0x00, 0x00, 0x04, 0x00, 0x00, 0x00, 0xc6, 0x00, 0x00, 0x00, 0xc8, 0x00, 0x00, 0x00, 0xcb, 0x00, 0x00, 0x00, 0xcb, 0x00, 0x00, 0x00, 0x50, 0xbe, 0xff, 0xff, 0x00, 0x00, 0x00, 0x01, 
0x04, 0x00, 0x00, 0x00, 0x10, 0xbe, 0xff, 0xff, 0x0b, 0x00, 0x00, 0x00, 0x04, 0x00, 0x00, 0x00, 0x04, 0x00, 0x00, 0x00, 0xc7, 0x00, 0x00, 0x00, 0xa4, 0x00, 0x00, 0x00, 0xca, 0x00, 0x00, 0x00, 
0xca, 0x00, 0x00, 0x00, 0x7c, 0xbe, 0xff, 0xff, 0x00, 0x00, 0x00, 0x01, 0x04, 0x00, 0x00, 0x00, 0x3c, 0xbe, 0xff, 0xff, 0x09, 0x00, 0x00, 0x00, 0x04, 0x00, 0x00, 0x00, 0x03, 0x00, 0x00, 0x00, 
0xbd, 0x00, 0x00, 0x00, 0xc9, 0x00, 0x00, 0x00, 0xc9, 0x00, 0x00, 0x00, 0xa4, 0xbe, 0xff, 0xff, 0x00, 0x00, 0x00, 0x01, 0x04, 0x00, 0x00, 0x00, 0x64, 0xbe, 0xff, 0xff, 0x0a, 0x00, 0x00, 0x00, 
0x04, 0x00, 0x00, 0x00, 0x03, 0x00, 0x00, 0x00, 0xbc, 0x00, 0x00, 0x00, 0xc8, 0x00, 0x00, 0x00, 0xc8, 0x00, 0x00, 0x00, 0xcc, 0xbe, 0xff, 0xff, 0x00, 0x00, 0x00, 0x01, 0x04, 0x00, 0x00, 0x00, 
0x8c, 0xbe, 0xff, 0xff, 0x09, 0x00, 0x00, 0x00, 0x04, 0x00, 0x00, 0x00, 0x03, 0x00, 0x00, 0x00, 0xbb, 0x00, 0x00, 0x00, 0xc7, 0x00, 0x00, 0x00, 0xc7, 0x00, 0x00, 0x00, 0xf4, 0xbe, 0xff, 0xff, 
0x00, 0x00, 0x00, 0x01, 0x04, 0x00, 0x00, 0x00, 0xb4, 0xbe, 0xff, 0xff, 0x09, 0x00, 0x00, 0x00, 0x04, 0x00, 0x00, 0x00, 0x03, 0x00, 0x00, 0x00, 0xba, 0x00, 0x00, 0x00, 0xc6, 0x00, 0x00, 0x00, 
0xc6, 0x00, 0x00, 0x00, 0x1c, 0xbf, 0xff, 0xff, 0x00, 0x00, 0x00, 0x01, 0x04, 0x00, 0x00, 0x00, 0xdc, 0xbe, 0xff, 0xff, 0x08, 0x00, 0x00, 0x00, 0x04, 0x00, 0x00, 0x00, 0x05, 0x00, 0x00, 0x00, 
0xb8, 0x00, 0x00, 0x00, 0xc2, 0x00, 0x00, 0x00, 0xc3, 0x00, 0x00, 0x00, 0xc4, 0x00, 0x00, 0x00, 0xc5, 0x00, 0x00, 0x00, 0x4c, 0xbf, 0xff, 0xff, 0x00, 0x00, 0x00, 0x01, 0x04, 0x00, 0x00, 0x00, 
0x0c, 0xbf, 0xff, 0xff, 0x07, 0x00, 0x00, 0x00, 0x04, 0x00, 0x00, 0x00, 0x05, 0x00, 0x00, 0x00, 0xb7, 0x00, 0x00, 0x00, 0x4f, 0x00, 0x00, 0x00, 0xb9, 0x00, 0x00, 0x00, 0xb8, 0x00, 0x00, 0x00, 
0xb8, 0x00, 0x00, 0x00, 0x7c, 0xbf, 0xff, 0xff, 0x00, 0x00, 0x00, 0x01, 0x04, 0x00, 0x00, 0x00, 0x3c, 0xbf, 0xff, 0xff, 0x04, 0x00, 0x00, 0x00, 0x04, 0x00, 0x00, 0x00, 0x03, 0x00, 0x00, 0x00, 
0xb0, 0x00, 0x00, 0x00, 0xb6, 0x00, 0x00, 0x00, 0xb7, 0x00, 0x00, 0x00, 0xa4, 0xbf, 0xff, 0xff, 0x00, 0x00, 0x00, 0x01, 0x04, 0x00, 0x00, 0x00, 0x64, 0xbf, 0xff, 0xff, 0x05, 0x00, 0x00, 0x00, 
0x04, 0x00, 0x00, 0x00, 0x07, 0x00, 0x00, 0x00, 0x03, 0x00, 0x00, 0x00, 0xab, 0x00, 0x00, 0x00, 0xac, 0x00, 0x00, 0x00, 0xb1, 0x00, 0x00, 0x00, 0xb2, 0x00, 0x00, 0x00, 0xb0, 0x00, 0x00, 0x00, 
0xb0, 0x00, 0x00, 0x00, 0xdc, 0xbf, 0xff, 0xff, 0x00, 0x00, 0x00, 0x01, 0x04, 0x00, 0x00, 0x00, 0x9c, 0xbf, 0xff, 0xff, 0x02, 0x00, 0x00, 0x00, 0x04, 0x00, 0x00, 0x00, 0x04, 0x00, 0x00, 0x00, 
0x01, 0x00, 0x00, 0x00, 0xaf, 0x00, 0x00, 0x00, 0xac, 0x00, 0x00, 0x00, 0xac, 0x00, 0x00, 0x00, 0x08, 0xc0, 0xff, 0xff, 0x00, 0x00, 0x00, 0x01, 0x04, 0x00, 0x00, 0x00, 0xc8, 0xbf, 0xff, 0xff, 
0x04, 0x00, 0x00, 0x00, 0x04, 0x00, 0x00, 0x00, 0x03, 0x00, 0x00, 0x00, 0xa7, 0x00, 0x00, 0x00, 0xaa, 0x00, 0x00, 0x00, 0xab, 0x00, 0x00, 0x00, 0x30, 0xc0, 0xff, 0xff, 0x00, 0x00, 0x00, 0x01, 
0x04, 0x00, 0x00, 0x00, 0xf0, 0xbf, 0xff, 0xff, 0x0b, 0x00, 0x00, 0x00, 0x04, 0x00, 0x00, 0x00, 0x04, 0x00, 0x00, 0x00, 0xa1, 0x00, 0x00, 0x00, 0xa6, 0x00, 0x00, 0x00, 0xa7, 0x00, 0x00, 0x00, 
0xa7, 0x00, 0x00, 0x00, 0x5c, 0xc0, 0xff, 0xff, 0x00, 0x00, 0x00, 0x01, 0x04, 0x00, 0x00, 0x00, 0x1c, 0xc0, 0xff, 0xff, 0x0a, 0x00, 0x00, 0x00, 0x04, 0x00, 0x00, 0x00, 0x03, 0x00, 0x00, 0x00, 
0xa4, 0x00, 0x00, 0x00, 0xa6, 0x00, 0x00, 0x00, 0xa6, 0x00, 0x00, 0x00, 0x84, 0xc0, 0xff, 0xff, 0x00, 0x00, 0x00, 0x01, 0x04, 0x00, 0x00, 0x00, 0x44, 0xc0, 0xff, 0xff, 0x07, 0x00, 0x00, 0x00, 
0x04, 0x00, 0x00, 0x00, 0x05, 0x00, 0x00, 0x00, 0xa2, 0x00, 0x00, 0x00, 0xa3, 0x00, 0x00, 0x00, 0xa5, 0x00, 0x00, 0x00, 0xa4, 0x00, 0x00, 0x00, 0xa4, 0x00, 0x00, 0x00, 0xb4, 0xc0, 0xff, 0xff, 
0x00, 0x00, 0x00, 0x01, 0x04, 0x00, 0x00, 0x00, 0x74, 0xc0, 0xff, 0xff, 0x0b, 0x00, 0x00, 0x00, 0x04, 0x00, 0x00, 0x00, 0x04, 0x00, 0x00, 0x00, 0x9e, 0x00, 0x00, 0x00, 0xa0, 0x00, 0x00, 0x00, 
0xa3, 0x00, 0x00, 0x00, 0xa3, 0x00, 0x00, 0x00, 0xe0, 0xc0, 0xff, 0xff, 0x00, 0x00, 0x00, 0x01, 0x04, 0x00, 0x00, 0x00, 0xa0, 0xc0, 0xff, 0xff, 0x0b, 0x00, 0x00, 0x00, 0x04, 0x00, 0x00, 0x00, 
0x04, 0x00, 0x00, 0x00, 0x9f, 0x00, 0x00, 0x00, 0x7c, 0x00, 0x00, 0x00, 0xa2, 0x00, 0x00, 0x00, 0xa2, 0x00, 0x00, 0x00, 0x0c, 0xc1, 0xff, 0xff, 0x00, 0x00, 0x00, 0x01, 0x04, 0x00, 0x00, 0x00, 
0xcc, 0xc0, 0xff, 0xff, 0x09, 0x00, 0x00, 0x00, 0x04, 0x00, 0x00, 0x00, 0x03, 0x00, 0x00, 0x00, 0x95, 0x00, 0x00, 0x00, 0xa1, 0x00, 0x00, 0x00, 0xa1, 0x00, 0x00, 0x00, 0x34, 0xc1, 0xff, 0xff, 
0x00, 0x00, 0x00, 0x01, 0x04, 0x00, 0x00, 0x00, 0xf4, 0xc0, 0xff, 0xff, 0x0a, 0x00, 0x00, 0x00, 0x04, 0x00, 0x00, 0x00, 0x03, 0x00, 0x00, 0x00, 0x94, 0x00, 0x00, 0x00, 0xa0, 0x00, 0x00, 0x00, 
0xa0, 0x00, 0x00, 0x00, 0x5c, 0xc1, 0xff, 0xff, 0x00, 0x00, 0x00, 0x01, 0x04, 0x00, 0x00, 0x00, 0x1c, 0xc1, 0xff, 0xff, 0x09, 0x00, 0x00, 0x00, 0x04, 0x00, 0x00, 0x00, 0x03, 0x00, 0x00, 0x00, 
0x93, 0x00, 0x00, 0x00, 0x9f, 0x00, 0x00, 0x00, 0x9f, 0x00, 0x00, 0x00, 0x84, 0xc1, 0xff, 0xff, 0x00, 0x00, 0x00, 0x01, 0x04, 0x00, 0x00, 0x00, 0x44, 0xc1, 0xff, 0xff, 0x09, 0x00, 0x00, 0x00, 
0x04, 0x00, 0x00, 0x00, 0x03, 0x00, 0x00, 0x00, 0x92, 0x00, 0x00, 0x00, 0x9e, 0x00, 0x00, 0x00, 0x9e, 0x00, 0x00, 0x00, 0xac, 0xc1, 0xff, 0xff, 0x00, 0x00, 0x00, 0x01, 0x04, 0x00, 0x00, 0x00, 
0x6c, 0xc1, 0xff, 0xff, 0x08, 0x00, 0x00, 0x00, 0x04, 0x00, 0x00, 0x00, 0x05, 0x00, 0x00, 0x00, 0x90, 0x00, 0x00, 0x00, 0x9a, 0x00, 0x00, 0x00, 0x9b, 0x00, 0x00, 0x00, 0x9c, 0x00, 0x00, 0x00, 
0x9d, 0x00, 0x00, 0x00, 0xdc, 0xc1, 0xff, 0xff, 0x00, 0x00, 0x00, 0x01, 0x04, 0x00, 0x00, 0x00, 0x9c, 0xc1, 0xff, 0xff, 0x07, 0x00, 0x00, 0x00, 0x04, 0x00, 0x00, 0x00, 0x05, 0x00, 0x00, 0x00, 
0x8f, 0x00, 0x00, 0x00, 0x4c, 0x00, 0x00, 0x00, 0x91, 0x00, 0x00, 0x00, 0x90, 0x00, 0x00, 0x00, 0x90, 0x00, 0x00, 0x00, 0x0c, 0xc2, 0xff, 0xff, 0x00, 0x00, 0x00, 0x01, 0x04, 0x00, 0x00, 0x00, 
0xcc, 0xc1, 0xff, 0xff, 0x04, 0x00, 0x00, 0x00, 0x04, 0x00, 0x00, 0x00, 0x03, 0x00, 0x00, 0x00, 0x88, 0x00, 0x00, 0x00, 0x8e, 0x00, 0x00, 0x00, 0x8f, 0x00, 0x00, 0x00, 0x34, 0xc2, 0xff, 0xff, 
0x00, 0x00, 0x00, 0x01, 0x04, 0x00, 0x00, 0x00, 0xf4, 0xc1, 0xff, 0xff, 0x05, 0x00, 0x00, 0x00, 0x04, 0x00, 0x00, 0x00, 0x07, 0x00, 0x00, 0x00, 0x03, 0x00, 0x00, 0x00, 0x83, 0x00, 0x00, 0x00, 
0x84, 0x00, 0x00, 0x00, 0x89, 0x00, 0x00, 0x00, 0x8a, 0x00, 0x00, 0x00, 0x88, 0x00, 0x00, 0x00, 0x88, 0x00, 0x00, 0x00, 0x6c, 0xc2, 0xff, 0xff, 0x00, 0x00, 0x00, 0x01, 0x04, 0x00, 0x00, 0x00, 
0x2c, 0xc2, 0xff, 0xff, 0x02, 0x00, 0x00, 0x00, 0x04, 0x00, 0x00, 0x00, 0x04, 0x00, 0x00, 0x00, 0x01, 0x00, 0x00, 0x00, 0x87, 0x00, 0x00, 0x00, 0x84, 0x00, 0x00, 0x00, 0x84, 0x00, 0x00, 0x00, 
0x98, 0xc2, 0xff, 0xff, 0x00, 0x00, 0x00, 0x01, 0x04, 0x00, 0x00, 0x00, 0x58, 0xc2, 0xff, 0xff, 0x04, 0x00, 0x00, 0x00, 0x04, 0x00, 0x00, 0x00, 0x03, 0x00, 0x00, 0x00, 0x7f, 0x00, 0x00, 0x00, 
0x82, 0x00, 0x00, 0x00, 0x83, 0x00, 0x00, 0x00, 0xc0, 0xc2, 0xff, 0xff, 0x00, 0x00, 0x00, 0x01, 0x04, 0x00, 0x00, 0x00, 0x80, 0xc2, 0xff, 0xff, 0x0b, 0x00, 0x00, 0x00, 0x04, 0x00, 0x00, 0x00, 
0x04, 0x00, 0x00, 0x00, 0x79, 0x00, 0x00, 0x00, 0x7e, 0x00, 0x00, 0x00, 0x7f, 0x00, 0x00, 0x00, 0x7f, 0x00, 0x00, 0x00, 0xec, 0xc2, 0xff, 0xff, 0x00, 0x00, 0x00, 0x01, 0x04, 0x00, 0x00, 0x00, 
0xac, 0xc2, 0xff, 0xff, 0x0a, 0x00, 0x00, 0x00, 0x04, 0x00, 0x00, 0x00, 0x03, 0x00, 0x00, 0x00, 0x7c, 0x00, 0x00, 0x00, 0x7e, 0x00, 0x00, 0x00, 0x7e, 0x00, 0x00, 0x00, 0x14, 0xc3, 0xff, 0xff, 
0x00, 0x00, 0x00, 0x01, 0x04, 0x00, 0x00, 0x00, 0xd4, 0xc2, 0xff, 0xff, 0x07, 0x00, 0x00, 0x00, 0x04, 0x00, 0x00, 0x00, 0x05, 0x00, 0x00, 0x00, 0x7a, 0x00, 0x00, 0x00, 0x7b, 0x00, 0x00, 0x00, 
0x7d, 0x00, 0x00, 0x00, 0x7c, 0x00, 0x00, 0x00, 0x7c, 0x00, 0x00, 0x00, 0x44, 0xc3, 0xff, 0xff, 0x00, 0x00, 0x00, 0x01, 0x04, 0x00, 0x00, 0x00, 0x04, 0xc3, 0xff, 0xff, 0x0b, 0x00, 0x00, 0x00, 
0x04, 0x00, 0x00, 0x00, 0x04, 0x00, 0x00, 0x00, 0x76, 0x00, 0x00, 0x00, 0x78, 0x00, 0x00, 0x00, 0x7b, 0x00, 0x00, 0x00, 0x7b, 0x00, 0x00, 0x00, 0x70, 0xc3, 0xff, 0xff, 0x00, 0x00, 0x00, 0x01, 
0x04, 0x00, 0x00, 0x00, 0x30, 0xc3, 0xff, 0xff, 0x0b, 0x00, 0x00, 0x00, 0x04, 0x00, 0x00, 0x00, 0x04, 0x00, 0x00, 0x00, 0x77, 0x00, 0x00, 0x00, 0x1e, 0x00, 0x00, 0x00, 0x7a, 0x00, 0x00, 0x00, 
0x7a, 0x00, 0x00, 0x00, 0x9c, 0xc3, 0xff, 0xff, 0x00, 0x00, 0x00, 0x01, 0x04, 0x00, 0x00, 0x00, 0x5c, 0xc3, 0xff, 0xff, 0x09, 0x00, 0x00, 0x00, 0x04, 0x00, 0x00, 0x00, 0x03, 0x00, 0x00, 0x00, 
0x6d, 0x00, 0x00, 0x00, 0x79, 0x00, 0x00, 0x00, 0x79, 0x00, 0x00, 0x00, 0xc4, 0xc3, 0xff, 0xff, 0x00, 0x00, 0x00, 0x01, 0x04, 0x00, 0x00, 0x00, 0x84, 0xc3, 0xff, 0xff, 0x0a, 0x00, 0x00, 0x00, 
0x04, 0x00, 0x00, 0x00, 0x03, 0x00, 0x00, 0x00, 0x6c, 0x00, 0x00, 0x00, 0x78, 0x00, 0x00, 0x00, 0x78, 0x00, 0x00, 0x00, 0xec, 0xc3, 0xff, 0xff, 0x00, 0x00, 0x00, 0x01, 0x04, 0x00, 0x00, 0x00, 
0xac, 0xc3, 0xff, 0xff, 0x09, 0x00, 0x00, 0x00, 0x04, 0x00, 0x00, 0x00, 0x03, 0x00, 0x00, 0x00, 0x6b, 0x00, 0x00, 0x00, 0x77, 0x00, 0x00, 0x00, 0x77, 0x00, 0x00, 0x00, 0x14, 0xc4, 0xff, 0xff, 
0x00, 0x00, 0x00, 0x01, 0x04, 0x00, 0x00, 0x00, 0xd4, 0xc3, 0xff, 0xff, 0x09, 0x00, 0x00, 0x00, 0x04, 0x00, 0x00, 0x00, 0x03, 0x00, 0x00, 0x00, 0x6a, 0x00, 0x00, 0x00, 0x76, 0x00, 0x00, 0x00, 
0x76, 0x00, 0x00, 0x00, 0x3c, 0xc4, 0xff, 0xff, 0x00, 0x00, 0x00, 0x01, 0x04, 0x00, 0x00, 0x00, 0xfc, 0xc3, 0xff, 0xff, 0x08, 0x00, 0x00, 0x00, 0x04, 0x00, 0x00, 0x00, 0x05, 0x00, 0x00, 0x00, 
0x68, 0x00, 0x00, 0x00, 0x72, 0x00, 0x00, 0x00, 0x73, 0x00, 0x00, 0x00, 0x74, 0x00, 0x00, 0x00, 0x75, 0x00, 0x00, 0x00, 0x6c, 0xc4, 0xff, 0xff, 0x00, 0x00, 0x00, 0x01, 0x04, 0x00, 0x00, 0x00, 
0x2c, 0xc4, 0xff, 0xff, 0x07, 0x00, 0x00, 0x00, 0x04, 0x00, 0x00, 0x00, 0x05, 0x00, 0x00, 0x00, 0x67, 0x00, 0x00, 0x00, 0x49, 0x00, 0x00, 0x00, 0x69, 0x00, 0x00, 0x00, 0x68, 0x00, 0x00, 0x00, 
0x68, 0x00, 0x00, 0x00, 0x9c, 0xc4, 0xff, 0xff, 0x00, 0x00, 0x00, 0x01, 0x04, 0x00, 0x00, 0x00, 0x5c, 0xc4, 0xff, 0xff, 0x04, 0x00, 0x00, 0x00, 0x04, 0x00, 0x00, 0x00, 0x03, 0x00, 0x00, 0x00, 
0x60, 0x00, 0x00, 0x00, 0x66, 0x00, 0x00, 0x00, 0x67, 0x00, 0x00, 0x00, 0xc4, 0xc4, 0xff, 0xff, 0x00, 0x00, 0x00, 0x01, 0x04, 0x00, 0x00, 0x00, 0x84, 0xc4, 0xff, 0xff, 0x05, 0x00, 0x00, 0x00, 
0x04, 0x00, 0x00, 0x00, 0x07, 0x00, 0x00, 0x00, 0x03, 0x00, 0x00, 0x00, 0x5b, 0x00, 0x00, 0x00, 0x5c, 0x00, 0x00, 0x00, 0x61, 0x00, 0x00, 0x00, 0x62, 0x00, 0x00, 0x00, 0x60, 0x00, 0x00, 0x00, 
0x60, 0x00, 0x00, 0x00, 0xfc, 0xc4, 0xff, 0xff, 0x00, 0x00, 0x00, 0x01, 0x04, 0x00, 0x00, 0x00, 0xbc, 0xc4, 0xff, 0xff, 0x02, 0x00, 0x00, 0x00, 0x04, 0x00, 0x00, 0x00, 0x04, 0x00, 0x00, 0x00, 
0x01, 0x00, 0x00, 0x00, 0x5f, 0x00, 0x00, 0x00, 0x5c, 0x00, 0x00, 0x00, 0x5c, 0x00, 0x00, 0x00, 0x28, 0xc5, 0xff, 0xff, 0x00, 0x00, 0x00, 0x01, 0x04, 0x00, 0x00, 0x00, 0xe8, 0xc4, 0xff, 0xff, 
0x04, 0x00, 0x00, 0x00, 0x04, 0x00, 0x00, 0x00, 0x03, 0x00, 0x00, 0x00, 0x1c, 0x00, 0x00, 0x00, 0x5a, 0x00, 0x00, 0x00, 0x5b, 0x00, 0x00, 0x00, 0x50, 0xc5, 0xff, 0xff, 0x00, 0x00, 0x00, 0x01, 
0x04, 0x00, 0x00, 0x00, 0x10, 0xc5, 0xff, 0xff, 0x01, 0x00, 0x00, 0x00, 0x04, 0x00, 0x00, 0x00, 0x04, 0x00, 0x00, 0x00, 0x44, 0x00, 0x00, 0x00, 0x57, 0x00, 0x00, 0x00, 0x55, 0x00, 0x00, 0x00, 
0x55, 0x00, 0x00, 0x00, 0x7c, 0xc5, 0xff, 0xff, 0x00, 0x00, 0x00, 0x01, 0x04, 0x00, 0x00, 0x00, 0x3c, 0xc5, 0xff, 0xff, 0x01, 0x00, 0x00, 0x00, 0x04, 0x00, 0x00, 0x00, 0x04, 0x00, 0x00, 0x00, 
0x3f, 0x00, 0x00, 0x00, 0x54, 0x00, 0x00, 0x00, 0x52, 0x00, 0x00, 0x00, 0x52, 0x00, 0x00, 0x00, 0xa8, 0xc5, 0xff, 0xff, 0x00, 0x00, 0x00, 0x01, 0x04, 0x00, 0x00, 0x00, 0x68, 0xc5, 0xff, 0xff, 
0x01, 0x00, 0x00, 0x00, 0x04, 0x00, 0x00, 0x00, 0x04, 0x00, 0x00, 0x00, 0x3a, 0x00, 0x00, 0x00, 0x51, 0x00, 0x00, 0x00, 0x4f, 0x00, 0x00, 0x00, 0x4f, 0x00, 0x00, 0x00, 0xd4, 0xc5, 0xff, 0xff, 
0x00, 0x00, 0x00, 0x01, 0x04, 0x00, 0x00, 0x00, 0x94, 0xc5, 0xff, 0xff, 0x01, 0x00, 0x00, 0x00, 0x04, 0x00, 0x00, 0x00, 0x04, 0x00, 0x00, 0x00, 0x35, 0x00, 0x00, 0x00, 0x4e, 0x00, 0x00, 0x00, 
0x4c, 0x00, 0x00, 0x00, 0x4c, 0x00, 0x00, 0x00, 0x00, 0xc6, 0xff, 0xff, 0x00, 0x00, 0x00, 0x01, 0x04, 0x00, 0x00, 0x00, 0xc0, 0xc5, 0xff, 0xff, 0x01, 0x00, 0x00, 0x00, 0x04, 0x00, 0x00, 0x00, 
0x04, 0x00, 0x00, 0x00, 0x30, 0x00, 0x00, 0x00, 0x4b, 0x00, 0x00, 0x00, 0x49, 0x00, 0x00, 0x00, 0x49, 0x00, 0x00, 0x00, 0x2c, 0xc6, 0xff, 0xff, 0x00, 0x00, 0x00, 0x01, 0x04, 0x00, 0x00, 0x00, 
0xec, 0xc5, 0xff, 0xff, 0x06, 0x00, 0x00, 0x00, 0x04, 0x00, 0x00, 0x00, 0x07, 0x00, 0x00, 0x00, 0x2f, 0x00, 0x00, 0x00, 0x45, 0x00, 0x00, 0x00, 0x46, 0x00, 0x00, 0x00, 0x47, 0x00, 0x00, 0x00, 
0x48, 0x00, 0x00, 0x00, 0x44, 0x00, 0x00, 0x00, 0x44, 0x00, 0x00, 0x00, 0x64, 0xc6, 0xff, 0xff, 0x00, 0x00, 0x00, 0x01, 0x04, 0x00, 0x00, 0x00, 0x24, 0xc6, 0xff, 0xff, 0x06, 0x00, 0x00, 0x00, 
0x04, 0x00, 0x00, 0x00, 0x07, 0x00, 0x00, 0x00, 0x2f, 0x00, 0x00, 0x00, 0x40, 0x00, 0x00, 0x00, 0x41, 0x00, 0x00, 0x00, 0x42, 0x00, 0x00, 0x00, 0x43, 0x00, 0x00, 0x00, 0x3f, 0x00, 0x00, 0x00, 
0x3f, 0x00, 0x00, 0x00, 0x9c, 0xc6, 0xff, 0xff, 0x00, 0x00, 0x00, 0x01, 0x04, 0x00, 0x00, 0x00, 0x5c, 0xc6, 0xff, 0xff, 0x06, 0x00, 0x00, 0x00, 0x04, 0x00, 0x00, 0x00, 0x07, 0x00, 0x00, 0x00, 
0x2f, 0x00, 0x00, 0x00, 0x3b, 0x00, 0x00, 0x00, 0x3c, 0x00, 0x00, 0x00, 0x3d, 0x00, 0x00, 0x00, 0x3e, 0x00, 0x00, 0x00, 0x3a, 0x00, 0x00, 0x00, 0x3a, 0x00, 0x00, 0x00, 0xd4, 0xc6, 0xff, 0xff, 
0x00, 0x00, 0x00, 0x01, 0x04, 0x00, 0x00, 0x00, 0x94, 0xc6, 0xff, 0xff, 0x06, 0x00, 0x00, 0x00, 0x04, 0x00, 0x00, 0x00, 0x07, 0x00, 0x00, 0x00, 0x2f, 0x00, 0x00, 0x00, 0x36, 0x00, 0x00, 0x00, 
0x37, 0x00, 0x00, 0x00, 0x38, 0x00, 0x00, 0x00, 0x39, 0x00, 0x00, 0x00, 0x35, 0x00, 0x00, 0x00, 0x35, 0x00, 0x00, 0x00, 0x0c, 0xc7, 0xff, 0xff, 0x00, 0x00, 0x00, 0x01, 0x04, 0x00, 0x00, 0x00, 
0xcc, 0xc6, 0xff, 0xff, 0x06, 0x00, 0x00, 0x00, 0x04, 0x00, 0x00, 0x00, 0x07, 0x00, 0x00, 0x00, 0x2f, 0x00, 0x00, 0x00, 0x31, 0x00, 0x00, 0x00, 0x32, 0x00, 0x00, 0x00, 0x33, 0x00, 0x00, 0x00, 
0x34, 0x00, 0x00, 0x00, 0x30, 0x00, 0x00, 0x00, 0x30, 0x00, 0x00, 0x00, 0x44, 0xc7, 0xff, 0xff, 0x00, 0x00, 0x00, 0x01, 0x04, 0x00, 0x00, 0x00, 0x04, 0xc7, 0xff, 0xff, 0x04, 0x00, 0x00, 0x00, 
0x04, 0x00, 0x00, 0x00, 0x03, 0x00, 0x00, 0x00, 0x28, 0x00, 0x00, 0x00, 0x2e, 0x00, 0x00, 0x00, 0x2f, 0x00, 0x00, 0x00, 0x6c, 0xc7, 0xff, 0xff, 0x00, 0x00, 0x00, 0x01, 0x04, 0x00, 0x00, 0x00, 
0x2c, 0xc7, 0xff, 0xff, 0x05, 0x00, 0x00, 0x00, 0x04, 0x00, 0x00, 0x00, 0x07, 0x00, 0x00, 0x00, 0x02, 0x00, 0x00, 0x00, 0x23, 0x00, 0x00, 0x00, 0x24, 0x00, 0x00, 0x00, 0x29, 0x00, 0x00, 0x00, 
0x2a, 0x00, 0x00, 0x00, 0x28, 0x00, 0x00, 0x00, 0x28, 0x00, 0x00, 0x00, 0xa4, 0xc7, 0xff, 0xff, 0x00, 0x00, 0x00, 0x01, 0x04, 0x00, 0x00, 0x00, 0x64, 0xc7, 0xff, 0xff, 0x02, 0x00, 0x00, 0x00, 
0x04, 0x00, 0x00, 0x00, 0x04, 0x00, 0x00, 0x00, 0x00, 0x00, 0x00, 0x00, 0x27, 0x00, 0x00, 0x00, 0x24, 0x00, 0x00, 0x00, 0x24, 0x00, 0x00, 0x00, 0xd0, 0xc7, 0xff, 0xff, 0x00, 0x00, 0x00, 0x01, 
0x04, 0x00, 0x00, 0x00, 0x90, 0xc7, 0xff, 0xff, 0x04, 0x00, 0x00, 0x00, 0x04, 0x00, 0x00, 0x00, 0x03, 0x00, 0x00, 0x00, 0x17, 0x00, 0x00, 0x00, 0x22, 0x00, 0x00, 0x00, 0x23, 0x00, 0x00, 0x00, 
0xf8, 0xc7, 0xff, 0xff, 0x00, 0x00, 0x00, 0x01, 0x04, 0x00, 0x00, 0x00, 0xb8, 0xc7, 0xff, 0xff, 0x03, 0x00, 0x00, 0x00, 0x04, 0x00, 0x00, 0x00, 0x04, 0x00, 0x00, 0x00, 0x14, 0x00, 0x00, 0x00, 
0x1f, 0x00, 0x00, 0x00, 0x1e, 0x00, 0x00, 0x00, 0x1e, 0x00, 0x00, 0x00, 0x24, 0xc8, 0xff, 0xff, 0x00, 0x00, 0x00, 0x01, 0x04, 0x00, 0x00, 0x00, 0xe4, 0xc7, 0xff, 0xff, 0x03, 0x00, 0x00, 0x00, 
0x04, 0x00, 0x00, 0x00, 0x04, 0x00, 0x00, 0x00, 0x11, 0x00, 0x00, 0x00, 0x1d, 0x00, 0x00, 0x00, 0x1c, 0x00, 0x00, 0x00, 0x1c, 0x00, 0x00, 0x00, 0x50, 0xc8, 0xff, 0xff, 0x00, 0x00, 0x00, 0x01, 
0x04, 0x00, 0x00, 0x00, 0x10, 0xc8, 0xff, 0xff, 0x02, 0x00, 0x00, 0x00, 0x04, 0x00, 0x00, 0x00, 0x04, 0x00, 0x00, 0x00, 0x04, 0x00, 0x00, 0x00, 0x1b, 0x00, 0x00, 0x00, 0x17, 0x00, 0x00, 0x00, 
0x17, 0x00, 0x00, 0x00, 0x7c, 0xc8, 0xff, 0xff, 0x00, 0x00, 0x00, 0x01, 0x04, 0x00, 0x00, 0x00, 0x3c, 0xc8, 0xff, 0xff, 0x01, 0x00, 0x00, 0x00, 0x04, 0x00, 0x00, 0x00, 0x04, 0x00, 0x00, 0x00, 
0x0b, 0x00, 0x00, 0x00, 0x16, 0x00, 0x00, 0x00, 0x14, 0x00, 0x00, 0x00, 0x14, 0x00, 0x00, 0x00, 0xa8, 0xc8, 0xff, 0xff, 0x00, 0x00, 0x00, 0x01, 0x04, 0x00, 0x00, 0x00, 0x68, 0xc8, 0xff, 0xff, 
0x01, 0x00, 0x00, 0x00, 0x04, 0x00, 0x00, 0x00, 0x04, 0x00, 0x00, 0x00, 0x05, 0x00, 0x00, 0x00, 0x13, 0x00, 0x00, 0x00, 0x11, 0x00, 0x00, 0x00, 0x11, 0x00, 0x00, 0x00, 0xd4, 0xc8, 0xff, 0xff, 
0x00, 0x00, 0x00, 0x01, 0x04, 0x00, 0x00, 0x00, 0xd8, 0xff, 0xff, 0xff, 0x04, 0x00, 0x00, 0x00, 0x04, 0x00, 0x00, 0x00, 0x0f, 0x00, 0x00, 0x00, 0x10, 0x00, 0x00, 0x00, 0x0b, 0x00, 0x00, 0x00, 
0x0b, 0x00, 0x00, 0x00, 0xfc, 0xc8, 0xff, 0xff, 0x00, 0x00, 0x00, 0x01, 0x0c, 0x00, 0x00, 0x00, 0x08, 0x00, 0x08, 0x00, 0x00, 0x00, 0x04, 0x00, 0x08, 0x00, 0x00, 0x00, 0x04, 0x00, 0x00, 0x00, 
0x04, 0x00, 0x00, 0x00, 0x09, 0x00, 0x00, 0x00, 0x0a, 0x00, 0x00, 0x00, 0x05, 0x00, 0x00, 0x00, 0x05, 0x00, 0x00, 0x00, 0x00, 0x00, 0x00, 0x00, 0x00, 0x00, 0x00, 0x00, 0x01, 0x00, 0x00, 0x00, 
0x23, 0x01, 0x00, 0x00, 0x01, 0x00, 0x00, 0x00, 0x04, 0x00, 0x00, 0x00, 0x28, 0x01, 0x00, 0x00, 0xc0, 0x36, 0x00, 0x00, 0x80, 0x36, 0x00, 0x00, 0x4c, 0x36, 0x00, 0x00, 0x18, 0x36, 0x00, 0x00, 
0xb8, 0x35, 0x00, 0x00, 0x54, 0x35, 0x00, 0x00, 0x30, 0x35, 0x00, 0x00, 0x14, 0x35, 0x00, 0x00, 0xf8, 0x34, 0x00, 0x00, 0xc4, 0x34, 0x00, 0x00, 0xac, 0x34, 0x00, 0x00, 0x64, 0x34, 0x00, 0x00, 
0x48, 0x34, 0x00, 0x00, 0x2c, 0x34, 0x00, 0x00, 0x10, 0x34, 0x00, 0x00, 0xdc, 0x33, 0x00, 0x00, 0xc8, 0x33, 0x00, 0x00, 0x84, 0x33, 0x00, 0x00, 0x70, 0x33, 0x00, 0x00, 0x4c, 0x33, 0x00, 0x00, 
0x08, 0x33, 0x00, 0x00, 0xf4, 0x32, 0x00, 0x00, 0xd0, 0x32, 0x00, 0x00, 0x88, 0x32, 0x00, 0x00, 0x60, 0x32, 0x00, 0x00, 0x4c, 0x32, 0x00, 0x00, 0x30, 0x32, 0x00, 0x00, 0xfc, 0x31, 0x00, 0x00, 
0xb8, 0x31, 0x00, 0x00, 0xa4, 0x31, 0x00, 0x00, 0x5c, 0x31, 0x00, 0x00, 0x48, 0x31, 0x00, 0x00, 0x28, 0x31, 0x00, 0x00, 0x0c, 0x31, 0x00, 0x00, 0xe0, 0x30, 0x00, 0x00, 0x9c, 0x30, 0x00, 0x00, 
0x44, 0x30, 0x00, 0x00, 0x24, 0x30, 0x00, 0x00, 0x10, 0x30, 0x00, 0x00, 0xe4, 0x2f, 0x00, 0x00, 0xa0, 0x2f, 0x00, 0x00, 0x84, 0x2f, 0x00, 0x00, 0x68, 0x2f, 0x00, 0x00, 0x4c, 0x2f, 0x00, 0x00, 
0x30, 0x2f, 0x00, 0x00, 0x14, 0x2f, 0x00, 0x00, 0xe0, 0x2e, 0x00, 0x00, 0x98, 0x2e, 0x00, 0x00, 0x50, 0x2e, 0x00, 0x00, 0x3c, 0x2e, 0x00, 0x00, 0x28, 0x2e, 0x00, 0x00, 0x0c, 0x2e, 0x00, 0x00, 
0xf0, 0x2d, 0x00, 0x00, 0xa8, 0x2d, 0x00, 0x00, 0x94, 0x2d, 0x00, 0x00, 0x74, 0x2d, 0x00, 0x00, 0x58, 0x2d, 0x00, 0x00, 0x3c, 0x2d, 0x00, 0x00, 0xf4, 0x2c, 0x00, 0x00, 0xe0, 0x2c, 0x00, 0x00, 
0xc0, 0x2c, 0x00, 0x00, 0xa4, 0x2c, 0x00, 0x00, 0x88, 0x2c, 0x00, 0x00, 0x40, 0x2c, 0x00, 0x00, 0x2c, 0x2c, 0x00, 0x00, 0x0c, 0x2c, 0x00, 0x00, 0xf0, 0x2b, 0x00, 0x00, 0xd4, 0x2b, 0x00, 0x00, 
0x8c, 0x2b, 0x00, 0x00, 0x78, 0x2b, 0x00, 0x00, 0x58, 0x2b, 0x00, 0x00, 0x3c, 0x2b, 0x00, 0x00, 0x20, 0x2b, 0x00, 0x00, 0xdc, 0x2a, 0x00, 0x00, 0xc8, 0x2a, 0x00, 0x00, 0xa4, 0x2a, 0x00, 0x00, 
0x60, 0x2a, 0x00, 0x00, 0x4c, 0x2a, 0x00, 0x00, 0x28, 0x2a, 0x00, 0x00, 0xe4, 0x29, 0x00, 0x00, 0xd0, 0x29, 0x00, 0x00, 0xac, 0x29, 0x00, 0x00, 0x68, 0x29, 0x00, 0x00, 0x54, 0x29, 0x00, 0x00, 
0x30, 0x29, 0x00, 0x00, 0xec, 0x28, 0x00, 0x00, 0xd8, 0x28, 0x00, 0x00, 0xb4, 0x28, 0x00, 0x00, 0x98, 0x28, 0x00, 0x00, 0x7c, 0x28, 0x00, 0x00, 0x50, 0x28, 0x00, 0x00, 0x10, 0x28, 0x00, 0x00, 
0xcc, 0x27, 0x00, 0x00, 0xac, 0x27, 0x00, 0x00, 0x98, 0x27, 0x00, 0x00, 0x6c, 0x27, 0x00, 0x00, 0x28, 0x27, 0x00, 0x00, 0x0c, 0x27, 0x00, 0x00, 0xf0, 0x26, 0x00, 0x00, 0xd4, 0x26, 0x00, 0x00, 
0xb8, 0x26, 0x00, 0x00, 0x9c, 0x26, 0x00, 0x00, 0x68, 0x26, 0x00, 0x00, 0x20, 0x26, 0x00, 0x00, 0xdc, 0x25, 0x00, 0x00, 0xbc, 0x25, 0x00, 0x00, 0x74, 0x25, 0x00, 0x00, 0x2c, 0x25, 0x00, 0x00, 
0xe4, 0x24, 0x00, 0x00, 0x9c, 0x24, 0x00, 0x00, 0x80, 0x24, 0x00, 0x00, 0x64, 0x24, 0x00, 0x00, 0x48, 0x24, 0x00, 0x00, 0x2c, 0x24, 0x00, 0x00, 0xf0, 0x23, 0x00, 0x00, 0xd4, 0x23, 0x00, 0x00, 
0xa8, 0x23, 0x00, 0x00, 0x7c, 0x23, 0x00, 0x00, 0x38, 0x23, 0x00, 0x00, 0xf0, 0x22, 0x00, 0x00, 0xa8, 0x22, 0x00, 0x00, 0x60, 0x22, 0x00, 0x00, 0x18, 0x22, 0x00, 0x00, 0xd0, 0x21, 0x00, 0x00, 
0x88, 0x21, 0x00, 0x00, 0x6c, 0x21, 0x00, 0x00, 0x24, 0x21, 0x00, 0x00, 0xdc, 0x20, 0x00, 0x00, 0xc0, 0x20, 0x00, 0x00, 0xa4, 0x20, 0x00, 0x00, 0x78, 0x20, 0x00, 0x00, 0x34, 0x20, 0x00, 0x00, 
0xf0, 0x1f, 0x00, 0x00, 0xd4, 0x1f, 0x00, 0x00, 0xc0, 0x1f, 0x00, 0x00, 0x94, 0x1f, 0x00, 0x00, 0x50, 0x1f, 0x00, 0x00, 0x34, 0x1f, 0x00, 0x00, 0x18, 0x1f, 0x00, 0x00, 0xfc, 0x1e, 0x00, 0x00, 
0xe0, 0x1e, 0x00, 0x00, 0xc4, 0x1e, 0x00, 0x00, 0x90, 0x1e, 0x00, 0x00, 0x48, 0x1e, 0x00, 0x00, 0x00, 0x1e, 0x00, 0x00, 0xe4, 0x1d, 0x00, 0x00, 0x9c, 0x1d, 0x00, 0x00, 0x54, 0x1d, 0x00, 0x00, 
0x0c, 0x1d, 0x00, 0x00, 0xc4, 0x1c, 0x00, 0x00, 0xa8, 0x1c, 0x00, 0x00, 0x8c, 0x1c, 0x00, 0x00, 0x70, 0x1c, 0x00, 0x00, 0x54, 0x1c, 0x00, 0x00, 0x18, 0x1c, 0x00, 0x00, 0xfc, 0x1b, 0x00, 0x00, 
0xd0, 0x1b, 0x00, 0x00, 0xa4, 0x1b, 0x00, 0x00, 0x5c, 0x1b, 0x00, 0x00, 0x14, 0x1b, 0x00, 0x00, 0xcc, 0x1a, 0x00, 0x00, 0x84, 0x1a, 0x00, 0x00, 0x3c, 0x1a, 0x00, 0x00, 0xf4, 0x19, 0x00, 0x00, 
0xac, 0x19, 0x00, 0x00, 0x8c, 0x19, 0x00, 0x00, 0x44, 0x19, 0x00, 0x00, 0xfc, 0x18, 0x00, 0x00, 0xe0, 0x18, 0x00, 0x00, 0xc4, 0x18, 0x00, 0x00, 0x98, 0x18, 0x00, 0x00, 0x54, 0x18, 0x00, 0x00, 
0x14, 0x18, 0x00, 0x00, 0xf4, 0x17, 0x00, 0x00, 0xe0, 0x17, 0x00, 0x00, 0xb4, 0x17, 0x00, 0x00, 0x70, 0x17, 0x00, 0x00, 0x54, 0x17, 0x00, 0x00, 0x38, 0x17, 0x00, 0x00, 0x1c, 0x17, 0x00, 0x00, 
0x00, 0x17, 0x00, 0x00, 0xe4, 0x16, 0x00, 0x00, 0xb0, 0x16, 0x00, 0x00, 0x68, 0x16, 0x00, 0x00, 0x20, 0x16, 0x00, 0x00, 0x04, 0x16, 0x00, 0x00, 0xbc, 0x15, 0x00, 0x00, 0x74, 0x15, 0x00, 0x00, 
0x2c, 0x15, 0x00, 0x00, 0xe4, 0x14, 0x00, 0x00, 0xc8, 0x14, 0x00, 0x00, 0xac, 0x14, 0x00, 0x00, 0x90, 0x14, 0x00, 0x00, 0x74, 0x14, 0x00, 0x00, 0x38, 0x14, 0x00, 0x00, 0x1c, 0x14, 0x00, 0x00, 
0xf0, 0x13, 0x00, 0x00, 0xc4, 0x13, 0x00, 0x00, 0x7c, 0x13, 0x00, 0x00, 0x34, 0x13, 0x00, 0x00, 0xec, 0x12, 0x00, 0x00, 0xa4, 0x12, 0x00, 0x00, 0x5c, 0x12, 0x00, 0x00, 0x14, 0x12, 0x00, 0x00, 
0xcc, 0x11, 0x00, 0x00, 0xac, 0x11, 0x00, 0x00, 0x64, 0x11, 0x00, 0x00, 0x1c, 0x11, 0x00, 0x00, 0x00, 0x11, 0x00, 0x00, 0xe4, 0x10, 0x00, 0x00, 0xb8, 0x10, 0x00, 0x00, 0x74, 0x10, 0x00, 0x00, 
0x30, 0x10, 0x00, 0x00, 0x14, 0x10, 0x00, 0x00, 0x00, 0x10, 0x00, 0x00, 0xd4, 0x0f, 0x00, 0x00, 0x90, 0x0f, 0x00, 0x00, 0x74, 0x0f, 0x00, 0x00, 0x58, 0x0f, 0x00, 0x00, 0x3c, 0x0f, 0x00, 0x00, 
0x20, 0x0f, 0x00, 0x00, 0x04, 0x0f, 0x00, 0x00, 0xd0, 0x0e, 0x00, 0x00, 0x88, 0x0e, 0x00, 0x00, 0x40, 0x0e, 0x00, 0x00, 0x24, 0x0e, 0x00, 0x00, 0xdc, 0x0d, 0x00, 0x00, 0x94, 0x0d, 0x00, 0x00, 
0x4c, 0x0d, 0x00, 0x00, 0x04, 0x0d, 0x00, 0x00, 0xe8, 0x0c, 0x00, 0x00, 0xcc, 0x0c, 0x00, 0x00, 0xb0, 0x0c, 0x00, 0x00, 0x94, 0x0c, 0x00, 0x00, 0x58, 0x0c, 0x00, 0x00, 0x3c, 0x0c, 0x00, 0x00, 
0x10, 0x0c, 0x00, 0x00, 0xe4, 0x0b, 0x00, 0x00, 0x9c, 0x0b, 0x00, 0x00, 0x54, 0x0b, 0x00, 0x00, 0x0c, 0x0b, 0x00, 0x00, 0xc4, 0x0a, 0x00, 0x00, 0x7c, 0x0a, 0x00, 0x00, 0x34, 0x0a, 0x00, 0x00, 
0xec, 0x09, 0x00, 0x00, 0xcc, 0x09, 0x00, 0x00, 0x84, 0x09, 0x00, 0x00, 0x3c, 0x09, 0x00, 0x00, 0x20, 0x09, 0x00, 0x00, 0x04, 0x09, 0x00, 0x00, 0xd8, 0x08, 0x00, 0x00, 0x94, 0x08, 0x00, 0x00, 
0x54, 0x08, 0x00, 0x00, 0x34, 0x08, 0x00, 0x00, 0x20, 0x08, 0x00, 0x00, 0xf4, 0x07, 0x00, 0x00, 0xb0, 0x07, 0x00, 0x00, 0x94, 0x07, 0x00, 0x00, 0x78, 0x07, 0x00, 0x00, 0x5c, 0x07, 0x00, 0x00, 
0x40, 0x07, 0x00, 0x00, 0x24, 0x07, 0x00, 0x00, 0xf0, 0x06, 0x00, 0x00, 0xa8, 0x06, 0x00, 0x00, 0x60, 0x06, 0x00, 0x00, 0x44, 0x06, 0x00, 0x00, 0xfc, 0x05, 0x00, 0x00, 0xb4, 0x05, 0x00, 0x00, 
0x6c, 0x05, 0x00, 0x00, 0x24, 0x05, 0x00, 0x00, 0x08, 0x05, 0x00, 0x00, 0xec, 0x04, 0x00, 0x00, 0xd0, 0x04, 0x00, 0x00, 0xb4, 0x04, 0x00, 0x00, 0x78, 0x04, 0x00, 0x00, 0x5c, 0x04, 0x00, 0x00, 
0x30, 0x04, 0x00, 0x00, 0x04, 0x04, 0x00, 0x00, 0xbc, 0x03, 0x00, 0x00, 0x74, 0x03, 0x00, 0x00, 0x2c, 0x03, 0x00, 0x00, 0xe4, 0x02, 0x00, 0x00, 0x9c, 0x02, 0x00, 0x00, 0x54, 0x02, 0x00, 0x00, 
0x0c, 0x02, 0x00, 0x00, 0xec, 0x01, 0x00, 0x00, 0xa4, 0x01, 0x00, 0x00, 0x5c, 0x01, 0x00, 0x00, 0x14, 0x01, 0x00, 0x00, 0xe4, 0x00, 0x00, 0x00, 0xd0, 0x00, 0x00, 0x00, 0x88, 0x00, 0x00, 0x00, 
0x68, 0x00, 0x00, 0x00, 0x54, 0x00, 0x00, 0x00, 0x38, 0x00, 0x00, 0x00, 0x04, 0x00, 0x00, 0x00, 0xe8, 0xcd, 0xff, 0xff, 0x00, 0x00, 0x00, 0x07, 0x04, 0x00, 0x00, 0x00, 0xae, 0xce, 0xff, 0xff, 
0x04, 0x00, 0x00, 0x00, 0x03, 0x00, 0x00, 0x00, 0x24, 0x01, 0x00, 0x00, 0x00, 0x00, 0x00, 0x00, 0x25, 0x01, 0x00, 0x00, 0x00, 0x00, 0x00, 0x00, 0x26, 0x01, 0x00, 0x00, 0x00, 0x00, 0x00, 0x00, 
0x18, 0xce, 0xff, 0xff, 0x00, 0x00, 0x00, 0x02, 0x04, 0x00, 0x00, 0x00, 0x86, 0xcf, 0xff, 0xff, 0x02, 0x00, 0x00, 0x00, 0x00, 0x00, 0x00, 0x00, 0x30, 0xce, 0xff, 0xff, 0x00, 0x00, 0x00, 0x02, 
0x04, 0x00, 0x00, 0x00, 0x14, 0xd0, 0xff, 0xff, 0x40, 0xce, 0xff, 0xff, 0x00, 0x00, 0x00, 0x02, 0x04, 0x00, 0x00, 0x00, 0x36, 0xd2, 0xff, 0xff, 0x01, 0x00, 0x00, 0x00, 0x00, 0x00, 0x00, 0x00, 
0x00, 0x00, 0x00, 0x00, 0x5c, 0xce, 0xff, 0xff, 0x00, 0x00, 0x00, 0x05, 0x04, 0x00, 0x00, 0x00, 0x3e, 0xd4, 0xff, 0xff, 0x00, 0x00, 0x06, 0x01, 0x20, 0x00, 0x00, 0x00, 0x14, 0x00, 0x00, 0x00, 
0x04, 0x00, 0x00, 0x00, 0x30, 0xce, 0xff, 0xff, 0x01, 0x00, 0x00, 0x00, 0xe0, 0x02, 0x00, 0x00, 0x03, 0x00, 0x00, 0x00, 0x00, 0x01, 0x02, 0x00, 0x03, 0x00, 0x00, 0x00, 0x01, 0x00, 0x00, 0x00, 
0x05, 0x00, 0x00, 0x00, 0x03, 0x00, 0x00, 0x00, 0xa0, 0xce, 0xff, 0xff, 0x00, 0x00, 0x00, 0x02, 0x04, 0x00, 0x00, 0x00, 0x84, 0xd0, 0xff, 0xff, 0xb0, 0xce, 0xff, 0xff, 0x00, 0x00, 0x00, 0x0a, 
0x04, 0x00, 0x00, 0x00, 0x76, 0xcf, 0xff, 0xff, 0x04, 0x00, 0x00, 0x00, 0x05, 0x00, 0x00, 0x00, 0x7f, 0x00, 0x00, 0x00, 0xa7, 0x00, 0x00, 0x00, 0xcf, 0x00, 0x00, 0x00, 0xf7, 0x00, 0x00, 0x00, 
0x1f, 0x01, 0x00, 0x00, 0xdc, 0xce, 0xff, 0xff, 0x00, 0x00, 0x00, 0x05, 0x04, 0x00, 0x00, 0x00, 0xbe, 0xd4, 0xff, 0xff, 0x00, 0x00, 0x06, 0x01, 0x20, 0x00, 0x00, 0x00, 0x14, 0x00, 0x00, 0x00, 
0x04, 0x00, 0x00, 0x00, 0xb0, 0xce, 0xff, 0xff, 0x01, 0x00, 0x00, 0x00, 0x20, 0x01, 0x00, 0x00, 0x03, 0x00, 0x00, 0x00, 0x00, 0x01, 0x02, 0x00, 0x03, 0x00, 0x00, 0x00, 0x05, 0x00, 0x00, 0x00, 
0x01, 0x00, 0x00, 0x00, 0x03, 0x00, 0x00, 0x00, 0x20, 0xcf, 0xff, 0xff, 0x00, 0x00, 0x00, 0x05, 0x04, 0x00, 0x00, 0x00, 0x02, 0xd5, 0xff, 0xff, 0x00, 0x00, 0x06, 0x01, 0x20, 0x00, 0x00, 0x00, 
0x14, 0x00, 0x00, 0x00, 0x04, 0x00, 0x00, 0x00, 0xf4, 0xce, 0xff, 0xff, 0x01, 0x00, 0x00, 0x00, 0x00, 0x05, 0x00, 0x00, 0x03, 0x00, 0x00, 0x00, 0x00, 0x01, 0x02, 0x00, 0x03, 0x00, 0x00, 0x00, 
0x01, 0x00, 0x00, 0x00, 0x01, 0x00, 0x00, 0x00, 0x03, 0x00, 0x00, 0x00, 0x64, 0xcf, 0xff, 0xff, 0x00, 0x00, 0x00, 0x05, 0x04, 0x00, 0x00, 0x00, 0x46, 0xd5, 0xff, 0xff, 0x00, 0x00, 0x06, 0x01, 
0x20, 0x00, 0x00, 0x00, 0x14, 0x00, 0x00, 0x00, 0x04, 0x00, 0x00, 0x00, 0x38, 0xcf, 0xff, 0xff, 0x01, 0x00, 0x00, 0x00, 0xf0, 0x04, 0x00, 0x00, 0x03, 0x00, 0x00, 0x00, 0x00, 0x01, 0x02, 0x00, 
0x03, 0x00, 0x00, 0x00, 0x01, 0x00, 0x00, 0x00, 0x01, 0x00, 0x00, 0x00, 0x03, 0x00, 0x00, 0x00, 0xa8, 0xcf, 0xff, 0xff, 0x00, 0x00, 0x00, 0x02, 0x04, 0x00, 0x00, 0x00, 0x9e, 0xd3, 0xff, 0xff, 
0x01, 0x00, 0x00, 0x00, 0x00, 0x00, 0x00, 0x00, 0x00, 0x00, 0x00, 0x00, 0xc4, 0xcf, 0xff, 0xff, 0x00, 0x00, 0x00, 0x05, 0x04, 0x00, 0x00, 0x00, 0xa6, 0xd5, 0xff, 0xff, 0x00, 0x00, 0x06, 0x01, 
0x20, 0x00, 0x00, 0x00, 0x14, 0x00, 0x00, 0x00, 0x04, 0x00, 0x00, 0x00, 0x98, 0xcf, 0xff, 0xff, 0x01, 0x00, 0x00, 0x00, 0x00, 0x05, 0x00, 0x00, 0x03, 0x00, 0x00, 0x00, 0x00, 0x01, 0x02, 0x00, 
0x03, 0x00, 0x00, 0x00, 0x01, 0x00, 0x00, 0x00, 0x01, 0x00, 0x00, 0x00, 0x03, 0x00, 0x00, 0x00, 0x08, 0xd0, 0xff, 0xff, 0x00, 0x00, 0x00, 0x05, 0x04, 0x00, 0x00, 0x00, 0xea, 0xd5, 0xff, 0xff, 
0x00, 0x00, 0x06, 0x01, 0x20, 0x00, 0x00, 0x00, 0x14, 0x00, 0x00, 0x00, 0x04, 0x00, 0x00, 0x00, 0xdc, 0xcf, 0xff, 0xff, 0x01, 0x00, 0x00, 0x00, 0xf0, 0x04, 0x00, 0x00, 0x03, 0x00, 0x00, 0x00, 
0x00, 0x01, 0x02, 0x00, 0x03, 0x00, 0x00, 0x00, 0x01, 0x00, 0x00, 0x00, 0x01, 0x00, 0x00, 0x00, 0x03, 0x00, 0x00, 0x00, 0x4c, 0xd0, 0xff, 0xff, 0x00, 0x00, 0x00, 0x05, 0x04, 0x00, 0x00, 0x00, 
0x2e, 0xd6, 0xff, 0xff, 0x00, 0x00, 0x06, 0x01, 0x20, 0x00, 0x00, 0x00, 0x14, 0x00, 0x00, 0x00, 0x04, 0x00, 0x00, 0x00, 0x20, 0xd0, 0xff, 0xff, 0x01, 0x00, 0x00, 0x00, 0x30, 0x05, 0x00, 0x00, 
0x03, 0x00, 0x00, 0x00, 0x00, 0x01, 0x02, 0x00, 0x03, 0x00, 0x00, 0x00, 0x01, 0x00, 0x00, 0x00, 0x01, 0x00, 0x00, 0x00, 0x03, 0x00, 0x00, 0x00, 0x90, 0xd0, 0xff, 0xff, 0x00, 0x00, 0x00, 0x05, 
0x04, 0x00, 0x00, 0x00, 0x72, 0xd6, 0xff, 0xff, 0x00, 0x00, 0x06, 0x01, 0x20, 0x00, 0x00, 0x00, 0x14, 0x00, 0x00, 0x00, 0x04, 0x00, 0x00, 0x00, 0x64, 0xd0, 0xff, 0xff, 0x01, 0x00, 0x00, 0x00, 
0x20, 0x05, 0x00, 0x00, 0x03, 0x00, 0x00, 0x00, 0x00, 0x01, 0x02, 0x00, 0x03, 0x00, 0x00, 0x00, 0x01, 0x00, 0x00, 0x00, 0x01, 0x00, 0x00, 0x00, 0x03, 0x00, 0x00, 0x00, 0xd4, 0xd0, 0xff, 0xff, 
0x00, 0x00, 0x00, 0x05, 0x04, 0x00, 0x00, 0x00, 0xb6, 0xd6, 0xff, 0xff, 0x00, 0x00, 0x06, 0x01, 0x20, 0x00, 0x00, 0x00, 0x14, 0x00, 0x00, 0x00, 0x04, 0x00, 0x00, 0x00, 0xa8, 0xd0, 0xff, 0xff, 
0x01, 0x00, 0x00, 0x00, 0x00, 0x05, 0x00, 0x00, 0x03, 0x00, 0x00, 0x00, 0x00, 0x01, 0x02, 0x00, 0x03, 0x00, 0x00, 0x00, 0x01, 0x00, 0x00, 0x00, 0x01, 0x00, 0x00, 0x00, 0x03, 0x00, 0x00, 0x00, 
0x18, 0xd1, 0xff, 0xff, 0x00, 0x00, 0x00, 0x05, 0x04, 0x00, 0x00, 0x00, 0xfa, 0xd6, 0xff, 0xff, 0x00, 0x00, 0x06, 0x01, 0x20, 0x00, 0x00, 0x00, 0x14, 0x00, 0x00, 0x00, 0x04, 0x00, 0x00, 0x00, 
0xec, 0xd0, 0xff, 0xff, 0x01, 0x00, 0x00, 0x00, 0xf0, 0x04, 0x00, 0x00, 0x03, 0x00, 0x00, 0x00, 0x00, 0x01, 0x02, 0x00, 0x03, 0x00, 0x00, 0x00, 0x01, 0x00, 0x00, 0x00, 0x01, 0x00, 0x00, 0x00, 
0x03, 0x00, 0x00, 0x00, 0x5c, 0xd1, 0xff, 0xff, 0x00, 0x00, 0x00, 0x05, 0x04, 0x00, 0x00, 0x00, 0x3e, 0xd7, 0xff, 0xff, 0x00, 0x00, 0x06, 0x01, 0x20, 0x00, 0x00, 0x00, 0x14, 0x00, 0x00, 0x00, 
0x04, 0x00, 0x00, 0x00, 0x30, 0xd1, 0xff, 0xff, 0x01, 0x00, 0x00, 0x00, 0xc0, 0x04, 0x00, 0x00, 0x03, 0x00, 0x00, 0x00, 0x00, 0x01, 0x02, 0x00, 0x03, 0x00, 0x00, 0x00, 0x01, 0x00, 0x00, 0x00, 
0x01, 0x00, 0x00, 0x00, 0x03, 0x00, 0x00, 0x00, 0xa0, 0xd1, 0xff, 0xff, 0x00, 0x00, 0x00, 0x0a, 0x04, 0x00, 0x00, 0x00, 0x66, 0xd2, 0xff, 0xff, 0x04, 0x00, 0x00, 0x00, 0x04, 0x00, 0x00, 0x00, 
0x0a, 0x01, 0x00, 0x00, 0x0b, 0x01, 0x00, 0x00, 0x0c, 0x01, 0x00, 0x00, 0x0d, 0x01, 0x00, 0x00, 0xc8, 0xd1, 0xff, 0xff, 0x00, 0x00, 0x00, 0x0a, 0x04, 0x00, 0x00, 0x00, 0x8e, 0xd2, 0xff, 0xff, 
0x04, 0x00, 0x00, 0x00, 0x04, 0x00, 0x00, 0x00, 0x0a, 0x01, 0x00, 0x00, 0x0b, 0x01, 0x00, 0x00, 0x0c, 0x01, 0x00, 0x00, 0x0d, 0x01, 0x00, 0x00, 0xf0, 0xd1, 0xff, 0xff, 0x00, 0x00, 0x00, 0x02, 
0x04, 0x00, 0x00, 0x00, 0x5e, 0xd3, 0xff, 0xff, 0x02, 0x00, 0x00, 0x00, 0x00, 0x00, 0x00, 0x00, 0x08, 0xd2, 0xff, 0xff, 0x00, 0x00, 0x00, 0x07, 0x04, 0x00, 0x00, 0x00, 0xce, 0xd2, 0xff, 0xff, 
0x04, 0x00, 0x00, 0x00, 0x04, 0x00, 0x00, 0x00, 0x0e, 0x01, 0x00, 0x00, 0x00, 0x00, 0x00, 0x00, 0x0f, 0x01, 0x00, 0x00, 0x00, 0x00, 0x00, 0x00, 0x10, 0x01, 0x00, 0x00, 0x00, 0x00, 0x00, 0x00, 
0x11, 0x01, 0x00, 0x00, 0x00, 0x00, 0x00, 0x00, 0x40, 0xd2, 0xff, 0xff, 0x00, 0x00, 0x00, 0x02, 0x04, 0x00, 0x00, 0x00, 0xae, 0xd3, 0xff, 0xff, 0x03, 0x00, 0x00, 0x00, 0x00, 0x00, 0x00, 0x00, 
0x58, 0xd2, 0xff, 0xff, 0x00, 0x00, 0x00, 0x02, 0x04, 0x00, 0x00, 0x00, 0xc6, 0xd3, 0xff, 0xff, 0x03, 0x00, 0x00, 0x00, 0x00, 0x00, 0x00, 0x00, 0x70, 0xd2, 0xff, 0xff, 0x00, 0x00, 0x00, 0x02, 
0x04, 0x00, 0x00, 0x00, 0xde, 0xd3, 0xff, 0xff, 0x03, 0x00, 0x00, 0x00, 0x00, 0x00, 0x00, 0x00, 0x88, 0xd2, 0xff, 0xff, 0x00, 0x00, 0x00, 0x02, 0x04, 0x00, 0x00, 0x00, 0xf6, 0xd3, 0xff, 0xff, 
0x03, 0x00, 0x00, 0x00, 0x00, 0x00, 0x00, 0x00, 0xa0, 0xd2, 0xff, 0xff, 0x00, 0x00, 0x00, 0x05, 0x04, 0x00, 0x00, 0x00, 0x82, 0xd8, 0xff, 0xff, 0x00, 0x00, 0x06, 0x01, 0x20, 0x00, 0x00, 0x00, 
0x14, 0x00, 0x00, 0x00, 0x04, 0x00, 0x00, 0x00, 0x74, 0xd2, 0xff, 0xff, 0x01, 0x00, 0x00, 0x00, 0x30, 0x05, 0x00, 0x00, 0x03, 0x00, 0x00, 0x00, 0x00, 0x01, 0x02, 0x00, 0x03, 0x00, 0x00, 0x00, 
0x01, 0x00, 0x00, 0x00, 0x01, 0x00, 0x00, 0x00, 0x03, 0x00, 0x00, 0x00, 0xe4, 0xd2, 0xff, 0xff, 0x00, 0x00, 0x00, 0x05, 0x04, 0x00, 0x00, 0x00, 0xc6, 0xd8, 0xff, 0xff, 0x00, 0x00, 0x06, 0x01, 
0x20, 0x00, 0x00, 0x00, 0x14, 0x00, 0x00, 0x00, 0x04, 0x00, 0x00, 0x00, 0xb8, 0xd2, 0xff, 0xff, 0x01, 0x00, 0x00, 0x00, 0x20, 0x05, 0x00, 0x00, 0x03, 0x00, 0x00, 0x00, 0x00, 0x01, 0x02, 0x00, 
0x03, 0x00, 0x00, 0x00, 0x01, 0x00, 0x00, 0x00, 0x01, 0x00, 0x00, 0x00, 0x03, 0x00, 0x00, 0x00, 0x28, 0xd3, 0xff, 0xff, 0x00, 0x00, 0x00, 0x05, 0x04, 0x00, 0x00, 0x00, 0x0a, 0xd9, 0xff, 0xff, 
0x00, 0x00, 0x06, 0x01, 0x20, 0x00, 0x00, 0x00, 0x14, 0x00, 0x00, 0x00, 0x04, 0x00, 0x00, 0x00, 0xfc, 0xd2, 0xff, 0xff, 0x01, 0x00, 0x00, 0x00, 0x00, 0x05, 0x00, 0x00, 0x03, 0x00, 0x00, 0x00, 
0x00, 0x01, 0x02, 0x00, 0x03, 0x00, 0x00, 0x00, 0x01, 0x00, 0x00, 0x00, 0x01, 0x00, 0x00, 0x00, 0x03, 0x00, 0x00, 0x00, 0x6c, 0xd3, 0xff, 0xff, 0x00, 0x00, 0x00, 0x05, 0x04, 0x00, 0x00, 0x00, 
0x4e, 0xd9, 0xff, 0xff, 0x00, 0x00, 0x06, 0x01, 0x20, 0x00, 0x00, 0x00, 0x14, 0x00, 0x00, 0x00, 0x04, 0x00, 0x00, 0x00, 0x40, 0xd3, 0xff, 0xff, 0x01, 0x00, 0x00, 0x00, 0xf0, 0x04, 0x00, 0x00, 
0x03, 0x00, 0x00, 0x00, 0x00, 0x01, 0x02, 0x00, 0x03, 0x00, 0x00, 0x00, 0x01, 0x00, 0x00, 0x00, 0x01, 0x00, 0x00, 0x00, 0x03, 0x00, 0x00, 0x00, 0xb0, 0xd3, 0xff, 0xff, 0x00, 0x00, 0x00, 0x02, 
0x04, 0x00, 0x00, 0x00, 0x1e, 0xd5, 0xff, 0xff, 0x01, 0x00, 0x00, 0x00, 0x00, 0x00, 0x00, 0x00, 0xc8, 0xd3, 0xff, 0xff, 0x00, 0x00, 0x00, 0x05, 0x04, 0x00, 0x00, 0x00, 0xaa, 0xd9, 0xff, 0xff, 
0x00, 0x00, 0x06, 0x01, 0x20, 0x00, 0x00, 0x00, 0x14, 0x00, 0x00, 0x00, 0x04, 0x00, 0x00, 0x00, 0x9c, 0xd3, 0xff, 0xff, 0x01, 0x00, 0x00, 0x00, 0xc0, 0x04, 0x00, 0x00, 0x03, 0x00, 0x00, 0x00, 
0x00, 0x01, 0x02, 0x00, 0x03, 0x00, 0x00, 0x00, 0x01, 0x00, 0x00, 0x00, 0x01, 0x00, 0x00, 0x00, 0x0c, 0x00, 0x00, 0x00, 0x0c, 0xd4, 0xff, 0xff, 0x00, 0x00, 0x00, 0x05, 0x04, 0x00, 0x00, 0x00, 
0xee, 0xd9, 0xff, 0xff, 0x00, 0x00, 0x06, 0x01, 0x20, 0x00, 0x00, 0x00, 0x14, 0x00, 0x00, 0x00, 0x04, 0x00, 0x00, 0x00, 0xe0, 0xd3, 0xff, 0xff, 0x01, 0x00, 0x00, 0x00, 0x20, 0x01, 0x00, 0x00, 
0x03, 0x00, 0x00, 0x00, 0x00, 0x01, 0x02, 0x00, 0x03, 0x00, 0x00, 0x00, 0x01, 0x00, 0x00, 0x00, 0x01, 0x00, 0x00, 0x00, 0x0c, 0x00, 0x00, 0x00, 0x50, 0xd4, 0xff, 0xff, 0x00, 0x00, 0x00, 0x07, 
0x04, 0x00, 0x00, 0x00, 0x16, 0xd5, 0xff, 0xff, 0x04, 0x00, 0x00, 0x00, 0x03, 0x00, 0x00, 0x00, 0x03, 0x01, 0x00, 0x00, 0x00, 0x00, 0x00, 0x00, 0x04, 0x01, 0x00, 0x00, 0x00, 0x00, 0x00, 0x00, 
0x05, 0x01, 0x00, 0x00, 0x00, 0x00, 0x00, 0x00, 0x80, 0xd4, 0xff, 0xff, 0x00, 0x00, 0x00, 0x02, 0x04, 0x00, 0x00, 0x00, 0xee, 0xd5, 0xff, 0xff, 0x0c, 0x00, 0x00, 0x00, 0x00, 0x00, 0x00, 0x00, 
0x98, 0xd4, 0xff, 0xff, 0x00, 0x00, 0x00, 0x02, 0x04, 0x00, 0x00, 0x00, 0x06, 0xd6, 0xff, 0xff, 0x01, 0x00, 0x00, 0x00, 0x00, 0x00, 0x00, 0x00, 0xb0, 0xd4, 0xff, 0xff, 0x00, 0x00, 0x00, 0x02, 
0x04, 0x00, 0x00, 0x00, 0x1e, 0xd6, 0xff, 0xff, 0x01, 0x00, 0x00, 0x00, 0x00, 0x00, 0x00, 0x00, 0xc8, 0xd4, 0xff, 0xff, 0x00, 0x00, 0x00, 0x02, 0x04, 0x00, 0x00, 0x00, 0x36, 0xd6, 0xff, 0xff, 
0x01, 0x00, 0x00, 0x00, 0x00, 0x00, 0x00, 0x00, 0xe0, 0xd4, 0xff, 0xff, 0x00, 0x00, 0x00, 0x02, 0x04, 0x00, 0x00, 0x00, 0x4e, 0xd6, 0xff, 0xff, 0x01, 0x00, 0x00, 0x00, 0x00, 0x00, 0x00, 0x00, 
0xf8, 0xd4, 0xff, 0xff, 0x00, 0x00, 0x00, 0x05, 0x04, 0x00, 0x00, 0x00, 0xda, 0xda, 0xff, 0xff, 0x00, 0x00, 0x06, 0x01, 0x20, 0x00, 0x00, 0x00, 0x14, 0x00, 0x00, 0x00, 0x04, 0x00, 0x00, 0x00, 
0xcc, 0xd4, 0xff, 0xff, 0x01, 0x00, 0x00, 0x00, 0x20, 0x01, 0x00, 0x00, 0x02, 0x00, 0x00, 0x00, 0x00, 0x01, 0x00, 0x00, 0x02, 0x00, 0x00, 0x00, 0x01, 0x00, 0x00, 0x00, 0x0c, 0x00, 0x00, 0x00, 
0x38, 0xd5, 0xff, 0xff, 0x00, 0x00, 0x00, 0x07, 0x04, 0x00, 0x00, 0x00, 0xfe, 0xd5, 0xff, 0xff, 0x04, 0x00, 0x00, 0x00, 0x02, 0x00, 0x00, 0x00, 0xfd, 0x00, 0x00, 0x00, 0x00, 0x00, 0x00, 0x00, 
0xfe, 0x00, 0x00, 0x00, 0x00, 0x00, 0x00, 0x00, 0x60, 0xd5, 0xff, 0xff, 0x00, 0x00, 0x00, 0x02, 0x04, 0x00, 0x00, 0x00, 0x44, 0xd7, 0xff, 0xff, 0x70, 0xd5, 0xff, 0xff, 0x00, 0x00, 0x00, 0x02, 
0x04, 0x00, 0x00, 0x00, 0x66, 0xd9, 0xff, 0xff, 0x01, 0x00, 0x00, 0x00, 0x00, 0x00, 0x00, 0x00, 0x00, 0x00, 0x00, 0x00, 0x8c, 0xd5, 0xff, 0xff, 0x00, 0x00, 0x00, 0x05, 0x04, 0x00, 0x00, 0x00, 
0x6e, 0xdb, 0xff, 0xff, 0x00, 0x00, 0x06, 0x01, 0x1c, 0x00, 0x00, 0x00, 0x10, 0x00, 0x00, 0x00, 0x04, 0x00, 0x00, 0x00, 0x66, 0xd6, 0xff, 0xff, 0x01, 0x00, 0x00, 0x00, 0x02, 0x00, 0x00, 0x00, 
0x00, 0x01, 0x00, 0x00, 0x02, 0x00, 0x00, 0x00, 0x03, 0x00, 0x00, 0x00, 0x0c, 0x00, 0x00, 0x00, 0xc8, 0xd5, 0xff, 0xff, 0x00, 0x00, 0x00, 0x05, 0x04, 0x00, 0x00, 0x00, 0xaa, 0xdb, 0xff, 0xff, 
0x00, 0x00, 0x06, 0x01, 0x20, 0x00, 0x00, 0x00, 0x14, 0x00, 0x00, 0x00, 0x04, 0x00, 0x00, 0x00, 0x9c, 0xd5, 0xff, 0xff, 0x01, 0x00, 0x00, 0x00, 0x10, 0x05, 0x00, 0x00, 0x02, 0x00, 0x00, 0x00, 
0x00, 0x01, 0x00, 0x00, 0x02, 0x00, 0x00, 0x00, 0x01, 0x00, 0x00, 0x00, 0x03, 0x00, 0x00, 0x00, 0x08, 0xd6, 0xff, 0xff, 0x00, 0x00, 0x00, 0x07, 0x04, 0x00, 0x00, 0x00, 0xce, 0xd6, 0xff, 0xff, 
0x04, 0x00, 0x00, 0x00, 0x02, 0x00, 0x00, 0x00, 0xf8, 0x00, 0x00, 0x00, 0x00, 0x00, 0x00, 0x00, 0xf9, 0x00, 0x00, 0x00, 0x00, 0x00, 0x00, 0x00, 0x30, 0xd6, 0xff, 0xff, 0x00, 0x00, 0x00, 0x02, 
0x04, 0x00, 0x00, 0x00, 0x9e, 0xd7, 0xff, 0xff, 0x03, 0x00, 0x00, 0x00, 0x00, 0x00, 0x00, 0x00, 0x48, 0xd6, 0xff, 0xff, 0x00, 0x00, 0x00, 0x02, 0x04, 0x00, 0x00, 0x00, 0xb6, 0xd7, 0xff, 0xff, 
0x01, 0x00, 0x00, 0x00, 0x00, 0x00, 0x00, 0x00, 0x60, 0xd6, 0xff, 0xff, 0x00, 0x00, 0x00, 0x05, 0x04, 0x00, 0x00, 0x00, 0x42, 0xdc, 0xff, 0xff, 0x00, 0x00, 0x06, 0x01, 0x20, 0x00, 0x00, 0x00, 
0x14, 0x00, 0x00, 0x00, 0x04, 0x00, 0x00, 0x00, 0x34, 0xd6, 0xff, 0xff, 0x01, 0x00, 0x00, 0x00, 0x10, 0x05, 0x00, 0x00, 0x03, 0x00, 0x00, 0x00, 0x00, 0x01, 0x02, 0x00, 0x03, 0x00, 0x00, 0x00, 
0x01, 0x00, 0x00, 0x00, 0x01, 0x00, 0x00, 0x00, 0x03, 0x00, 0x00, 0x00, 0xa4, 0xd6, 0xff, 0xff, 0x00, 0x00, 0x00, 0x05, 0x04, 0x00, 0x00, 0x00, 0x86, 0xdc, 0xff, 0xff, 0x00, 0x00, 0x06, 0x01, 
0x20, 0x00, 0x00, 0x00, 0x14, 0x00, 0x00, 0x00, 0x04, 0x00, 0x00, 0x00, 0x78, 0xd6, 0xff, 0xff, 0x01, 0x00, 0x00, 0x00, 0xf0, 0x04, 0x00, 0x00, 0x03, 0x00, 0x00, 0x00, 0x00, 0x01, 0x02, 0x00, 
0x03, 0x00, 0x00, 0x00, 0x01, 0x00, 0x00, 0x00, 0x01, 0x00, 0x00, 0x00, 0x03, 0x00, 0x00, 0x00, 0xe8, 0xd6, 0xff, 0xff, 0x00, 0x00, 0x00, 0x02, 0x04, 0x00, 0x00, 0x00, 0xde, 0xda, 0xff, 0xff, 
0x01, 0x00, 0x00, 0x00, 0x00, 0x00, 0x00, 0x00, 0x00, 0x00, 0x00, 0x00, 0x04, 0xd7, 0xff, 0xff, 0x00, 0x00, 0x00, 0x05, 0x04, 0x00, 0x00, 0x00, 0xe6, 0xdc, 0xff, 0xff, 0x00, 0x00, 0x06, 0x01, 
0x20, 0x00, 0x00, 0x00, 0x14, 0x00, 0x00, 0x00, 0x04, 0x00, 0x00, 0x00, 0xd8, 0xd6, 0xff, 0xff, 0x01, 0x00, 0x00, 0x00, 0xe0, 0x02, 0x00, 0x00, 0x03, 0x00, 0x00, 0x00, 0x00, 0x01, 0x02, 0x00, 
0x03, 0x00, 0x00, 0x00, 0x01, 0x00, 0x00, 0x00, 0x01, 0x00, 0x00, 0x00, 0x03, 0x00, 0x00, 0x00, 0x48, 0xd7, 0xff, 0xff, 0x00, 0x00, 0x00, 0x05, 0x04, 0x00, 0x00, 0x00, 0x2a, 0xdd, 0xff, 0xff, 
0x00, 0x00, 0x06, 0x01, 0x20, 0x00, 0x00, 0x00, 0x14, 0x00, 0x00, 0x00, 0x04, 0x00, 0x00, 0x00, 0x1c, 0xd7, 0xff, 0xff, 0x01, 0x00, 0x00, 0x00, 0xf0, 0x04, 0x00, 0x00, 0x03, 0x00, 0x00, 0x00, 
0x00, 0x01, 0x02, 0x00, 0x03, 0x00, 0x00, 0x00, 0x01, 0x00, 0x00, 0x00, 0x01, 0x00, 0x00, 0x00, 0x03, 0x00, 0x00, 0x00, 0x8c, 0xd7, 0xff, 0xff, 0x00, 0x00, 0x00, 0x05, 0x04, 0x00, 0x00, 0x00, 
0x6e, 0xdd, 0xff, 0xff, 0x00, 0x00, 0x06, 0x01, 0x20, 0x00, 0x00, 0x00, 0x14, 0x00, 0x00, 0x00, 0x04, 0x00, 0x00, 0x00, 0x60, 0xd7, 0xff, 0xff, 0x01, 0x00, 0x00, 0x00, 0x10, 0x05, 0x00, 0x00, 
0x03, 0x00, 0x00, 0x00, 0x00, 0x01, 0x02, 0x00, 0x03, 0x00, 0x00, 0x00, 0x01, 0x00, 0x00, 0x00, 0x01, 0x00, 0x00, 0x00, 0x03, 0x00, 0x00, 0x00, 0xd0, 0xd7, 0xff, 0xff, 0x00, 0x00, 0x00, 0x05, 
0x04, 0x00, 0x00, 0x00, 0xb2, 0xdd, 0xff, 0xff, 0x00, 0x00, 0x06, 0x01, 0x20, 0x00, 0x00, 0x00, 0x14, 0x00, 0x00, 0x00, 0x04, 0x00, 0x00, 0x00, 0xa4, 0xd7, 0xff, 0xff, 0x01, 0x00, 0x00, 0x00, 
0x00, 0x05, 0x00, 0x00, 0x03, 0x00, 0x00, 0x00, 0x00, 0x01, 0x02, 0x00, 0x03, 0x00, 0x00, 0x00, 0x01, 0x00, 0x00, 0x00, 0x01, 0x00, 0x00, 0x00, 0x03, 0x00, 0x00, 0x00, 0x14, 0xd8, 0xff, 0xff, 
0x00, 0x00, 0x00, 0x05, 0x04, 0x00, 0x00, 0x00, 0xf6, 0xdd, 0xff, 0xff, 0x00, 0x00, 0x06, 0x01, 0x20, 0x00, 0x00, 0x00, 0x14, 0x00, 0x00, 0x00, 0x04, 0x00, 0x00, 0x00, 0xe8, 0xd7, 0xff, 0xff, 
0x01, 0x00, 0x00, 0x00, 0x80, 0x04, 0x00, 0x00, 0x03, 0x00, 0x00, 0x00, 0x00, 0x01, 0x02, 0x00, 0x03, 0x00, 0x00, 0x00, 0x01, 0x00, 0x00, 0x00, 0x01, 0x00, 0x00, 0x00, 0x03, 0x00, 0x00, 0x00, 
0x58, 0xd8, 0xff, 0xff, 0x00, 0x00, 0x00, 0x05, 0x04, 0x00, 0x00, 0x00, 0x3a, 0xde, 0xff, 0xff, 0x00, 0x00, 0x06, 0x01, 0x20, 0x00, 0x00, 0x00, 0x14, 0x00, 0x00, 0x00, 0x04, 0x00, 0x00, 0x00, 
0x2c, 0xd8, 0xff, 0xff, 0x01, 0x00, 0x00, 0x00, 0xf0, 0x04, 0x00, 0x00, 0x03, 0x00, 0x00, 0x00, 0x00, 0x01, 0x02, 0x00, 0x03, 0x00, 0x00, 0x00, 0x01, 0x00, 0x00, 0x00, 0x01, 0x00, 0x00, 0x00, 
0x03, 0x00, 0x00, 0x00, 0x9c, 0xd8, 0xff, 0xff, 0x00, 0x00, 0x00, 0x05, 0x04, 0x00, 0x00, 0x00, 0x7e, 0xde, 0xff, 0xff, 0x00, 0x00, 0x06, 0x01, 0x20, 0x00, 0x00, 0x00, 0x14, 0x00, 0x00, 0x00, 
0x04, 0x00, 0x00, 0x00, 0x70, 0xd8, 0xff, 0xff, 0x01, 0x00, 0x00, 0x00, 0xc0, 0x04, 0x00, 0x00, 0x03, 0x00, 0x00, 0x00, 0x00, 0x01, 0x02, 0x00, 0x03, 0x00, 0x00, 0x00, 0x01, 0x00, 0x00, 0x00, 
0x01, 0x00, 0x00, 0x00, 0x03, 0x00, 0x00, 0x00, 0xe0, 0xd8, 0xff, 0xff, 0x00, 0x00, 0x00, 0x0a, 0x04, 0x00, 0x00, 0x00, 0xa6, 0xd9, 0xff, 0xff, 0x04, 0x00, 0x00, 0x00, 0x04, 0x00, 0x00, 0x00, 
0xe2, 0x00, 0x00, 0x00, 0xe3, 0x00, 0x00, 0x00, 0xe4, 0x00, 0x00, 0x00, 0xe5, 0x00, 0x00, 0x00, 0x08, 0xd9, 0xff, 0xff, 0x00, 0x00, 0x00, 0x0a, 0x04, 0x00, 0x00, 0x00, 0xce, 0xd9, 0xff, 0xff, 
0x04, 0x00, 0x00, 0x00, 0x04, 0x00, 0x00, 0x00, 0xe2, 0x00, 0x00, 0x00, 0xe3, 0x00, 0x00, 0x00, 0xe4, 0x00, 0x00, 0x00, 0xe5, 0x00, 0x00, 0x00, 0x30, 0xd9, 0xff, 0xff, 0x00, 0x00, 0x00, 0x02, 
0x04, 0x00, 0x00, 0x00, 0x9e, 0xda, 0xff, 0xff, 0x02, 0x00, 0x00, 0x00, 0x00, 0x00, 0x00, 0x00, 0x48, 0xd9, 0xff, 0xff, 0x00, 0x00, 0x00, 0x07, 0x04, 0x00, 0x00, 0x00, 0x0e, 0xda, 0xff, 0xff, 
0x04, 0x00, 0x00, 0x00, 0x04, 0x00, 0x00, 0x00, 0xe6, 0x00, 0x00, 0x00, 0x00, 0x00, 0x00, 0x00, 0xe7, 0x00, 0x00, 0x00, 0x00, 0x00, 0x00, 0x00, 0xe8, 0x00, 0x00, 0x00, 0x00, 0x00, 0x00, 0x00, 
0xe9, 0x00, 0x00, 0x00, 0x00, 0x00, 0x00, 0x00, 0x80, 0xd9, 0xff, 0xff, 0x00, 0x00, 0x00, 0x02, 0x04, 0x00, 0x00, 0x00, 0xee, 0xda, 0xff, 0xff, 0x03, 0x00, 0x00, 0x00, 0x00, 0x00, 0x00, 0x00, 
0x98, 0xd9, 0xff, 0xff, 0x00, 0x00, 0x00, 0x02, 0x04, 0x00, 0x00, 0x00, 0x06, 0xdb, 0xff, 0xff, 0x03, 0x00, 0x00, 0x00, 0x00, 0x00, 0x00, 0x00, 0xb0, 0xd9, 0xff, 0xff, 0x00, 0x00, 0x00, 0x02, 
0x04, 0x00, 0x00, 0x00, 0x1e, 0xdb, 0xff, 0xff, 0x03, 0x00, 0x00, 0x00, 0x00, 0x00, 0x00, 0x00, 0xc8, 0xd9, 0xff, 0xff, 0x00, 0x00, 0x00, 0x02, 0x04, 0x00, 0x00, 0x00, 0x36, 0xdb, 0xff, 0xff, 
0x03, 0x00, 0x00, 0x00, 0x00, 0x00, 0x00, 0x00, 0xe0, 0xd9, 0xff, 0xff, 0x00, 0x00, 0x00, 0x05, 0x04, 0x00, 0x00, 0x00, 0xc2, 0xdf, 0xff, 0xff, 0x00, 0x00, 0x06, 0x01, 0x20, 0x00, 0x00, 0x00, 
0x14, 0x00, 0x00, 0x00, 0x04, 0x00, 0x00, 0x00, 0xb4, 0xd9, 0xff, 0xff, 0x01, 0x00, 0x00, 0x00, 0x10, 0x05, 0x00, 0x00, 0x03, 0x00, 0x00, 0x00, 0x00, 0x01, 0x02, 0x00, 0x03, 0x00, 0x00, 0x00, 
0x01, 0x00, 0x00, 0x00, 0x01, 0x00, 0x00, 0x00, 0x03, 0x00, 0x00, 0x00, 0x24, 0xda, 0xff, 0xff, 0x00, 0x00, 0x00, 0x05, 0x04, 0x00, 0x00, 0x00, 0x06, 0xe0, 0xff, 0xff, 0x00, 0x00, 0x06, 0x01, 
0x20, 0x00, 0x00, 0x00, 0x14, 0x00, 0x00, 0x00, 0x04, 0x00, 0x00, 0x00, 0xf8, 0xd9, 0xff, 0xff, 0x01, 0x00, 0x00, 0x00, 0x00, 0x05, 0x00, 0x00, 0x03, 0x00, 0x00, 0x00, 0x00, 0x01, 0x02, 0x00, 
0x03, 0x00, 0x00, 0x00, 0x01, 0x00, 0x00, 0x00, 0x01, 0x00, 0x00, 0x00, 0x03, 0x00, 0x00, 0x00, 0x68, 0xda, 0xff, 0xff, 0x00, 0x00, 0x00, 0x05, 0x04, 0x00, 0x00, 0x00, 0x4a, 0xe0, 0xff, 0xff, 
0x00, 0x00, 0x06, 0x01, 0x20, 0x00, 0x00, 0x00, 0x14, 0x00, 0x00, 0x00, 0x04, 0x00, 0x00, 0x00, 0x3c, 0xda, 0xff, 0xff, 0x01, 0x00, 0x00, 0x00, 0x80, 0x04, 0x00, 0x00, 0x03, 0x00, 0x00, 0x00, 
0x00, 0x01, 0x02, 0x00, 0x03, 0x00, 0x00, 0x00, 0x01, 0x00, 0x00, 0x00, 0x01, 0x00, 0x00, 0x00, 0x03, 0x00, 0x00, 0x00, 0xac, 0xda, 0xff, 0xff, 0x00, 0x00, 0x00, 0x05, 0x04, 0x00, 0x00, 0x00, 
0x8e, 0xe0, 0xff, 0xff, 0x00, 0x00, 0x06, 0x01, 0x20, 0x00, 0x00, 0x00, 0x14, 0x00, 0x00, 0x00, 0x04, 0x00, 0x00, 0x00, 0x80, 0xda, 0xff, 0xff, 0x01, 0x00, 0x00, 0x00, 0xf0, 0x04, 0x00, 0x00, 
0x03, 0x00, 0x00, 0x00, 0x00, 0x01, 0x02, 0x00, 0x03, 0x00, 0x00, 0x00, 0x01, 0x00, 0x00, 0x00, 0x01, 0x00, 0x00, 0x00, 0x03, 0x00, 0x00, 0x00, 0xf0, 0xda, 0xff, 0xff, 0x00, 0x00, 0x00, 0x02, 
0x04, 0x00, 0x00, 0x00, 0x5e, 0xdc, 0xff, 0xff, 0x01, 0x00, 0x00, 0x00, 0x00, 0x00, 0x00, 0x00, 0x08, 0xdb, 0xff, 0xff, 0x00, 0x00, 0x00, 0x05, 0x04, 0x00, 0x00, 0x00, 0xea, 0xe0, 0xff, 0xff, 
0x00, 0x00, 0x06, 0x01, 0x20, 0x00, 0x00, 0x00, 0x14, 0x00, 0x00, 0x00, 0x04, 0x00, 0x00, 0x00, 0xdc, 0xda, 0xff, 0xff, 0x01, 0x00, 0x00, 0x00, 0xc0, 0x04, 0x00, 0x00, 0x03, 0x00, 0x00, 0x00, 
0x00, 0x01, 0x02, 0x00, 0x03, 0x00, 0x00, 0x00, 0x01, 0x00, 0x00, 0x00, 0x01, 0x00, 0x00, 0x00, 0x0c, 0x00, 0x00, 0x00, 0x4c, 0xdb, 0xff, 0xff, 0x00, 0x00, 0x00, 0x05, 0x04, 0x00, 0x00, 0x00, 
0x2e, 0xe1, 0xff, 0xff, 0x00, 0x00, 0x06, 0x01, 0x20, 0x00, 0x00, 0x00, 0x14, 0x00, 0x00, 0x00, 0x04, 0x00, 0x00, 0x00, 0x20, 0xdb, 0xff, 0xff, 0x01, 0x00, 0x00, 0x00, 0x80, 0x04, 0x00, 0x00, 
0x03, 0x00, 0x00, 0x00, 0x00, 0x01, 0x02, 0x00, 0x03, 0x00, 0x00, 0x00, 0x01, 0x00, 0x00, 0x00, 0x01, 0x00, 0x00, 0x00, 0x0c, 0x00, 0x00, 0x00, 0x90, 0xdb, 0xff, 0xff, 0x00, 0x00, 0x00, 0x07, 
0x04, 0x00, 0x00, 0x00, 0x56, 0xdc, 0xff, 0xff, 0x04, 0x00, 0x00, 0x00, 0x03, 0x00, 0x00, 0x00, 0xdb, 0x00, 0x00, 0x00, 0x00, 0x00, 0x00, 0x00, 0xdc, 0x00, 0x00, 0x00, 0x00, 0x00, 0x00, 0x00, 
0xdd, 0x00, 0x00, 0x00, 0x00, 0x00, 0x00, 0x00, 0xc0, 0xdb, 0xff, 0xff, 0x00, 0x00, 0x00, 0x02, 0x04, 0x00, 0x00, 0x00, 0x2e, 0xdd, 0xff, 0xff, 0x0c, 0x00, 0x00, 0x00, 0x00, 0x00, 0x00, 0x00, 
0xd8, 0xdb, 0xff, 0xff, 0x00, 0x00, 0x00, 0x02, 0x04, 0x00, 0x00, 0x00, 0x46, 0xdd, 0xff, 0xff, 0x01, 0x00, 0x00, 0x00, 0x00, 0x00, 0x00, 0x00, 0xf0, 0xdb, 0xff, 0xff, 0x00, 0x00, 0x00, 0x02, 
0x04, 0x00, 0x00, 0x00, 0x5e, 0xdd, 0xff, 0xff, 0x01, 0x00, 0x00, 0x00, 0x00, 0x00, 0x00, 0x00, 0x08, 0xdc, 0xff, 0xff, 0x00, 0x00, 0x00, 0x02, 0x04, 0x00, 0x00, 0x00, 0x76, 0xdd, 0xff, 0xff, 
0x01, 0x00, 0x00, 0x00, 0x00, 0x00, 0x00, 0x00, 0x20, 0xdc, 0xff, 0xff, 0x00, 0x00, 0x00, 0x02, 0x04, 0x00, 0x00, 0x00, 0x8e, 0xdd, 0xff, 0xff, 0x01, 0x00, 0x00, 0x00, 0x00, 0x00, 0x00, 0x00, 
0x38, 0xdc, 0xff, 0xff, 0x00, 0x00, 0x00, 0x05, 0x04, 0x00, 0x00, 0x00, 0x1a, 0xe2, 0xff, 0xff, 0x00, 0x00, 0x06, 0x01, 0x20, 0x00, 0x00, 0x00, 0x14, 0x00, 0x00, 0x00, 0x04, 0x00, 0x00, 0x00, 
0x0c, 0xdc, 0xff, 0xff, 0x01, 0x00, 0x00, 0x00, 0x80, 0x04, 0x00, 0x00, 0x02, 0x00, 0x00, 0x00, 0x00, 0x01, 0x00, 0x00, 0x02, 0x00, 0x00, 0x00, 0x01, 0x00, 0x00, 0x00, 0x0c, 0x00, 0x00, 0x00, 
0x78, 0xdc, 0xff, 0xff, 0x00, 0x00, 0x00, 0x07, 0x04, 0x00, 0x00, 0x00, 0x3e, 0xdd, 0xff, 0xff, 0x04, 0x00, 0x00, 0x00, 0x02, 0x00, 0x00, 0x00, 0xd5, 0x00, 0x00, 0x00, 0x00, 0x00, 0x00, 0x00, 
0xd6, 0x00, 0x00, 0x00, 0x00, 0x00, 0x00, 0x00, 0xa0, 0xdc, 0xff, 0xff, 0x00, 0x00, 0x00, 0x02, 0x04, 0x00, 0x00, 0x00, 0x84, 0xde, 0xff, 0xff, 0xb0, 0xdc, 0xff, 0xff, 0x00, 0x00, 0x00, 0x02, 
0x04, 0x00, 0x00, 0x00, 0x1e, 0xde, 0xff, 0xff, 0x01, 0x00, 0x00, 0x00, 0x00, 0x00, 0x00, 0x00, 0xc8, 0xdc, 0xff, 0xff, 0x00, 0x00, 0x00, 0x05, 0x04, 0x00, 0x00, 0x00, 0xaa, 0xe2, 0xff, 0xff, 
0x00, 0x00, 0x06, 0x01, 0x20, 0x00, 0x00, 0x00, 0x14, 0x00, 0x00, 0x00, 0x04, 0x00, 0x00, 0x00, 0x9c, 0xdc, 0xff, 0xff, 0x01, 0x00, 0x00, 0x00, 0x90, 0x00, 0x00, 0x00, 0x02, 0x00, 0x00, 0x00, 
0x00, 0x01, 0x00, 0x00, 0x02, 0x00, 0x00, 0x00, 0x03, 0x00, 0x00, 0x00, 0x0c, 0x00, 0x00, 0x00, 0x08, 0xdd, 0xff, 0xff, 0x00, 0x00, 0x00, 0x05, 0x04, 0x00, 0x00, 0x00, 0xea, 0xe2, 0xff, 0xff, 
0x00, 0x00, 0x06, 0x01, 0x20, 0x00, 0x00, 0x00, 0x14, 0x00, 0x00, 0x00, 0x04, 0x00, 0x00, 0x00, 0xdc, 0xdc, 0xff, 0xff, 0x01, 0x00, 0x00, 0x00, 0x10, 0x04, 0x00, 0x00, 0x02, 0x00, 0x00, 0x00, 
0x00, 0x01, 0x00, 0x00, 0x02, 0x00, 0x00, 0x00, 0x01, 0x00, 0x00, 0x00, 0x03, 0x00, 0x00, 0x00, 0x48, 0xdd, 0xff, 0xff, 0x00, 0x00, 0x00, 0x07, 0x04, 0x00, 0x00, 0x00, 0x0e, 0xde, 0xff, 0xff, 
0x04, 0x00, 0x00, 0x00, 0x02, 0x00, 0x00, 0x00, 0xd0, 0x00, 0x00, 0x00, 0x00, 0x00, 0x00, 0x00, 0xd1, 0x00, 0x00, 0x00, 0x00, 0x00, 0x00, 0x00, 0x70, 0xdd, 0xff, 0xff, 0x00, 0x00, 0x00, 0x02, 
0x04, 0x00, 0x00, 0x00, 0xde, 0xde, 0xff, 0xff, 0x03, 0x00, 0x00, 0x00, 0x00, 0x00, 0x00, 0x00, 0x88, 0xdd, 0xff, 0xff, 0x00, 0x00, 0x00, 0x02, 0x04, 0x00, 0x00, 0x00, 0xf6, 0xde, 0xff, 0xff, 
0x01, 0x00, 0x00, 0x00, 0x00, 0x00, 0x00, 0x00, 0xa0, 0xdd, 0xff, 0xff, 0x00, 0x00, 0x00, 0x05, 0x04, 0x00, 0x00, 0x00, 0x82, 0xe3, 0xff, 0xff, 0x00, 0x00, 0x06, 0x01, 0x20, 0x00, 0x00, 0x00, 
0x14, 0x00, 0x00, 0x00, 0x04, 0x00, 0x00, 0x00, 0x74, 0xdd, 0xff, 0xff, 0x01, 0x00, 0x00, 0x00, 0x10, 0x04, 0x00, 0x00, 0x03, 0x00, 0x00, 0x00, 0x00, 0x01, 0x02, 0x00, 0x03, 0x00, 0x00, 0x00, 
0x01, 0x00, 0x00, 0x00, 0x01, 0x00, 0x00, 0x00, 0x03, 0x00, 0x00, 0x00, 0xe4, 0xdd, 0xff, 0xff, 0x00, 0x00, 0x00, 0x05, 0x04, 0x00, 0x00, 0x00, 0xc6, 0xe3, 0xff, 0xff, 0x00, 0x00, 0x06, 0x01, 
0x20, 0x00, 0x00, 0x00, 0x14, 0x00, 0x00, 0x00, 0x04, 0x00, 0x00, 0x00, 0xb8, 0xdd, 0xff, 0xff, 0x01, 0x00, 0x00, 0x00, 0xf0, 0x04, 0x00, 0x00, 0x03, 0x00, 0x00, 0x00, 0x00, 0x01, 0x02, 0x00, 
0x03, 0x00, 0x00, 0x00, 0x01, 0x00, 0x00, 0x00, 0x01, 0x00, 0x00, 0x00, 0x03, 0x00, 0x00, 0x00, 0x28, 0xde, 0xff, 0xff, 0x00, 0x00, 0x00, 0x02, 0x04, 0x00, 0x00, 0x00, 0x1e, 0xe2, 0xff, 0xff, 
0x01, 0x00, 0x00, 0x00, 0x00, 0x00, 0x00, 0x00, 0x00, 0x00, 0x00, 0x00, 0x44, 0xde, 0xff, 0xff, 0x00, 0x00, 0x00, 0x05, 0x04, 0x00, 0x00, 0x00, 0x26, 0xe4, 0xff, 0xff, 0x00, 0x00, 0x06, 0x01, 
0x20, 0x00, 0x00, 0x00, 0x14, 0x00, 0x00, 0x00, 0x04, 0x00, 0x00, 0x00, 0x18, 0xde, 0xff, 0xff, 0x01, 0x00, 0x00, 0x00, 0x20, 0x01, 0x00, 0x00, 0x03, 0x00, 0x00, 0x00, 0x00, 0x01, 0x02, 0x00, 
0x03, 0x00, 0x00, 0x00, 0x01, 0x00, 0x00, 0x00, 0x01, 0x00, 0x00, 0x00, 0x03, 0x00, 0x00, 0x00, 0x88, 0xde, 0xff, 0xff, 0x00, 0x00, 0x00, 0x05, 0x04, 0x00, 0x00, 0x00, 0x6a, 0xe4, 0xff, 0xff, 
0x00, 0x00, 0x06, 0x01, 0x20, 0x00, 0x00, 0x00, 0x14, 0x00, 0x00, 0x00, 0x04, 0x00, 0x00, 0x00, 0x5c, 0xde, 0xff, 0xff, 0x01, 0x00, 0x00, 0x00, 0x90, 0x00, 0x00, 0x00, 0x03, 0x00, 0x00, 0x00, 
0x00, 0x01, 0x02, 0x00, 0x03, 0x00, 0x00, 0x00, 0x01, 0x00, 0x00, 0x00, 0x01, 0x00, 0x00, 0x00, 0x03, 0x00, 0x00, 0x00, 0xcc, 0xde, 0xff, 0xff, 0x00, 0x00, 0x00, 0x05, 0x04, 0x00, 0x00, 0x00, 
0xae, 0xe4, 0xff, 0xff, 0x00, 0x00, 0x06, 0x01, 0x20, 0x00, 0x00, 0x00, 0x14, 0x00, 0x00, 0x00, 0x04, 0x00, 0x00, 0x00, 0xa0, 0xde, 0xff, 0xff, 0x01, 0x00, 0x00, 0x00, 0xf0, 0x04, 0x00, 0x00, 
0x03, 0x00, 0x00, 0x00, 0x00, 0x01, 0x02, 0x00, 0x03, 0x00, 0x00, 0x00, 0x01, 0x00, 0x00, 0x00, 0x01, 0x00, 0x00, 0x00, 0x03, 0x00, 0x00, 0x00, 0x10, 0xdf, 0xff, 0xff, 0x00, 0x00, 0x00, 0x05, 
0x04, 0x00, 0x00, 0x00, 0xf2, 0xe4, 0xff, 0xff, 0x00, 0x00, 0x06, 0x01, 0x20, 0x00, 0x00, 0x00, 0x14, 0x00, 0x00, 0x00, 0x04, 0x00, 0x00, 0x00, 0xe4, 0xde, 0xff, 0xff, 0x01, 0x00, 0x00, 0x00, 
0xc0, 0x04, 0x00, 0x00, 0x03, 0x00, 0x00, 0x00, 0x00, 0x01, 0x02, 0x00, 0x03, 0x00, 0x00, 0x00, 0x01, 0x00, 0x00, 0x00, 0x01, 0x00, 0x00, 0x00, 0x03, 0x00, 0x00, 0x00, 0x54, 0xdf, 0xff, 0xff, 
0x00, 0x00, 0x00, 0x05, 0x04, 0x00, 0x00, 0x00, 0x36, 0xe5, 0xff, 0xff, 0x00, 0x00, 0x06, 0x01, 0x20, 0x00, 0x00, 0x00, 0x14, 0x00, 0x00, 0x00, 0x04, 0x00, 0x00, 0x00, 0x28, 0xdf, 0xff, 0xff, 
0x01, 0x00, 0x00, 0x00, 0x10, 0x04, 0x00, 0x00, 0x03, 0x00, 0x00, 0x00, 0x00, 0x01, 0x02, 0x00, 0x03, 0x00, 0x00, 0x00, 0x01, 0x00, 0x00, 0x00, 0x01, 0x00, 0x00, 0x00, 0x03, 0x00, 0x00, 0x00, 
0x98, 0xdf, 0xff, 0xff, 0x00, 0x00, 0x00, 0x05, 0x04, 0x00, 0x00, 0x00, 0x7a, 0xe5, 0xff, 0xff, 0x00, 0x00, 0x06, 0x01, 0x20, 0x00, 0x00, 0x00, 0x14, 0x00, 0x00, 0x00, 0x04, 0x00, 0x00, 0x00, 
0x6c, 0xdf, 0xff, 0xff, 0x01, 0x00, 0x00, 0x00, 0x20, 0x01, 0x00, 0x00, 0x03, 0x00, 0x00, 0x00, 0x00, 0x01, 0x02, 0x00, 0x03, 0x00, 0x00, 0x00, 0x01, 0x00, 0x00, 0x00, 0x01, 0x00, 0x00, 0x00, 
0x03, 0x00, 0x00, 0x00, 0xdc, 0xdf, 0xff, 0xff, 0x00, 0x00, 0x00, 0x05, 0x04, 0x00, 0x00, 0x00, 0xbe, 0xe5, 0xff, 0xff, 0x00, 0x00, 0x06, 0x01, 0x20, 0x00, 0x00, 0x00, 0x14, 0x00, 0x00, 0x00, 
0x04, 0x00, 0x00, 0x00, 0xb0, 0xdf, 0xff, 0xff, 0x01, 0x00, 0x00, 0x00, 0x80, 0x04, 0x00, 0x00, 0x03, 0x00, 0x00, 0x00, 0x00, 0x01, 0x02, 0x00, 0x03, 0x00, 0x00, 0x00, 0x01, 0x00, 0x00, 0x00, 
0x01, 0x00, 0x00, 0x00, 0x03, 0x00, 0x00, 0x00, 0x20, 0xe0, 0xff, 0xff, 0x00, 0x00, 0x00, 0x0a, 0x04, 0x00, 0x00, 0x00, 0xe6, 0xe0, 0xff, 0xff, 0x04, 0x00, 0x00, 0x00, 0x04, 0x00, 0x00, 0x00, 
0xba, 0x00, 0x00, 0x00, 0xbb, 0x00, 0x00, 0x00, 0xbc, 0x00, 0x00, 0x00, 0xbd, 0x00, 0x00, 0x00, 0x48, 0xe0, 0xff, 0xff, 0x00, 0x00, 0x00, 0x0a, 0x04, 0x00, 0x00, 0x00, 0x0e, 0xe1, 0xff, 0xff, 
0x04, 0x00, 0x00, 0x00, 0x04, 0x00, 0x00, 0x00, 0xba, 0x00, 0x00, 0x00, 0xbb, 0x00, 0x00, 0x00, 0xbc, 0x00, 0x00, 0x00, 0xbd, 0x00, 0x00, 0x00, 0x70, 0xe0, 0xff, 0xff, 0x00, 0x00, 0x00, 0x02, 
0x04, 0x00, 0x00, 0x00, 0xde, 0xe1, 0xff, 0xff, 0x02, 0x00, 0x00, 0x00, 0x00, 0x00, 0x00, 0x00, 0x88, 0xe0, 0xff, 0xff, 0x00, 0x00, 0x00, 0x07, 0x04, 0x00, 0x00, 0x00, 0x4e, 0xe1, 0xff, 0xff, 
0x04, 0x00, 0x00, 0x00, 0x04, 0x00, 0x00, 0x00, 0xbe, 0x00, 0x00, 0x00, 0x00, 0x00, 0x00, 0x00, 0xbf, 0x00, 0x00, 0x00, 0x00, 0x00, 0x00, 0x00, 0xc0, 0x00, 0x00, 0x00, 0x00, 0x00, 0x00, 0x00, 
0xc1, 0x00, 0x00, 0x00, 0x00, 0x00, 0x00, 0x00, 0xc0, 0xe0, 0xff, 0xff, 0x00, 0x00, 0x00, 0x02, 0x04, 0x00, 0x00, 0x00, 0x2e, 0xe2, 0xff, 0xff, 0x03, 0x00, 0x00, 0x00, 0x00, 0x00, 0x00, 0x00, 
0xd8, 0xe0, 0xff, 0xff, 0x00, 0x00, 0x00, 0x02, 0x04, 0x00, 0x00, 0x00, 0x46, 0xe2, 0xff, 0xff, 0x03, 0x00, 0x00, 0x00, 0x00, 0x00, 0x00, 0x00, 0xf0, 0xe0, 0xff, 0xff, 0x00, 0x00, 0x00, 0x02, 
0x04, 0x00, 0x00, 0x00, 0x5e, 0xe2, 0xff, 0xff, 0x03, 0x00, 0x00, 0x00, 0x00, 0x00, 0x00, 0x00, 0x08, 0xe1, 0xff, 0xff, 0x00, 0x00, 0x00, 0x02, 0x04, 0x00, 0x00, 0x00, 0x76, 0xe2, 0xff, 0xff, 
0x03, 0x00, 0x00, 0x00, 0x00, 0x00, 0x00, 0x00, 0x20, 0xe1, 0xff, 0xff, 0x00, 0x00, 0x00, 0x05, 0x04, 0x00, 0x00, 0x00, 0x02, 0xe7, 0xff, 0xff, 0x00, 0x00, 0x06, 0x01, 0x20, 0x00, 0x00, 0x00, 
0x14, 0x00, 0x00, 0x00, 0x04, 0x00, 0x00, 0x00, 0xf4, 0xe0, 0xff, 0xff, 0x01, 0x00, 0x00, 0x00, 0xf0, 0x04, 0x00, 0x00, 0x03, 0x00, 0x00, 0x00, 0x00, 0x01, 0x02, 0x00, 0x03, 0x00, 0x00, 0x00, 
0x01, 0x00, 0x00, 0x00, 0x01, 0x00, 0x00, 0x00, 0x03, 0x00, 0x00, 0x00, 0x64, 0xe1, 0xff, 0xff, 0x00, 0x00, 0x00, 0x05, 0x04, 0x00, 0x00, 0x00, 0x46, 0xe7, 0xff, 0xff, 0x00, 0x00, 0x06, 0x01, 
0x20, 0x00, 0x00, 0x00, 0x14, 0x00, 0x00, 0x00, 0x04, 0x00, 0x00, 0x00, 0x38, 0xe1, 0xff, 0xff, 0x01, 0x00, 0x00, 0x00, 0xc0, 0x04, 0x00, 0x00, 0x03, 0x00, 0x00, 0x00, 0x00, 0x01, 0x02, 0x00, 
0x03, 0x00, 0x00, 0x00, 0x01, 0x00, 0x00, 0x00, 0x01, 0x00, 0x00, 0x00, 0x03, 0x00, 0x00, 0x00, 0xa8, 0xe1, 0xff, 0xff, 0x00, 0x00, 0x00, 0x05, 0x04, 0x00, 0x00, 0x00, 0x8a, 0xe7, 0xff, 0xff, 
0x00, 0x00, 0x06, 0x01, 0x20, 0x00, 0x00, 0x00, 0x14, 0x00, 0x00, 0x00, 0x04, 0x00, 0x00, 0x00, 0x7c, 0xe1, 0xff, 0xff, 0x01, 0x00, 0x00, 0x00, 0x10, 0x04, 0x00, 0x00, 0x03, 0x00, 0x00, 0x00, 
0x00, 0x01, 0x02, 0x00, 0x03, 0x00, 0x00, 0x00, 0x01, 0x00, 0x00, 0x00, 0x01, 0x00, 0x00, 0x00, 0x03, 0x00, 0x00, 0x00, 0xec, 0xe1, 0xff, 0xff, 0x00, 0x00, 0x00, 0x05, 0x04, 0x00, 0x00, 0x00, 
0xce, 0xe7, 0xff, 0xff, 0x00, 0x00, 0x06, 0x01, 0x20, 0x00, 0x00, 0x00, 0x14, 0x00, 0x00, 0x00, 0x04, 0x00, 0x00, 0x00, 0xc0, 0xe1, 0xff, 0xff, 0x01, 0x00, 0x00, 0x00, 0x20, 0x01, 0x00, 0x00, 
0x03, 0x00, 0x00, 0x00, 0x00, 0x01, 0x02, 0x00, 0x03, 0x00, 0x00, 0x00, 0x01, 0x00, 0x00, 0x00, 0x01, 0x00, 0x00, 0x00, 0x03, 0x00, 0x00, 0x00, 0x30, 0xe2, 0xff, 0xff, 0x00, 0x00, 0x00, 0x02, 
0x04, 0x00, 0x00, 0x00, 0x9e, 0xe3, 0xff, 0xff, 0x01, 0x00, 0x00, 0x00, 0x00, 0x00, 0x00, 0x00, 0x48, 0xe2, 0xff, 0xff, 0x00, 0x00, 0x00, 0x05, 0x04, 0x00, 0x00, 0x00, 0x2a, 0xe8, 0xff, 0xff, 
0x00, 0x00, 0x06, 0x01, 0x20, 0x00, 0x00, 0x00, 0x14, 0x00, 0x00, 0x00, 0x04, 0x00, 0x00, 0x00, 0x1c, 0xe2, 0xff, 0xff, 0x01, 0x00, 0x00, 0x00, 0x80, 0x04, 0x00, 0x00, 0x03, 0x00, 0x00, 0x00, 
0x00, 0x01, 0x02, 0x00, 0x03, 0x00, 0x00, 0x00, 0x01, 0x00, 0x00, 0x00, 0x01, 0x00, 0x00, 0x00, 0x0c, 0x00, 0x00, 0x00, 0x8c, 0xe2, 0xff, 0xff, 0x00, 0x00, 0x00, 0x05, 0x04, 0x00, 0x00, 0x00, 
0x6e, 0xe8, 0xff, 0xff, 0x00, 0x00, 0x06, 0x01, 0x20, 0x00, 0x00, 0x00, 0x14, 0x00, 0x00, 0x00, 0x04, 0x00, 0x00, 0x00, 0x60, 0xe2, 0xff, 0xff, 0x01, 0x00, 0x00, 0x00, 0x10, 0x04, 0x00, 0x00, 
0x03, 0x00, 0x00, 0x00, 0x00, 0x01, 0x02, 0x00, 0x03, 0x00, 0x00, 0x00, 0x01, 0x00, 0x00, 0x00, 0x01, 0x00, 0x00, 0x00, 0x0c, 0x00, 0x00, 0x00, 0xd0, 0xe2, 0xff, 0xff, 0x00, 0x00, 0x00, 0x07, 
0x04, 0x00, 0x00, 0x00, 0x96, 0xe3, 0xff, 0xff, 0x04, 0x00, 0x00, 0x00, 0x03, 0x00, 0x00, 0x00, 0xb3, 0x00, 0x00, 0x00, 0x00, 0x00, 0x00, 0x00, 0xb4, 0x00, 0x00, 0x00, 0x00, 0x00, 0x00, 0x00, 
0xb5, 0x00, 0x00, 0x00, 0x00, 0x00, 0x00, 0x00, 0x00, 0xe3, 0xff, 0xff, 0x00, 0x00, 0x00, 0x02, 0x04, 0x00, 0x00, 0x00, 0x6e, 0xe4, 0xff, 0xff, 0x0c, 0x00, 0x00, 0x00, 0x00, 0x00, 0x00, 0x00, 
0x18, 0xe3, 0xff, 0xff, 0x00, 0x00, 0x00, 0x02, 0x04, 0x00, 0x00, 0x00, 0x86, 0xe4, 0xff, 0xff, 0x01, 0x00, 0x00, 0x00, 0x00, 0x00, 0x00, 0x00, 0x30, 0xe3, 0xff, 0xff, 0x00, 0x00, 0x00, 0x02, 
0x04, 0x00, 0x00, 0x00, 0x9e, 0xe4, 0xff, 0xff, 0x01, 0x00, 0x00, 0x00, 0x00, 0x00, 0x00, 0x00, 0x48, 0xe3, 0xff, 0xff, 0x00, 0x00, 0x00, 0x02, 0x04, 0x00, 0x00, 0x00, 0xb6, 0xe4, 0xff, 0xff, 
0x01, 0x00, 0x00, 0x00, 0x00, 0x00, 0x00, 0x00, 0x60, 0xe3, 0xff, 0xff, 0x00, 0x00, 0x00, 0x02, 0x04, 0x00, 0x00, 0x00, 0xce, 0xe4, 0xff, 0xff, 0x01, 0x00, 0x00, 0x00, 0x00, 0x00, 0x00, 0x00, 
0x78, 0xe3, 0xff, 0xff, 0x00, 0x00, 0x00, 0x05, 0x04, 0x00, 0x00, 0x00, 0x5a, 0xe9, 0xff, 0xff, 0x00, 0x00, 0x06, 0x01, 0x20, 0x00, 0x00, 0x00, 0x14, 0x00, 0x00, 0x00, 0x04, 0x00, 0x00, 0x00, 
0x4c, 0xe3, 0xff, 0xff, 0x01, 0x00, 0x00, 0x00, 0x10, 0x04, 0x00, 0x00, 0x02, 0x00, 0x00, 0x00, 0x00, 0x01, 0x00, 0x00, 0x02, 0x00, 0x00, 0x00, 0x01, 0x00, 0x00, 0x00, 0x0c, 0x00, 0x00, 0x00, 
0xb8, 0xe3, 0xff, 0xff, 0x00, 0x00, 0x00, 0x07, 0x04, 0x00, 0x00, 0x00, 0x7e, 0xe4, 0xff, 0xff, 0x04, 0x00, 0x00, 0x00, 0x02, 0x00, 0x00, 0x00, 0xad, 0x00, 0x00, 0x00, 0x00, 0x00, 0x00, 0x00, 
0xae, 0x00, 0x00, 0x00, 0x00, 0x00, 0x00, 0x00, 0xe0, 0xe3, 0xff, 0xff, 0x00, 0x00, 0x00, 0x02, 0x04, 0x00, 0x00, 0x00, 0xc4, 0xe5, 0xff, 0xff, 0xf0, 0xe3, 0xff, 0xff, 0x00, 0x00, 0x00, 0x02, 
0x04, 0x00, 0x00, 0x00, 0xe6, 0xe7, 0xff, 0xff, 0x01, 0x00, 0x00, 0x00, 0x00, 0x00, 0x00, 0x00, 0x00, 0x00, 0x00, 0x00, 0x0c, 0xe4, 0xff, 0xff, 0x00, 0x00, 0x00, 0x05, 0x04, 0x00, 0x00, 0x00, 
0xee, 0xe9, 0xff, 0xff, 0x00, 0x00, 0x06, 0x01, 0x1c, 0x00, 0x00, 0x00, 0x10, 0x00, 0x00, 0x00, 0x04, 0x00, 0x00, 0x00, 0xe6, 0xe4, 0xff, 0xff, 0x01, 0x00, 0x00, 0x00, 0x02, 0x00, 0x00, 0x00, 
0x00, 0x01, 0x00, 0x00, 0x02, 0x00, 0x00, 0x00, 0x03, 0x00, 0x00, 0x00, 0x0c, 0x00, 0x00, 0x00, 0x48, 0xe4, 0xff, 0xff, 0x00, 0x00, 0x00, 0x05, 0x04, 0x00, 0x00, 0x00, 0x2a, 0xea, 0xff, 0xff, 
0x00, 0x00, 0x06, 0x01, 0x20, 0x00, 0x00, 0x00, 0x14, 0x00, 0x00, 0x00, 0x04, 0x00, 0x00, 0x00, 0x1c, 0xe4, 0xff, 0xff, 0x01, 0x00, 0x00, 0x00, 0xb0, 0x04, 0x00, 0x00, 0x02, 0x00, 0x00, 0x00, 
0x00, 0x01, 0x00, 0x00, 0x02, 0x00, 0x00, 0x00, 0x01, 0x00, 0x00, 0x00, 0x03, 0x00, 0x00, 0x00, 0x88, 0xe4, 0xff, 0xff, 0x00, 0x00, 0x00, 0x07, 0x04, 0x00, 0x00, 0x00, 0x4e, 0xe5, 0xff, 0xff, 
0x04, 0x00, 0x00, 0x00, 0x02, 0x00, 0x00, 0x00, 0xa8, 0x00, 0x00, 0x00, 0x00, 0x00, 0x00, 0x00, 0xa9, 0x00, 0x00, 0x00, 0x00, 0x00, 0x00, 0x00, 0xb0, 0xe4, 0xff, 0xff, 0x00, 0x00, 0x00, 0x02, 
0x04, 0x00, 0x00, 0x00, 0x1e, 0xe6, 0xff, 0xff, 0x03, 0x00, 0x00, 0x00, 0x00, 0x00, 0x00, 0x00, 0xc8, 0xe4, 0xff, 0xff, 0x00, 0x00, 0x00, 0x02, 0x04, 0x00, 0x00, 0x00, 0x36, 0xe6, 0xff, 0xff, 
0x01, 0x00, 0x00, 0x00, 0x00, 0x00, 0x00, 0x00, 0xe0, 0xe4, 0xff, 0xff, 0x00, 0x00, 0x00, 0x05, 0x04, 0x00, 0x00, 0x00, 0xc2, 0xea, 0xff, 0xff, 0x00, 0x00, 0x06, 0x01, 0x20, 0x00, 0x00, 0x00, 
0x14, 0x00, 0x00, 0x00, 0x04, 0x00, 0x00, 0x00, 0xb4, 0xe4, 0xff, 0xff, 0x01, 0x00, 0x00, 0x00, 0xb0, 0x04, 0x00, 0x00, 0x03, 0x00, 0x00, 0x00, 0x00, 0x01, 0x02, 0x00, 0x03, 0x00, 0x00, 0x00, 
0x01, 0x00, 0x00, 0x00, 0x01, 0x00, 0x00, 0x00, 0x03, 0x00, 0x00, 0x00, 0x24, 0xe5, 0xff, 0xff, 0x00, 0x00, 0x00, 0x05, 0x04, 0x00, 0x00, 0x00, 0x06, 0xeb, 0xff, 0xff, 0x00, 0x00, 0x06, 0x01, 
0x20, 0x00, 0x00, 0x00, 0x14, 0x00, 0x00, 0x00, 0x04, 0x00, 0x00, 0x00, 0xf8, 0xe4, 0xff, 0xff, 0x01, 0x00, 0x00, 0x00, 0x10, 0x04, 0x00, 0x00, 0x03, 0x00, 0x00, 0x00, 0x00, 0x01, 0x02, 0x00, 
0x03, 0x00, 0x00, 0x00, 0x01, 0x00, 0x00, 0x00, 0x01, 0x00, 0x00, 0x00, 0x03, 0x00, 0x00, 0x00, 0x68, 0xe5, 0xff, 0xff, 0x00, 0x00, 0x00, 0x02, 0x04, 0x00, 0x00, 0x00, 0x5e, 0xe9, 0xff, 0xff, 
0x01, 0x00, 0x00, 0x00, 0x00, 0x00, 0x00, 0x00, 0x00, 0x00, 0x00, 0x00, 0x84, 0xe5, 0xff, 0xff, 0x00, 0x00, 0x00, 0x05, 0x04, 0x00, 0x00, 0x00, 0x66, 0xeb, 0xff, 0xff, 0x00, 0x00, 0x06, 0x01, 
0x20, 0x00, 0x00, 0x00, 0x14, 0x00, 0x00, 0x00, 0x04, 0x00, 0x00, 0x00, 0x58, 0xe5, 0xff, 0xff, 0x01, 0x00, 0x00, 0x00, 0x90, 0x00, 0x00, 0x00, 0x03, 0x00, 0x00, 0x00, 0x00, 0x01, 0x02, 0x00, 
0x03, 0x00, 0x00, 0x00, 0x01, 0x00, 0x00, 0x00, 0x01, 0x00, 0x00, 0x00, 0x03, 0x00, 0x00, 0x00, 0xc8, 0xe5, 0xff, 0xff, 0x00, 0x00, 0x00, 0x05, 0x04, 0x00, 0x00, 0x00, 0xaa, 0xeb, 0xff, 0xff, 
0x00, 0x00, 0x06, 0x01, 0x20, 0x00, 0x00, 0x00, 0x14, 0x00, 0x00, 0x00, 0x04, 0x00, 0x00, 0x00, 0x9c, 0xe5, 0xff, 0xff, 0x01, 0x00, 0x00, 0x00, 0x10, 0x04, 0x00, 0x00, 0x03, 0x00, 0x00, 0x00, 
0x00, 0x01, 0x02, 0x00, 0x03, 0x00, 0x00, 0x00, 0x01, 0x00, 0x00, 0x00, 0x01, 0x00, 0x00, 0x00, 0x03, 0x00, 0x00, 0x00, 0x0c, 0xe6, 0xff, 0xff, 0x00, 0x00, 0x00, 0x05, 0x04, 0x00, 0x00, 0x00, 
0xee, 0xeb, 0xff, 0xff, 0x00, 0x00, 0x06, 0x01, 0x20, 0x00, 0x00, 0x00, 0x14, 0x00, 0x00, 0x00, 0x04, 0x00, 0x00, 0x00, 0xe0, 0xe5, 0xff, 0xff, 0x01, 0x00, 0x00, 0x00, 0xb0, 0x04, 0x00, 0x00, 
0x03, 0x00, 0x00, 0x00, 0x00, 0x01, 0x02, 0x00, 0x03, 0x00, 0x00, 0x00, 0x01, 0x00, 0x00, 0x00, 0x01, 0x00, 0x00, 0x00, 0x03, 0x00, 0x00, 0x00, 0x50, 0xe6, 0xff, 0xff, 0x00, 0x00, 0x00, 0x05, 
0x04, 0x00, 0x00, 0x00, 0x32, 0xec, 0xff, 0xff, 0x00, 0x00, 0x06, 0x01, 0x20, 0x00, 0x00, 0x00, 0x14, 0x00, 0x00, 0x00, 0x04, 0x00, 0x00, 0x00, 0x24, 0xe6, 0xff, 0xff, 0x01, 0x00, 0x00, 0x00, 
0x80, 0x04, 0x00, 0x00, 0x03, 0x00, 0x00, 0x00, 0x00, 0x01, 0x02, 0x00, 0x03, 0x00, 0x00, 0x00, 0x01, 0x00, 0x00, 0x00, 0x01, 0x00, 0x00, 0x00, 0x03, 0x00, 0x00, 0x00, 0x94, 0xe6, 0xff, 0xff, 
0x00, 0x00, 0x00, 0x05, 0x04, 0x00, 0x00, 0x00, 0x76, 0xec, 0xff, 0xff, 0x00, 0x00, 0x06, 0x01, 0x20, 0x00, 0x00, 0x00, 0x14, 0x00, 0x00, 0x00, 0x04, 0x00, 0x00, 0x00, 0x68, 0xe6, 0xff, 0xff, 
0x01, 0x00, 0x00, 0x00, 0x40, 0x04, 0x00, 0x00, 0x03, 0x00, 0x00, 0x00, 0x00, 0x01, 0x02, 0x00, 0x03, 0x00, 0x00, 0x00, 0x01, 0x00, 0x00, 0x00, 0x01, 0x00, 0x00, 0x00, 0x03, 0x00, 0x00, 0x00, 
0xd8, 0xe6, 0xff, 0xff, 0x00, 0x00, 0x00, 0x05, 0x04, 0x00, 0x00, 0x00, 0xba, 0xec, 0xff, 0xff, 0x00, 0x00, 0x06, 0x01, 0x20, 0x00, 0x00, 0x00, 0x14, 0x00, 0x00, 0x00, 0x04, 0x00, 0x00, 0x00, 
0xac, 0xe6, 0xff, 0xff, 0x01, 0x00, 0x00, 0x00, 0x90, 0x00, 0x00, 0x00, 0x03, 0x00, 0x00, 0x00, 0x00, 0x01, 0x02, 0x00, 0x03, 0x00, 0x00, 0x00, 0x01, 0x00, 0x00, 0x00, 0x01, 0x00, 0x00, 0x00, 
0x03, 0x00, 0x00, 0x00, 0x1c, 0xe7, 0xff, 0xff, 0x00, 0x00, 0x00, 0x05, 0x04, 0x00, 0x00, 0x00, 0xfe, 0xec, 0xff, 0xff, 0x00, 0x00, 0x06, 0x01, 0x20, 0x00, 0x00, 0x00, 0x14, 0x00, 0x00, 0x00, 
0x04, 0x00, 0x00, 0x00, 0xf0, 0xe6, 0xff, 0xff, 0x01, 0x00, 0x00, 0x00, 0x60, 0x01, 0x00, 0x00, 0x03, 0x00, 0x00, 0x00, 0x00, 0x01, 0x02, 0x00, 0x03, 0x00, 0x00, 0x00, 0x01, 0x00, 0x00, 0x00, 
0x01, 0x00, 0x00, 0x00, 0x03, 0x00, 0x00, 0x00, 0x60, 0xe7, 0xff, 0xff, 0x00, 0x00, 0x00, 0x0a, 0x04, 0x00, 0x00, 0x00, 0x26, 0xe8, 0xff, 0xff, 0x04, 0x00, 0x00, 0x00, 0x04, 0x00, 0x00, 0x00, 
0x92, 0x00, 0x00, 0x00, 0x93, 0x00, 0x00, 0x00, 0x94, 0x00, 0x00, 0x00, 0x95, 0x00, 0x00, 0x00, 0x88, 0xe7, 0xff, 0xff, 0x00, 0x00, 0x00, 0x0a, 0x04, 0x00, 0x00, 0x00, 0x4e, 0xe8, 0xff, 0xff, 
0x04, 0x00, 0x00, 0x00, 0x04, 0x00, 0x00, 0x00, 0x92, 0x00, 0x00, 0x00, 0x93, 0x00, 0x00, 0x00, 0x94, 0x00, 0x00, 0x00, 0x95, 0x00, 0x00, 0x00, 0xb0, 0xe7, 0xff, 0xff, 0x00, 0x00, 0x00, 0x02, 
0x04, 0x00, 0x00, 0x00, 0x1e, 0xe9, 0xff, 0xff, 0x02, 0x00, 0x00, 0x00, 0x00, 0x00, 0x00, 0x00, 0xc8, 0xe7, 0xff, 0xff, 0x00, 0x00, 0x00, 0x07, 0x04, 0x00, 0x00, 0x00, 0x8e, 0xe8, 0xff, 0xff, 
0x04, 0x00, 0x00, 0x00, 0x04, 0x00, 0x00, 0x00, 0x96, 0x00, 0x00, 0x00, 0x00, 0x00, 0x00, 0x00, 0x97, 0x00, 0x00, 0x00, 0x00, 0x00, 0x00, 0x00, 0x98, 0x00, 0x00, 0x00, 0x00, 0x00, 0x00, 0x00, 
0x99, 0x00, 0x00, 0x00, 0x00, 0x00, 0x00, 0x00, 0x00, 0xe8, 0xff, 0xff, 0x00, 0x00, 0x00, 0x02, 0x04, 0x00, 0x00, 0x00, 0x6e, 0xe9, 0xff, 0xff, 0x03, 0x00, 0x00, 0x00, 0x00, 0x00, 0x00, 0x00, 
0x18, 0xe8, 0xff, 0xff, 0x00, 0x00, 0x00, 0x02, 0x04, 0x00, 0x00, 0x00, 0x86, 0xe9, 0xff, 0xff, 0x03, 0x00, 0x00, 0x00, 0x00, 0x00, 0x00, 0x00, 0x30, 0xe8, 0xff, 0xff, 0x00, 0x00, 0x00, 0x02, 
0x04, 0x00, 0x00, 0x00, 0x9e, 0xe9, 0xff, 0xff, 0x03, 0x00, 0x00, 0x00, 0x00, 0x00, 0x00, 0x00, 0x48, 0xe8, 0xff, 0xff, 0x00, 0x00, 0x00, 0x02, 0x04, 0x00, 0x00, 0x00, 0xb6, 0xe9, 0xff, 0xff, 
0x03, 0x00, 0x00, 0x00, 0x00, 0x00, 0x00, 0x00, 0x60, 0xe8, 0xff, 0xff, 0x00, 0x00, 0x00, 0x05, 0x04, 0x00, 0x00, 0x00, 0x42, 0xee, 0xff, 0xff, 0x00, 0x00, 0x06, 0x01, 0x20, 0x00, 0x00, 0x00, 
0x14, 0x00, 0x00, 0x00, 0x04, 0x00, 0x00, 0x00, 0x34, 0xe8, 0xff, 0xff, 0x01, 0x00, 0x00, 0x00, 0xb0, 0x04, 0x00, 0x00, 0x03, 0x00, 0x00, 0x00, 0x00, 0x01, 0x02, 0x00, 0x03, 0x00, 0x00, 0x00, 
0x01, 0x00, 0x00, 0x00, 0x01, 0x00, 0x00, 0x00, 0x03, 0x00, 0x00, 0x00, 0xa4, 0xe8, 0xff, 0xff, 0x00, 0x00, 0x00, 0x05, 0x04, 0x00, 0x00, 0x00, 0x86, 0xee, 0xff, 0xff, 0x00, 0x00, 0x06, 0x01, 
0x20, 0x00, 0x00, 0x00, 0x14, 0x00, 0x00, 0x00, 0x04, 0x00, 0x00, 0x00, 0x78, 0xe8, 0xff, 0xff, 0x01, 0x00, 0x00, 0x00, 0x80, 0x04, 0x00, 0x00, 0x03, 0x00, 0x00, 0x00, 0x00, 0x01, 0x02, 0x00, 
0x03, 0x00, 0x00, 0x00, 0x01, 0x00, 0x00, 0x00, 0x01, 0x00, 0x00, 0x00, 0x03, 0x00, 0x00, 0x00, 0xe8, 0xe8, 0xff, 0xff, 0x00, 0x00, 0x00, 0x05, 0x04, 0x00, 0x00, 0x00, 0xca, 0xee, 0xff, 0xff, 
0x00, 0x00, 0x06, 0x01, 0x20, 0x00, 0x00, 0x00, 0x14, 0x00, 0x00, 0x00, 0x04, 0x00, 0x00, 0x00, 0xbc, 0xe8, 0xff, 0xff, 0x01, 0x00, 0x00, 0x00, 0x40, 0x04, 0x00, 0x00, 0x03, 0x00, 0x00, 0x00, 
0x00, 0x01, 0x02, 0x00, 0x03, 0x00, 0x00, 0x00, 0x01, 0x00, 0x00, 0x00, 0x01, 0x00, 0x00, 0x00, 0x03, 0x00, 0x00, 0x00, 0x2c, 0xe9, 0xff, 0xff, 0x00, 0x00, 0x00, 0x05, 0x04, 0x00, 0x00, 0x00, 
0x0e, 0xef, 0xff, 0xff, 0x00, 0x00, 0x06, 0x01, 0x20, 0x00, 0x00, 0x00, 0x14, 0x00, 0x00, 0x00, 0x04, 0x00, 0x00, 0x00, 0x00, 0xe9, 0xff, 0xff, 0x01, 0x00, 0x00, 0x00, 0x90, 0x00, 0x00, 0x00, 
0x03, 0x00, 0x00, 0x00, 0x00, 0x01, 0x02, 0x00, 0x03, 0x00, 0x00, 0x00, 0x01, 0x00, 0x00, 0x00, 0x01, 0x00, 0x00, 0x00, 0x03, 0x00, 0x00, 0x00, 0x70, 0xe9, 0xff, 0xff, 0x00, 0x00, 0x00, 0x02, 
0x04, 0x00, 0x00, 0x00, 0xde, 0xea, 0xff, 0xff, 0x01, 0x00, 0x00, 0x00, 0x00, 0x00, 0x00, 0x00, 0x88, 0xe9, 0xff, 0xff, 0x00, 0x00, 0x00, 0x05, 0x04, 0x00, 0x00, 0x00, 0x6a, 0xef, 0xff, 0xff, 
0x00, 0x00, 0x06, 0x01, 0x20, 0x00, 0x00, 0x00, 0x14, 0x00, 0x00, 0x00, 0x04, 0x00, 0x00, 0x00, 0x5c, 0xe9, 0xff, 0xff, 0x01, 0x00, 0x00, 0x00, 0x60, 0x01, 0x00, 0x00, 0x03, 0x00, 0x00, 0x00, 
0x00, 0x01, 0x02, 0x00, 0x03, 0x00, 0x00, 0x00, 0x01, 0x00, 0x00, 0x00, 0x01, 0x00, 0x00, 0x00, 0x0c, 0x00, 0x00, 0x00, 0xcc, 0xe9, 0xff, 0xff, 0x00, 0x00, 0x00, 0x05, 0x04, 0x00, 0x00, 0x00, 
0xae, 0xef, 0xff, 0xff, 0x00, 0x00, 0x06, 0x01, 0x20, 0x00, 0x00, 0x00, 0x14, 0x00, 0x00, 0x00, 0x04, 0x00, 0x00, 0x00, 0xa0, 0xe9, 0xff, 0xff, 0x01, 0x00, 0x00, 0x00, 0x40, 0x04, 0x00, 0x00, 
0x03, 0x00, 0x00, 0x00, 0x00, 0x01, 0x02, 0x00, 0x03, 0x00, 0x00, 0x00, 0x01, 0x00, 0x00, 0x00, 0x01, 0x00, 0x00, 0x00, 0x0c, 0x00, 0x00, 0x00, 0x10, 0xea, 0xff, 0xff, 0x00, 0x00, 0x00, 0x07, 
0x04, 0x00, 0x00, 0x00, 0xd6, 0xea, 0xff, 0xff, 0x04, 0x00, 0x00, 0x00, 0x03, 0x00, 0x00, 0x00, 0x8b, 0x00, 0x00, 0x00, 0x00, 0x00, 0x00, 0x00, 0x8c, 0x00, 0x00, 0x00, 0x00, 0x00, 0x00, 0x00, 
0x8d, 0x00, 0x00, 0x00, 0x00, 0x00, 0x00, 0x00, 0x40, 0xea, 0xff, 0xff, 0x00, 0x00, 0x00, 0x02, 0x04, 0x00, 0x00, 0x00, 0xae, 0xeb, 0xff, 0xff, 0x0c, 0x00, 0x00, 0x00, 0x00, 0x00, 0x00, 0x00, 
0x58, 0xea, 0xff, 0xff, 0x00, 0x00, 0x00, 0x02, 0x04, 0x00, 0x00, 0x00, 0xc6, 0xeb, 0xff, 0xff, 0x01, 0x00, 0x00, 0x00, 0x00, 0x00, 0x00, 0x00, 0x70, 0xea, 0xff, 0xff, 0x00, 0x00, 0x00, 0x02, 
0x04, 0x00, 0x00, 0x00, 0xde, 0xeb, 0xff, 0xff, 0x01, 0x00, 0x00, 0x00, 0x00, 0x00, 0x00, 0x00, 0x88, 0xea, 0xff, 0xff, 0x00, 0x00, 0x00, 0x02, 0x04, 0x00, 0x00, 0x00, 0xf6, 0xeb, 0xff, 0xff, 
0x01, 0x00, 0x00, 0x00, 0x00, 0x00, 0x00, 0x00, 0xa0, 0xea, 0xff, 0xff, 0x00, 0x00, 0x00, 0x02, 0x04, 0x00, 0x00, 0x00, 0x0e, 0xec, 0xff, 0xff, 0x01, 0x00, 0x00, 0x00, 0x00, 0x00, 0x00, 0x00, 
0xb8, 0xea, 0xff, 0xff, 0x00, 0x00, 0x00, 0x05, 0x04, 0x00, 0x00, 0x00, 0x9a, 0xf0, 0xff, 0xff, 0x00, 0x00, 0x06, 0x01, 0x20, 0x00, 0x00, 0x00, 0x14, 0x00, 0x00, 0x00, 0x04, 0x00, 0x00, 0x00, 
0x8c, 0xea, 0xff, 0xff, 0x01, 0x00, 0x00, 0x00, 0x40, 0x04, 0x00, 0x00, 0x02, 0x00, 0x00, 0x00, 0x00, 0x01, 0x00, 0x00, 0x02, 0x00, 0x00, 0x00, 0x01, 0x00, 0x00, 0x00, 0x0c, 0x00, 0x00, 0x00, 
0xf8, 0xea, 0xff, 0xff, 0x00, 0x00, 0x00, 0x07, 0x04, 0x00, 0x00, 0x00, 0xbe, 0xeb, 0xff, 0xff, 0x04, 0x00, 0x00, 0x00, 0x02, 0x00, 0x00, 0x00, 0x85, 0x00, 0x00, 0x00, 0x00, 0x00, 0x00, 0x00, 
0x86, 0x00, 0x00, 0x00, 0x00, 0x00, 0x00, 0x00, 0x20, 0xeb, 0xff, 0xff, 0x00, 0x00, 0x00, 0x02, 0x04, 0x00, 0x00, 0x00, 0x04, 0xed, 0xff, 0xff, 0x30, 0xeb, 0xff, 0xff, 0x00, 0x00, 0x00, 0x02, 
0x04, 0x00, 0x00, 0x00, 0x9e, 0xec, 0xff, 0xff, 0x01, 0x00, 0x00, 0x00, 0x00, 0x00, 0x00, 0x00, 0x48, 0xeb, 0xff, 0xff, 0x00, 0x00, 0x00, 0x05, 0x04, 0x00, 0x00, 0x00, 0x2a, 0xf1, 0xff, 0xff, 
0x00, 0x00, 0x06, 0x01, 0x20, 0x00, 0x00, 0x00, 0x14, 0x00, 0x00, 0x00, 0x04, 0x00, 0x00, 0x00, 0x1c, 0xeb, 0xff, 0xff, 0x01, 0x00, 0x00, 0x00, 0x60, 0x01, 0x00, 0x00, 0x02, 0x00, 0x00, 0x00, 
0x00, 0x01, 0x00, 0x00, 0x02, 0x00, 0x00, 0x00, 0x03, 0x00, 0x00, 0x00, 0x0c, 0x00, 0x00, 0x00, 0x88, 0xeb, 0xff, 0xff, 0x00, 0x00, 0x00, 0x05, 0x04, 0x00, 0x00, 0x00, 0x6a, 0xf1, 0xff, 0xff, 
0x00, 0x00, 0x06, 0x01, 0x20, 0x00, 0x00, 0x00, 0x14, 0x00, 0x00, 0x00, 0x04, 0x00, 0x00, 0x00, 0x5c, 0xeb, 0xff, 0xff, 0x01, 0x00, 0x00, 0x00, 0x70, 0x04, 0x00, 0x00, 0x02, 0x00, 0x00, 0x00, 
0x00, 0x01, 0x00, 0x00, 0x02, 0x00, 0x00, 0x00, 0x01, 0x00, 0x00, 0x00, 0x03, 0x00, 0x00, 0x00, 0xc8, 0xeb, 0xff, 0xff, 0x00, 0x00, 0x00, 0x07, 0x04, 0x00, 0x00, 0x00, 0x8e, 0xec, 0xff, 0xff, 
0x04, 0x00, 0x00, 0x00, 0x02, 0x00, 0x00, 0x00, 0x80, 0x00, 0x00, 0x00, 0x00, 0x00, 0x00, 0x00, 0x81, 0x00, 0x00, 0x00, 0x00, 0x00, 0x00, 0x00, 0xf0, 0xeb, 0xff, 0xff, 0x00, 0x00, 0x00, 0x02, 
0x04, 0x00, 0x00, 0x00, 0x5e, 0xed, 0xff, 0xff, 0x03, 0x00, 0x00, 0x00, 0x00, 0x00, 0x00, 0x00, 0x08, 0xec, 0xff, 0xff, 0x00, 0x00, 0x00, 0x02, 0x04, 0x00, 0x00, 0x00, 0x76, 0xed, 0xff, 0xff, 
0x01, 0x00, 0x00, 0x00, 0x00, 0x00, 0x00, 0x00, 0x20, 0xec, 0xff, 0xff, 0x00, 0x00, 0x00, 0x05, 0x04, 0x00, 0x00, 0x00, 0x02, 0xf2, 0xff, 0xff, 0x00, 0x00, 0x06, 0x01, 0x20, 0x00, 0x00, 0x00, 
0x14, 0x00, 0x00, 0x00, 0x04, 0x00, 0x00, 0x00, 0xf4, 0xeb, 0xff, 0xff, 0x01, 0x00, 0x00, 0x00, 0x70, 0x04, 0x00, 0x00, 0x03, 0x00, 0x00, 0x00, 0x00, 0x01, 0x02, 0x00, 0x03, 0x00, 0x00, 0x00, 
0x01, 0x00, 0x00, 0x00, 0x01, 0x00, 0x00, 0x00, 0x03, 0x00, 0x00, 0x00, 0x64, 0xec, 0xff, 0xff, 0x00, 0x00, 0x00, 0x05, 0x04, 0x00, 0x00, 0x00, 0x46, 0xf2, 0xff, 0xff, 0x00, 0x00, 0x06, 0x01, 
0x20, 0x00, 0x00, 0x00, 0x14, 0x00, 0x00, 0x00, 0x04, 0x00, 0x00, 0x00, 0x38, 0xec, 0xff, 0xff, 0x01, 0x00, 0x00, 0x00, 0x60, 0x01, 0x00, 0x00, 0x03, 0x00, 0x00, 0x00, 0x00, 0x01, 0x02, 0x00, 
0x03, 0x00, 0x00, 0x00, 0x01, 0x00, 0x00, 0x00, 0x01, 0x00, 0x00, 0x00, 0x03, 0x00, 0x00, 0x00, 0xa8, 0xec, 0xff, 0xff, 0x00, 0x00, 0x00, 0x02, 0x04, 0x00, 0x00, 0x00, 0x16, 0xee, 0xff, 0xff, 
0x01, 0x00, 0x00, 0x00, 0x00, 0x00, 0x00, 0x00, 0xc0, 0xec, 0xff, 0xff, 0x00, 0x00, 0x00, 0x05, 0x04, 0x00, 0x00, 0x00, 0xa2, 0xf2, 0xff, 0xff, 0x00, 0x00, 0x06, 0x01, 0x20, 0x00, 0x00, 0x00, 
0x14, 0x00, 0x00, 0x00, 0x04, 0x00, 0x00, 0x00, 0x94, 0xec, 0xff, 0xff, 0x01, 0x00, 0x00, 0x00, 0x10, 0x04, 0x00, 0x00, 0x03, 0x00, 0x00, 0x00, 0x00, 0x01, 0x02, 0x00, 0x03, 0x00, 0x00, 0x00, 
0x01, 0x00, 0x00, 0x00, 0x01, 0x00, 0x00, 0x00, 0x03, 0x00, 0x00, 0x00, 0x04, 0xed, 0xff, 0xff, 0x00, 0x00, 0x00, 0x05, 0x04, 0x00, 0x00, 0x00, 0xe6, 0xf2, 0xff, 0xff, 0x00, 0x00, 0x06, 0x01, 
0x20, 0x00, 0x00, 0x00, 0x14, 0x00, 0x00, 0x00, 0x04, 0x00, 0x00, 0x00, 0xd8, 0xec, 0xff, 0xff, 0x01, 0x00, 0x00, 0x00, 0x60, 0x01, 0x00, 0x00, 0x03, 0x00, 0x00, 0x00, 0x00, 0x01, 0x02, 0x00, 
0x03, 0x00, 0x00, 0x00, 0x01, 0x00, 0x00, 0x00, 0x01, 0x00, 0x00, 0x00, 0x03, 0x00, 0x00, 0x00, 0x48, 0xed, 0xff, 0xff, 0x00, 0x00, 0x00, 0x05, 0x04, 0x00, 0x00, 0x00, 0x2a, 0xf3, 0xff, 0xff, 
0x00, 0x00, 0x06, 0x01, 0x20, 0x00, 0x00, 0x00, 0x14, 0x00, 0x00, 0x00, 0x04, 0x00, 0x00, 0x00, 0x1c, 0xed, 0xff, 0xff, 0x01, 0x00, 0x00, 0x00, 0x70, 0x04, 0x00, 0x00, 0x03, 0x00, 0x00, 0x00, 
0x00, 0x01, 0x02, 0x00, 0x03, 0x00, 0x00, 0x00, 0x01, 0x00, 0x00, 0x00, 0x01, 0x00, 0x00, 0x00, 0x03, 0x00, 0x00, 0x00, 0x8c, 0xed, 0xff, 0xff, 0x00, 0x00, 0x00, 0x05, 0x04, 0x00, 0x00, 0x00, 
0x6e, 0xf3, 0xff, 0xff, 0x00, 0x00, 0x06, 0x01, 0x20, 0x00, 0x00, 0x00, 0x14, 0x00, 0x00, 0x00, 0x04, 0x00, 0x00, 0x00, 0x60, 0xed, 0xff, 0xff, 0x01, 0x00, 0x00, 0x00, 0x40, 0x04, 0x00, 0x00, 
0x03, 0x00, 0x00, 0x00, 0x00, 0x01, 0x02, 0x00, 0x03, 0x00, 0x00, 0x00, 0x01, 0x00, 0x00, 0x00, 0x01, 0x00, 0x00, 0x00, 0x03, 0x00, 0x00, 0x00, 0xd0, 0xed, 0xff, 0xff, 0x00, 0x00, 0x00, 0x05, 
0x04, 0x00, 0x00, 0x00, 0xb2, 0xf3, 0xff, 0xff, 0x00, 0x00, 0x06, 0x01, 0x20, 0x00, 0x00, 0x00, 0x14, 0x00, 0x00, 0x00, 0x04, 0x00, 0x00, 0x00, 0xa4, 0xed, 0xff, 0xff, 0x01, 0x00, 0x00, 0x00, 
0x10, 0x04, 0x00, 0x00, 0x03, 0x00, 0x00, 0x00, 0x00, 0x01, 0x02, 0x00, 0x03, 0x00, 0x00, 0x00, 0x01, 0x00, 0x00, 0x00, 0x01, 0x00, 0x00, 0x00, 0x03, 0x00, 0x00, 0x00, 0x14, 0xee, 0xff, 0xff, 
0x00, 0x00, 0x00, 0x05, 0x04, 0x00, 0x00, 0x00, 0xf6, 0xf3, 0xff, 0xff, 0x00, 0x00, 0x06, 0x01, 0x20, 0x00, 0x00, 0x00, 0x14, 0x00, 0x00, 0x00, 0x04, 0x00, 0x00, 0x00, 0xe8, 0xed, 0xff, 0xff, 
0x01, 0x00, 0x00, 0x00, 0xe0, 0x03, 0x00, 0x00, 0x03, 0x00, 0x00, 0x00, 0x00, 0x01, 0x02, 0x00, 0x03, 0x00, 0x00, 0x00, 0x01, 0x00, 0x00, 0x00, 0x01, 0x00, 0x00, 0x00, 0x03, 0x00, 0x00, 0x00, 
0x58, 0xee, 0xff, 0xff, 0x00, 0x00, 0x00, 0x05, 0x04, 0x00, 0x00, 0x00, 0x3a, 0xf4, 0xff, 0xff, 0x00, 0x00, 0x06, 0x01, 0x1c, 0x00, 0x00, 0x00, 0x10, 0x00, 0x00, 0x00, 0x04, 0x00, 0x00, 0x00, 
0x32, 0xef, 0xff, 0xff, 0x01, 0x00, 0x00, 0x00, 0x03, 0x00, 0x00, 0x00, 0x00, 0x01, 0x02, 0x00, 0x03, 0x00, 0x00, 0x00, 0x01, 0x00, 0x00, 0x00, 0x01, 0x00, 0x00, 0x00, 0x03, 0x00, 0x00, 0x00, 
0x98, 0xee, 0xff, 0xff, 0x00, 0x00, 0x00, 0x0a, 0x04, 0x00, 0x00, 0x00, 0x5e, 0xef, 0xff, 0xff, 0x04, 0x00, 0x00, 0x00, 0x04, 0x00, 0x00, 0x00, 0x6a, 0x00, 0x00, 0x00, 0x6b, 0x00, 0x00, 0x00, 
0x6c, 0x00, 0x00, 0x00, 0x6d, 0x00, 0x00, 0x00, 0xc0, 0xee, 0xff, 0xff, 0x00, 0x00, 0x00, 0x0a, 0x04, 0x00, 0x00, 0x00, 0x86, 0xef, 0xff, 0xff, 0x04, 0x00, 0x00, 0x00, 0x04, 0x00, 0x00, 0x00, 
0x6a, 0x00, 0x00, 0x00, 0x6b, 0x00, 0x00, 0x00, 0x6c, 0x00, 0x00, 0x00, 0x6d, 0x00, 0x00, 0x00, 0xe8, 0xee, 0xff, 0xff, 0x00, 0x00, 0x00, 0x02, 0x04, 0x00, 0x00, 0x00, 0x56, 0xf0, 0xff, 0xff, 
0x02, 0x00, 0x00, 0x00, 0x00, 0x00, 0x00, 0x00, 0x00, 0xef, 0xff, 0xff, 0x00, 0x00, 0x00, 0x07, 0x04, 0x00, 0x00, 0x00, 0xc6, 0xef, 0xff, 0xff, 0x04, 0x00, 0x00, 0x00, 0x04, 0x00, 0x00, 0x00, 
0x6e, 0x00, 0x00, 0x00, 0x00, 0x00, 0x00, 0x00, 0x6f, 0x00, 0x00, 0x00, 0x00, 0x00, 0x00, 0x00, 0x70, 0x00, 0x00, 0x00, 0x00, 0x00, 0x00, 0x00, 0x71, 0x00, 0x00, 0x00, 0x00, 0x00, 0x00, 0x00, 
0x38, 0xef, 0xff, 0xff, 0x00, 0x00, 0x00, 0x02, 0x04, 0x00, 0x00, 0x00, 0xa6, 0xf0, 0xff, 0xff, 0x03, 0x00, 0x00, 0x00, 0x00, 0x00, 0x00, 0x00, 0x50, 0xef, 0xff, 0xff, 0x00, 0x00, 0x00, 0x02, 
0x04, 0x00, 0x00, 0x00, 0xbe, 0xf0, 0xff, 0xff, 0x03, 0x00, 0x00, 0x00, 0x00, 0x00, 0x00, 0x00, 0x68, 0xef, 0xff, 0xff, 0x00, 0x00, 0x00, 0x02, 0x04, 0x00, 0x00, 0x00, 0xd6, 0xf0, 0xff, 0xff, 
0x03, 0x00, 0x00, 0x00, 0x00, 0x00, 0x00, 0x00, 0x80, 0xef, 0xff, 0xff, 0x00, 0x00, 0x00, 0x02, 0x04, 0x00, 0x00, 0x00, 0xee, 0xf0, 0xff, 0xff, 0x03, 0x00, 0x00, 0x00, 0x00, 0x00, 0x00, 0x00, 
0x98, 0xef, 0xff, 0xff, 0x00, 0x00, 0x00, 0x05, 0x04, 0x00, 0x00, 0x00, 0x7a, 0xf5, 0xff, 0xff, 0x00, 0x00, 0x06, 0x01, 0x20, 0x00, 0x00, 0x00, 0x14, 0x00, 0x00, 0x00, 0x04, 0x00, 0x00, 0x00, 
0x6c, 0xef, 0xff, 0xff, 0x01, 0x00, 0x00, 0x00, 0x70, 0x04, 0x00, 0x00, 0x03, 0x00, 0x00, 0x00, 0x00, 0x01, 0x02, 0x00, 0x03, 0x00, 0x00, 0x00, 0x01, 0x00, 0x00, 0x00, 0x01, 0x00, 0x00, 0x00, 
0x03, 0x00, 0x00, 0x00, 0xdc, 0xef, 0xff, 0xff, 0x00, 0x00, 0x00, 0x05, 0x04, 0x00, 0x00, 0x00, 0xbe, 0xf5, 0xff, 0xff, 0x00, 0x00, 0x06, 0x01, 0x20, 0x00, 0x00, 0x00, 0x14, 0x00, 0x00, 0x00, 
0x04, 0x00, 0x00, 0x00, 0xb0, 0xef, 0xff, 0xff, 0x01, 0x00, 0x00, 0x00, 0x40, 0x04, 0x00, 0x00, 0x03, 0x00, 0x00, 0x00, 0x00, 0x01, 0x02, 0x00, 0x03, 0x00, 0x00, 0x00, 0x01, 0x00, 0x00, 0x00, 
0x01, 0x00, 0x00, 0x00, 0x03, 0x00, 0x00, 0x00, 0x20, 0xf0, 0xff, 0xff, 0x00, 0x00, 0x00, 0x05, 0x04, 0x00, 0x00, 0x00, 0x02, 0xf6, 0xff, 0xff, 0x00, 0x00, 0x06, 0x01, 0x20, 0x00, 0x00, 0x00, 
0x14, 0x00, 0x00, 0x00, 0x04, 0x00, 0x00, 0x00, 0xf4, 0xef, 0xff, 0xff, 0x01, 0x00, 0x00, 0x00, 0x10, 0x04, 0x00, 0x00, 0x03, 0x00, 0x00, 0x00, 0x00, 0x01, 0x02, 0x00, 0x03, 0x00, 0x00, 0x00, 
0x01, 0x00, 0x00, 0x00, 0x01, 0x00, 0x00, 0x00, 0x03, 0x00, 0x00, 0x00, 0x64, 0xf0, 0xff, 0xff, 0x00, 0x00, 0x00, 0x05, 0x04, 0x00, 0x00, 0x00, 0x46, 0xf6, 0xff, 0xff, 0x00, 0x00, 0x06, 0x01, 
0x20, 0x00, 0x00, 0x00, 0x14, 0x00, 0x00, 0x00, 0x04, 0x00, 0x00, 0x00, 0x38, 0xf0, 0xff, 0xff, 0x01, 0x00, 0x00, 0x00, 0xe0, 0x03, 0x00, 0x00, 0x03, 0x00, 0x00, 0x00, 0x00, 0x01, 0x02, 0x00, 
0x03, 0x00, 0x00, 0x00, 0x01, 0x00, 0x00, 0x00, 0x01, 0x00, 0x00, 0x00, 0x03, 0x00, 0x00, 0x00, 0xa8, 0xf0, 0xff, 0xff, 0x00, 0x00, 0x00, 0x02, 0x04, 0x00, 0x00, 0x00, 0x9e, 0xf4, 0xff, 0xff, 
0x01, 0x00, 0x00, 0x00, 0x00, 0x00, 0x00, 0x00, 0x00, 0x00, 0x00, 0x00, 0xc4, 0xf0, 0xff, 0xff, 0x00, 0x00, 0x00, 0x05, 0x04, 0x00, 0x00, 0x00, 0xa6, 0xf6, 0xff, 0xff, 0x00, 0x00, 0x06, 0x01, 
0x1c, 0x00, 0x00, 0x00, 0x10, 0x00, 0x00, 0x00, 0x04, 0x00, 0x00, 0x00, 0x9e, 0xf1, 0xff, 0xff, 0x01, 0x00, 0x00, 0x00, 0x03, 0x00, 0x00, 0x00, 0x00, 0x01, 0x02, 0x00, 0x03, 0x00, 0x00, 0x00, 
0x01, 0x00, 0x00, 0x00, 0x01, 0x00, 0x00, 0x00, 0x0c, 0x00, 0x00, 0x00, 0x04, 0xf1, 0xff, 0xff, 0x00, 0x00, 0x00, 0x05, 0x04, 0x00, 0x00, 0x00, 0xe6, 0xf6, 0xff, 0xff, 0x00, 0x00, 0x06, 0x01, 
0x20, 0x00, 0x00, 0x00, 0x14, 0x00, 0x00, 0x00, 0x04, 0x00, 0x00, 0x00, 0xd8, 0xf0, 0xff, 0xff, 0x01, 0x00, 0x00, 0x00, 0xe0, 0x03, 0x00, 0x00, 0x03, 0x00, 0x00, 0x00, 0x00, 0x01, 0x02, 0x00, 
0x03, 0x00, 0x00, 0x00, 0x01, 0x00, 0x00, 0x00, 0x01, 0x00, 0x00, 0x00, 0x0c, 0x00, 0x00, 0x00, 0x48, 0xf1, 0xff, 0xff, 0x00, 0x00, 0x00, 0x07, 0x04, 0x00, 0x00, 0x00, 0x0e, 0xf2, 0xff, 0xff, 
0x04, 0x00, 0x00, 0x00, 0x03, 0x00, 0x00, 0x00, 0x63, 0x00, 0x00, 0x00, 0x00, 0x00, 0x00, 0x00, 0x64, 0x00, 0x00, 0x00, 0x00, 0x00, 0x00, 0x00, 0x65, 0x00, 0x00, 0x00, 0x00, 0x00, 0x00, 0x00, 
0x78, 0xf1, 0xff, 0xff, 0x00, 0x00, 0x00, 0x02, 0x04, 0x00, 0x00, 0x00, 0xe6, 0xf2, 0xff, 0xff, 0x0c, 0x00, 0x00, 0x00, 0x00, 0x00, 0x00, 0x00, 0x90, 0xf1, 0xff, 0xff, 0x00, 0x00, 0x00, 0x02, 
0x04, 0x00, 0x00, 0x00, 0xfe, 0xf2, 0xff, 0xff, 0x01, 0x00, 0x00, 0x00, 0x00, 0x00, 0x00, 0x00, 0xa8, 0xf1, 0xff, 0xff, 0x00, 0x00, 0x00, 0x02, 0x04, 0x00, 0x00, 0x00, 0x16, 0xf3, 0xff, 0xff, 
0x01, 0x00, 0x00, 0x00, 0x00, 0x00, 0x00, 0x00, 0xc0, 0xf1, 0xff, 0xff, 0x00, 0x00, 0x00, 0x02, 0x04, 0x00, 0x00, 0x00, 0x2e, 0xf3, 0xff, 0xff, 0x01, 0x00, 0x00, 0x00, 0x00, 0x00, 0x00, 0x00, 
0xd8, 0xf1, 0xff, 0xff, 0x00, 0x00, 0x00, 0x02, 0x04, 0x00, 0x00, 0x00, 0x46, 0xf3, 0xff, 0xff, 0x01, 0x00, 0x00, 0x00, 0x00, 0x00, 0x00, 0x00, 0xf0, 0xf1, 0xff, 0xff, 0x00, 0x00, 0x00, 0x05, 
0x04, 0x00, 0x00, 0x00, 0xd2, 0xf7, 0xff, 0xff, 0x00, 0x00, 0x06, 0x01, 0x20, 0x00, 0x00, 0x00, 0x14, 0x00, 0x00, 0x00, 0x04, 0x00, 0x00, 0x00, 0xc4, 0xf1, 0xff, 0xff, 0x01, 0x00, 0x00, 0x00, 
0xe0, 0x03, 0x00, 0x00, 0x02, 0x00, 0x00, 0x00, 0x00, 0x01, 0x00, 0x00, 0x02, 0x00, 0x00, 0x00, 0x01, 0x00, 0x00, 0x00, 0x0c, 0x00, 0x00, 0x00, 0x30, 0xf2, 0xff, 0xff, 0x00, 0x00, 0x00, 0x07, 
0x04, 0x00, 0x00, 0x00, 0xf6, 0xf2, 0xff, 0xff, 0x04, 0x00, 0x00, 0x00, 0x02, 0x00, 0x00, 0x00, 0x5d, 0x00, 0x00, 0x00, 0x00, 0x00, 0x00, 0x00, 0x5e, 0x00, 0x00, 0x00, 0x00, 0x00, 0x00, 0x00, 
0x58, 0xf2, 0xff, 0xff, 0x00, 0x00, 0x00, 0x02, 0x04, 0x00, 0x00, 0x00, 0x3c, 0xf4, 0xff, 0xff, 0x68, 0xf2, 0xff, 0xff, 0x00, 0x00, 0x00, 0x02, 0x04, 0x00, 0x00, 0x00, 0x5e, 0xf6, 0xff, 0xff, 
0x01, 0x00, 0x00, 0x00, 0x00, 0x00, 0x00, 0x00, 0x00, 0x00, 0x00, 0x00, 0x84, 0xf2, 0xff, 0xff, 0x00, 0x00, 0x00, 0x05, 0x04, 0x00, 0x00, 0x00, 0x66, 0xf8, 0xff, 0xff, 0x00, 0x00, 0x06, 0x01, 
0x20, 0x00, 0x00, 0x00, 0x14, 0x00, 0x00, 0x00, 0x04, 0x00, 0x00, 0x00, 0x58, 0xf2, 0xff, 0xff, 0x01, 0x00, 0x00, 0x00, 0x50, 0x03, 0x00, 0x00, 0x02, 0x00, 0x00, 0x00, 0x00, 0x01, 0x00, 0x00, 
0x02, 0x00, 0x00, 0x00, 0x03, 0x00, 0x00, 0x00, 0x0c, 0x00, 0x00, 0x00, 0xc4, 0xf2, 0xff, 0xff, 0x00, 0x00, 0x00, 0x05, 0x04, 0x00, 0x00, 0x00, 0x12, 0xf4, 0xff, 0xff, 0x00, 0x00, 0x00, 0x06, 
0x1c, 0x00, 0x00, 0x00, 0x10, 0x00, 0x00, 0x00, 0x04, 0x00, 0x00, 0x00, 0x9e, 0xf3, 0xff, 0xff, 0x01, 0x00, 0x00, 0x00, 0x02, 0x00, 0x00, 0x00, 0x00, 0x01, 0x00, 0x00, 0x02, 0x00, 0x00, 0x00, 
0x01, 0x00, 0x00, 0x00, 0x03, 0x00, 0x00, 0x00, 0x00, 0xf3, 0xff, 0xff, 0x00, 0x00, 0x00, 0x07, 0x04, 0x00, 0x00, 0x00, 0xc6, 0xf3, 0xff, 0xff, 0x04, 0x00, 0x00, 0x00, 0x02, 0x00, 0x00, 0x00, 
0x58, 0x00, 0x00, 0x00, 0x00, 0x00, 0x00, 0x00, 0x59, 0x00, 0x00, 0x00, 0x00, 0x00, 0x00, 0x00, 0x28, 0xf3, 0xff, 0xff, 0x00, 0x00, 0x00, 0x02, 0x04, 0x00, 0x00, 0x00, 0x96, 0xf4, 0xff, 0xff, 
0x03, 0x00, 0x00, 0x00, 0x00, 0x00, 0x00, 0x00, 0x40, 0xf3, 0xff, 0xff, 0x00, 0x00, 0x00, 0x02, 0x04, 0x00, 0x00, 0x00, 0xae, 0xf4, 0xff, 0xff, 0x01, 0x00, 0x00, 0x00, 0x00, 0x00, 0x00, 0x00, 
0x58, 0xf3, 0xff, 0xff, 0x00, 0x00, 0x00, 0x07, 0x04, 0x00, 0x00, 0x00, 0x1e, 0xf4, 0xff, 0xff, 0x04, 0x00, 0x00, 0x00, 0x01, 0x00, 0x00, 0x00, 0x56, 0x00, 0x00, 0x00, 0x00, 0x00, 0x00, 0x00, 
0x78, 0xf3, 0xff, 0xff, 0x00, 0x00, 0x00, 0x02, 0x04, 0x00, 0x00, 0x00, 0x5c, 0xf5, 0xff, 0xff, 0x88, 0xf3, 0xff, 0xff, 0x00, 0x00, 0x00, 0x05, 0x04, 0x00, 0x00, 0x00, 0x6a, 0xf9, 0xff, 0xff, 
