__attribute__((section("network_model_sec"), aligned(16))) char model_pte[] = {
0x3c, 0x00, 0x00, 0x00, 0x45, 0x54, 0x31, 0x32, 0x65, 0x68, 0x30, 0x30, 0x18, 0x00, 0x00, 0x00, 0x28, 0x1a, 0x00, 0x00, 0x00, 0x00, 0x00, 0x00, 0x80, 0x1a, 0x00, 0x00, 0x00, 0x00, 0x00, 0x00, 
0x00, 0x00, 0x00, 0x00, 0x00, 0x00, 0x00, 0x00, 0x00, 0x00, 0x00, 0x00, 0x10, 0x00, 0x18, 0x00, 0x00, 0x00, 0x04, 0x00, 0x08, 0x00, 0x0c, 0x00, 0x10, 0x00, 0x14, 0x00, 0x10, 0x00, 0x00, 0x00, 
0xf4, 0x00, 0x00, 0x00, 0xec, 0x00, 0x00, 0x00, 0xe4, 0x00, 0x00, 0x00, 0xc0, 0x00, 0x00, 0x00, 0x04, 0x00, 0x00, 0x00, 0x6c, 0xf9, 0xff, 0xff, 0x04, 0x00, 0x00, 0x00, 0x15, 0x00, 0x00, 0x00, 
0x00, 0x00, 0x00, 0x00, 0x00, 0x00, 0x00, 0x00, 0x00, 0x00, 0x00, 0x00, 0x00, 0x00, 0x00, 0x00, 0x00, 0x02, 0x00, 0x00, 0x00, 0x00, 0x00, 0x00, 0x40, 0x02, 0x00, 0x00, 0x00, 0x00, 0x00, 0x00, 
0x80, 0x02, 0x00, 0x00, 0x00, 0x00, 0x00, 0x00, 0xc0, 0x02, 0x00, 0x00, 0x00, 0x00, 0x00, 0x00, 0xc0, 0x2a, 0x00, 0x00, 0x00, 0x00, 0x00, 0x00, 0x40, 0x2b, 0x00, 0x00, 0x00, 0x00, 0x00, 0x00, 
0xc0, 0x2b, 0x00, 0x00, 0x00, 0x00, 0x00, 0x00, 0x40, 0x2c, 0x00, 0x00, 0x00, 0x00, 0x00, 0x00, 0x40, 0x44, 0x00, 0x00, 0x00, 0x00, 0x00, 0x00, 0x80, 0x44, 0x00, 0x00, 0x00, 0x00, 0x00, 0x00, 
0xc0, 0x44, 0x00, 0x00, 0x00, 0x00, 0x00, 0x00, 0x00, 0x45, 0x00, 0x00, 0x00, 0x00, 0x00, 0x00, 0x80, 0x45, 0x00, 0x00, 0x00, 0x00, 0x00, 0x00, 0x90, 0x45, 0x00, 0x00, 0x00, 0x00, 0x00, 0x00, 
0xd0, 0x45, 0x00, 0x00, 0x00, 0x00, 0x00, 0x00, 0x10, 0x46, 0x00, 0x00, 0x00, 0x00, 0x00, 0x00, 0x90, 0x46, 0x00, 0x00, 0x00, 0x00, 0x00, 0x00, 0x10, 0x47, 0x00, 0x00, 0x00, 0x00, 0x00, 0x00, 
0x50, 0x47, 0x00, 0x00, 0x00, 0x00, 0x00, 0x00, 0x00, 0x00, 0x00, 0x00, 0x01, 0x00, 0x00, 0x00, 0x0c, 0x00, 0x00, 0x00, 0x08, 0x00, 0x10, 0x00, 0x00, 0x00, 0x04, 0x00, 0x08, 0x00, 0x00, 0x00, 
0x90, 0x47, 0x00, 0x00, 0x00, 0x00, 0x00, 0x00, 0x00, 0x00, 0x00, 0x00, 0x00, 0x00, 0x00, 0x00, 0x00, 0x00, 0x00, 0x00, 0x01, 0x00, 0x00, 0x00, 0x1c, 0x00, 0x00, 0x00, 0x00, 0x00, 0x16, 0x00, 
0x28, 0x00, 0x04, 0x00, 0x08, 0x00, 0x0c, 0x00, 0x10, 0x00, 0x14, 0x00, 0x18, 0x00, 0x1c, 0x00, 0x20, 0x00, 0x24, 0x00, 0x16, 0x00, 0x00, 0x00, 0xc4, 0x18, 0x00, 0x00, 0x70, 0x17, 0x00, 0x00, 
0xe0, 0x05, 0x00, 0x00, 0xd4, 0x05, 0x00, 0x00, 0xc8, 0x05, 0x00, 0x00, 0xe4, 0x01, 0x00, 0x00, 0x24, 0x00, 0x00, 0x00, 0x1c, 0x00, 0x00, 0x00, 0x04, 0x00, 0x00, 0x00, 0x02, 0x00, 0x00, 0x00, 
0x00, 0x00, 0x00, 0x00, 0x00, 0x00, 0x00, 0x00, 0xd0, 0x65, 0x00, 0x00, 0x00, 0x00, 0x00, 0x00, 0x00, 0x00, 0x00, 0x00, 0x09, 0x00, 0x00, 0x00, 0x8c, 0x01, 0x00, 0x00, 0x44, 0x01, 0x00, 0x00, 
0x1c, 0x01, 0x00, 0x00, 0xe8, 0x00, 0x00, 0x00, 0xc0, 0x00, 0x00, 0x00, 0x88, 0x00, 0x00, 0x00, 0x58, 0x00, 0x00, 0x00, 0x30, 0x00, 0x00, 0x00, 0x04, 0x00, 0x00, 0x00, 0xf8, 0xe8, 0xff, 0xff, 
0x10, 0x00, 0x00, 0x00, 0x04, 0x00, 0x00, 0x00, 0x03, 0x00, 0x00, 0x00, 0x6f, 0x75, 0x74, 0x00, 0x0e, 0x00, 0x00, 0x00, 0x61, 0x74, 0x65, 0x6e, 0x3a, 0x3a, 0x5f, 0x73, 0x6f, 0x66, 0x74, 0x6d, 
0x61, 0x78, 0x00, 0x00, 0x20, 0xe9, 0xff, 0xff, 0x10, 0x00, 0x00, 0x00, 0x04, 0x00, 0x00, 0x00, 0x03, 0x00, 0x00, 0x00, 0x6f, 0x75, 0x74, 0x00, 0x0b, 0x00, 0x00, 0x00, 0x61, 0x74, 0x65, 0x6e, 
0x3a, 0x3a, 0x61, 0x64, 0x64, 0x6d, 0x6d, 0x00, 0x44, 0xe9, 0xff, 0xff, 0x10, 0x00, 0x00, 0x00, 0x04, 0x00, 0x00, 0x00, 0x03, 0x00, 0x00, 0x00, 0x6f, 0x75, 0x74, 0x00, 0x12, 0x00, 0x00, 0x00, 
0x61, 0x74, 0x65, 0x6e, 0x3a, 0x3a, 0x70, 0x65, 0x72, 0x6d, 0x75, 0x74, 0x65, 0x5f, 0x63, 0x6f, 0x70, 0x79, 0x00, 0x00, 0x70, 0xe9, 0xff, 0xff, 0x18, 0x00, 0x00, 0x00, 0x04, 0x00, 0x00, 0x00, 
0x08, 0x00, 0x00, 0x00, 0x64, 0x69, 0x6d, 0x73, 0x5f, 0x6f, 0x75, 0x74, 0x00, 0x00, 0x00, 0x00, 0x12, 0x00, 0x00, 0x00, 0x61, 0x74, 0x65, 0x6e, 0x3a, 0x3a, 0x73, 0x71, 0x75, 0x65, 0x65, 0x7a, 
0x65, 0x5f, 0x63, 0x6f, 0x70, 0x79, 0x00, 0x00, 0xa4, 0xe9, 0xff, 0xff, 0x10, 0x00, 0x00, 0x00, 0x04, 0x00, 0x00, 0x00, 0x03, 0x00, 0x00, 0x00, 0x6f, 0x75, 0x74, 0x00, 0x0a, 0x00, 0x00, 0x00, 
0x61, 0x74, 0x65, 0x6e, 0x3a, 0x3a, 0x6d, 0x65, 0x61, 0x6e, 0x00, 0x00, 0xc8, 0xe9, 0xff, 0xff, 0x10, 0x00, 0x00, 0x00, 0x04, 0x00, 0x00, 0x00, 0x03, 0x00, 0x00, 0x00, 0x6f, 0x75, 0x74, 0x00, 
0x14, 0x00, 0x00, 0x00, 0x61, 0x74, 0x65, 0x6e, 0x3a, 0x3a, 0x75, 0x6e, 0x73, 0x71, 0x75, 0x65, 0x65, 0x7a, 0x65, 0x5f, 0x63, 0x6f, 0x70, 0x79, 0x00, 0x00, 0x00, 0x00, 0xf8, 0xe9, 0xff, 0xff, 
0x10, 0x00, 0x00, 0x00, 0x04, 0x00, 0x00, 0x00, 0x03, 0x00, 0x00, 0x00, 0x6f, 0x75, 0x74, 0x00, 0x0a, 0x00, 0x00, 0x00, 0x61, 0x74, 0x65, 0x6e, 0x3a, 0x3a, 0x72, 0x65, 0x6c, 0x75, 0x00, 0x00, 
0x1c, 0xea, 0xff, 0xff, 0x10, 0x00, 0x00, 0x00, 0x04, 0x00, 0x00, 0x00, 0x03, 0x00, 0x00, 0x00, 0x6f, 0x75, 0x74, 0x00, 0x2a, 0x00, 0x00, 0x00, 0x61, 0x74, 0x65, 0x6e, 0x3a, 0x3a, 0x5f, 0x6e, 
0x61, 0x74, 0x69, 0x76, 0x65, 0x5f, 0x62, 0x61, 0x74, 0x63, 0x68, 0x5f, 0x6e, 0x6f, 0x72, 0x6d, 0x5f, 0x6c, 0x65, 0x67, 0x69, 0x74, 0x5f, 0x6e, 0x6f, 0x5f, 0x74, 0x72, 0x61, 0x69, 0x6e, 0x69, 
0x6e, 0x67, 0x00, 0x00, 0x60, 0xea, 0xff, 0xff, 0x10, 0x00, 0x00, 0x00, 0x04, 0x00, 0x00, 0x00, 0x03, 0x00, 0x00, 0x00, 0x6f, 0x75, 0x74, 0x00, 0x11, 0x00, 0x00, 0x00, 0x61, 0x74, 0x65, 0x6e, 
0x3a, 0x3a, 0x63, 0x6f, 0x6e, 0x76, 0x6f, 0x6c, 0x75, 0x74, 0x69, 0x6f, 0x6e, 0x00, 0x00, 0x00, 0x01, 0x00, 0x00, 0x00, 0x10, 0x00, 0x00, 0x00, 0x00, 0x00, 0x0a, 0x00, 0x10, 0x00, 0x04, 0x00, 
0x08, 0x00, 0x0c, 0x00, 0x0a, 0x00, 0x00, 0x00, 0xc4, 0x03, 0x00, 0x00, 0xbc, 0x03, 0x00, 0x00, 0x04, 0x00, 0x00, 0x00, 0x10, 0x00, 0x00, 0x00, 0x64, 0x03, 0x00, 0x00, 0x18, 0x03, 0x00, 0x00, 
0xec, 0x02, 0x00, 0x00, 0xa4, 0x02, 0x00, 0x00, 0x58, 0x02, 0x00, 0x00, 0x2c, 0x02, 0x00, 0x00, 0xe4, 0x01, 0x00, 0x00, 0x98, 0x01, 0x00, 0x00, 0x6c, 0x01, 0x00, 0x00, 0x3c, 0x01, 0x00, 0x00, 
0x04, 0x01, 0x00, 0x00, 0xd4, 0x00, 0x00, 0x00, 0xa4, 0x00, 0x00, 0x00, 0x74, 0x00, 0x00, 0x00, 0x38, 0x00, 0x00, 0x00, 0x04, 0x00, 0x00, 0x00, 0x44, 0xeb, 0xff, 0xff, 0x00, 0x00, 0x00, 0x01, 
0x04, 0x00, 0x00, 0x00, 0x00, 0xeb, 0xff, 0xff, 0x08, 0x00, 0x00, 0x00, 0x04, 0x00, 0x00, 0x00, 0x05, 0x00, 0x00, 0x00, 0x5d, 0x00, 0x00, 0x00, 0x61, 0x00, 0x00, 0x00, 0x62, 0x00, 0x00, 0x00, 
0x60, 0x00, 0x00, 0x00, 0x60, 0x00, 0x00, 0x00, 0x74, 0xeb, 0xff, 0xff, 0x00, 0x00, 0x00, 0x01, 0x04, 0x00, 0x00, 0x00, 0x30, 0xeb, 0xff, 0xff, 0x07, 0x00, 0x00, 0x00, 0x04, 0x00, 0x00, 0x00, 
0x07, 0x00, 0x00, 0x00, 0x0d, 0x00, 0x00, 0x00, 0x56, 0x00, 0x00, 0x00, 0x59, 0x00, 0x00, 0x00, 0x5e, 0x00, 0x00, 0x00, 0x5f, 0x00, 0x00, 0x00, 0x5d, 0x00, 0x00, 0x00, 0x5d, 0x00, 0x00, 0x00, 
0xac, 0xeb, 0xff, 0xff, 0x00, 0x00, 0x00, 0x01, 0x04, 0x00, 0x00, 0x00, 0x68, 0xeb, 0xff, 0xff, 0x06, 0x00, 0x00, 0x00, 0x04, 0x00, 0x00, 0x00, 0x04, 0x00, 0x00, 0x00, 0x0c, 0x00, 0x00, 0x00, 
0x5c, 0x00, 0x00, 0x00, 0x59, 0x00, 0x00, 0x00, 0x59, 0x00, 0x00, 0x00, 0xd8, 0xeb, 0xff, 0xff, 0x00, 0x00, 0x00, 0x01, 0x04, 0x00, 0x00, 0x00, 0x94, 0xeb, 0xff, 0xff, 0x05, 0x00, 0x00, 0x00, 
0x04, 0x00, 0x00, 0x00, 0x04, 0x00, 0x00, 0x00, 0x53, 0x00, 0x00, 0x00, 0x58, 0x00, 0x00, 0x00, 0x56, 0x00, 0x00, 0x00, 0x56, 0x00, 0x00, 0x00, 0x04, 0xec, 0xff, 0xff, 0x00, 0x00, 0x00, 0x01, 
0x04, 0x00, 0x00, 0x00, 0xc0, 0xeb, 0xff, 0xff, 0x05, 0x00, 0x00, 0x00, 0x04, 0x00, 0x00, 0x00, 0x04, 0x00, 0x00, 0x00, 0x4d, 0x00, 0x00, 0x00, 0x55, 0x00, 0x00, 0x00, 0x53, 0x00, 0x00, 0x00, 
0x53, 0x00, 0x00, 0x00, 0x30, 0xec, 0xff, 0xff, 0x00, 0x00, 0x00, 0x01, 0x04, 0x00, 0x00, 0x00, 0xec, 0xeb, 0xff, 0xff, 0x04, 0x00, 0x00, 0x00, 0x04, 0x00, 0x00, 0x00, 0x06, 0x00, 0x00, 0x00, 
0x4b, 0x00, 0x00, 0x00, 0x50, 0x00, 0x00, 0x00, 0x51, 0x00, 0x00, 0x00, 0x52, 0x00, 0x00, 0x00, 0x4d, 0x00, 0x00, 0x00, 0x4d, 0x00, 0x00, 0x00, 0x64, 0xec, 0xff, 0xff, 0x00, 0x00, 0x00, 0x01, 
0x04, 0x00, 0x00, 0x00, 0x20, 0xec, 0xff, 0xff, 0x03, 0x00, 0x00, 0x00, 0x04, 0x00, 0x00, 0x00, 0x04, 0x00, 0x00, 0x00, 0x4a, 0x00, 0x00, 0x00, 0x4c, 0x00, 0x00, 0x00, 0x4b, 0x00, 0x00, 0x00, 
0x4b, 0x00, 0x00, 0x00, 0x90, 0xec, 0xff, 0xff, 0x00, 0x00, 0x00, 0x01, 0x04, 0x00, 0x00, 0x00, 0x4c, 0xec, 0xff, 0xff, 0x02, 0x00, 0x00, 0x00, 0x04, 0x00, 0x00, 0x00, 0x03, 0x00, 0x00, 0x00, 
0x44, 0x00, 0x00, 0x00, 0x4a, 0x00, 0x00, 0x00, 0x4a, 0x00, 0x00, 0x00, 0xb8, 0xec, 0xff, 0xff, 0x00, 0x00, 0x00, 0x01, 0x04, 0x00, 0x00, 0x00, 0x74, 0xec, 0xff, 0xff, 0x01, 0x00, 0x00, 0x00, 
0x04, 0x00, 0x00, 0x00, 0x0b, 0x00, 0x00, 0x00, 0x39, 0x00, 0x00, 0x00, 0x0a, 0x00, 0x00, 0x00, 0x0b, 0x00, 0x00, 0x00, 0x12, 0x00, 0x00, 0x00, 0x13, 0x00, 0x00, 0x00, 0x47, 0x00, 0x00, 0x00, 
0x48, 0x00, 0x00, 0x00, 0x44, 0x00, 0x00, 0x00, 0x45, 0x00, 0x00, 0x00, 0x46, 0x00, 0x00, 0x00, 0x49, 0x00, 0x00, 0x00, 0x00, 0xed, 0xff, 0xff, 0x00, 0x00, 0x00, 0x01, 0x04, 0x00, 0x00, 0x00, 
0x98, 0xfe, 0xff, 0xff, 0x04, 0x00, 0x00, 0x00, 0x0b, 0x00, 0x00, 0x00, 0x38, 0x00, 0x00, 0x00, 0x08, 0x00, 0x00, 0x00, 0x09, 0x00, 0x00, 0x00, 0x3b, 0x00, 0x00, 0x00, 0x3d, 0x00, 0x00, 0x00, 
0x3f, 0x00, 0x00, 0x00, 0x40, 0x00, 0x00, 0x00, 0x42, 0x00, 0x00, 0x00, 0x43, 0x00, 0x00, 0x00, 0x39, 0x00, 0x00, 0x00, 0x39, 0x00, 0x00, 0x00, 0x44, 0xed, 0xff, 0xff, 0x00, 0x00, 0x00, 0x01, 
0x04, 0x00, 0x00, 0x00, 0x00, 0xed, 0xff, 0xff, 0x02, 0x00, 0x00, 0x00, 0x04, 0x00, 0x00, 0x00, 0x03, 0x00, 0x00, 0x00, 0x32, 0x00, 0x00, 0x00, 0x38, 0x00, 0x00, 0x00, 0x38, 0x00, 0x00, 0x00, 
0x6c, 0xed, 0xff, 0xff, 0x00, 0x00, 0x00, 0x01, 0x04, 0x00, 0x00, 0x00, 0x28, 0xed, 0xff, 0xff, 0x01, 0x00, 0x00, 0x00, 0x04, 0x00, 0x00, 0x00, 0x0b, 0x00, 0x00, 0x00, 0x27, 0x00, 0x00, 0x00, 
0x06, 0x00, 0x00, 0x00, 0x07, 0x00, 0x00, 0x00, 0x10, 0x00, 0x00, 0x00, 0x11, 0x00, 0x00, 0x00, 0x35, 0x00, 0x00, 0x00, 0x36, 0x00, 0x00, 0x00, 0x32, 0x00, 0x00, 0x00, 0x33, 0x00, 0x00, 0x00, 
0x34, 0x00, 0x00, 0x00, 0x37, 0x00, 0x00, 0x00, 0xb4, 0xed, 0xff, 0xff, 0x00, 0x00, 0x00, 0x01, 0x04, 0x00, 0x00, 0x00, 0x4c, 0xff, 0xff, 0xff, 0x04, 0x00, 0x00, 0x00, 0x0b, 0x00, 0x00, 0x00, 
0x26, 0x00, 0x00, 0x00, 0x04, 0x00, 0x00, 0x00, 0x05, 0x00, 0x00, 0x00, 0x29, 0x00, 0x00, 0x00, 0x2b, 0x00, 0x00, 0x00, 0x2d, 0x00, 0x00, 0x00, 0x2e, 0x00, 0x00, 0x00, 0x30, 0x00, 0x00, 0x00, 
0x31, 0x00, 0x00, 0x00, 0x27, 0x00, 0x00, 0x00, 0x27, 0x00, 0x00, 0x00, 0xf8, 0xed, 0xff, 0xff, 0x00, 0x00, 0x00, 0x01, 0x04, 0x00, 0x00, 0x00, 0xb4, 0xed, 0xff, 0xff, 0x02, 0x00, 0x00, 0x00, 
0x04, 0x00, 0x00, 0x00, 0x03, 0x00, 0x00, 0x00, 0x20, 0x00, 0x00, 0x00, 0x26, 0x00, 0x00, 0x00, 0x26, 0x00, 0x00, 0x00, 0x20, 0xee, 0xff, 0xff, 0x00, 0x00, 0x00, 0x01, 0x04, 0x00, 0x00, 0x00, 
0xdc, 0xed, 0xff, 0xff, 0x01, 0x00, 0x00, 0x00, 0x04, 0x00, 0x00, 0x00, 0x0b, 0x00, 0x00, 0x00, 0x15, 0x00, 0x00, 0x00, 0x02, 0x00, 0x00, 0x00, 0x03, 0x00, 0x00, 0x00, 0x0e, 0x00, 0x00, 0x00, 
0x0f, 0x00, 0x00, 0x00, 0x23, 0x00, 0x00, 0x00, 0x24, 0x00, 0x00, 0x00, 0x20, 0x00, 0x00, 0x00, 0x21, 0x00, 0x00, 0x00, 0x22, 0x00, 0x00, 0x00, 0x25, 0x00, 0x00, 0x00, 0x68, 0xee, 0xff, 0xff, 
0x00, 0x00, 0x00, 0x01, 0x0c, 0x00, 0x00, 0x00, 0x08, 0x00, 0x08, 0x00, 0x00, 0x00, 0x04, 0x00, 0x08, 0x00, 0x00, 0x00, 0x04, 0x00, 0x00, 0x00, 0x0b, 0x00, 0x00, 0x00, 0x14, 0x00, 0x00, 0x00, 
0x00, 0x00, 0x00, 0x00, 0x01, 0x00, 0x00, 0x00, 0x17, 0x00, 0x00, 0x00, 0x19, 0x00, 0x00, 0x00, 0x1b, 0x00, 0x00, 0x00, 0x1c, 0x00, 0x00, 0x00, 0x1e, 0x00, 0x00, 0x00, 0x1f, 0x00, 0x00, 0x00, 
0x15, 0x00, 0x00, 0x00, 0x15, 0x00, 0x00, 0x00, 0x00, 0x00, 0x00, 0x00, 0x00, 0x00, 0x00, 0x00, 0x01, 0x00, 0x00, 0x00, 0x60, 0x00, 0x00, 0x00, 0x01, 0x00, 0x00, 0x00, 0x14, 0x00, 0x00, 0x00, 
0x63, 0x00, 0x00, 0x00, 0x38, 0x11, 0x00, 0x00, 0xfc, 0x10, 0x00, 0x00, 0xc8, 0x10, 0x00, 0x00, 0x94, 0x10, 0x00, 0x00, 0x58, 0x10, 0x00, 0x00, 0x24, 0x10, 0x00, 0x00, 0xf0, 0x0f, 0x00, 0x00, 
0xbc, 0x0f, 0x00, 0x00, 0x80, 0x0f, 0x00, 0x00, 0x4c, 0x0f, 0x00, 0x00, 0x18, 0x0f, 0x00, 0x00, 0xe4, 0x0e, 0x00, 0x00, 0xac, 0x0e, 0x00, 0x00, 0x78, 0x0e, 0x00, 0x00, 0x34, 0x0e, 0x00, 0x00, 
0x00, 0x0e, 0x00, 0x00, 0xcc, 0x0d, 0x00, 0x00, 0x98, 0x0d, 0x00, 0x00, 0x64, 0x0d, 0x00, 0x00, 0x30, 0x0d, 0x00, 0x00, 0xd0, 0x0c, 0x00, 0x00, 0x6c, 0x0c, 0x00, 0x00, 0x44, 0x0c, 0x00, 0x00, 
0x20, 0x0c, 0x00, 0x00, 0xfc, 0x0b, 0x00, 0x00, 0xd8, 0x0b, 0x00, 0x00, 0xbc, 0x0b, 0x00, 0x00, 0x98, 0x0b, 0x00, 0x00, 0x80, 0x0b, 0x00, 0x00, 0x6c, 0x0b, 0x00, 0x00, 0x44, 0x0b, 0x00, 0x00, 
0x28, 0x0b, 0x00, 0x00, 0xe4, 0x0a, 0x00, 0x00, 0x90, 0x0a, 0x00, 0x00, 0x50, 0x0a, 0x00, 0x00, 0x30, 0x0a, 0x00, 0x00, 0x14, 0x0a, 0x00, 0x00, 0xec, 0x09, 0x00, 0x00, 0xa4, 0x09, 0x00, 0x00, 
0x60, 0x09, 0x00, 0x00, 0x44, 0x09, 0x00, 0x00, 0x20, 0x09, 0x00, 0x00, 0x04, 0x09, 0x00, 0x00, 0xe0, 0x08, 0x00, 0x00, 0xc4, 0x08, 0x00, 0x00, 0xa0, 0x08, 0x00, 0x00, 0x8c, 0x08, 0x00, 0x00, 
0x78, 0x08, 0x00, 0x00, 0x54, 0x08, 0x00, 0x00, 0x38, 0x08, 0x00, 0x00, 0xf0, 0x07, 0x00, 0x00, 0xb0, 0x07, 0x00, 0x00, 0x70, 0x07, 0x00, 0x00, 0x50, 0x07, 0x00, 0x00, 0x34, 0x07, 0x00, 0x00, 
0x0c, 0x07, 0x00, 0x00, 0xc8, 0x06, 0x00, 0x00, 0x80, 0x06, 0x00, 0x00, 0x64, 0x06, 0x00, 0x00, 0x40, 0x06, 0x00, 0x00, 0x24, 0x06, 0x00, 0x00, 0x00, 0x06, 0x00, 0x00, 0xe4, 0x05, 0x00, 0x00, 
0xc0, 0x05, 0x00, 0x00, 0xac, 0x05, 0x00, 0x00, 0x98, 0x05, 0x00, 0x00, 0x74, 0x05, 0x00, 0x00, 0x58, 0x05, 0x00, 0x00, 0x14, 0x05, 0x00, 0x00, 0xd4, 0x04, 0x00, 0x00, 0x94, 0x04, 0x00, 0x00, 
0x78, 0x04, 0x00, 0x00, 0x5c, 0x04, 0x00, 0x00, 0x34, 0x04, 0x00, 0x00, 0xec, 0x03, 0x00, 0x00, 0xa4, 0x03, 0x00, 0x00, 0x84, 0x03, 0x00, 0x00, 0x38, 0x03, 0x00, 0x00, 0x1c, 0x03, 0x00, 0x00, 
0x00, 0x03, 0x00, 0x00, 0xd4, 0x02, 0x00, 0x00, 0xb4, 0x02, 0x00, 0x00, 0xa0, 0x02, 0x00, 0x00, 0x58, 0x02, 0x00, 0x00, 0x3c, 0x02, 0x00, 0x00, 0x18, 0x02, 0x00, 0x00, 0xd4, 0x01, 0x00, 0x00, 
0xb8, 0x01, 0x00, 0x00, 0x94, 0x01, 0x00, 0x00, 0x50, 0x01, 0x00, 0x00, 0x34, 0x01, 0x00, 0x00, 0x20, 0x01, 0x00, 0x00, 0xf4, 0x00, 0x00, 0x00, 0xb0, 0x00, 0x00, 0x00, 0x94, 0x00, 0x00, 0x00, 
0x78, 0x00, 0x00, 0x00, 0x34, 0x00, 0x00, 0x00, 0x18, 0x00, 0x00, 0x00, 0x04, 0x00, 0x00, 0x00, 0x5c, 0xf0, 0xff, 0xff, 0x00, 0x00, 0x00, 0x03, 0x04, 0x00, 0x00, 0x00, 0x9c, 0xf5, 0xff, 0xff, 
0x6c, 0xf0, 0xff, 0xff, 0x00, 0x00, 0x00, 0x02, 0x04, 0x00, 0x00, 0x00, 0x3e, 0xf5, 0xff, 0xff, 0x01, 0x00, 0x00, 0x00, 0x00, 0x00, 0x00, 0x00, 0x84, 0xf0, 0xff, 0xff, 0x00, 0x00, 0x00, 0x05, 
0x04, 0x00, 0x00, 0x00, 0xf2, 0xf4, 0xff, 0xff, 0x00, 0x00, 0x06, 0x01, 0x20, 0x00, 0x00, 0x00, 0x14, 0x00, 0x00, 0x00, 0x04, 0x00, 0x00, 0x00, 0x54, 0xf0, 0xff, 0xff, 0x01, 0x00, 0x00, 0x00, 
0x00, 0x65, 0x00, 0x00, 0x02, 0x00, 0x00, 0x00, 0x00, 0x01, 0x00, 0x00, 0x02, 0x00, 0x00, 0x00, 0x01, 0x00, 0x00, 0x00, 0x02, 0x00, 0x00, 0x00, 0xc4, 0xf0, 0xff, 0xff, 0x00, 0x00, 0x00, 0x02, 
0x04, 0x00, 0x00, 0x00, 0x96, 0xf5, 0xff, 0xff, 0x01, 0x00, 0x00, 0x00, 0x00, 0x00, 0x00, 0x00, 0xdc, 0xf0, 0xff, 0xff, 0x00, 0x00, 0x00, 0x02, 0x04, 0x00, 0x00, 0x00, 0xae, 0xf5, 0xff, 0xff, 
0x01, 0x00, 0x00, 0x00, 0x00, 0x00, 0x00, 0x00, 0xf4, 0xf0, 0xff, 0xff, 0x00, 0x00, 0x00, 0x05, 0x04, 0x00, 0x00, 0x00, 0x62, 0xf5, 0xff, 0xff, 0x00, 0x00, 0x06, 0x01, 0x20, 0x00, 0x00, 0x00, 
0x14, 0x00, 0x00, 0x00, 0x04, 0x00, 0x00, 0x00, 0xc4, 0xf0, 0xff, 0xff, 0x01, 0x00, 0x00, 0x00, 0xc0, 0x65, 0x00, 0x00, 0x02, 0x00, 0x00, 0x00, 0x00, 0x01, 0x00, 0x00, 0x02, 0x00, 0x00, 0x00, 
0x01, 0x00, 0x00, 0x00, 0x02, 0x00, 0x00, 0x00, 0x34, 0xf1, 0xff, 0xff, 0x00, 0x00, 0x00, 0x07, 0x04, 0x00, 0x00, 0x00, 0x1a, 0xf5, 0xff, 0xff, 0x04, 0x00, 0x00, 0x00, 0x02, 0x00, 0x00, 0x00, 
0x5a, 0x00, 0x00, 0x00, 0x00, 0x00, 0x00, 0x00, 0x5b, 0x00, 0x00, 0x00, 0x00, 0x00, 0x00, 0x00, 0x5c, 0xf1, 0xff, 0xff, 0x00, 0x00, 0x00, 0x02, 0x04, 0x00, 0x00, 0x00, 0x9c, 0xf6, 0xff, 0xff, 
0x6c, 0xf1, 0xff, 0xff, 0x00, 0x00, 0x00, 0x02, 0x04, 0x00, 0x00, 0x00, 0x3e, 0xf6, 0xff, 0xff, 0x01, 0x00, 0x00, 0x00, 0x00, 0x00, 0x00, 0x00, 0x84, 0xf1, 0xff, 0xff, 0x00, 0x00, 0x00, 0x05, 
0x04, 0x00, 0x00, 0x00, 0xf2, 0xf5, 0xff, 0xff, 0x00, 0x00, 0x06, 0x01, 0x20, 0x00, 0x00, 0x00, 0x14, 0x00, 0x00, 0x00, 0x04, 0x00, 0x00, 0x00, 0x54, 0xf1, 0xff, 0xff, 0x01, 0x00, 0x00, 0x00, 
0x40, 0x65, 0x00, 0x00, 0x02, 0x00, 0x00, 0x00, 0x00, 0x01, 0x00, 0x00, 0x02, 0x00, 0x00, 0x00, 0x10, 0x00, 0x00, 0x00, 0x02, 0x00, 0x00, 0x00, 0xc4, 0xf1, 0xff, 0xff, 0x00, 0x00, 0x00, 0x07, 
0x04, 0x00, 0x00, 0x00, 0xaa, 0xf5, 0xff, 0xff, 0x04, 0x00, 0x00, 0x00, 0x01, 0x00, 0x00, 0x00, 0x57, 0x00, 0x00, 0x00, 0x00, 0x00, 0x00, 0x00, 0xe4, 0xf1, 0xff, 0xff, 0x00, 0x00, 0x00, 0x02, 
0x04, 0x00, 0x00, 0x00, 0xb6, 0xf6, 0xff, 0xff, 0xff, 0xff, 0xff, 0xff, 0xff, 0xff, 0xff, 0xff, 0xfc, 0xf1, 0xff, 0xff, 0x00, 0x00, 0x00, 0x05, 0x04, 0x00, 0x00, 0x00, 0x6a, 0xf6, 0xff, 0xff, 
0x00, 0x00, 0x06, 0x01, 0x20, 0x00, 0x00, 0x00, 0x14, 0x00, 0x00, 0x00, 0x04, 0x00, 0x00, 0x00, 0xcc, 0xf1, 0xff, 0xff, 0x01, 0x00, 0x00, 0x00, 0x00, 0x65, 0x00, 0x00, 0x02, 0x00, 0x00, 0x00, 
0x00, 0x01, 0x00, 0x00, 0x02, 0x00, 0x00, 0x00, 0x01, 0x00, 0x00, 0x00, 0x10, 0x00, 0x00, 0x00, 0x3c, 0xf2, 0xff, 0xff, 0x00, 0x00, 0x00, 0x07, 0x04, 0x00, 0x00, 0x00, 0x22, 0xf6, 0xff, 0xff, 
0x04, 0x00, 0x00, 0x00, 0x01, 0x00, 0x00, 0x00, 0x54, 0x00, 0x00, 0x00, 0x00, 0x00, 0x00, 0x00, 0x5c, 0xf2, 0xff, 0xff, 0x00, 0x00, 0x00, 0x02, 0x04, 0x00, 0x00, 0x00, 0x2e, 0xf7, 0xff, 0xff, 
0xfe, 0xff, 0xff, 0xff, 0xff, 0xff, 0xff, 0xff, 0x74, 0xf2, 0xff, 0xff, 0x00, 0x00, 0x00, 0x05, 0x04, 0x00, 0x00, 0x00, 0xe2, 0xf6, 0xff, 0xff, 0x00, 0x00, 0x06, 0x01, 0x20, 0x00, 0x00, 0x00, 
0x14, 0x00, 0x00, 0x00, 0x04, 0x00, 0x00, 0x00, 0x44, 0xf2, 0xff, 0xff, 0x01, 0x00, 0x00, 0x00, 0x40, 0x65, 0x00, 0x00, 0x03, 0x00, 0x00, 0x00, 0x00, 0x01, 0x02, 0x00, 0x03, 0x00, 0x00, 0x00, 
0x01, 0x00, 0x00, 0x00, 0x10, 0x00, 0x00, 0x00, 0x01, 0x00, 0x00, 0x00, 0xb8, 0xf2, 0xff, 0xff, 0x00, 0x00, 0x00, 0x01, 0x04, 0x00, 0x00, 0x00, 0xf8, 0xf7, 0xff, 0xff, 0xe0, 0xf6, 0xff, 0xff, 
0x00, 0x00, 0x00, 0x03, 0x0c, 0x00, 0x00, 0x00, 0x00, 0x00, 0x06, 0x00, 0x08, 0x00, 0x07, 0x00, 0x06, 0x00, 0x00, 0x00, 0x00, 0x00, 0x00, 0x01, 0xe4, 0xf2, 0xff, 0xff, 0x00, 0x00, 0x00, 0x07, 
0x04, 0x00, 0x00, 0x00, 0xca, 0xf6, 0xff, 0xff, 0x04, 0x00, 0x00, 0x00, 0x02, 0x00, 0x00, 0x00, 0x4e, 0x00, 0x00, 0x00, 0x00, 0x00, 0x00, 0x00, 0x4f, 0x00, 0x00, 0x00, 0x00, 0x00, 0x00, 0x00, 
0x0c, 0xf3, 0xff, 0xff, 0x00, 0x00, 0x00, 0x02, 0x04, 0x00, 0x00, 0x00, 0xde, 0xf7, 0xff, 0xff, 0xfe, 0xff, 0xff, 0xff, 0xff, 0xff, 0xff, 0xff, 0x24, 0xf3, 0xff, 0xff, 0x00, 0x00, 0x00, 0x02, 
0x04, 0x00, 0x00, 0x00, 0xf6, 0xf7, 0xff, 0xff, 0xff, 0xff, 0xff, 0xff, 0xff, 0xff, 0xff, 0xff, 0x3c, 0xf3, 0xff, 0xff, 0x00, 0x00, 0x00, 0x05, 0x04, 0x00, 0x00, 0x00, 0xaa, 0xf7, 0xff, 0xff, 
0x00, 0x00, 0x06, 0x01, 0x20, 0x00, 0x00, 0x00, 0x14, 0x00, 0x00, 0x00, 0x04, 0x00, 0x00, 0x00, 0x0c, 0xf3, 0xff, 0xff, 0x01, 0x00, 0x00, 0x00, 0x00, 0x65, 0x00, 0x00, 0x04, 0x00, 0x00, 0x00, 
0x00, 0x01, 0x02, 0x03, 0x04, 0x00, 0x00, 0x00, 0x01, 0x00, 0x00, 0x00, 0x10, 0x00, 0x00, 0x00, 0x01, 0x00, 0x00, 0x00, 0x01, 0x00, 0x00, 0x00, 0x84, 0xf3, 0xff, 0xff, 0x00, 0x00, 0x00, 0x02, 
0x04, 0x00, 0x00, 0x00, 0x16, 0xf8, 0xff, 0xff, 0xfe, 0xff, 0xff, 0xff, 0xff, 0xff, 0xff, 0xff, 0x00, 0x00, 0x00, 0x00, 0xa0, 0xf3, 0xff, 0xff, 0x00, 0x00, 0x00, 0x05, 0x04, 0x00, 0x00, 0x00, 
0x0e, 0xf8, 0xff, 0xff, 0x00, 0x00, 0x06, 0x01, 0x1c, 0x00, 0x00, 0x00, 0x10, 0x00, 0x00, 0x00, 0x04, 0x00, 0x00, 0x00, 0x9a, 0xf7, 0xff, 0xff, 0x01, 0x00, 0x00, 0x00, 0x04, 0x00, 0x00, 0x00, 
0x00, 0x01, 0x02, 0x03, 0x04, 0x00, 0x00, 0x00, 0x01, 0x00, 0x00, 0x00, 0x10, 0x00, 0x00, 0x00, 0x01, 0x00, 0x00, 0x00, 0x65, 0x00, 0x00, 0x00, 0xe4, 0xf3, 0xff, 0xff, 0x00, 0x00, 0x00, 0x05, 
0x04, 0x00, 0x00, 0x00, 0x52, 0xf8, 0xff, 0xff, 0x00, 0x00, 0x06, 0x01, 0x20, 0x00, 0x00, 0x00, 0x14, 0x00, 0x00, 0x00, 0x04, 0x00, 0x00, 0x00, 0xb4, 0xf3, 0xff, 0xff, 0x01, 0x00, 0x00, 0x00, 
0x80, 0x32, 0x00, 0x00, 0x03, 0x00, 0x00, 0x00, 0x00, 0x01, 0x02, 0x00, 0x03, 0x00, 0x00, 0x00, 0x01, 0x00, 0x00, 0x00, 0x10, 0x00, 0x00, 0x00, 0x65, 0x00, 0x00, 0x00, 0x28, 0xf4, 0xff, 0xff, 
0x00, 0x00, 0x00, 0x0a, 0x04, 0x00, 0x00, 0x00, 0x0e, 0xf8, 0xff, 0xff, 0x04, 0x00, 0x00, 0x00, 0x03, 0x00, 0x00, 0x00, 0x44, 0x00, 0x00, 0x00, 0x45, 0x00, 0x00, 0x00, 0x46, 0x00, 0x00, 0x00, 
0x4c, 0xf4, 0xff, 0xff, 0x00, 0x00, 0x00, 0x04, 0x04, 0x00, 0x00, 0x00, 0x1e, 0xf9, 0xff, 0xff, 0xf1, 0x68, 0xe3, 0x88, 0xb5, 0xf8, 0xe4, 0x3e, 0x64, 0xf4, 0xff, 0xff, 0x00, 0x00, 0x00, 0x04, 
0x04, 0x00, 0x00, 0x00, 0x36, 0xf9, 0xff, 0xff, 0x9a, 0x99, 0x99, 0x99, 0x99, 0x99, 0xb9, 0x3f, 0x7c, 0xf4, 0xff, 0xff, 0x00, 0x00, 0x00, 0x05, 0x04, 0x00, 0x00, 0x00, 0x96, 0xfa, 0xff, 0xff, 
0x00, 0x00, 0x00, 0x06, 0x20, 0x00, 0x00, 0x00, 0x14, 0x00, 0x00, 0x00, 0x04, 0x00, 0x00, 0x00, 0x4c, 0xf4, 0xff, 0xff, 0x01, 0x00, 0x00, 0x00, 0x40, 0x65, 0x00, 0x00, 0x01, 0x00, 0x00, 0x00, 
0x00, 0x00, 0x00, 0x00, 0x01, 0x00, 0x00, 0x00, 0x00, 0x00, 0x00, 0x00, 0xb8, 0xf4, 0xff, 0xff, 0x00, 0x00, 0x00, 0x05, 0x04, 0x00, 0x00, 0x00, 0xd2, 0xfa, 0xff, 0xff, 0x00, 0x00, 0x00, 0x06, 
0x20, 0x00, 0x00, 0x00, 0x14, 0x00, 0x00, 0x00, 0x04, 0x00, 0x00, 0x00, 0x88, 0xf4, 0xff, 0xff, 0x01, 0x00, 0x00, 0x00, 0x00, 0x65, 0x00, 0x00, 0x01, 0x00, 0x00, 0x00, 0x00, 0x00, 0x00, 0x00, 
0x01, 0x00, 0x00, 0x00, 0x00, 0x00, 0x00, 0x00, 0xf4, 0xf4, 0xff, 0xff, 0x00, 0x00, 0x00, 0x05, 0x04, 0x00, 0x00, 0x00, 0x62, 0xf9, 0xff, 0xff, 0x00, 0x00, 0x06, 0x01, 0x1c, 0x00, 0x00, 0x00, 
0x10, 0x00, 0x00, 0x00, 0x04, 0x00, 0x00, 0x00, 0xee, 0xf8, 0xff, 0xff, 0x01, 0x00, 0x00, 0x00, 0x03, 0x00, 0x00, 0x00, 0x00, 0x01, 0x02, 0x00, 0x03, 0x00, 0x00, 0x00, 0x01, 0x00, 0x00, 0x00, 
0x10, 0x00, 0x00, 0x00, 0x65, 0x00, 0x00, 0x00, 0x34, 0xf5, 0xff, 0xff, 0x00, 0x00, 0x00, 0x02, 0x04, 0x00, 0x00, 0x00, 0x06, 0xfa, 0xff, 0xff, 0x01, 0x00, 0x00, 0x00, 0x00, 0x00, 0x00, 0x00, 
0x4c, 0xf5, 0xff, 0xff, 0x00, 0x00, 0x00, 0x07, 0x04, 0x00, 0x00, 0x00, 0x32, 0xf9, 0xff, 0xff, 0x04, 0x00, 0x00, 0x00, 0x01, 0x00, 0x00, 0x00, 0x41, 0x00, 0x00, 0x00, 0x00, 0x00, 0x00, 0x00, 
0x6c, 0xf5, 0xff, 0xff, 0x00, 0x00, 0x00, 0x02, 0x04, 0x00, 0x00, 0x00, 0xac, 0xfa, 0xff, 0xff, 0x7c, 0xf5, 0xff, 0xff, 0x00, 0x00, 0x00, 0x03, 0x04, 0x00, 0x00, 0x00, 0xbc, 0xfa, 0xff, 0xff, 
0x8c, 0xf5, 0xff, 0xff, 0x00, 0x00, 0x00, 0x07, 0x04, 0x00, 0x00, 0x00, 0x72, 0xf9, 0xff, 0xff, 0x04, 0x00, 0x00, 0x00, 0x01, 0x00, 0x00, 0x00, 0x3e, 0x00, 0x00, 0x00, 0x00, 0x00, 0x00, 0x00, 
0xac, 0xf5, 0xff, 0xff, 0x00, 0x00, 0x00, 0x02, 0x04, 0x00, 0x00, 0x00, 0x7e, 0xfa, 0xff, 0xff, 0x01, 0x00, 0x00, 0x00, 0x00, 0x00, 0x00, 0x00, 0xc4, 0xf5, 0xff, 0xff, 0x00, 0x00, 0x00, 0x07, 
0x04, 0x00, 0x00, 0x00, 0xaa, 0xf9, 0xff, 0xff, 0x04, 0x00, 0x00, 0x00, 0x01, 0x00, 0x00, 0x00, 0x3c, 0x00, 0x00, 0x00, 0x00, 0x00, 0x00, 0x00, 0xe4, 0xf5, 0xff, 0xff, 0x00, 0x00, 0x00, 0x02, 
0x04, 0x00, 0x00, 0x00, 0xb6, 0xfa, 0xff, 0xff, 0x01, 0x00, 0x00, 0x00, 0x00, 0x00, 0x00, 0x00, 0xfc, 0xf5, 0xff, 0xff, 0x00, 0x00, 0x00, 0x07, 0x04, 0x00, 0x00, 0x00, 0xe2, 0xf9, 0xff, 0xff, 
0x04, 0x00, 0x00, 0x00, 0x01, 0x00, 0x00, 0x00, 0x3a, 0x00, 0x00, 0x00, 0x00, 0x00, 0x00, 0x00, 0x1c, 0xf6, 0xff, 0xff, 0x00, 0x00, 0x00, 0x02, 0x04, 0x00, 0x00, 0x00, 0xee, 0xfa, 0xff, 0xff, 
0x01, 0x00, 0x00, 0x00, 0x00, 0x00, 0x00, 0x00, 0x34, 0xf6, 0xff, 0xff, 0x00, 0x00, 0x00, 0x05, 0x04, 0x00, 0x00, 0x00, 0xa2, 0xfa, 0xff, 0xff, 0x00, 0x00, 0x06, 0x01, 0x20, 0x00, 0x00, 0x00, 
0x14, 0x00, 0x00, 0x00, 0x04, 0x00, 0x00, 0x00, 0x04, 0xf6, 0xff, 0xff, 0x01, 0x00, 0x00, 0x00, 0x80, 0x32, 0x00, 0x00, 0x03, 0x00, 0x00, 0x00, 0x00, 0x01, 0x02, 0x00, 0x03, 0x00, 0x00, 0x00, 
0x01, 0x00, 0x00, 0x00, 0x10, 0x00, 0x00, 0x00, 0x65, 0x00, 0x00, 0x00, 0x78, 0xf6, 0xff, 0xff, 0x00, 0x00, 0x00, 0x05, 0x04, 0x00, 0x00, 0x00, 0xe6, 0xfa, 0xff, 0xff, 0x00, 0x00, 0x06, 0x01, 
0x1c, 0x00, 0x00, 0x00, 0x10, 0x00, 0x00, 0x00, 0x04, 0x00, 0x00, 0x00, 0x72, 0xfa, 0xff, 0xff, 0x01, 0x00, 0x00, 0x00, 0x03, 0x00, 0x00, 0x00, 0x00, 0x01, 0x02, 0x00, 0x03, 0x00, 0x00, 0x00, 
0x01, 0x00, 0x00, 0x00, 0x20, 0x00, 0x00, 0x00, 0x65, 0x00, 0x00, 0x00, 0xb8, 0xf6, 0xff, 0xff, 0x00, 0x00, 0x00, 0x0a, 0x04, 0x00, 0x00, 0x00, 0x9e, 0xfa, 0xff, 0xff, 0x04, 0x00, 0x00, 0x00, 
0x03, 0x00, 0x00, 0x00, 0x32, 0x00, 0x00, 0x00, 0x33, 0x00, 0x00, 0x00, 0x34, 0x00, 0x00, 0x00, 0xdc, 0xf6, 0xff, 0xff, 0x00, 0x00, 0x00, 0x04, 0x04, 0x00, 0x00, 0x00, 0xae, 0xfb, 0xff, 0xff, 
0xf1, 0x68, 0xe3, 0x88, 0xb5, 0xf8, 0xe4, 0x3e, 0xf4, 0xf6, 0xff, 0xff, 0x00, 0x00, 0x00, 0x04, 0x04, 0x00, 0x00, 0x00, 0x86, 0xfb, 0xff, 0xff, 0x9a, 0x99, 0x99, 0x99, 0x99, 0x99, 0xb9, 0x3f, 
0x00, 0x00, 0x00, 0x00, 0x10, 0xf7, 0xff, 0xff, 0x00, 0x00, 0x00, 0x05, 0x04, 0x00, 0x00, 0x00, 0x2a, 0xfd, 0xff, 0xff, 0x00, 0x00, 0x00, 0x06, 0x20, 0x00, 0x00, 0x00, 0x14, 0x00, 0x00, 0x00, 
0x04, 0x00, 0x00, 0x00, 0xe0, 0xf6, 0xff, 0xff, 0x01, 0x00, 0x00, 0x00, 0x40, 0x65, 0x00, 0x00, 0x01, 0x00, 0x00, 0x00, 0x00, 0x00, 0x00, 0x00, 0x01, 0x00, 0x00, 0x00, 0x00, 0x00, 0x00, 0x00, 
0x4c, 0xf7, 0xff, 0xff, 0x00, 0x00, 0x00, 0x05, 0x04, 0x00, 0x00, 0x00, 0x66, 0xfd, 0xff, 0xff, 0x00, 0x00, 0x00, 0x06, 0x20, 0x00, 0x00, 0x00, 0x14, 0x00, 0x00, 0x00, 0x04, 0x00, 0x00, 0x00, 
0x1c, 0xf7, 0xff, 0xff, 0x01, 0x00, 0x00, 0x00, 0x00, 0x65, 0x00, 0x00, 0x01, 0x00, 0x00, 0x00, 0x00, 0x00, 0x00, 0x00, 0x01, 0x00, 0x00, 0x00, 0x00, 0x00, 0x00, 0x00, 0x88, 0xf7, 0xff, 0xff, 
0x00, 0x00, 0x00, 0x05, 0x04, 0x00, 0x00, 0x00, 0xf6, 0xfb, 0xff, 0xff, 0x00, 0x00, 0x06, 0x01, 0x20, 0x00, 0x00, 0x00, 0x14, 0x00, 0x00, 0x00, 0x04, 0x00, 0x00, 0x00, 0x58, 0xf7, 0xff, 0xff, 
0x01, 0x00, 0x00, 0x00, 0x80, 0x32, 0x00, 0x00, 0x03, 0x00, 0x00, 0x00, 0x00, 0x01, 0x02, 0x00, 0x03, 0x00, 0x00, 0x00, 0x01, 0x00, 0x00, 0x00, 0x20, 0x00, 0x00, 0x00, 0x65, 0x00, 0x00, 0x00, 
0xcc, 0xf7, 0xff, 0xff, 0x00, 0x00, 0x00, 0x02, 0x04, 0x00, 0x00, 0x00, 0x9e, 0xfc, 0xff, 0xff, 0x01, 0x00, 0x00, 0x00, 0x00, 0x00, 0x00, 0x00, 0xe4, 0xf7, 0xff, 0xff, 0x00, 0x00, 0x00, 0x07, 
0x04, 0x00, 0x00, 0x00, 0xca, 0xfb, 0xff, 0xff, 0x04, 0x00, 0x00, 0x00, 0x01, 0x00, 0x00, 0x00, 0x2f, 0x00, 0x00, 0x00, 0x00, 0x00, 0x00, 0x00, 0x04, 0xf8, 0xff, 0xff, 0x00, 0x00, 0x00, 0x02, 
0x04, 0x00, 0x00, 0x00, 0x44, 0xfd, 0xff, 0xff, 0x14, 0xf8, 0xff, 0xff, 0x00, 0x00, 0x00, 0x03, 0x04, 0x00, 0x00, 0x00, 0x54, 0xfd, 0xff, 0xff, 0x24, 0xf8, 0xff, 0xff, 0x00, 0x00, 0x00, 0x07, 
0x04, 0x00, 0x00, 0x00, 0x0a, 0xfc, 0xff, 0xff, 0x04, 0x00, 0x00, 0x00, 0x01, 0x00, 0x00, 0x00, 0x2c, 0x00, 0x00, 0x00, 0x00, 0x00, 0x00, 0x00, 0x44, 0xf8, 0xff, 0xff, 0x00, 0x00, 0x00, 0x02, 
0x04, 0x00, 0x00, 0x00, 0x16, 0xfd, 0xff, 0xff, 0x01, 0x00, 0x00, 0x00, 0x00, 0x00, 0x00, 0x00, 0x5c, 0xf8, 0xff, 0xff, 0x00, 0x00, 0x00, 0x07, 0x04, 0x00, 0x00, 0x00, 0x42, 0xfc, 0xff, 0xff, 
0x04, 0x00, 0x00, 0x00, 0x01, 0x00, 0x00, 0x00, 0x2a, 0x00, 0x00, 0x00, 0x00, 0x00, 0x00, 0x00, 0x7c, 0xf8, 0xff, 0xff, 0x00, 0x00, 0x00, 0x02, 0x04, 0x00, 0x00, 0x00, 0x4e, 0xfd, 0xff, 0xff, 
0x02, 0x00, 0x00, 0x00, 0x00, 0x00, 0x00, 0x00, 0x94, 0xf8, 0xff, 0xff, 0x00, 0x00, 0x00, 0x07, 0x04, 0x00, 0x00, 0x00, 0x7a, 0xfc, 0xff, 0xff, 0x04, 0x00, 0x00, 0x00, 0x01, 0x00, 0x00, 0x00, 
0x28, 0x00, 0x00, 0x00, 0x00, 0x00, 0x00, 0x00, 0xb4, 0xf8, 0xff, 0xff, 0x00, 0x00, 0x00, 0x02, 0x04, 0x00, 0x00, 0x00, 0x86, 0xfd, 0xff, 0xff, 0x01, 0x00, 0x00, 0x00, 0x00, 0x00, 0x00, 0x00, 
0xcc, 0xf8, 0xff, 0xff, 0x00, 0x00, 0x00, 0x05, 0x04, 0x00, 0x00, 0x00, 0x3a, 0xfd, 0xff, 0xff, 0x00, 0x00, 0x06, 0x01, 0x1c, 0x00, 0x00, 0x00, 0x10, 0x00, 0x00, 0x00, 0x04, 0x00, 0x00, 0x00, 
0xc6, 0xfc, 0xff, 0xff, 0x01, 0x00, 0x00, 0x00, 0x03, 0x00, 0x00, 0x00, 0x00, 0x01, 0x02, 0x00, 0x03, 0x00, 0x00, 0x00, 0x01, 0x00, 0x00, 0x00, 0x20, 0x00, 0x00, 0x00, 0x65, 0x00, 0x00, 0x00, 
0x0c, 0xf9, 0xff, 0xff, 0x00, 0x00, 0x00, 0x05, 0x04, 0x00, 0x00, 0x00, 0x7a, 0xfd, 0xff, 0xff, 0x00, 0x00, 0x06, 0x01, 0x20, 0x00, 0x00, 0x00, 0x14, 0x00, 0x00, 0x00, 0x04, 0x00, 0x00, 0x00, 
0xdc, 0xf8, 0xff, 0xff, 0x01, 0x00, 0x00, 0x00, 0x80, 0x32, 0x00, 0x00, 0x03, 0x00, 0x00, 0x00, 0x00, 0x01, 0x02, 0x00, 0x03, 0x00, 0x00, 0x00, 0x01, 0x00, 0x00, 0x00, 0x10, 0x00, 0x00, 0x00, 
0x65, 0x00, 0x00, 0x00, 0x50, 0xf9, 0xff, 0xff, 0x00, 0x00, 0x00, 0x0a, 0x04, 0x00, 0x00, 0x00, 0x36, 0xfd, 0xff, 0xff, 0x04, 0x00, 0x00, 0x00, 0x03, 0x00, 0x00, 0x00, 0x20, 0x00, 0x00, 0x00, 
0x21, 0x00, 0x00, 0x00, 0x22, 0x00, 0x00, 0x00, 0x74, 0xf9, 0xff, 0xff, 0x00, 0x00, 0x00, 0x04, 0x04, 0x00, 0x00, 0x00, 0x46, 0xfe, 0xff, 0xff, 0xf1, 0x68, 0xe3, 0x88, 0xb5, 0xf8, 0xe4, 0x3e, 
0x8c, 0xf9, 0xff, 0xff, 0x00, 0x00, 0x00, 0x04, 0x04, 0x00, 0x00, 0x00, 0x1e, 0xfe, 0xff, 0xff, 0x9a, 0x99, 0x99, 0x99, 0x99, 0x99, 0xb9, 0x3f, 0x00, 0x00, 0x00, 0x00, 0xa8, 0xf9, 0xff, 0xff, 
0x00, 0x00, 0x00, 0x05, 0x04, 0x00, 0x00, 0x00, 0xc2, 0xff, 0xff, 0xff, 0x00, 0x00, 0x00, 0x06, 0x20, 0x00, 0x00, 0x00, 0x14, 0x00, 0x00, 0x00, 0x04, 0x00, 0x00, 0x00, 0x78, 0xf9, 0xff, 0xff, 
0x01, 0x00, 0x00, 0x00, 0x40, 0x65, 0x00, 0x00, 0x01, 0x00, 0x00, 0x00, 0x00, 0x00, 0x00, 0x00, 0x01, 0x00, 0x00, 0x00, 0x00, 0x00, 0x00, 0x00, 0xfc, 0xfd, 0xff, 0xff, 0x00, 0x00, 0x00, 0x05, 
0x18, 0x00, 0x00, 0x00, 0x00, 0x00, 0x12, 0x00, 0x14, 0x00, 0x07, 0x00, 0x00, 0x00, 0x08, 0x00, 0x0c, 0x00, 0x00, 0x00, 0x00, 0x00, 0x10, 0x00, 0x12, 0x00, 0x00, 0x00, 0x00, 0x00, 0x00, 0x06, 
0x20, 0x00, 0x00, 0x00, 0x14, 0x00, 0x00, 0x00, 0x04, 0x00, 0x00, 0x00, 0xc8, 0xf9, 0xff, 0xff, 0x01, 0x00, 0x00, 0x00, 0x00, 0x65, 0x00, 0x00, 0x01, 0x00, 0x00, 0x00, 0x00, 0x00, 0x00, 0x00, 
0x01, 0x00, 0x00, 0x00, 0x00, 0x00, 0x00, 0x00, 0x34, 0xfa, 0xff, 0xff, 0x00, 0x00, 0x00, 0x05, 0x04, 0x00, 0x00, 0x00, 0xa2, 0xfe, 0xff, 0xff, 0x00, 0x00, 0x06, 0x01, 0x1c, 0x00, 0x00, 0x00, 
0x10, 0x00, 0x00, 0x00, 0x04, 0x00, 0x00, 0x00, 0x2e, 0xfe, 0xff, 0xff, 0x01, 0x00, 0x00, 0x00, 0x03, 0x00, 0x00, 0x00, 0x00, 0x01, 0x02, 0x00, 0x03, 0x00, 0x00, 0x00, 0x01, 0x00, 0x00, 0x00, 
0x10, 0x00, 0x00, 0x00, 0x65, 0x00, 0x00, 0x00, 0x74, 0xfa, 0xff, 0xff, 0x00, 0x00, 0x00, 0x02, 0x04, 0x00, 0x00, 0x00, 0x46, 0xff, 0xff, 0xff, 0x01, 0x00, 0x00, 0x00, 0x00, 0x00, 0x00, 0x00, 
0x8c, 0xfa, 0xff, 0xff, 0x00, 0x00, 0x00, 0x07, 0x04, 0x00, 0x00, 0x00, 0x72, 0xfe, 0xff, 0xff, 0x04, 0x00, 0x00, 0x00, 0x01, 0x00, 0x00, 0x00, 0x1d, 0x00, 0x00, 0x00, 0x00, 0x00, 0x00, 0x00, 
0x00, 0x00, 0x00, 0x00, 0xb0, 0xfa, 0xff, 0xff, 0x00, 0x00, 0x00, 0x02, 0x04, 0x00, 0x00, 0x00, 0xf0, 0xff, 0xff, 0xff, 0xc0, 0xfa, 0xff, 0xff, 0x00, 0x00, 0x00, 0x03, 0x08, 0x00, 0x00, 0x00, 
0x04, 0x00, 0x04, 0x00, 0x04, 0x00, 0x00, 0x00, 0xd4, 0xfa, 0xff, 0xff, 0x00, 0x00, 0x00, 0x07, 0x04, 0x00, 0x00, 0x00, 0xba, 0xfe, 0xff, 0xff, 0x04, 0x00, 0x00, 0x00, 0x01, 0x00, 0x00, 0x00, 
0x1a, 0x00, 0x00, 0x00, 0x00, 0x00, 0x00, 0x00, 0xf4, 0xfa, 0xff, 0xff, 0x00, 0x00, 0x00, 0x02, 0x04, 0x00, 0x00, 0x00, 0xc6, 0xff, 0xff, 0xff, 0x01, 0x00, 0x00, 0x00, 0x00, 0x00, 0x00, 0x00, 
0x0c, 0xfb, 0xff, 0xff, 0x00, 0x00, 0x00, 0x07, 0x04, 0x00, 0x00, 0x00, 0xf2, 0xfe, 0xff, 0xff, 0x04, 0x00, 0x00, 0x00, 0x01, 0x00, 0x00, 0x00, 0x18, 0x00, 0x00, 0x00, 0x00, 0x00, 0x00, 0x00, 
0x44, 0xff, 0xff, 0xff, 0x00, 0x00, 0x00, 0x02, 0x0c, 0x00, 0x00, 0x00, 0x00, 0x00, 0x06, 0x00, 0x0c, 0x00, 0x04, 0x00, 0x06, 0x00, 0x00, 0x00, 0x04, 0x00, 0x00, 0x00, 0x00, 0x00, 0x00, 0x00, 
0x4c, 0xfb, 0xff, 0xff, 0x00, 0x00, 0x00, 0x07, 0x04, 0x00, 0x00, 0x00, 0x32, 0xff, 0xff, 0xff, 0x04, 0x00, 0x00, 0x00, 0x01, 0x00, 0x00, 0x00, 0x16, 0x00, 0x00, 0x00, 0x00, 0x00, 0x00, 0x00, 
0x84, 0xff, 0xff, 0xff, 0x00, 0x00, 0x00, 0x02, 0x0c, 0x00, 0x00, 0x00, 0x00, 0x00, 0x06, 0x00, 0x10, 0x00, 0x04, 0x00, 0x06, 0x00, 0x00, 0x00, 0x01, 0x00, 0x00, 0x00, 0x00, 0x00, 0x00, 0x00, 
0x00, 0x00, 0x00, 0x00, 0xa8, 0xff, 0xff, 0xff, 0x00, 0x00, 0x00, 0x05, 0x18, 0x00, 0x00, 0x00, 0x00, 0x00, 0x12, 0x00, 0x14, 0x00, 0x06, 0x00, 0x00, 0x00, 0x08, 0x00, 0x0c, 0x00, 0x07, 0x00, 
0x00, 0x00, 0x10, 0x00, 0x12, 0x00, 0x00, 0x00, 0x00, 0x00, 0x06, 0x01, 0x20, 0x00, 0x00, 0x00, 0x14, 0x00, 0x00, 0x00, 0x04, 0x00, 0x00, 0x00, 0x74, 0xfb, 0xff, 0xff, 0x01, 0x00, 0x00, 0x00, 
0x80, 0x32, 0x00, 0x00, 0x03, 0x00, 0x00, 0x00, 0x00, 0x01, 0x02, 0x00, 0x03, 0x00, 0x00, 0x00, 0x01, 0x00, 0x00, 0x00, 0x10, 0x00, 0x00, 0x00, 0x65, 0x00, 0x00, 0x00, 0x08, 0x00, 0x0e, 0x00, 
0x07, 0x00, 0x08, 0x00, 0x08, 0x00, 0x00, 0x00, 0x00, 0x00, 0x00, 0x05, 0x18, 0x00, 0x00, 0x00, 0x00, 0x00, 0x12, 0x00, 0x16, 0x00, 0x07, 0x00, 0x00, 0x00, 0x08, 0x00, 0x0c, 0x00, 0x00, 0x00, 
0x00, 0x00, 0x10, 0x00, 0x12, 0x00, 0x00, 0x00, 0x00, 0x00, 0x00, 0x06, 0x24, 0x00, 0x00, 0x00, 0x18, 0x00, 0x00, 0x00, 0x0c, 0x00, 0x00, 0x00, 0x00, 0x00, 0x06, 0x00, 0x08, 0x00, 0x04, 0x00, 
0x06, 0x00, 0x00, 0x00, 0x01, 0x00, 0x00, 0x00, 0x03, 0x00, 0x00, 0x00, 0x00, 0x01, 0x02, 0x00, 0x03, 0x00, 0x00, 0x00, 0x01, 0x00, 0x00, 0x00, 0x01, 0x00, 0x00, 0x00, 0x64, 0x00, 0x00, 0x00, 
0x4c, 0xfc, 0xff, 0xff, 0x00, 0x00, 0x00, 0x05, 0x04, 0x00, 0x00, 0x00, 0x10, 0xff, 0xff, 0xff, 0x00, 0x00, 0x00, 0x06, 0x14, 0x00, 0x00, 0x00, 0x08, 0x00, 0x00, 0x00, 0x14, 0x00, 0x00, 0x00, 
0x01, 0x00, 0x00, 0x00, 0x00, 0x00, 0x00, 0x00, 0x01, 0x00, 0x00, 0x00, 0x10, 0x00, 0x00, 0x00, 0x7c, 0xfc, 0xff, 0xff, 0x00, 0x00, 0x00, 0x05, 0x04, 0x00, 0x00, 0x00, 0x40, 0xff, 0xff, 0xff, 
0x00, 0x00, 0x00, 0x06, 0x14, 0x00, 0x00, 0x00, 0x08, 0x00, 0x00, 0x00, 0x13, 0x00, 0x00, 0x00, 0x01, 0x00, 0x00, 0x00, 0x00, 0x00, 0x00, 0x00, 0x01, 0x00, 0x00, 0x00, 0x10, 0x00, 0x00, 0x00, 
0xac, 0xfc, 0xff, 0xff, 0x00, 0x00, 0x00, 0x05, 0x04, 0x00, 0x00, 0x00, 0x70, 0xff, 0xff, 0xff, 0x00, 0x00, 0x00, 0x06, 0x14, 0x00, 0x00, 0x00, 0x08, 0x00, 0x00, 0x00, 0x12, 0x00, 0x00, 0x00, 
0x01, 0x00, 0x00, 0x00, 0x00, 0x00, 0x00, 0x00, 0x01, 0x00, 0x00, 0x00, 0x20, 0x00, 0x00, 0x00, 0xdc, 0xfc, 0xff, 0xff, 0x00, 0x00, 0x00, 0x05, 0x04, 0x00, 0x00, 0x00, 0xa0, 0xff, 0xff, 0xff, 
0x00, 0x00, 0x00, 0x06, 0x14, 0x00, 0x00, 0x00, 0x08, 0x00, 0x00, 0x00, 0x11, 0x00, 0x00, 0x00, 0x01, 0x00, 0x00, 0x00, 0x00, 0x00, 0x00, 0x00, 0x01, 0x00, 0x00, 0x00, 0x20, 0x00, 0x00, 0x00, 
0x0c, 0xfd, 0xff, 0xff, 0x00, 0x00, 0x00, 0x05, 0x04, 0x00, 0x00, 0x00, 0xd0, 0xff, 0xff, 0xff, 0x00, 0x00, 0x00, 0x06, 0x14, 0x00, 0x00, 0x00, 0x08, 0x00, 0x00, 0x00, 0x10, 0x00, 0x00, 0x00, 
0x01, 0x00, 0x00, 0x00, 0x00, 0x00, 0x00, 0x00, 0x01, 0x00, 0x00, 0x00, 0x10, 0x00, 0x00, 0x00, 0x3c, 0xfd, 0xff, 0xff, 0x00, 0x00, 0x00, 0x05, 0x14, 0x00, 0x00, 0x00, 0x10, 0x00, 0x14, 0x00, 
0x07, 0x00, 0x00, 0x00, 0x08, 0x00, 0x0c, 0x00, 0x00, 0x00, 0x10, 0x00, 0x10, 0x00, 0x00, 0x00, 0x00, 0x00, 0x00, 0x06, 0x14, 0x00, 0x00, 0x00, 0x08, 0x00, 0x00, 0x00, 0x0f, 0x00, 0x00, 0x00, 
0x01, 0x00, 0x00, 0x00, 0x00, 0x00, 0x00, 0x00, 0x01, 0x00, 0x00, 0x00, 0x10, 0x00, 0x00, 0x00, 0x7c, 0xfd, 0xff, 0xff, 0x00, 0x00, 0x00, 0x05, 0x04, 0x00, 0x00, 0x00, 0x74, 0xfd, 0xff, 0xff, 
0x00, 0x00, 0x06, 0x01, 0x14, 0x00, 0x00, 0x00, 0x08, 0x00, 0x00, 0x00, 0x0e, 0x00, 0x00, 0x00, 0x01, 0x00, 0x00, 0x00, 0x00, 0x00, 0x00, 0x00, 0x01, 0x00, 0x00, 0x00, 0x02, 0x00, 0x00, 0x00, 
0xac, 0xfd, 0xff, 0xff, 0x00, 0x00, 0x00, 0x05, 0x04, 0x00, 0x00, 0x00, 0xa4, 0xfd, 0xff, 0xff, 0x00, 0x00, 0x06, 0x01, 0x14, 0x00, 0x00, 0x00, 0x08, 0x00, 0x00, 0x00, 0x0d, 0x00, 0x00, 0x00, 
0x02, 0x00, 0x00, 0x00, 0x00, 0x01, 0x00, 0x00, 0x02, 0x00, 0x00, 0x00, 0x02, 0x00, 0x00, 0x00, 0x10, 0x00, 0x00, 0x00, 0xe0, 0xfd, 0xff, 0xff, 0x00, 0x00, 0x00, 0x05, 0x04, 0x00, 0x00, 0x00, 
0xd8, 0xfd, 0xff, 0xff, 0x00, 0x00, 0x06, 0x01, 0x14, 0x00, 0x00, 0x00, 0x08, 0x00, 0x00, 0x00, 0x0c, 0x00, 0x00, 0x00, 0x01, 0x00, 0x00, 0x00, 0x00, 0x00, 0x00, 0x00, 0x01, 0x00, 0x00, 0x00, 
0x10, 0x00, 0x00, 0x00, 0x10, 0xfe, 0xff, 0xff, 0x00, 0x00, 0x00, 0x05, 0x04, 0x00, 0x00, 0x00, 0x08, 0xfe, 0xff, 0xff, 0x00, 0x00, 0x06, 0x01, 0x14, 0x00, 0x00, 0x00, 0x08, 0x00, 0x00, 0x00, 
0x0b, 0x00, 0x00, 0x00, 0x01, 0x00, 0x00, 0x00, 0x00, 0x00, 0x00, 0x00, 0x01, 0x00, 0x00, 0x00, 0x10, 0x00, 0x00, 0x00, 0x40, 0xfe, 0xff, 0xff, 0x00, 0x00, 0x00, 0x05, 0x04, 0x00, 0x00, 0x00, 
0x38, 0xfe, 0xff, 0xff, 0x00, 0x00, 0x06, 0x01, 0x14, 0x00, 0x00, 0x00, 0x08, 0x00, 0x00, 0x00, 0x0a, 0x00, 0x00, 0x00, 0x01, 0x00, 0x00, 0x00, 0x00, 0x00, 0x00, 0x00, 0x01, 0x00, 0x00, 0x00, 
0x10, 0x00, 0x00, 0x00, 0x70, 0xfe, 0xff, 0xff, 0x00, 0x00, 0x00, 0x05, 0x04, 0x00, 0x00, 0x00, 0x68, 0xfe, 0xff, 0xff, 0x00, 0x00, 0x06, 0x01, 0x14, 0x00, 0x00, 0x00, 0x08, 0x00, 0x00, 0x00, 
0x09, 0x00, 0x00, 0x00, 0x03, 0x00, 0x00, 0x00, 0x00, 0x01, 0x02, 0x00, 0x03, 0x00, 0x00, 0x00, 0x10, 0x00, 0x00, 0x00, 0x20, 0x00, 0x00, 0x00, 0x03, 0x00, 0x00, 0x00, 0xa8, 0xfe, 0xff, 0xff, 
0x00, 0x00, 0x00, 0x05, 0x04, 0x00, 0x00, 0x00, 0xa0, 0xfe, 0xff, 0xff, 0x00, 0x00, 0x06, 0x01, 0x14, 0x00, 0x00, 0x00, 0x08, 0x00, 0x00, 0x00, 0x08, 0x00, 0x00, 0x00, 0x01, 0x00, 0x00, 0x00, 
0x00, 0x00, 0x00, 0x00, 0x01, 0x00, 0x00, 0x00, 0x20, 0x00, 0x00, 0x00, 0xd8, 0xfe, 0xff, 0xff, 0x00, 0x00, 0x00, 0x05, 0x04, 0x00, 0x00, 0x00, 0xd0, 0xfe, 0xff, 0xff, 0x00, 0x00, 0x06, 0x01, 
0x14, 0x00, 0x00, 0x00, 0x08, 0x00, 0x00, 0x00, 0x07, 0x00, 0x00, 0x00, 0x01, 0x00, 0x00, 0x00, 0x00, 0x00, 0x00, 0x00, 0x01, 0x00, 0x00, 0x00, 0x20, 0x00, 0x00, 0x00, 0x08, 0xff, 0xff, 0xff, 
0x00, 0x00, 0x00, 0x05, 0x04, 0x00, 0x00, 0x00, 0x00, 0xff, 0xff, 0xff, 0x00, 0x00, 0x06, 0x01, 0x14, 0x00, 0x00, 0x00, 0x08, 0x00, 0x00, 0x00, 0x06, 0x00, 0x00, 0x00, 0x01, 0x00, 0x00, 0x00, 
0x00, 0x00, 0x00, 0x00, 0x01, 0x00, 0x00, 0x00, 0x20, 0x00, 0x00, 0x00, 0x38, 0xff, 0xff, 0xff, 0x00, 0x00, 0x00, 0x05, 0x04, 0x00, 0x00, 0x00, 0x30, 0xff, 0xff, 0xff, 0x00, 0x00, 0x06, 0x01, 
0x14, 0x00, 0x00, 0x00, 0x08, 0x00, 0x00, 0x00, 0x05, 0x00, 0x00, 0x00, 0x03, 0x00, 0x00, 0x00, 0x00, 0x01, 0x02, 0x00, 0x03, 0x00, 0x00, 0x00, 0x20, 0x00, 0x00, 0x00, 0x10, 0x00, 0x00, 0x00, 
0x05, 0x00, 0x00, 0x00, 0x70, 0xff, 0xff, 0xff, 0x00, 0x00, 0x00, 0x05, 0x04, 0x00, 0x00, 0x00, 0x68, 0xff, 0xff, 0xff, 0x00, 0x00, 0x06, 0x01, 0x14, 0x00, 0x00, 0x00, 0x08, 0x00, 0x00, 0x00, 
0x04, 0x00, 0x00, 0x00, 0x01, 0x00, 0x00, 0x00, 0x00, 0x00, 0x00, 0x00, 0x01, 0x00, 0x00, 0x00, 0x10, 0x00, 0x00, 0x00, 0xa0, 0xff, 0xff, 0xff, 0x00, 0x00, 0x00, 0x05, 0x04, 0x00, 0x00, 0x00, 
0x98, 0xff, 0xff, 0xff, 0x00, 0x00, 0x06, 0x01, 0x14, 0x00, 0x00, 0x00, 0x08, 0x00, 0x00, 0x00, 0x03, 0x00, 0x00, 0x00, 0x01, 0x00, 0x00, 0x00, 0x00, 0x00, 0x00, 0x00, 0x01, 0x00, 0x00, 0x00, 
0x10, 0x00, 0x00, 0x00, 0xd0, 0xff, 0xff, 0xff, 0x00, 0x00, 0x00, 0x05, 0x04, 0x00, 0x00, 0x00, 0xc8, 0xff, 0xff, 0xff, 0x00, 0x00, 0x06, 0x01, 0x14, 0x00, 0x00, 0x00, 0x08, 0x00, 0x00, 0x00, 
0x02, 0x00, 0x00, 0x00, 0x01, 0x00, 0x00, 0x00, 0x00, 0x00, 0x00, 0x00, 0x01, 0x00, 0x00, 0x00, 0x10, 0x00, 0x00, 0x00, 0x08, 0x00, 0x0c, 0x00, 0x07, 0x00, 0x08, 0x00, 0x08, 0x00, 0x00, 0x00, 
0x00, 0x00, 0x00, 0x05, 0x14, 0x00, 0x00, 0x00, 0x10, 0x00, 0x14, 0x00, 0x06, 0x00, 0x00, 0x00, 0x08, 0x00, 0x0c, 0x00, 0x07, 0x00, 0x10, 0x00, 0x10, 0x00, 0x00, 0x00, 0x00, 0x00, 0x06, 0x01, 
0x14, 0x00, 0x00, 0x00, 0x08, 0x00, 0x00, 0x00, 0x01, 0x00, 0x00, 0x00, 0x03, 0x00, 0x00, 0x00, 0x00, 0x01, 0x02, 0x00, 0x03, 0x00, 0x00, 0x00, 0x10, 0x00, 0x00, 0x00, 0x01, 0x00, 0x00, 0x00, 
0x08, 0x00, 0x00, 0x00, 0x08, 0x00, 0x0c, 0x00, 0x04, 0x00, 0x08, 0x00, 0x08, 0x00, 0x00, 0x00, 0x48, 0x00, 0x00, 0x00, 0x04, 0x00, 0x00, 0x00, 0x39, 0x00, 0x00, 0x00, 0x5b, 0x31, 0x2c, 0x20, 
0x7b, 0x22, 0x74, 0x79, 0x70, 0x65, 0x22, 0x3a, 0x20, 0x6e, 0x75, 0x6c, 0x6c, 0x2c, 0x20, 0x22, 0x63, 0x6f, 0x6e, 0x74, 0x65, 0x78, 0x74, 0x22, 0x3a, 0x20, 0x6e, 0x75, 0x6c, 0x6c, 0x2c, 0x20, 
0x22, 0x63, 0x68, 0x69, 0x6c, 0x64, 0x72, 0x65, 0x6e, 0x5f, 0x73, 0x70, 0x65, 0x63, 0x22, 0x3a, 0x20, 0x5b, 0x5d, 0x7d, 0x5d, 0x00, 0x00, 0x00, 0xfe, 0x00, 0x00, 0x00, 0x5b, 0x31, 0x2c, 0x20, 
0x7b, 0x22, 0x74, 0x79, 0x70, 0x65, 0x22, 0x3a, 0x20, 0x22, 0x62, 0x75, 0x69, 0x6c, 0x74, 0x69, 0x6e, 0x73, 0x2e, 0x74, 0x75, 0x70, 0x6c, 0x65, 0x22, 0x2c, 0x20, 0x22, 0x63, 0x6f, 0x6e, 0x74, 
0x65, 0x78, 0x74, 0x22, 0x3a, 0x20, 0x22, 0x6e, 0x75, 0x6c, 0x6c, 0x22, 0x2c, 0x20, 0x22, 0x63, 0x68, 0x69, 0x6c, 0x64, 0x72, 0x65, 0x6e, 0x5f, 0x73, 0x70, 0x65, 0x63, 0x22, 0x3a, 0x20, 0x5b, 
0x7b, 0x22, 0x74, 0x79, 0x70, 0x65, 0x22, 0x3a, 0x20, 0x22, 0x62, 0x75, 0x69, 0x6c, 0x74, 0x69, 0x6e, 0x73, 0x2e, 0x74, 0x75, 0x70, 0x6c, 0x65, 0x22, 0x2c, 0x20, 0x22, 0x63, 0x6f, 0x6e, 0x74, 
0x65, 0x78, 0x74, 0x22, 0x3a, 0x20, 0x22, 0x6e, 0x75, 0x6c, 0x6c, 0x22, 0x2c, 0x20, 0x22, 0x63, 0x68, 0x69, 0x6c, 0x64, 0x72, 0x65, 0x6e, 0x5f, 0x73, 0x70, 0x65, 0x63, 0x22, 0x3a, 0x20, 0x5b, 
0x7b, 0x22, 0x74, 0x79, 0x70, 0x65, 0x22, 0x3a, 0x20, 0x6e, 0x75, 0x6c, 0x6c, 0x2c, 0x20, 0x22, 0x63, 0x6f, 0x6e, 0x74, 0x65, 0x78, 0x74, 0x22, 0x3a, 0x20, 0x6e, 0x75, 0x6c, 0x6c, 0x2c, 0x20, 
0x22, 0x63, 0x68, 0x69, 0x6c, 0x64, 0x72, 0x65, 0x6e, 0x5f, 0x73, 0x70, 0x65, 0x63, 0x22, 0x3a, 0x20, 0x5b, 0x5d, 0x7d, 0x5d, 0x7d, 0x2c, 0x20, 0x7b, 0x22, 0x74, 0x79, 0x70, 0x65, 0x22, 0x3a, 
0x20, 0x22, 0x62, 0x75, 0x69, 0x6c, 0x74, 0x69, 0x6e, 0x73, 0x2e, 0x64, 0x69, 0x63, 0x74, 0x22, 0x2c, 0x20, 0x22, 0x63, 0x6f, 0x6e, 0x74, 0x65, 0x78, 0x74, 0x22, 0x3a, 0x20, 0x22, 0x5b, 0x5d, 
0x22, 0x2c, 0x20, 0x22, 0x63, 0x68, 0x69, 0x6c, 0x64, 0x72, 0x65, 0x6e, 0x5f, 0x73, 0x70, 0x65, 0x63, 0x22, 0x3a, 0x20, 0x5b, 0x5d, 0x7d, 0x5d, 0x7d, 0x5d, 0x00, 0x00, 0x07, 0x00, 0x00, 0x00, 
0x66, 0x6f, 0x72, 0x77, 0x61, 0x72, 0x64, 0x00, 0x00, 0x00, 0x00, 0x00, 0x00, 0x00, 0x00, 0x00, 0x00, 0x00, 0x00, 0x00, 0x00, 0x00, 0x00, 0x00, 0x00, 0x00, 0x00, 0x00, 0x00, 0x00, 0x00, 0x00, 
0x00, 0x00, 0x00, 0x00, 0x00, 0x00, 0x00, 0x00, 0x00, 0x00, 0x00, 0x00, 0x00, 0x00, 0x00, 0x00, 0x00, 0x00, 0x00, 0x00, 0x00, 0x00, 0x00, 0x00, 0x00, 0x00, 0x00, 0x00, 0x00, 0x00, 0x00, 0x00, 
0x00, 0x00, 0x00, 0x00, 0x00, 0x00, 0x00, 0x00, 0x00, 0x00, 0x00, 0x00, 0x00, 0x00, 0x00, 0x00, 0x00, 0x00, 0x00, 0x00, 0x00, 0x00, 0x00, 0x00, 0x00, 0x00, 0x00, 0x00, 0x00, 0x00, 0x00, 0x00, 
0x7e, 0xd2, 0xca, 0xbd, 0x57, 0x88, 0xb5, 0x3d, 0x5e, 0x3d, 0x96, 0x3e, 0x9e, 0xe5, 0xa7, 0x3c, 0xd7, 0x2b, 0x4a, 0xbe, 0xa7, 0xef, 0xdb, 0x3d, 0x41, 0x2a, 0x11, 0xbe, 0xbb, 0x3f, 0x25, 0x3d, 
0x0d, 0x54, 0x2c, 0xbe, 0xad, 0xa3, 0xa4, 0x3d, 0x42, 0x33, 0x47, 0x3e, 0x32, 0xc2, 0x49, 0x3e, 0xe7, 0x02, 0xac, 0x3e, 0xf9, 0xed, 0x0a, 0xbe, 0x6b, 0x47, 0xaa, 0xbe, 0x0e, 0x73, 0xa3, 0xbe, 
0xaf, 0x91, 0xe8, 0xbd, 0xb5, 0xae, 0x59, 0xbe, 0x3d, 0xac, 0x12, 0x3e, 0x2c, 0xed, 0xce, 0x3d, 0x35, 0xac, 0xed, 0x3c, 0x28, 0x25, 0xaa, 0xbd, 0x42, 0x00, 0x2b, 0xbe, 0xe2, 0x2d, 0x49, 0xbe, 
0x75, 0x81, 0x86, 0xbe, 0xf4, 0xe1, 0x21, 0x3e, 0xef, 0x85, 0x15, 0x3e, 0x1a, 0xc2, 0x66, 0x3e, 0x2b, 0xe3, 0xa2, 0x3e, 0xfb, 0xb4, 0xee, 0xbd, 0x53, 0xe2, 0x8f, 0xbd, 0x59, 0xba, 0x38, 0xbe, 
0xea, 0x93, 0x12, 0xbe, 0x42, 0x9f, 0x00, 0x3e, 0x93, 0x77, 0x83, 0x3e, 0xbc, 0x13, 0x55, 0x3e, 0xe9, 0xc0, 0x80, 0xbe, 0xfa, 0x5b, 0x94, 0xbd, 0xe7, 0x77, 0x82, 0xbe, 0xf9, 0xe2, 0xad, 0x3e, 
0x2a, 0xc7, 0xde, 0x3d, 0x49, 0xb3, 0xf2, 0xbd, 0x15, 0x34, 0x11, 0x3d, 0x87, 0xad, 0x95, 0xbe, 0xd3, 0x63, 0x49, 0xbe, 0xae, 0x9b, 0x5e, 0xbe, 0xfa, 0x2e, 0x22, 0x3e, 0x9d, 0xab, 0x1f, 0x3e, 
0x34, 0x4d, 0xb1, 0xbe, 0xd8, 0x4e, 0x90, 0x3e, 0xf9, 0xcf, 0x00, 0x3e, 0x5c, 0x43, 0x37, 0x3e, 0x2b, 0xae, 0x30, 0xbe, 0x74, 0xf9, 0x2c, 0x3e, 0x3c, 0xd5, 0x2b, 0xbe, 0x2b, 0xa5, 0x7b, 0xbe, 
0x5c, 0xd9, 0xa5, 0xbe, 0xa1, 0x6f, 0x40, 0x3e, 0xd8, 0x80, 0x06, 0x3e, 0x3d, 0xbc, 0x69, 0x3e, 0x4b, 0xe2, 0x93, 0xbe, 0xd2, 0xaa, 0x92, 0xbd, 0x67, 0x58, 0x99, 0x3c, 0x1a, 0xff, 0x85, 0x3d, 
0xc2, 0x3a, 0x10, 0x3e, 0x92, 0x2c, 0x4d, 0xbe, 0xd9, 0xe4, 0x70, 0xbe, 0x1b, 0x03, 0x70, 0xbe, 0x3a, 0x7b, 0xb0, 0x3d, 0xa7, 0xf0, 0xdc, 0xbd, 0xcd, 0x2d, 0xeb, 0x3d, 0xf9, 0x1d, 0x72, 0x3e, 
0xfe, 0xf5, 0xa7, 0xbd, 0x61, 0xa7, 0x32, 0xbc, 0x0f, 0x72, 0x54, 0xbe, 0x0c, 0x77, 0x27, 0xbe, 0x92, 0xd0, 0x49, 0xbe, 0x46, 0xa8, 0xea, 0x3d, 0x4e, 0xc4, 0x90, 0x3e, 0xf3, 0x75, 0x74, 0x3e, 
0x01, 0x74, 0x70, 0x3e, 0x53, 0x76, 0x9d, 0x3c, 0x47, 0xbd, 0xb8, 0x3e, 0x51, 0x1d, 0x84, 0xbe, 0xb5, 0x4f, 0xbd, 0xba, 0x95, 0x10, 0xa2, 0xbe, 0x98, 0x88, 0xe7, 0x3d, 0x22, 0xa6, 0x1b, 0xbe, 
0xe1, 0x6f, 0xa5, 0x3e, 0xf0, 0x34, 0x87, 0x3e, 0x30, 0xea, 0xb9, 0xbe, 0xdd, 0x07, 0xa1, 0x3e, 0xf8, 0x39, 0x8f, 0xbd, 0xdf, 0x7f, 0x11, 0x3d, 0x1b, 0x04, 0x85, 0x3e, 0xf7, 0xbe, 0xc5, 0xbd, 
0x93, 0xc3, 0x50, 0xbe, 0xdf, 0xec, 0x87, 0x3e, 0x7a, 0xe8, 0x69, 0x3e, 0x30, 0x6e, 0x30, 0x3d, 0x4a, 0x2a, 0x0b, 0xbd, 0x1e, 0xcc, 0xa5, 0x3e, 0x2a, 0xd0, 0x35, 0x3e, 0xfd, 0x0c, 0xa3, 0xbd, 
0xee, 0x99, 0x9b, 0xbd, 0xf0, 0x93, 0x21, 0xbb, 0x1a, 0x63, 0xa8, 0x3c, 0x34, 0x25, 0xf5, 0xbd, 0x66, 0x1f, 0xcc, 0x3c, 0x82, 0xef, 0x8c, 0xbe, 0x20, 0x9b, 0x85, 0xbe, 0x18, 0xbc, 0x63, 0xbe, 
0x31, 0xa4, 0xb2, 0x3e, 0xfa, 0xf6, 0x63, 0xbe, 0x98, 0x4e, 0x3f, 0x3e, 0x0c, 0x67, 0x92, 0xbe, 0x8d, 0x7a, 0x66, 0xbd, 0x01, 0x81, 0x7d, 0x3c, 0x59, 0x83, 0x48, 0xbe, 0xeb, 0xf5, 0x99, 0x3e, 
0x56, 0xe5, 0xa2, 0x3d, 0x9d, 0x5c, 0xa5, 0x3e, 0xbd, 0xdd, 0x11, 0x3e, 0x05, 0xfb, 0x8d, 0x3e, 0xb6, 0xb8, 0x6b, 0xbe, 0x01, 0xa2, 0xa3, 0xbe, 0x00, 0x9e, 0xf6, 0xbc, 0x98, 0x82, 0x7d, 0xbe, 
0xbb, 0x91, 0x6f, 0xbe, 0xbf, 0x74, 0x53, 0x3e, 0x34, 0x1d, 0xab, 0x3d, 0x3b, 0x80, 0x9f, 0xbe, 0x50, 0x5f, 0x8c, 0x3e, 0xa1, 0x5d, 0x8f, 0x3e, 0xc9, 0x73, 0x32, 0xbe, 0xc4, 0x9e, 0x1c, 0xbe, 
0x55, 0x98, 0x2e, 0xbe, 0x4b, 0x99, 0x20, 0x3e, 0xac, 0x59, 0xa0, 0x3e, 0x38, 0xb8, 0xab, 0xbe, 0x1f, 0x51, 0x1e, 0x3e, 0xbe, 0xdc, 0x20, 0x3e, 0x04, 0x80, 0x98, 0xbe, 0xc9, 0x3d, 0xa1, 0x3e, 
0x1f, 0x6c, 0x7d, 0x3f, 0x9c, 0x1c, 0x83, 0x3f, 0xca, 0x6b, 0x7b, 0x3f, 0xed, 0xaf, 0x7e, 0x3f, 0x30, 0x19, 0x7f, 0x3f, 0x80, 0x5d, 0x81, 0x3f, 0x3f, 0xac, 0x7f, 0x3f, 0xcc, 0x08, 0x7e, 0x3f, 
0x76, 0x08, 0x7d, 0x3f, 0xb1, 0xe1, 0x85, 0x3f, 0x4b, 0x6c, 0x82, 0x3f, 0xe6, 0x3b, 0x7d, 0x3f, 0xc8, 0x48, 0x7d, 0x3f, 0xbe, 0x74, 0x7b, 0x3f, 0xd5, 0x3e, 0x7c, 0x3f, 0xe8, 0x7b, 0x83, 0x3f, 
0x28, 0xf9, 0xf8, 0x3b, 0x97, 0x70, 0xfb, 0x3a, 0x81, 0x9c, 0x9b, 0xbc, 0xe0, 0xaa, 0x19, 0x3c, 0x33, 0x74, 0xc5, 0x3b, 0xd7, 0x8a, 0x28, 0x3c, 0xa6, 0x52, 0x5e, 0xbc, 0x0c, 0xeb, 0xd4, 0xbb, 
0xad, 0xee, 0xab, 0x39, 0xa9, 0xf3, 0x68, 0x3c, 0xb1, 0x5e, 0x3f, 0x3d, 0x22, 0x80, 0x3a, 0xbb, 0xd4, 0x1a, 0xa1, 0xba, 0x02, 0x56, 0xf2, 0xbb, 0x7c, 0x58, 0xc5, 0xbb, 0x69, 0xbe, 0xd5, 0x37, 
0xda, 0x1b, 0xcd, 0xbb, 0xf4, 0x16, 0x67, 0x3d, 0xda, 0x16, 0xb5, 0x3d, 0xf8, 0xc0, 0xc7, 0xbd, 0x0b, 0x0a, 0x70, 0xbd, 0xba, 0x6e, 0xd1, 0xbc, 0xf2, 0xd5, 0x76, 0xbd, 0xd2, 0xbd, 0x58, 0xba, 
0x2e, 0x6b, 0xbc, 0xbd, 0x51, 0xab, 0xaa, 0x3c, 0xc2, 0x90, 0xf8, 0xbd, 0xb3, 0x94, 0x6a, 0xbc, 0x8d, 0x46, 0x8a, 0x3c, 0xf4, 0xd6, 0xe0, 0xbc, 0x0e, 0xe4, 0x4d, 0x3d, 0x5e, 0xe5, 0x95, 0x3d, 
0xe1, 0x41, 0xbb, 0xbd, 0xea, 0xfe, 0xf2, 0x3b, 0x79, 0x94, 0x2c, 0xbc, 0xe1, 0x24, 0xf8, 0xbc, 0xd4, 0x2a, 0xc1, 0x3d, 0x78, 0x15, 0xce, 0x3a, 0x8c, 0x11, 0x7c, 0x3d, 0x95, 0x1d, 0xae, 0xbd, 
0x87, 0xb0, 0xdc, 0xbd, 0xaa, 0xa2, 0xcb, 0x3c, 0xc3, 0x8d, 0x04, 0x3c, 0xf7, 0xb6, 0x3e, 0xbb, 0x1c, 0xee, 0x91, 0x3d, 0x28, 0xdd, 0x3a, 0x3d, 0x9d, 0x03, 0xd6, 0xbd, 0x8e, 0x97, 0xba, 0x3d, 
0x9a, 0x68, 0xa8, 0x3d, 0x25, 0xb9, 0xaa, 0xbd, 0x50, 0x6f, 0x98, 0xbc, 0x17, 0x64, 0x20, 0xbd, 0x0f, 0x1a, 0x87, 0xbd, 0xa3, 0xf7, 0x76, 0xbd, 0x63, 0xc3, 0xf1, 0x3c, 0x85, 0xd7, 0x0c, 0x3d, 
0xc3, 0x90, 0x11, 0x3d, 0x06, 0x38, 0x07, 0xbd, 0x28, 0xb3, 0xb3, 0xbd, 0xc6, 0x34, 0xc7, 0xbb, 0x1a, 0x24, 0x5e, 0x3d, 0x8d, 0x13, 0x5b, 0x3d, 0x3d, 0x30, 0x63, 0x3d, 0xee, 0x41, 0x9b, 0x3d, 
0xce, 0xa1, 0x1d, 0xbd, 0x96, 0xf3, 0xe3, 0xbd, 0xa5, 0xb5, 0x8d, 0x3d, 0xd4, 0xc0, 0xf3, 0x3d, 0xf3, 0xd8, 0x0e, 0x3e, 0x98, 0xdd, 0x41, 0x3d, 0x64, 0x6a, 0xef, 0x3c, 0x00, 0x80, 0xa0, 0x3d, 
0x34, 0x3f, 0x38, 0xbd, 0x6d, 0xa1, 0x9d, 0xbd, 0x19, 0xe6, 0xa7, 0xbd, 0x75, 0x5a, 0x54, 0xbd, 0x80, 0xa6, 0x97, 0x3d, 0xd0, 0x3b, 0xc5, 0x3c, 0x31, 0xfa, 0x84, 0xbd, 0xbd, 0x45, 0xa3, 0xba, 
0x0f, 0x0e, 0x95, 0x3d, 0x43, 0xcb, 0x10, 0x3d, 0x3a, 0xa9, 0xa0, 0x3d, 0xf3, 0xdc, 0x2e, 0xbd, 0xf7, 0x1d, 0xe1, 0xbd, 0x8c, 0x0c, 0xc7, 0x3d, 0x07, 0x61, 0xcc, 0x3d, 0x38, 0x9a, 0x58, 0xbc, 
0x93, 0x66, 0xbe, 0xbd, 0xb8, 0xd5, 0x97, 0x3d, 0x23, 0x36, 0x7e, 0xbd, 0x14, 0xb7, 0xa0, 0x3d, 0x2b, 0xe0, 0x1b, 0x3e, 0xac, 0x56, 0x99, 0xbd, 0x07, 0x52, 0x25, 0xbd, 0x1a, 0x51, 0xde, 0xbb, 
0xbc, 0x96, 0xcc, 0xbd, 0x97, 0x9c, 0x7e, 0x3d, 0x50, 0xf7, 0xc6, 0xbd, 0x38, 0xf2, 0xdc, 0xbd, 0x43, 0x8e, 0x2e, 0xbd, 0xc4, 0x4c, 0xb8, 0x3d, 0x8f, 0x98, 0x91, 0x3c, 0x03, 0x03, 0xf4, 0xbc, 
0x55, 0x58, 0x14, 0x3d, 0x6d, 0x30, 0x8b, 0x3d, 0xb0, 0x71, 0x85, 0xbd, 0x1c, 0x4d, 0x2d, 0xbc, 0x11, 0xee, 0x3c, 0x3c, 0x24, 0x69, 0x8b, 0x3d, 0x29, 0x04, 0x86, 0x3d, 0x8d, 0x18, 0xda, 0x3c, 
0xe5, 0x5b, 0xb8, 0xbd, 0x8e, 0x32, 0x97, 0x3d, 0x72, 0x40, 0x98, 0x3d, 0xa1, 0xd7, 0x8a, 0xbc, 0x1f, 0x89, 0xf0, 0xbd, 0xe4, 0xb0, 0xe7, 0xbb, 0x23, 0x65, 0xa2, 0xbd, 0x08, 0xbf, 0xd3, 0xbc, 
0x1e, 0xb0, 0x53, 0x3b, 0x2e, 0x7b, 0xa5, 0xbd, 0x86, 0x5f, 0x40, 0xbd, 0x8b, 0x05, 0x38, 0xbd, 0x71, 0x23, 0x9f, 0xbd, 0x51, 0x53, 0xdd, 0xbc, 0x76, 0xd5, 0x02, 0x3d, 0xf2, 0x14, 0x66, 0x3d, 
0x44, 0x77, 0x2e, 0xb9, 0xe3, 0x30, 0xf2, 0xbd, 0x64, 0x97, 0x94, 0xbd, 0x7f, 0x0f, 0x94, 0x3d, 0x6f, 0xad, 0x92, 0xbd, 0x10, 0xb0, 0x88, 0x3c, 0xc6, 0xbf, 0x59, 0xbd, 0x26, 0x30, 0x5f, 0x3d, 
0x13, 0x22, 0x6d, 0x3d, 0x19, 0x50, 0xe3, 0xbd, 0x71, 0xa5, 0x8b, 0xbd, 0x9b, 0xf8, 0xa6, 0x3d, 0x8b, 0xfd, 0xa6, 0x3d, 0x32, 0x98, 0xe4, 0x3c, 0x11, 0x58, 0xd2, 0xbd, 0xa6, 0x05, 0x57, 0xbc, 
0x6f, 0x75, 0x11, 0x3d, 0x21, 0xdb, 0xe3, 0x3d, 0x5a, 0x71, 0x99, 0x3c, 0x18, 0xcd, 0xb1, 0xbd, 0x58, 0x78, 0x70, 0xbd, 0xcc, 0xca, 0xec, 0x3d, 0xd8, 0x52, 0x9f, 0x3c, 0x01, 0x16, 0x81, 0xbd, 
0x17, 0x2c, 0xeb, 0xbd, 0x0a, 0x4d, 0xc6, 0x3c, 0xcf, 0xf5, 0x23, 0x3d, 0xcc, 0x39, 0x84, 0xbb, 0x50, 0x37, 0x4b, 0xbb, 0x25, 0xb1, 0x50, 0xbb, 0xc6, 0x03, 0xbe, 0x3c, 0xb2, 0x46, 0xc3, 0xbd, 
0x8b, 0x41, 0xcd, 0x3c, 0xb0, 0xb4, 0x05, 0xbd, 0x9e, 0x60, 0xf9, 0x3c, 0xf1, 0x13, 0xee, 0x3b, 0xf0, 0xa4, 0x12, 0xbd, 0x69, 0x10, 0xb8, 0x3d, 0x43, 0xc2, 0xe6, 0xbb, 0x7d, 0x15, 0xf1, 0xbc, 
0x47, 0x3f, 0x25, 0x3d, 0x1a, 0xcd, 0xe6, 0x3c, 0x25, 0x81, 0x44, 0xbd, 0x6c, 0xe9, 0xe0, 0x3d, 0xed, 0x87, 0x63, 0xbd, 0xbe, 0x98, 0x97, 0xbc, 0x35, 0xd8, 0xf3, 0x3c, 0x73, 0x59, 0xa1, 0x3d, 
0xc9, 0xbf, 0x87, 0xbd, 0xa5, 0xa7, 0x82, 0xbd, 0xea, 0xbf, 0xca, 0x3d, 0x89, 0xc6, 0x86, 0xbd, 0xb8, 0xee, 0xb3, 0x3d, 0xa7, 0x0f, 0xc7, 0x3d, 0x74, 0x62, 0x85, 0x3d, 0x76, 0x98, 0xb2, 0xbb, 
0xd4, 0x67, 0xe6, 0x3d, 0xd6, 0x7a, 0xd6, 0xbd, 0xb2, 0x63, 0xcd, 0x3d, 0x38, 0x56, 0x01, 0xbd, 0x4b, 0x0b, 0x93, 0x3d, 0x65, 0x75, 0xd2, 0x3d, 0x14, 0x59, 0xd8, 0x3d, 0xe3, 0x9b, 0xc8, 0x3c, 
0x9f, 0x29, 0x49, 0x3d, 0xc6, 0x32, 0x8c, 0xbd, 0x0e, 0x3c, 0xb0, 0x3d, 0x2b, 0x90, 0x90, 0x3d, 0xb2, 0x12, 0xcf, 0xbd, 0x8e, 0xb2, 0xdc, 0xbd, 0xc0, 0xfe, 0x9a, 0x3d, 0x62, 0x26, 0xbd, 0x3b, 
0xa4, 0xd9, 0x10, 0x3c, 0x64, 0x40, 0x7d, 0x3d, 0x20, 0xe7, 0x57, 0xbd, 0x29, 0x9c, 0x83, 0x3d, 0x5f, 0xf2, 0x2d, 0xbd, 0x1d, 0x1c, 0xbc, 0x3c, 0xf7, 0x20, 0xcf, 0xbd, 0x19, 0xec, 0x2f, 0x3d, 
0x88, 0xde, 0x4c, 0x3d, 0x92, 0xaa, 0x49, 0xbd, 0xc8, 0x61, 0xee, 0x3c, 0x20, 0x19, 0xc9, 0x3d, 0xee, 0x3a, 0xd6, 0xbd, 0xc0, 0x52, 0xdf, 0xbd, 0xbd, 0x57, 0x45, 0x3d, 0x82, 0x18, 0xd4, 0xbd, 
0xa3, 0xcf, 0xa4, 0xbd, 0xc4, 0xda, 0x08, 0xbd, 0x45, 0x12, 0xe4, 0xbd, 0x5a, 0x41, 0xdd, 0x3c, 0xe5, 0xd2, 0xb5, 0x3d, 0x80, 0x7c, 0xc1, 0x3c, 0x09, 0x16, 0x8f, 0x3b, 0x04, 0x37, 0xeb, 0xbd, 
0xd9, 0xdc, 0xc7, 0xbd, 0x44, 0xe4, 0xae, 0xbd, 0xf2, 0xa7, 0x10, 0x3b, 0x86, 0x38, 0xc7, 0xbd, 0xf3, 0xfc, 0x9e, 0x3b, 0xf8, 0xee, 0x0f, 0x3e, 0x5d, 0x5a, 0xfd, 0x3c, 0x22, 0xc2, 0x10, 0xbd, 
0x03, 0x59, 0x2b, 0xbd, 0x4d, 0x46, 0x1a, 0x3d, 0x76, 0xce, 0xb0, 0xbc, 0xb9, 0x3a, 0x39, 0xbd, 0xcd, 0x47, 0xd2, 0x3d, 0x8c, 0x5c, 0x9d, 0x3d, 0xaa, 0xd4, 0xbb, 0xbd, 0x63, 0x76, 0x03, 0x3d, 
0x8e, 0xbb, 0x71, 0xbd, 0x57, 0xc2, 0x7e, 0x3a, 0xba, 0x9e, 0x2a, 0xba, 0xe8, 0x69, 0xd3, 0x3d, 0xe4, 0x4a, 0xc9, 0x3d, 0x38, 0xfb, 0x86, 0x3d, 0x0c, 0xd2, 0x92, 0x3d, 0x6a, 0x41, 0x9f, 0xbd, 
0x82, 0x62, 0x1a, 0xbc, 0xe9, 0xbb, 0x8d, 0x3d, 0x22, 0x89, 0xd6, 0x3c, 0xfb, 0x14, 0xe4, 0x3d, 0xde, 0x12, 0x4c, 0xbd, 0x73, 0x85, 0x40, 0xbb, 0x78, 0x3d, 0xd5, 0x3c, 0x3e, 0xa0, 0x8c, 0x3d, 
0x3e, 0x45, 0x0e, 0x3d, 0x00, 0x3a, 0x71, 0xbc, 0x04, 0xf8, 0x01, 0x3d, 0x0e, 0x5f, 0x53, 0x3d, 0x22, 0x5e, 0x2e, 0x3d, 0xa1, 0xdf, 0xa6, 0x3d, 0xa3, 0x17, 0x4b, 0xbc, 0x23, 0xfc, 0x02, 0x3d, 
0x88, 0x8d, 0x84, 0xbc, 0x60, 0x5f, 0x5c, 0x3d, 0x06, 0xa1, 0xc4, 0x3d, 0xbc, 0x74, 0xd5, 0xbd, 0xad, 0xe4, 0xb1, 0xbd, 0x71, 0xd4, 0x07, 0xbd, 0x76, 0x1c, 0x8b, 0x3d, 0x1b, 0x70, 0x1d, 0x3d, 
0x44, 0xb8, 0xbd, 0xbd, 0x6f, 0x3a, 0x92, 0x3d, 0x03, 0x15, 0xa0, 0xbd, 0x5b, 0xaf, 0xc0, 0x3d, 0x1b, 0x14, 0xb1, 0x3c, 0xa3, 0xaa, 0xac, 0xbc, 0x96, 0xc9, 0x3d, 0x3d, 0xa1, 0xc5, 0x6c, 0x3d, 
0xfa, 0x58, 0x8b, 0xbd, 0xb8, 0xa7, 0xb8, 0x3c, 0x33, 0xfe, 0x8f, 0xbc, 0xf5, 0xb3, 0xef, 0x3d, 0xe9, 0xcd, 0xb0, 0x3d, 0xa6, 0x32, 0xbe, 0xbd, 0x34, 0xc9, 0x16, 0x3d, 0x6f, 0x7c, 0x3e, 0xbd, 
0x40, 0xb1, 0x56, 0xbd, 0x9b, 0xcd, 0xcc, 0xbd, 0xd5, 0x8e, 0x9a, 0x3c, 0xb1, 0xaa, 0x7b, 0x3d, 0x22, 0x01, 0xcd, 0xbb, 0x62, 0xcb, 0x65, 0xbd, 0x14, 0xb8, 0x7b, 0xbd, 0x95, 0x2f, 0x42, 0x3b, 
0x59, 0x77, 0x8c, 0xbc, 0x13, 0x9f, 0xfd, 0x3d, 0x8e, 0x9b, 0xd6, 0x3d, 0x8c, 0x20, 0x8e, 0x3b, 0x0f, 0x66, 0x9b, 0xbd, 0x24, 0x6c, 0xba, 0x3d, 0xcf, 0xb0, 0x8d, 0x3d, 0x8c, 0x48, 0xf2, 0xbc, 
0x76, 0x03, 0xb5, 0x3c, 0x57, 0xd9, 0xce, 0x3d, 0x70, 0x0f, 0x7b, 0x3d, 0x47, 0x5d, 0x4c, 0x3d, 0x27, 0xbc, 0xb1, 0xbd, 0x89, 0x2c, 0x5f, 0xbb, 0x1a, 0x41, 0xd9, 0xbd, 0x43, 0xb1, 0xbc, 0xbd, 
0xc8, 0x31, 0x2b, 0xbc, 0xd1, 0xd8, 0xed, 0x3a, 0xc4, 0x58, 0x37, 0x3c, 0xd2, 0x38, 0xa9, 0xbd, 0xf4, 0x7f, 0xcf, 0xbd, 0x48, 0x1f, 0x01, 0xbd, 0xb2, 0xad, 0x95, 0x3d, 0xe4, 0x00, 0x20, 0xbd, 
0x9c, 0x66, 0xc2, 0xbc, 0xb5, 0x3a, 0x17, 0x3b, 0x3f, 0xe6, 0xd4, 0xbd, 0x16, 0xd1, 0x87, 0x3a, 0x54, 0xb7, 0x8c, 0xbd, 0x09, 0x70, 0x74, 0xbd, 0x8a, 0x3e, 0x79, 0xbd, 0x71, 0xf0, 0xb8, 0xbd, 
0x1b, 0x80, 0xad, 0xbb, 0x2c, 0x6c, 0x06, 0x3d, 0x0b, 0x5c, 0xd5, 0x3d, 0xa4, 0x54, 0xd4, 0xbd, 0x4a, 0x1c, 0x10, 0xbd, 0xb5, 0xa8, 0x89, 0xbd, 0xc6, 0x2a, 0xd5, 0x3c, 0x84, 0xf5, 0x8b, 0x3d, 
0xce, 0x5a, 0x88, 0xbc, 0x5f, 0x7b, 0x91, 0xbd, 0x7e, 0x0a, 0xae, 0xbd, 0x2e, 0xd8, 0x28, 0xbd, 0x67, 0x0c, 0x0b, 0x3d, 0x5f, 0x67, 0x86, 0xbc, 0x38, 0xb4, 0xb5, 0x3d, 0xc9, 0x53, 0x8c, 0x3c, 
0xab, 0x8b, 0xbd, 0x3c, 0x16, 0xef, 0xc6, 0x3c, 0x10, 0xe6, 0xf0, 0x3b, 0x56, 0x6a, 0x25, 0x3d, 0xe8, 0x21, 0xbe, 0xbd, 0xc3, 0xc3, 0x8f, 0xbc, 0x7d, 0x98, 0xfc, 0x3c, 0x09, 0x4e, 0xbe, 0xbd, 
0x5a, 0x5e, 0x8f, 0x3d, 0xea, 0xbe, 0xab, 0xbd, 0x30, 0xf8, 0x66, 0xbd, 0x6a, 0x24, 0xcf, 0x3d, 0x6d, 0xa2, 0xf0, 0xbb, 0xd6, 0x31, 0x31, 0xbd, 0xc0, 0xfa, 0xc6, 0xbd, 0x8f, 0xbc, 0x8e, 0xbd, 
0x80, 0x9a, 0x42, 0x3d, 0xca, 0x48, 0x88, 0xbd, 0x78, 0x22, 0x43, 0x3d, 0x95, 0x60, 0xa6, 0x3d, 0x94, 0xbb, 0x7b, 0xbc, 0x39, 0x1b, 0xdc, 0xbd, 0x87, 0xaf, 0xa5, 0x3d, 0xa6, 0xfd, 0x3d, 0xbd, 
0xbc, 0x9a, 0x4b, 0x3c, 0x75, 0xb6, 0xe7, 0xbd, 0xff, 0xde, 0xa8, 0x3c, 0x68, 0x4d, 0xa7, 0x3d, 0x6d, 0xda, 0x56, 0x3d, 0x45, 0x20, 0xae, 0x3d, 0x4f, 0xfd, 0xa8, 0xbd, 0x25, 0x22, 0x8c, 0x3d, 
0x52, 0x18, 0x0d, 0x3d, 0x03, 0xb0, 0x35, 0xbd, 0x89, 0xb6, 0xb5, 0xbc, 0x6f, 0x8b, 0x88, 0x3d, 0x9c, 0x8d, 0x5e, 0xbb, 0x69, 0x03, 0x19, 0x3e, 0x5b, 0x20, 0x9d, 0x3d, 0x8f, 0x91, 0x00, 0x3e, 
0x67, 0x0e, 0x19, 0x3e, 0xfe, 0x86, 0x86, 0xbd, 0xb0, 0x24, 0x63, 0x3d, 0xf5, 0xb3, 0x9c, 0xbc, 0xdf, 0xf6, 0x5f, 0x3d, 0x1b, 0xaa, 0x49, 0x3d, 0xa0, 0xd2, 0x43, 0x3d, 0x1c, 0x89, 0xc7, 0xbd, 
0x51, 0x12, 0x12, 0xbc, 0x0c, 0x1d, 0x68, 0x3d, 0x55, 0xb3, 0x9f, 0xbc, 0x5f, 0xf7, 0x47, 0x3b, 0x99, 0x7a, 0xd6, 0xbd, 0xff, 0xd6, 0x57, 0xbc, 0xfd, 0xb4, 0xea, 0xbc, 0xdb, 0xdc, 0x37, 0x3d, 
0x3c, 0xb1, 0xa8, 0xbc, 0xb1, 0x98, 0x13, 0xbd, 0xcd, 0x57, 0x84, 0xbc, 0xad, 0x84, 0x97, 0x3d, 0x86, 0x4c, 0xc7, 0xbd, 0x12, 0x2c, 0x1d, 0xbd, 0x0f, 0x11, 0x80, 0xbc, 0x15, 0x50, 0x59, 0xbd, 
0x60, 0x21, 0xd8, 0x3d, 0x3c, 0x79, 0xf4, 0xbc, 0x31, 0x37, 0xb1, 0xbd, 0x64, 0x17, 0x7d, 0x3d, 0x2a, 0x7c, 0x4b, 0xbd, 0x27, 0x84, 0xa3, 0x3d, 0x9a, 0x84, 0xe6, 0xba, 0xd8, 0xda, 0xff, 0x3c, 
0x1a, 0xa8, 0x24, 0x3d, 0xc1, 0x43, 0x10, 0xbd, 0xae, 0x7d, 0x6a, 0xbd, 0x25, 0xfd, 0x2f, 0xbb, 0xf3, 0x0d, 0x91, 0xbd, 0x1a, 0xf2, 0xf6, 0x3c, 0x1a, 0xf5, 0xfe, 0x3c, 0x0d, 0xee, 0xbb, 0x3c, 
0xb6, 0x9e, 0xb2, 0xbc, 0x6a, 0xd1, 0x8e, 0x3d, 0x28, 0x21, 0x81, 0x3d, 0x3f, 0xb1, 0xcb, 0xbd, 0x90, 0x97, 0xb8, 0xbc, 0xeb, 0xed, 0x65, 0x3c, 0x5a, 0x0a, 0x5a, 0xbd, 0x7e, 0x54, 0x21, 0x3d, 
0x11, 0xeb, 0x47, 0x3b, 0x20, 0x9d, 0xa0, 0xbc, 0xc1, 0x4b, 0x83, 0xbc, 0x0a, 0xac, 0x07, 0xb9, 0xef, 0xd5, 0x26, 0x3d, 0x9d, 0x44, 0xb9, 0x3d, 0xe3, 0xca, 0xa2, 0x3d, 0x07, 0x36, 0x97, 0xbd, 
0x12, 0xf9, 0x04, 0x3c, 0x15, 0x6f, 0x74, 0xbd, 0x76, 0xd2, 0x0d, 0xbd, 0xa3, 0x32, 0xb7, 0x3d, 0x9d, 0x59, 0x88, 0x3c, 0x66, 0xf2, 0x22, 0xbd, 0x92, 0xa0, 0x0c, 0x3d, 0x66, 0xd4, 0x48, 0x3d, 
0xec, 0xa7, 0xbf, 0xbd, 0x75, 0x93, 0x9f, 0xbd, 0xce, 0x38, 0xc0, 0x3d, 0x89, 0x92, 0x6f, 0xbd, 0x4b, 0xb6, 0x8b, 0xbd, 0xfd, 0x87, 0xdc, 0x3d, 0x30, 0xea, 0x5d, 0x3d, 0x6c, 0xc8, 0x95, 0xbd, 
0x8d, 0x2b, 0x20, 0xbc, 0x11, 0x02, 0xa8, 0x3c, 0x7c, 0x74, 0xd6, 0xbd, 0xb5, 0x74, 0xa9, 0x3c, 0x02, 0x43, 0xe5, 0x3d, 0x73, 0x38, 0x2c, 0xbd, 0x17, 0x99, 0xe3, 0xbd, 0xa3, 0x45, 0xc8, 0xbd, 
0xa7, 0x42, 0xe8, 0xbd, 0x80, 0x88, 0x34, 0xbd, 0xc0, 0xd1, 0x1e, 0xbd, 0x22, 0xbc, 0x5b, 0x3d, 0x48, 0xfd, 0x78, 0x3d, 0xf2, 0x6b, 0xed, 0xbd, 0x1e, 0x70, 0x05, 0x3d, 0x4c, 0x83, 0x3f, 0xbd, 
0x0d, 0xee, 0xcd, 0x3d, 0x5d, 0xf7, 0xbe, 0x3d, 0xd6, 0x72, 0xcd, 0xbd, 0x49, 0x96, 0x82, 0x3d, 0x9a, 0x3c, 0xdc, 0x3d, 0x6c, 0xcc, 0xbb, 0x3d, 0x56, 0x5f, 0x15, 0x3d, 0x51, 0xd5, 0x83, 0x3d, 
0xe2, 0x5a, 0xa7, 0xbd, 0x33, 0x03, 0x98, 0x3d, 0xab, 0xa7, 0xa7, 0xbd, 0x0d, 0x6d, 0x90, 0xbd, 0xed, 0x85, 0x9e, 0x3c, 0x99, 0x27, 0xbc, 0xbd, 0xfc, 0x2c, 0x80, 0xbd, 0xc1, 0xd7, 0x15, 0xbd, 
0x25, 0x03, 0xc0, 0x3b, 0x71, 0x3a, 0xed, 0x3c, 0x0a, 0x31, 0x99, 0xbc, 0x00, 0xb6, 0x6d, 0xbd, 0x68, 0xb1, 0xc4, 0xbd, 0x0b, 0xf8, 0x90, 0xbd, 0x44, 0x32, 0xb4, 0xbd, 0x14, 0x87, 0x22, 0x3d, 
0x11, 0x9e, 0x9e, 0x3d, 0xc4, 0x89, 0x3c, 0x3d, 0x68, 0xc8, 0x00, 0xbd, 0xbc, 0x53, 0x8d, 0xbd, 0x45, 0x29, 0x56, 0xbd, 0x22, 0x0a, 0x88, 0xbd, 0x82, 0x1d, 0xba, 0x3a, 0xec, 0x47, 0x04, 0xbe, 
0x0e, 0xe9, 0x8a, 0xbd, 0x37, 0x5f, 0x89, 0x3d, 0xf9, 0xd2, 0x0f, 0x3d, 0x98, 0xad, 0x84, 0x3c, 0xf6, 0xcf, 0x90, 0x3d, 0xfe, 0xf0, 0xf1, 0xbd, 0x78, 0x9d, 0x26, 0x3d, 0xe0, 0xf2, 0xa8, 0xbc, 
0x5d, 0x34, 0x80, 0x3c, 0x69, 0xe3, 0x9d, 0x3d, 0x49, 0x15, 0x88, 0x3d, 0x2f, 0xef, 0xd2, 0x3d, 0x99, 0x80, 0x05, 0x3e, 0xe6, 0x13, 0x20, 0xbd, 0x57, 0x62, 0xb7, 0xbd, 0xc4, 0xf4, 0x60, 0xbd, 
0xa8, 0xf8, 0xb2, 0xbc, 0xd7, 0xad, 0xa0, 0x3b, 0x55, 0xd8, 0xcf, 0xbc, 0x33, 0xbd, 0x2c, 0xbd, 0x49, 0x28, 0x6d, 0x3c, 0x0d, 0xac, 0x0c, 0x3d, 0xd8, 0x52, 0x87, 0x3d, 0xf8, 0x12, 0x1d, 0xbd, 
0xa9, 0x56, 0xa5, 0x3d, 0x6b, 0xd6, 0x3d, 0x3d, 0xfc, 0xed, 0x36, 0xbd, 0x08, 0x15, 0x33, 0x3b, 0xf1, 0x90, 0x8f, 0x3d, 0x67, 0xf7, 0xc4, 0x3d, 0x94, 0xd6, 0x87, 0x3d, 0x0e, 0x57, 0x15, 0x3d, 
0xa3, 0x3c, 0x4c, 0xbd, 0x6d, 0x2d, 0x82, 0xbd, 0x92, 0xee, 0xb2, 0xbd, 0x73, 0x45, 0x3b, 0xbd, 0x45, 0xf3, 0xde, 0xbb, 0x48, 0x7d, 0xb3, 0x3d, 0xbf, 0x59, 0x3b, 0xbd, 0x56, 0x33, 0x16, 0xbd, 
0x0a, 0x52, 0xa6, 0x3d, 0xf6, 0xdb, 0x92, 0x3d, 0xf2, 0x18, 0x2e, 0x3d, 0x1f, 0xb5, 0xa2, 0xbd, 0xd9, 0xcf, 0x7f, 0xbd, 0x67, 0x67, 0xfc, 0xbd, 0x5d, 0x44, 0x89, 0xbd, 0x7a, 0x81, 0xbb, 0xbd, 
0xbb, 0x0e, 0x07, 0x3d, 0x8a, 0x17, 0x3a, 0x3d, 0x2b, 0xe0, 0xc7, 0x3d, 0x7c, 0xbf, 0x95, 0xbd, 0xa1, 0x81, 0xb3, 0x3c, 0xa2, 0x2f, 0x73, 0xbd, 0xa1, 0xd6, 0x2c, 0x3d, 0x38, 0xcb, 0x4e, 0x3b, 
0x9c, 0xc2, 0xc2, 0xbd, 0x58, 0xc0, 0x2e, 0x3b, 0xab, 0xa0, 0xaf, 0xbd, 0x50, 0xa0, 0x6d, 0xbd, 0x87, 0x40, 0x08, 0xbe, 0x64, 0x81, 0xa5, 0xbc, 0x64, 0xa2, 0xa7, 0x3c, 0xfb, 0xf1, 0x97, 0x3d, 
0xbf, 0x5c, 0x8b, 0x3d, 0xb1, 0x6d, 0xaf, 0xbd, 0xfc, 0x6a, 0xfd, 0x3d, 0x28, 0xcd, 0x1f, 0xbd, 0xf0, 0x08, 0x45, 0xbd, 0x53, 0x2d, 0xa3, 0x3d, 0xc3, 0xd4, 0xfb, 0xbc, 0x20, 0x0c, 0xc0, 0x3c, 
0xef, 0x4a, 0x82, 0xbd, 0x92, 0x75, 0x30, 0x3b, 0x31, 0x56, 0xe2, 0x3c, 0xec, 0x4f, 0xc8, 0x3d, 0x4f, 0xe2, 0xf4, 0xbc, 0xbc, 0x32, 0x5b, 0x3d, 0xa2, 0x4f, 0xbf, 0x3d, 0x5f, 0x3c, 0xad, 0x3d, 
0x14, 0x88, 0x86, 0x3d, 0x26, 0x83, 0x8a, 0x3c, 0x51, 0x04, 0xcd, 0x3c, 0xbc, 0x3e, 0x9d, 0xbc, 0x7a, 0xaf, 0xd0, 0xbd, 0xf8, 0x91, 0x3c, 0x3d, 0x5d, 0x48, 0xd9, 0xbb, 0xb6, 0xe4, 0x64, 0x3d, 
0xc0, 0x7f, 0xd5, 0x3d, 0xf2, 0x4a, 0x39, 0x3c, 0x96, 0x78, 0xaf, 0x3d, 0x77, 0x98, 0xec, 0x3c, 0x18, 0x1f, 0x6d, 0x3d, 0x6b, 0x46, 0xb0, 0x3d, 0xcd, 0x99, 0x33, 0xbd, 0x19, 0x0c, 0xe4, 0x3d, 
0x09, 0x82, 0xdb, 0xbc, 0x02, 0xa6, 0xaf, 0x3d, 0x57, 0x03, 0xf2, 0x3c, 0x46, 0x26, 0x8c, 0x3d, 0xe0, 0x87, 0xb4, 0xbd, 0xfa, 0x0f, 0xd1, 0xbd, 0x17, 0x34, 0x04, 0xbd, 0xfc, 0x97, 0x8c, 0xbd, 
0x60, 0xfb, 0x28, 0xbd, 0xf4, 0x4b, 0x8b, 0xbd, 0x05, 0x1f, 0x64, 0x3d, 0x71, 0x9b, 0x3c, 0x3d, 0xe9, 0xb9, 0xe1, 0x3c, 0x2b, 0x44, 0x90, 0xbd, 0x9d, 0x05, 0xd9, 0x3c, 0x5f, 0x07, 0xb2, 0xbc, 
0xe0, 0x8a, 0xc0, 0x3d, 0x43, 0x1c, 0xb1, 0xbd, 0x60, 0x8b, 0x4f, 0xbd, 0x24, 0x08, 0x9e, 0x3d, 0xa2, 0x1a, 0xb8, 0xbd, 0x4b, 0x19, 0x84, 0x3d, 0x70, 0x4c, 0xd9, 0xbd, 0x09, 0x8f, 0x57, 0x3c, 
0x5c, 0x42, 0xb6, 0x3d, 0xc8, 0x94, 0xb0, 0xbd, 0xf4, 0xb2, 0xb8, 0x3d, 0x35, 0xe1, 0xb3, 0xbd, 0xfa, 0x55, 0x5b, 0xbd, 0x3f, 0x28, 0x5e, 0x3d, 0x5c, 0x91, 0xf8, 0xbc, 0xec, 0xfe, 0x0a, 0xbc, 
0x2b, 0xc6, 0x99, 0xbc, 0xda, 0xc9, 0x9d, 0x3d, 0xcf, 0x31, 0x18, 0xbd, 0xe3, 0x89, 0x60, 0x3c, 0xa3, 0x3e, 0xda, 0x3d, 0x70, 0x2d, 0x83, 0x3c, 0xd1, 0x6a, 0x6c, 0xbd, 0xcb, 0xa7, 0x23, 0xbd, 
0xc4, 0x6a, 0x34, 0x3d, 0x08, 0xbc, 0xdc, 0x3d, 0x3a, 0xb2, 0x6a, 0x3d, 0xec, 0x43, 0x85, 0xbd, 0xaf, 0x92, 0x4d, 0x3d, 0xed, 0x5e, 0x76, 0xbd, 0x0f, 0x0f, 0xa9, 0xbd, 0x35, 0xa4, 0x91, 0xbd, 
0x62, 0xcb, 0xaf, 0x3d, 0x0d, 0x77, 0xaf, 0xbd, 0x96, 0x81, 0x16, 0x3d, 0x77, 0xc1, 0x9e, 0x3d, 0x62, 0x04, 0x3f, 0x3d, 0xd7, 0x54, 0xb7, 0xbd, 0xb4, 0x6b, 0x93, 0xbb, 0x9d, 0xbb, 0x11, 0xbd, 
0x25, 0xf6, 0x95, 0x3d, 0x81, 0xe6, 0x7d, 0x3d, 0x1a, 0xcd, 0xaa, 0xbd, 0xe4, 0x70, 0x5f, 0x3d, 0x54, 0xa0, 0xc6, 0xbd, 0x64, 0x3e, 0xb5, 0xbd, 0xcc, 0x15, 0x30, 0x3d, 0x92, 0xb4, 0x2b, 0x3d, 
0xd6, 0x69, 0x00, 0x3d, 0xee, 0x88, 0x50, 0x3d, 0x6b, 0x96, 0x7b, 0xbd, 0xe9, 0x3b, 0x71, 0xbd, 0x21, 0x04, 0xb9, 0x3a, 0x80, 0x48, 0xb6, 0xbd, 0x47, 0x6b, 0xaf, 0x3d, 0x4c, 0x3a, 0x26, 0x3c, 
0x86, 0x35, 0xa8, 0xbb, 0x05, 0xb3, 0xba, 0x3d, 0x56, 0x7b, 0x9c, 0xbc, 0x78, 0x54, 0xa5, 0xbd, 0x82, 0x9c, 0x7a, 0xbd, 0x39, 0xfb, 0xc6, 0xbd, 0x09, 0x37, 0xcb, 0x3d, 0x39, 0xbe, 0x92, 0xbd, 
0xd6, 0x0a, 0xc8, 0xbd, 0xf6, 0xd6, 0xcc, 0xbd, 0x9f, 0x2f, 0x03, 0xbd, 0x1f, 0x57, 0x11, 0xbd, 0x2b, 0x37, 0x8a, 0x3d, 0xea, 0xc9, 0x1b, 0x3d, 0xef, 0x90, 0xb0, 0xbd, 0x09, 0x6c, 0xaa, 0xbd, 
0xa0, 0xf5, 0xe6, 0xbd, 0x07, 0xfa, 0x5f, 0x3d, 0xc1, 0x15, 0x8e, 0xbc, 0x49, 0x0b, 0x27, 0xbd, 0x34, 0x65, 0x35, 0xbc, 0x72, 0x80, 0xab, 0x3d, 0xcc, 0x24, 0x45, 0x3d, 0x5d, 0x8e, 0x0f, 0x3d, 
0xd9, 0xe3, 0xce, 0x3d, 0x42, 0x51, 0x19, 0x3d, 0xb2, 0x5c, 0x33, 0x3d, 0x61, 0x38, 0x78, 0x3d, 0x80, 0x64, 0x21, 0x3d, 0xdf, 0x2d, 0x8f, 0x3d, 0x61, 0xc6, 0xdc, 0xbd, 0x13, 0xdf, 0x18, 0xbd, 
0x97, 0x84, 0xfb, 0x3d, 0xab, 0x7a, 0x77, 0xbc, 0x38, 0x2b, 0x2d, 0x3d, 0xe8, 0xb4, 0xc2, 0x3d, 0x1a, 0x61, 0x81, 0x3d, 0x4c, 0xd9, 0xca, 0xbd, 0x72, 0x8e, 0x74, 0xbd, 0x82, 0xb7, 0xc0, 0xbc, 
0xb6, 0xac, 0x08, 0xbd, 0x6c, 0x5b, 0xd9, 0x3d, 0x6a, 0xe0, 0xab, 0xbd, 0x76, 0x64, 0xad, 0xbd, 0xb6, 0x69, 0xf9, 0x3c, 0xda, 0xa8, 0x21, 0xbd, 0x4a, 0xec, 0xba, 0xbc, 0x14, 0x01, 0x30, 0x3d, 
0x0a, 0xc1, 0x14, 0xbd, 0xfb, 0x89, 0x94, 0xbd, 0xc0, 0x83, 0xa3, 0x3c, 0x55, 0x38, 0xfa, 0x3c, 0x25, 0x05, 0xca, 0x3d, 0x18, 0x00, 0x22, 0xbd, 0x63, 0xb5, 0x31, 0xbd, 0x9e, 0x4b, 0xb0, 0x3c, 
0xac, 0x10, 0xe2, 0x3d, 0xa3, 0x34, 0xaa, 0x3d, 0xca, 0xbb, 0x78, 0x3c, 0x93, 0x2f, 0xbe, 0x3d, 0x4d, 0x2d, 0xac, 0xbc, 0x56, 0x74, 0x6d, 0x3c, 0x44, 0xcc, 0xa9, 0x3d, 0x30, 0x2e, 0x5f, 0xbd, 
0x5d, 0x26, 0xc5, 0x3c, 0xb7, 0x34, 0x45, 0x3d, 0xe3, 0xb1, 0x46, 0x3d, 0x38, 0xd9, 0x41, 0xbd, 0x1f, 0x78, 0xd5, 0x39, 0xf8, 0xaa, 0xcd, 0xbc, 0x1f, 0xa0, 0xe0, 0xbd, 0xbf, 0x02, 0xab, 0xbd, 
0x56, 0xb6, 0x43, 0xbd, 0x14, 0x1f, 0xb6, 0x3d, 0x50, 0x39, 0xbe, 0x3d, 0xfc, 0x3c, 0xb9, 0xbd, 0x1b, 0x3e, 0xfd, 0x3b, 0xea, 0x3a, 0xbb, 0xbc, 0xf1, 0x9d, 0xc4, 0xbc, 0x69, 0xce, 0xa7, 0x3c, 
0xde, 0xca, 0x71, 0x3d, 0xef, 0x0a, 0x4e, 0xbc, 0xcb, 0x08, 0xae, 0x3d, 0xd1, 0x82, 0x8d, 0x3d, 0x29, 0x20, 0x9b, 0x3d, 0xd6, 0x20, 0xce, 0xbd, 0xc7, 0xc1, 0xd3, 0xbc, 0x96, 0xcb, 0xd4, 0xbd, 
0xcd, 0x10, 0x51, 0x3d, 0x83, 0x16, 0xdb, 0x3d, 0xdf, 0x67, 0x8d, 0x3d, 0x9f, 0x11, 0x8a, 0x38, 0x80, 0x56, 0xca, 0xbd, 0x1e, 0x85, 0x99, 0xbd, 0x3c, 0x47, 0x62, 0x3d, 0xd6, 0x0c, 0xb4, 0xbd, 
0x9b, 0x91, 0x89, 0xbd, 0x6b, 0xa5, 0x30, 0xbd, 0x19, 0x64, 0x89, 0xbd, 0x5c, 0xe0, 0x0c, 0x3c, 0xc2, 0xe8, 0x2c, 0x3c, 0x8a, 0xb3, 0xb0, 0x3d, 0xb3, 0xb1, 0x68, 0xbd, 0xce, 0x3a, 0xf0, 0x3c, 
0x47, 0x09, 0x8c, 0x3d, 0xfc, 0xb7, 0x96, 0xbc, 0x97, 0x56, 0xdf, 0xbc, 0x50, 0x45, 0x87, 0x3c, 0x48, 0x2f, 0xcb, 0x3d, 0xcb, 0xa1, 0x31, 0xbd, 0xef, 0x9f, 0xee, 0x3d, 0xb3, 0x41, 0x5f, 0x3d, 
0x6b, 0x6b, 0x9f, 0xbd, 0x6d, 0x4b, 0x7e, 0xba, 0xcf, 0x85, 0xad, 0x3c, 0x2d, 0x59, 0xb0, 0xbd, 0x10, 0xa2, 0x02, 0xbe, 0xf1, 0x04, 0xd2, 0xbd, 0x2b, 0x2b, 0x79, 0x3d, 0x6d, 0x8a, 0xe2, 0x3c, 
0x87, 0xeb, 0x15, 0x3d, 0x5c, 0x48, 0xcb, 0xbc, 0x67, 0xdd, 0x9b, 0xbd, 0xe4, 0x46, 0x64, 0x3d, 0x35, 0x3b, 0x83, 0x3d, 0x1e, 0x19, 0x9c, 0x3d, 0x38, 0xd7, 0x02, 0x3a, 0x38, 0xf6, 0xc3, 0x3d, 
0x1a, 0x23, 0x95, 0x3d, 0x05, 0x7c, 0xd0, 0x3d, 0x64, 0xb8, 0x56, 0x3d, 0x24, 0x5e, 0x6d, 0x3d, 0x89, 0x60, 0xed, 0xbc, 0x0a, 0x1a, 0xf4, 0xbd, 0xcc, 0x09, 0xee, 0x3d, 0x22, 0x64, 0xcf, 0x3d, 
0xc2, 0x3e, 0xab, 0xbc, 0xb0, 0x47, 0x04, 0xbc, 0xf1, 0xe1, 0x0c, 0xbc, 0x36, 0xaa, 0xbe, 0xbd, 0x5d, 0xeb, 0x19, 0x3c, 0x30, 0x46, 0xa9, 0x3c, 0x8c, 0x34, 0xae, 0xbd, 0x45, 0x61, 0x8b, 0xbd, 
0x7a, 0xf8, 0xc9, 0x3d, 0x1a, 0x9e, 0x79, 0x3d, 0x1a, 0x40, 0x1b, 0xbd, 0x91, 0x80, 0xcc, 0xbd, 0x63, 0xe1, 0xb6, 0xbd, 0xc4, 0x70, 0x6f, 0x3d, 0xce, 0x6a, 0xcc, 0xbd, 0x62, 0x85, 0xc7, 0x3d, 
0xd0, 0x94, 0xa8, 0x3d, 0xfd, 0xf4, 0xaa, 0xbd, 0x05, 0xd4, 0x9b, 0xbd, 0xdf, 0xbe, 0x80, 0xbd, 0x6c, 0x91, 0xad, 0xbd, 0xa5, 0x09, 0x94, 0x3d, 0x6c, 0x1f, 0x7c, 0xbd, 0x0f, 0x12, 0xc6, 0x3d, 
0x33, 0x78, 0x17, 0x3b, 0xd5, 0x04, 0x1b, 0xbd, 0xa7, 0xee, 0x99, 0xbd, 0xa8, 0x39, 0x61, 0x3c, 0x3a, 0x39, 0xb9, 0x3d, 0xff, 0x47, 0x94, 0x3c, 0x80, 0xb8, 0x89, 0xbd, 0xf4, 0x01, 0x61, 0xbd, 
0x91, 0x87, 0xa0, 0x3d, 0xe3, 0x9a, 0xf8, 0x3c, 0x0a, 0x5b, 0x52, 0x3d, 0x93, 0xef, 0xdb, 0x3d, 0xf5, 0x7f, 0xba, 0x3d, 0x59, 0x2f, 0xb3, 0x3c, 0xcd, 0x8d, 0xed, 0x3c, 0xa9, 0x8a, 0xa6, 0xbc, 
0xa5, 0xc4, 0x1a, 0x3c, 0xd4, 0x6f, 0x52, 0x3d, 0x76, 0x2e, 0x82, 0xbd, 0xab, 0xc7, 0x1f, 0xbc, 0x6f, 0x23, 0xc0, 0x3d, 0x84, 0x33, 0x73, 0xbd, 0x28, 0x55, 0xa1, 0xbd, 0xf4, 0x4b, 0x1f, 0x3d, 
0xd7, 0x14, 0x81, 0xbd, 0x19, 0x55, 0x08, 0x3d, 0x9a, 0x8b, 0xa7, 0xbd, 0x5a, 0x49, 0xda, 0xbc, 0x01, 0xf0, 0x4e, 0xbd, 0x1f, 0x23, 0x7d, 0x3a, 0x99, 0x55, 0x94, 0xbc, 0x67, 0xe5, 0x57, 0x3d, 
0x49, 0x56, 0xdc, 0xbd, 0xd5, 0xe5, 0xba, 0xbd, 0x0d, 0x52, 0xb5, 0xbc, 0x0b, 0xd8, 0xd3, 0xbd, 0xdd, 0x12, 0xdc, 0x3d, 0xca, 0xb1, 0x6a, 0x3d, 0x7e, 0xfa, 0x95, 0xbd, 0x3d, 0xb7, 0xba, 0x3c, 
0x15, 0xb7, 0x8d, 0x3d, 0x2c, 0x14, 0x71, 0xbd, 0xe0, 0x25, 0x4c, 0xbd, 0xcc, 0x65, 0xce, 0x3a, 0x86, 0x13, 0xa5, 0xbd, 0xea, 0x3b, 0x5f, 0xbd, 0x43, 0x6e, 0x64, 0xbd, 0x6f, 0xae, 0x20, 0x3d, 
0x9d, 0x58, 0x9c, 0xbd, 0xb1, 0x1a, 0x78, 0x3d, 0xa9, 0xee, 0x30, 0xbd, 0xd8, 0xb7, 0xe5, 0x3d, 0xdf, 0x01, 0xa4, 0x3d, 0x68, 0x0d, 0x31, 0x3d, 0xc5, 0xc2, 0xc2, 0xbd, 0x5e, 0x52, 0x49, 0xbd, 
0xb8, 0x56, 0x67, 0x3c, 0x27, 0x45, 0xdd, 0x3b, 0xad, 0x29, 0xda, 0x3d, 0x7e, 0xf5, 0x5a, 0xbc, 0xf9, 0xb9, 0x49, 0xbd, 0x7e, 0xc7, 0x74, 0xbc, 0x0f, 0x4c, 0x82, 0x3d, 0xd4, 0xa7, 0xc7, 0x3d, 
0x9f, 0x7e, 0xa2, 0xbd, 0xe6, 0x00, 0x2c, 0xbd, 0x6b, 0x81, 0x27, 0x3c, 0x4a, 0xc5, 0xad, 0x3d, 0x3e, 0x9f, 0x3b, 0xbd, 0x29, 0xfc, 0x9f, 0x3d, 0x25, 0x5e, 0xe4, 0x3c, 0x06, 0xc3, 0x81, 0xbd, 
0x37, 0x0e, 0x78, 0xbd, 0xc4, 0x3c, 0xa6, 0x3d, 0xb9, 0xc3, 0x8c, 0xbd, 0xf5, 0x2d, 0xdc, 0x3d, 0xee, 0x01, 0xc2, 0x3d, 0x38, 0xfa, 0x5b, 0x3d, 0x90, 0x96, 0x30, 0x3d, 0x57, 0x1e, 0x3e, 0x3d, 
0x74, 0x56, 0x5e, 0xbd, 0xce, 0xac, 0xcf, 0xbd, 0x75, 0x63, 0xe8, 0xbb, 0x1d, 0x25, 0xa8, 0xbd, 0xda, 0x98, 0xd1, 0xbc, 0x40, 0x48, 0xe7, 0xbb, 0x7f, 0xbe, 0xde, 0xbc, 0xd6, 0xba, 0xca, 0x3d, 
0x33, 0xa3, 0x19, 0xbd, 0x46, 0x22, 0x52, 0x3b, 0xf3, 0x8c, 0xa7, 0x3c, 0xe1, 0x2f, 0xe8, 0xbb, 0x7b, 0x50, 0xb9, 0xbd, 0xce, 0x08, 0xab, 0xbc, 0xc7, 0x5c, 0x4f, 0x3d, 0x7b, 0xc3, 0x49, 0x3d, 
0xa0, 0x88, 0x33, 0xbd, 0xfb, 0x3f, 0x48, 0x3d, 0x01, 0x18, 0xed, 0x3c, 0xe4, 0x61, 0x83, 0x3d, 0x64, 0x62, 0xcb, 0x3d, 0xab, 0x41, 0xc7, 0x3d, 0x3d, 0x29, 0x79, 0x3d, 0x3d, 0xc4, 0x91, 0xbb, 
0xb1, 0x6e, 0xbc, 0x3d, 0xd1, 0x2f, 0x39, 0x3d, 0xec, 0xc5, 0x82, 0xbd, 0x4c, 0xd6, 0x80, 0xbd, 0x3f, 0x5f, 0x3a, 0xbc, 0xd9, 0xbc, 0x51, 0x3d, 0x18, 0xc1, 0xa4, 0x3b, 0x20, 0x96, 0x14, 0xbd, 
0x54, 0x99, 0xc7, 0xbd, 0x71, 0xc0, 0x67, 0x3d, 0x0c, 0x03, 0x72, 0x3c, 0x3f, 0xed, 0x07, 0xbd, 0x40, 0xca, 0x8e, 0xbd, 0x58, 0x06, 0x14, 0x3b, 0x9d, 0x73, 0x95, 0xbd, 0xe1, 0xd5, 0x0f, 0xbb, 
0x51, 0xdd, 0x24, 0xbd, 0xcd, 0x36, 0x79, 0xbc, 0x32, 0x68, 0x7c, 0x3d, 0xfb, 0xbf, 0x88, 0xbd, 0x38, 0x30, 0xb3, 0xbc, 0x6b, 0x3a, 0x61, 0xbc, 0x79, 0x2c, 0x70, 0x3d, 0xfe, 0x48, 0x36, 0xbd, 
0xf4, 0x0c, 0x86, 0x3d, 0x2a, 0x8e, 0x70, 0x3d, 0x3a, 0xd2, 0xcf, 0xbc, 0xf9, 0xe2, 0x78, 0xbd, 0x4c, 0xc5, 0x61, 0x3c, 0x39, 0xd3, 0xa8, 0xbc, 0xa0, 0x59, 0xea, 0x39, 0xd0, 0xae, 0x16, 0x3d, 
0xe4, 0xd1, 0x8a, 0x3d, 0x1f, 0x2e, 0xb7, 0x3d, 0xdd, 0xf0, 0xb5, 0xbd, 0xe2, 0xf5, 0x9b, 0x3c, 0xeb, 0x46, 0x86, 0xbd, 0x56, 0x6d, 0x2f, 0x3c, 0xdb, 0xb2, 0x16, 0xbd, 0x96, 0xe5, 0x50, 0xbc, 
0xd4, 0xe9, 0xca, 0xbb, 0x8b, 0x55, 0x77, 0xbd, 0x37, 0x7c, 0xe4, 0x3d, 0xc8, 0x2f, 0xb6, 0x3d, 0xf8, 0xe8, 0xbe, 0x3d, 0xa0, 0xbf, 0xb5, 0xbb, 0x9b, 0xf9, 0x7d, 0x3d, 0xc2, 0x35, 0x7d, 0xbd, 
0x21, 0x0d, 0x32, 0x3d, 0x8e, 0x29, 0xd0, 0x3c, 0x66, 0x7c, 0xce, 0xbc, 0x33, 0xc2, 0x65, 0xbd, 0x54, 0x60, 0xaa, 0x3d, 0x52, 0xa9, 0x0b, 0x3d, 0x15, 0x66, 0x7d, 0x3b, 0x10, 0x98, 0x82, 0x3c, 
0x41, 0x15, 0x05, 0x3d, 0x32, 0xe5, 0x9a, 0x3d, 0x91, 0xcb, 0xa9, 0x3c, 0xa0, 0x15, 0xb7, 0x3d, 0xa6, 0xcf, 0x48, 0x3d, 0x2f, 0x4a, 0x9b, 0x3c, 0x9e, 0x90, 0xd8, 0x3d, 0xbb, 0x5b, 0xcc, 0xbd, 
0x10, 0x47, 0x7f, 0x3d, 0x2e, 0x95, 0x9c, 0xbd, 0x7f, 0x2d, 0xc3, 0xbd, 0xc1, 0xc8, 0xab, 0xbd, 0x46, 0x8b, 0xd7, 0xbd, 0x42, 0x8d, 0x21, 0x3d, 0x62, 0x0c, 0xf2, 0x3c, 0x28, 0x56, 0xd6, 0x3c, 
0xd2, 0x5f, 0xa8, 0x3d, 0xcc, 0xdf, 0xa3, 0xbd, 0xf7, 0x21, 0xed, 0xbd, 0xb4, 0x91, 0x70, 0xbd, 0xed, 0x7d, 0xe6, 0xbc, 0xcf, 0x02, 0xd1, 0xbd, 0x9a, 0x3d, 0x08, 0xbd, 0x2d, 0xcd, 0x10, 0x3d, 
0x27, 0x03, 0x1d, 0xbc, 0x2d, 0x67, 0x67, 0x3d, 0xd6, 0xf2, 0x0a, 0x3d, 0xfc, 0x13, 0xb3, 0xbc, 0x87, 0x6f, 0x88, 0x3d, 0x58, 0x25, 0xa2, 0xbd, 0xa7, 0x22, 0x79, 0x3d, 0x35, 0xc8, 0x9c, 0xbd, 
0xd0, 0x8e, 0xd7, 0x3c, 0x5a, 0xa2, 0x85, 0x3d, 0xf9, 0x80, 0x46, 0x39, 0x43, 0x0d, 0x5d, 0x3b, 0x59, 0x40, 0xb9, 0x3c, 0x6d, 0x20, 0x68, 0x3d, 0x82, 0xe5, 0x9e, 0x3d, 0x0f, 0x68, 0x1c, 0x3d, 
0xb6, 0x44, 0xb4, 0x3c, 0xa2, 0x9c, 0xb7, 0xbd, 0x98, 0x76, 0x7c, 0xbd, 0x74, 0x6b, 0x4f, 0x3d, 0x54, 0x2f, 0x1b, 0xbd, 0x44, 0x3a, 0xcb, 0xbb, 0x9b, 0x43, 0x49, 0x3d, 0xc3, 0x77, 0xae, 0x3d, 
0x77, 0x77, 0x08, 0xbd, 0xd9, 0xb7, 0x9b, 0xbd, 0x55, 0x94, 0xc3, 0x3c, 0x81, 0x89, 0x91, 0x3d, 0xda, 0x00, 0x3c, 0xbc, 0x4e, 0x14, 0xfa, 0x3c, 0x31, 0x87, 0x94, 0x3c, 0x81, 0x7a, 0x31, 0x3d, 
0xf0, 0x03, 0x7d, 0x3b, 0x84, 0x46, 0x3d, 0xbd, 0xb9, 0x0f, 0xb2, 0x3d, 0xc1, 0x53, 0xdc, 0xbd, 0xb4, 0xbd, 0x9d, 0xbc, 0xc8, 0x60, 0x81, 0x3d, 0xa5, 0x01, 0xdf, 0x3d, 0xf9, 0xca, 0xca, 0x3d, 
0xfb, 0x8e, 0x07, 0xbd, 0x66, 0x7c, 0xb3, 0x3d, 0xd4, 0x58, 0x4c, 0xbd, 0x74, 0x53, 0x92, 0x3d, 0x0d, 0x63, 0xa3, 0xba, 0x75, 0xff, 0x06, 0x3d, 0xb1, 0xfe, 0xad, 0x3d, 0x3e, 0x46, 0xe6, 0x3b, 
0xa9, 0xf8, 0x9e, 0x3d, 0xfa, 0x67, 0x42, 0xbd, 0x0f, 0x5a, 0xda, 0xbd, 0xfb, 0x9b, 0xc7, 0x3d, 0x94, 0x9a, 0x24, 0x3d, 0xd1, 0xf9, 0xa6, 0xbd, 0x73, 0x08, 0xc3, 0x3b, 0x4d, 0x60, 0x87, 0xbd, 
0xb1, 0xe6, 0xfd, 0xbc, 0x95, 0xde, 0x8d, 0xbb, 0x8a, 0x0c, 0x7c, 0x3d, 0x64, 0xe9, 0x8c, 0x3c, 0xea, 0x85, 0x06, 0x3d, 0x10, 0xb4, 0x80, 0xbb, 0x73, 0x42, 0xc4, 0xbd, 0xdc, 0xa6, 0xb6, 0x3d, 
0x55, 0x4f, 0xea, 0x3c, 0xde, 0xc5, 0xe7, 0xbc, 0x83, 0x9c, 0xaf, 0xbd, 0x99, 0xb4, 0xb0, 0x3d, 0xce, 0xfb, 0xed, 0x3b, 0x4d, 0x58, 0x85, 0xbd, 0xed, 0xe0, 0xe0, 0x3c, 0xc0, 0x0f, 0x83, 0x3d, 
0xc2, 0x9f, 0x65, 0x3c, 0xa7, 0x22, 0x93, 0xbc, 0x33, 0x4d, 0x10, 0xbd, 0xfb, 0x27, 0xa1, 0xbc, 0x95, 0xb0, 0x76, 0x3d, 0x78, 0x5d, 0x43, 0xbc, 0xc5, 0x2b, 0x60, 0xbd, 0xab, 0x79, 0xe7, 0xbb, 
0xff, 0xff, 0x26, 0xbd, 0x81, 0xa2, 0x02, 0x3c, 0xc3, 0x25, 0x94, 0xbd, 0x57, 0x1a, 0x7b, 0xbd, 0x33, 0xea, 0xbb, 0x3d, 0xde, 0x9e, 0xbe, 0xbc, 0xed, 0x47, 0x14, 0x3e, 0x6e, 0x1c, 0xbd, 0x3d, 
0x68, 0x08, 0x64, 0x3c, 0xc4, 0xb3, 0x53, 0xbd, 0x52, 0xd7, 0xbd, 0x3d, 0x5b, 0xbc, 0x9c, 0x3d, 0xb3, 0x85, 0xa4, 0xbd, 0xca, 0x8a, 0x81, 0xbd, 0x01, 0xc1, 0xf6, 0x3b, 0xc0, 0x6c, 0xff, 0x3c, 
0xe1, 0xc3, 0x6a, 0xbd, 0xa0, 0xb5, 0x1e, 0x3d, 0x92, 0x63, 0x75, 0x3d, 0x55, 0x6b, 0x51, 0xbd, 0x0e, 0x92, 0x79, 0xbd, 0xac, 0x75, 0xa6, 0xbd, 0xd1, 0x34, 0x90, 0x3c, 0xeb, 0x0a, 0x82, 0xbc, 
0x3d, 0x9d, 0x2b, 0xbd, 0x89, 0x38, 0x65, 0xbd, 0x1d, 0x7b, 0xc4, 0x3d, 0x05, 0x48, 0x8e, 0x3d, 0x6d, 0x40, 0xb4, 0x3d, 0x0b, 0x83, 0xc9, 0xbd, 0x99, 0x3a, 0x93, 0xbd, 0xc1, 0x94, 0xa5, 0xbc, 
0x0e, 0x4f, 0x8e, 0x3d, 0x73, 0x9a, 0x59, 0x3b, 0xdd, 0x17, 0xaa, 0x3d, 0xf0, 0x11, 0x8a, 0xbc, 0x5d, 0xb8, 0xe3, 0x3d, 0x10, 0xe2, 0xac, 0x3c, 0x24, 0xf7, 0x46, 0x3c, 0xa1, 0xf7, 0x4f, 0x3d, 
0xbc, 0xca, 0x5a, 0x3d, 0x5d, 0x7b, 0x7b, 0xbd, 0xc4, 0xe6, 0xc4, 0xbd, 0x96, 0x3c, 0xeb, 0x3d, 0x1f, 0xe3, 0xa0, 0x3d, 0x01, 0x94, 0xa6, 0x3c, 0x6b, 0xa1, 0x97, 0x3d, 0xf2, 0x1c, 0x6c, 0x3c, 
0xce, 0x1f, 0xe1, 0xbc, 0xa9, 0xdc, 0xc0, 0x3d, 0xcb, 0x6c, 0x6f, 0x3d, 0x4e, 0x09, 0x55, 0xbd, 0xde, 0x1f, 0x44, 0x3d, 0x78, 0x45, 0x8f, 0xbd, 0x94, 0xe9, 0x7f, 0x3d, 0x5f, 0x8b, 0x5c, 0x3d, 
0xba, 0xa5, 0xe5, 0x3d, 0xf9, 0x46, 0xe9, 0x3d, 0x77, 0x2a, 0x6a, 0x3d, 0x54, 0xb2, 0x24, 0x3d, 0x62, 0xe6, 0x14, 0x3d, 0x22, 0x5f, 0xea, 0x3d, 0xf7, 0x2d, 0x94, 0x3d, 0x7f, 0x39, 0x83, 0x3d, 
0xc6, 0x15, 0x13, 0x3c, 0x6e, 0x4b, 0xee, 0x3c, 0xab, 0x31, 0x9d, 0xb8, 0x75, 0xd5, 0x8f, 0x3d, 0x08, 0xf3, 0xba, 0x3d, 0xfa, 0x42, 0x60, 0xbd, 0x91, 0x1b, 0x80, 0xbd, 0x03, 0x3f, 0xc5, 0xbd, 
0x2c, 0x61, 0x8a, 0xbd, 0x7c, 0x16, 0xc0, 0x3d, 0xa5, 0xf1, 0x7e, 0x3d, 0xbe, 0xac, 0xa5, 0xbc, 0x20, 0x46, 0x87, 0xbd, 0xe2, 0x75, 0x38, 0x3d, 0x08, 0xc0, 0x3b, 0x3b, 0xc6, 0x18, 0xcd, 0x3d, 
0x5e, 0xf5, 0xc4, 0xbd, 0x3a, 0x62, 0x87, 0xbd, 0x84, 0x53, 0x01, 0xbd, 0x21, 0xb6, 0x82, 0x3d, 0x32, 0x41, 0x6b, 0x3c, 0x76, 0x12, 0x3f, 0xbd, 0x68, 0xab, 0x77, 0xbd, 0x92, 0xe1, 0x93, 0x3c, 
0xd2, 0x36, 0x95, 0xbd, 0x63, 0xcc, 0xcc, 0x3d, 0xc6, 0x8a, 0x69, 0x3d, 0x79, 0x2d, 0x80, 0x3d, 0x82, 0xa0, 0xbb, 0xbd, 0x6c, 0x21, 0xd1, 0x3d, 0x4b, 0x60, 0x17, 0x3d, 0x86, 0x8e, 0xf4, 0x3c, 
0xca, 0x9e, 0xc5, 0xbd, 0x65, 0x7a, 0xf0, 0x3c, 0x9f, 0xdf, 0x22, 0x3d, 0xab, 0xc1, 0x61, 0xbc, 0x9e, 0x94, 0x7c, 0xbc, 0x4b, 0x92, 0x13, 0x3d, 0xe5, 0x69, 0xba, 0x3d, 0xb9, 0xd7, 0x96, 0xbc, 
0x3d, 0x26, 0x40, 0xbd, 0xc8, 0x07, 0x5f, 0xbd, 0x11, 0x72, 0x8e, 0xbd, 0x42, 0x53, 0x28, 0x3d, 0x1a, 0x0e, 0x18, 0x3d, 0xcf, 0x63, 0x01, 0xbd, 0xec, 0x9b, 0xb5, 0x3d, 0x6e, 0xb0, 0xc2, 0x3c, 
0x9d, 0x70, 0x30, 0xbd, 0xe8, 0x1d, 0xcb, 0x3d, 0xec, 0xed, 0x93, 0xbc, 0x3b, 0xc1, 0x77, 0x3d, 0xf6, 0x7c, 0xbd, 0xbd, 0xea, 0x95, 0x9d, 0x3d, 0xd0, 0x5d, 0x70, 0xbd, 0x4b, 0xdd, 0xa2, 0xbd, 
0x19, 0xa8, 0xe7, 0xbc, 0x23, 0xbc, 0xb5, 0xbc, 0x3e, 0xcc, 0x8d, 0x3d, 0xe1, 0x67, 0xdc, 0xbc, 0x86, 0x5d, 0x1c, 0xbd, 0x84, 0x13, 0x17, 0xbc, 0xad, 0x1a, 0x8c, 0xbc, 0x26, 0x30, 0xfd, 0xbd, 
0xe0, 0xf3, 0x8a, 0xbd, 0x48, 0x84, 0xc6, 0xbd, 0xf5, 0x0a, 0x65, 0xbd, 0x7e, 0x89, 0xb7, 0x3d, 0x89, 0x12, 0x6c, 0x3d, 0xf8, 0xc9, 0xc7, 0x3c, 0x2c, 0xcf, 0xb5, 0xbd, 0x9e, 0xeb, 0x5f, 0x3d, 
0x6a, 0x7d, 0x8a, 0xbd, 0x49, 0x43, 0xda, 0x3d, 0xd2, 0xc1, 0x4b, 0x3d, 0x25, 0x5f, 0xb5, 0xbd, 0xdb, 0xaa, 0x82, 0x3d, 0x16, 0xd4, 0x05, 0x3d, 0x27, 0x6f, 0x9b, 0x3c, 0x3b, 0x71, 0xb7, 0xbd, 
0x60, 0xee, 0x91, 0x3c, 0x60, 0x53, 0x60, 0x3c, 0xbe, 0x64, 0xc5, 0xbd, 0x3e, 0x05, 0xff, 0xbd, 0x17, 0xf9, 0xc7, 0xbd, 0x76, 0xa2, 0xe3, 0xba, 0x36, 0x36, 0x73, 0xbc, 0x28, 0x67, 0xc7, 0xbc, 
0x40, 0x50, 0xbf, 0x3c, 0xf6, 0x86, 0xeb, 0xbd, 0x6e, 0xe0, 0x31, 0x3d, 0x5b, 0x9b, 0x78, 0x3d, 0x0f, 0xb6, 0x7b, 0xbd, 0xcd, 0xf1, 0xda, 0xba, 0x94, 0xf2, 0xcb, 0xbc, 0xcd, 0x5e, 0xd3, 0xbc, 
0x28, 0x13, 0xb6, 0x3d, 0x59, 0x9f, 0xc6, 0x3d, 0x2c, 0x7c, 0xa5, 0x3d, 0x5d, 0xc9, 0x8e, 0x3c, 0xe5, 0x26, 0xb9, 0xbd, 0xd6, 0x28, 0x92, 0x3d, 0x5a, 0x33, 0x12, 0xbd, 0xe2, 0x79, 0x78, 0x3d, 
0xe4, 0xba, 0xbe, 0x3d, 0x67, 0xd4, 0x24, 0x3d, 0xaa, 0x89, 0x0c, 0xbd, 0x2c, 0xa1, 0x0d, 0x3c, 0x73, 0xb7, 0x94, 0x3d, 0x43, 0x0d, 0xdc, 0x3c, 0x50, 0x17, 0x9e, 0x3d, 0x2d, 0x76, 0x1e, 0x3d, 
0x8a, 0x3d, 0x00, 0x3d, 0x2d, 0xe5, 0xce, 0x3d, 0x00, 0xd9, 0x7c, 0x3d, 0x60, 0x35, 0x16, 0xbd, 0xc8, 0xd6, 0x19, 0x3d, 0xf0, 0x2c, 0x90, 0xba, 0xfb, 0x92, 0x05, 0xbd, 0x3d, 0xb8, 0x73, 0xbb, 
0xb7, 0x78, 0xc3, 0xbc, 0xa2, 0x98, 0xdd, 0xbd, 0x32, 0x03, 0x40, 0x3d, 0x7f, 0x3e, 0x98, 0xbd, 0x99, 0x69, 0x3a, 0x3b, 0x4e, 0x5e, 0x91, 0x3d, 0xc1, 0x86, 0x48, 0x3d, 0x90, 0x4d, 0x47, 0xbc, 
0xa9, 0xea, 0xce, 0xbd, 0xdf, 0x95, 0xbb, 0xbd, 0x86, 0x03, 0x07, 0x3d, 0xc5, 0x82, 0x91, 0xba, 0x79, 0xee, 0xc4, 0xba, 0xe5, 0xd8, 0x73, 0xbd, 0x81, 0x7d, 0x2e, 0x3a, 0xe0, 0xa4, 0x2d, 0x3d, 
0x66, 0xb7, 0xd9, 0x3d, 0xfa, 0xd1, 0x79, 0x3d, 0xc6, 0x46, 0x1f, 0xbd, 0x9c, 0x39, 0x09, 0x3d, 0x38, 0xd3, 0x79, 0xbd, 0x3d, 0x5d, 0xc5, 0x3d, 0x86, 0x5a, 0xc7, 0x3d, 0x4c, 0xc6, 0x84, 0xbd, 
0x0a, 0x87, 0xb4, 0xbd, 0xe2, 0xee, 0x5a, 0xbd, 0x47, 0x8a, 0xf9, 0x3c, 0x9f, 0xfe, 0xd6, 0xbd, 0x83, 0xfc, 0x7a, 0x3d, 0xdc, 0xa5, 0x13, 0x3d, 0xaf, 0xf5, 0x9c, 0xbc, 0x41, 0x37, 0xb1, 0xbd, 
0xe2, 0xdc, 0x6f, 0x3d, 0x26, 0xca, 0xe3, 0xbd, 0x8e, 0xbd, 0x24, 0xbd, 0x12, 0xb2, 0x86, 0x3d, 0xe7, 0x4c, 0xa5, 0xbc, 0x6b, 0xed, 0xba, 0x3d, 0xc3, 0x5d, 0x98, 0xbd, 0xd3, 0x11, 0xbb, 0xbd, 
0xab, 0x48, 0x12, 0x3d, 0x1a, 0x86, 0x89, 0x3c, 0x16, 0x14, 0x0e, 0x3d, 0x07, 0xdb, 0xff, 0xbd, 0x26, 0xaa, 0x80, 0x3c, 0xca, 0xc1, 0x13, 0x3d, 0xa8, 0x36, 0x1b, 0x3d, 0xd0, 0xa4, 0xc0, 0xbd, 
0x32, 0xf3, 0xc5, 0xbd, 0xab, 0x5d, 0x98, 0x3c, 0x5d, 0x68, 0x30, 0x3d, 0x7a, 0x27, 0x10, 0xbb, 0x71, 0xbf, 0x86, 0xbc, 0xcf, 0x2c, 0x7c, 0x3c, 0x8a, 0xbd, 0xab, 0x3d, 0x6f, 0x2f, 0xd4, 0x3d, 
0xa2, 0x1c, 0xbe, 0x3c, 0xf7, 0xbb, 0xbe, 0x3d, 0xb4, 0x3a, 0x2b, 0x3d, 0xc6, 0xa6, 0xac, 0x3d, 0xde, 0x8e, 0xc2, 0x3d, 0x8f, 0x7b, 0x46, 0xbd, 0x4d, 0x25, 0xe9, 0xbd, 0x2a, 0x4c, 0x94, 0xbd, 
0x7d, 0xd1, 0xb2, 0xbd, 0x50, 0x69, 0x60, 0x3d, 0x0b, 0xea, 0xc7, 0xbd, 0x80, 0x31, 0xe5, 0x3d, 0xc3, 0xaf, 0xf2, 0xbd, 0x23, 0x2c, 0xa5, 0xbd, 0x2d, 0xac, 0x73, 0x3c, 0x68, 0x6b, 0x8e, 0xbd, 
0xbe, 0xbe, 0x96, 0xbd, 0x06, 0x0a, 0xb0, 0x3d, 0x13, 0x28, 0x9f, 0xbd, 0x90, 0x42, 0xd7, 0xbd, 0x9f, 0x86, 0xac, 0x3d, 0xd1, 0xec, 0xe2, 0xbd, 0x72, 0x9c, 0x3b, 0xbd, 0xf1, 0x7c, 0x75, 0x3d, 
0x1b, 0xa1, 0x4b, 0xbb, 0x57, 0x4c, 0xa2, 0x3c, 0x71, 0x64, 0xe0, 0x3d, 0xc9, 0xd0, 0xb3, 0x3d, 0x68, 0x89, 0x93, 0x3d, 0x02, 0xc6, 0x63, 0x3c, 0x2a, 0xd1, 0x10, 0x3a, 0xec, 0xcb, 0x20, 0x3d, 
0xd0, 0xf3, 0xbf, 0x3c, 0x7e, 0x9b, 0x93, 0x3d, 0x24, 0xb3, 0x61, 0xbd, 0x37, 0x80, 0x25, 0xbd, 0x8d, 0x0b, 0xd8, 0x3d, 0x66, 0x2e, 0xbe, 0xbc, 0xf2, 0x9a, 0xb3, 0xbd, 0xaf, 0x98, 0xce, 0xbd, 
0xdf, 0x75, 0xbd, 0x3d, 0xec, 0x33, 0x33, 0xbc, 0xa0, 0xbb, 0xc9, 0xbd, 0x3e, 0x46, 0x2e, 0xbd, 0x52, 0xb2, 0x99, 0xbd, 0x72, 0x18, 0x13, 0x3c, 0x7d, 0x1a, 0xaa, 0x3d, 0x67, 0x8a, 0x49, 0xbd, 
0x6c, 0x29, 0x4a, 0x3d, 0x1e, 0x36, 0x50, 0xbd, 0xc0, 0xc4, 0xd3, 0xbd, 0xb2, 0xba, 0xd6, 0xbd, 0xb7, 0x4e, 0xbd, 0xbd, 0x47, 0x00, 0x92, 0x3d, 0x1f, 0x62, 0x8b, 0xbd, 0x83, 0x14, 0xcc, 0xbd, 
0xdc, 0x5d, 0xa8, 0x3c, 0x41, 0x89, 0xd7, 0xbc, 0xc4, 0xc1, 0xb2, 0x3d, 0x92, 0x26, 0xaa, 0xbd, 0x5a, 0x3c, 0x60, 0x3d, 0x95, 0xf9, 0xa7, 0x3d, 0x54, 0x43, 0xa3, 0xbd, 0x56, 0x70, 0xcf, 0xbd, 
0xfe, 0x10, 0xad, 0xbd, 0x4a, 0x41, 0x70, 0xbd, 0xf0, 0xd1, 0xaf, 0x3d, 0x9f, 0xdf, 0x39, 0x3c, 0xa5, 0x52, 0x09, 0x3d, 0xa3, 0xc5, 0x9b, 0xbd, 0x0a, 0x2a, 0x4e, 0xbd, 0xba, 0xe7, 0x58, 0x3d, 
0x35, 0x55, 0x1a, 0x3d, 0x0c, 0x15, 0x35, 0xbd, 0xee, 0xb4, 0x36, 0xbc, 0x7f, 0xcc, 0x50, 0x3c, 0x91, 0x64, 0x83, 0xbd, 0x1e, 0x19, 0x97, 0xbc, 0x6a, 0x95, 0xd8, 0xbd, 0x4c, 0x9f, 0xa3, 0x3d, 
0xe6, 0x9b, 0x02, 0x3b, 0xce, 0x0a, 0x98, 0xbd, 0xfe, 0x36, 0x16, 0x3d, 0xd4, 0xa5, 0xbc, 0xbd, 0xf3, 0x24, 0xb6, 0x3d, 0x3b, 0x5d, 0x9d, 0x3c, 0x8f, 0xfb, 0xd9, 0x3d, 0x8b, 0x56, 0x99, 0xbc, 
0x2f, 0xc3, 0x1f, 0x3d, 0x4c, 0x5b, 0xd5, 0x3c, 0x2a, 0x0a, 0xc8, 0x3d, 0x48, 0x77, 0x12, 0x3d, 0x2c, 0x08, 0x7e, 0xbc, 0xb4, 0x1b, 0xfe, 0xbc, 0xa0, 0xf9, 0x05, 0x3e, 0x7d, 0x56, 0x9c, 0xbd, 
0xf8, 0x8d, 0x17, 0x3d, 0x9f, 0x5b, 0x61, 0xbd, 0xa0, 0xb4, 0x81, 0x3b, 0xc1, 0x4b, 0x2b, 0x3d, 0x9a, 0x7f, 0xdd, 0xbd, 0xa2, 0x34, 0xe5, 0xbd, 0x37, 0x87, 0xa5, 0xbc, 0xfe, 0x6c, 0x85, 0xbd, 
0xb4, 0x12, 0x99, 0xbd, 0xe0, 0x55, 0x50, 0xbd, 0x6e, 0xe8, 0xc6, 0xbd, 0x44, 0x57, 0x5a, 0xbd, 0x41, 0x73, 0xc6, 0xbd, 0xcb, 0xf4, 0x7d, 0x3d, 0x77, 0x91, 0x45, 0xbc, 0x98, 0x57, 0xce, 0xbd, 
0xf1, 0xe6, 0x19, 0x3c, 0xc1, 0x15, 0xcf, 0xbc, 0x81, 0x5b, 0xd7, 0x3b, 0x58, 0x51, 0xe6, 0xbc, 0x21, 0xdf, 0x4b, 0x3d, 0x5f, 0x8a, 0xce, 0x3d, 0x45, 0x25, 0x98, 0x3d, 0xda, 0x31, 0x63, 0xbc, 
0xab, 0x83, 0x19, 0x3d, 0x1a, 0x5a, 0xb9, 0x3c, 0x03, 0x5b, 0x07, 0xbc, 0x7f, 0x9a, 0xd6, 0xbd, 0x1f, 0xf0, 0x34, 0xbc, 0x83, 0x63, 0xa1, 0xbd, 0x17, 0x98, 0xc6, 0xbd, 0x7b, 0x03, 0xd6, 0x39, 
0xd6, 0x8e, 0x84, 0xbd, 0x70, 0xda, 0x0f, 0x3d, 0x78, 0x66, 0x53, 0xbd, 0xd8, 0x96, 0x8a, 0xbd, 0x59, 0x3f, 0xb5, 0xbc, 0x4d, 0x5e, 0xa0, 0xbd, 0x79, 0x10, 0xae, 0xbc, 0x45, 0x06, 0xc4, 0x3d, 
0x3c, 0xbf, 0xb4, 0xbd, 0xff, 0xc3, 0xb3, 0x3d, 0x6c, 0xcf, 0xcc, 0xbc, 0x98, 0x3d, 0x4b, 0xbd, 0x3e, 0xe7, 0x1a, 0x3d, 0xc4, 0x1a, 0x67, 0x3d, 0x42, 0x06, 0xe2, 0xbd, 0x5c, 0x6c, 0xd2, 0x3d, 
0xd9, 0x2f, 0x85, 0x3d, 0xbf, 0x43, 0xaa, 0x3d, 0xc2, 0xe4, 0x79, 0x3d, 0x21, 0x7c, 0xb6, 0x3c, 0x98, 0x87, 0x12, 0xbc, 0x28, 0x85, 0xbe, 0xb8, 0xdf, 0x72, 0xb0, 0x3d, 0x89, 0x46, 0x42, 0x3a, 
0x56, 0x92, 0x5a, 0xbd, 0x75, 0x42, 0xb3, 0x3b, 0xbf, 0x7b, 0xb5, 0xbc, 0x81, 0xff, 0x17, 0x3c, 0x05, 0x89, 0xa5, 0x3c, 0xa2, 0x1c, 0xfb, 0x3c, 0x37, 0xaf, 0x6b, 0xbd, 0x0a, 0x7a, 0xa9, 0xbd, 
0x7f, 0xa2, 0x03, 0xbd, 0x32, 0x78, 0x6a, 0xbd, 0x53, 0xbc, 0x88, 0xbd, 0xb8, 0xf3, 0x9c, 0xbd, 0xa9, 0xf0, 0xf4, 0x3d, 0xc0, 0x86, 0xdb, 0xbd, 0x24, 0xa1, 0x6c, 0x3c, 0xa2, 0x38, 0x1b, 0x3d, 
0x50, 0x07, 0x5f, 0x3c, 0x7e, 0x02, 0xf1, 0xbd, 0xc9, 0x75, 0xad, 0xbb, 0x25, 0x0d, 0xcb, 0x3d, 0x7c, 0x49, 0x0e, 0x3e, 0x40, 0x9f, 0x8a, 0x3b, 0x0b, 0xc6, 0x8f, 0x3d, 0x03, 0x9c, 0xd9, 0xbd, 
0xc7, 0x4a, 0x5b, 0x3d, 0x8c, 0x6b, 0x81, 0xbd, 0x90, 0xdd, 0x64, 0x3c, 0xbd, 0xf6, 0xb4, 0x3d, 0x73, 0xba, 0xc6, 0x3d, 0x92, 0x11, 0x6f, 0x3d, 0x54, 0x2b, 0xa1, 0xbd, 0xd8, 0x1d, 0x94, 0xbd, 
0xa2, 0x3e, 0x79, 0x3d, 0x19, 0xe3, 0x38, 0x3a, 0x99, 0x03, 0xc0, 0xbc, 0x40, 0x0a, 0xc1, 0xbd, 0xeb, 0xc8, 0xc2, 0x3d, 0x95, 0x16, 0x8d, 0xbd, 0x7a, 0xaa, 0x16, 0x3d, 0x31, 0x5d, 0x70, 0xbd, 
0x70, 0x0a, 0x2f, 0x3d, 0x9a, 0xdb, 0x10, 0x3c, 0x26, 0xfb, 0x44, 0xbd, 0x42, 0x47, 0x45, 0x3d, 0xf5, 0x36, 0x07, 0x3e, 0x3b, 0x28, 0x29, 0x3b, 0xf6, 0x6a, 0xee, 0xbc, 0xd6, 0xe1, 0x78, 0xbd, 
0x93, 0xb5, 0xd6, 0x3d, 0xb2, 0xc2, 0x88, 0xbd, 0x77, 0xee, 0xdb, 0x3d, 0x57, 0xec, 0x1b, 0x3d, 0x3c, 0xba, 0xe0, 0xbd, 0xb2, 0x9c, 0xf5, 0x3c, 0x96, 0xae, 0x83, 0x3d, 0x30, 0xdc, 0xa9, 0x3c, 
0x87, 0xa2, 0x8c, 0x3d, 0x92, 0x2b, 0x8b, 0xbd, 0x54, 0x85, 0xd0, 0x3d, 0xf8, 0xda, 0x4a, 0x3c, 0xed, 0x4b, 0x95, 0xbd, 0xa9, 0x2c, 0x81, 0xbd, 0x23, 0x73, 0xae, 0x3a, 0xe3, 0x93, 0x86, 0x3d, 
0x02, 0x63, 0x98, 0xbd, 0x9a, 0x32, 0x8c, 0xbd, 0x34, 0x21, 0xa4, 0x3a, 0x06, 0xaf, 0xa9, 0xbd, 0xfe, 0x58, 0xe1, 0xbc, 0x6e, 0x7e, 0x94, 0x3d, 0x55, 0x2f, 0xbb, 0x3d, 0x74, 0x5c, 0xd6, 0xbd, 
0x9a, 0xb8, 0xc9, 0xbd, 0x19, 0xaf, 0x25, 0x3d, 0x7f, 0x5b, 0xcd, 0x3d, 0x9a, 0xfe, 0x91, 0xbd, 0x4e, 0xd3, 0xdb, 0x3c, 0x44, 0x93, 0x95, 0x3d, 0x85, 0x9f, 0x80, 0x3d, 0xb8, 0xa8, 0xb7, 0x3d, 
0x8b, 0xe3, 0x56, 0xbd, 0xf5, 0xae, 0xad, 0x3d, 0xea, 0xbe, 0x44, 0xbd, 0x42, 0xa4, 0xb7, 0x3d, 0x12, 0xf3, 0xb8, 0xbd, 0x66, 0x29, 0x9e, 0xbc, 0xe0, 0x51, 0x46, 0x3d, 0x2c, 0x3a, 0xb0, 0x3d, 
0x9f, 0x5f, 0x90, 0x3d, 0x1b, 0x64, 0x2e, 0xbd, 0xe4, 0x57, 0x64, 0xbd, 0x5c, 0xa5, 0x8e, 0x3d, 0x35, 0x75, 0x63, 0x3d, 0xfa, 0x13, 0xd4, 0x3d, 0xfa, 0x38, 0xce, 0xbd, 0xee, 0x5a, 0x07, 0xbd, 
0xbe, 0x20, 0x91, 0x3c, 0xf9, 0x34, 0x14, 0x3d, 0x9a, 0xdf, 0x28, 0x3c, 0x11, 0x69, 0x35, 0x3c, 0x12, 0x47, 0x25, 0x3d, 0x43, 0x6a, 0xfc, 0xbd, 0x63, 0xc4, 0xeb, 0xbd, 0x83, 0x5b, 0x8c, 0xbc, 
0x91, 0x0c, 0x92, 0x3d, 0x6e, 0x64, 0xaf, 0xbd, 0xeb, 0xa3, 0x9c, 0x3d, 0x0c, 0xc7, 0xc7, 0x3d, 0xc0, 0x41, 0xdf, 0x3d, 0x0b, 0xc1, 0x26, 0xbd, 0x65, 0x67, 0x5c, 0xbd, 0xd3, 0x3f, 0x83, 0xbd, 
0x48, 0x4c, 0x61, 0xbd, 0x9a, 0x61, 0xae, 0xbc, 0xe8, 0xd3, 0x75, 0x3c, 0x53, 0x9b, 0x03, 0xbd, 0x8f, 0xaf, 0x36, 0xbc, 0x5a, 0x98, 0x4a, 0x3d, 0xa6, 0xf1, 0x27, 0x3d, 0xd3, 0x7b, 0xa7, 0xbb, 
0xaa, 0x0f, 0xb1, 0xbd, 0xa5, 0xca, 0x33, 0xbd, 0x98, 0xfb, 0xfe, 0xbc, 0x2a, 0x37, 0xe1, 0xbd, 0xd7, 0x6c, 0xbb, 0xbd, 0x1a, 0xa1, 0x99, 0x3c, 0x82, 0x02, 0x89, 0xbc, 0x97, 0x99, 0x36, 0x3d, 
0x2d, 0x83, 0x74, 0x3d, 0x26, 0xc8, 0xf2, 0x3c, 0xb8, 0x13, 0xe6, 0xbc, 0xab, 0xe7, 0x33, 0xbc, 0x46, 0x29, 0x65, 0xbd, 0x1a, 0xe1, 0xc3, 0x3c, 0xb2, 0x32, 0x1c, 0x3d, 0xef, 0x3b, 0x16, 0xbd, 
0x74, 0xa4, 0xd7, 0xbd, 0xa3, 0x40, 0x87, 0xbd, 0x34, 0x8a, 0x7a, 0xbd, 0x9e, 0xa5, 0xb1, 0x3c, 0x2e, 0x12, 0x84, 0xbd, 0xa2, 0x0b, 0x52, 0x3d, 0x94, 0x60, 0xf3, 0xbc, 0xc2, 0xa0, 0x1e, 0x3d, 
0x51, 0x2b, 0xfd, 0x3c, 0x07, 0x1e, 0x45, 0x3b, 0x42, 0x66, 0x71, 0x3d, 0xb1, 0x20, 0xc8, 0xbd, 0xf5, 0xf0, 0xb0, 0xbd, 0xb9, 0xf6, 0xc1, 0x3b, 0xba, 0xf5, 0x3b, 0x3d, 0x6e, 0x07, 0x8a, 0x3d, 
0x6f, 0xa9, 0xb0, 0xbd, 0xf1, 0x5f, 0x4d, 0x3d, 0xa1, 0xdb, 0x76, 0x3c, 0x3c, 0x37, 0xe8, 0xbc, 0x28, 0xe0, 0x1e, 0x3d, 0xad, 0x46, 0xcd, 0xbd, 0x30, 0x27, 0x39, 0x3c, 0x9a, 0xb2, 0xae, 0x3d, 
0x7d, 0x24, 0x81, 0x3c, 0xe9, 0xcc, 0xa5, 0xbd, 0x9e, 0x40, 0x50, 0xbd, 0xf3, 0x64, 0x1f, 0x3d, 0xd7, 0xad, 0xcf, 0x3d, 0x16, 0xc7, 0x56, 0x3d, 0x62, 0x42, 0xc4, 0xbb, 0x97, 0x0b, 0xdf, 0x3d, 
0xed, 0x42, 0xe8, 0x3d, 0x38, 0x17, 0x43, 0x3d, 0x06, 0x32, 0x8d, 0x3d, 0x85, 0x00, 0xc0, 0xbd, 0x66, 0x0f, 0xc7, 0x3d, 0xad, 0x79, 0x14, 0x3d, 0x29, 0xda, 0xa9, 0x3d, 0x33, 0xfd, 0x9d, 0x3d, 
0x74, 0xc7, 0x84, 0x3b, 0x09, 0x69, 0xb0, 0x3d, 0x00, 0x8c, 0x97, 0xbc, 0x34, 0xbc, 0xc2, 0xbd, 0xd4, 0x09, 0xfb, 0xbc, 0x08, 0xaf, 0x6c, 0x3d, 0xe4, 0x36, 0x8c, 0xbd, 0xa7, 0x7f, 0xfd, 0x3c, 
0x61, 0x2c, 0xd1, 0x3d, 0x16, 0x02, 0x9d, 0x3d, 0xe4, 0xba, 0xf4, 0x3c, 0xf1, 0x47, 0xbf, 0xbd, 0x2c, 0x41, 0x03, 0xbd, 0x56, 0x48, 0x67, 0xbd, 0xf3, 0xcc, 0x48, 0xbc, 0x64, 0x56, 0xcb, 0xbd, 
0x46, 0x53, 0xa6, 0xbd, 0x22, 0x05, 0x3f, 0xbd, 0x87, 0x96, 0x81, 0x3c, 0x12, 0xe4, 0x2a, 0xbd, 0xd0, 0xcf, 0x04, 0x3d, 0x4b, 0x62, 0xd3, 0x3c, 0xca, 0x34, 0x8d, 0xbd, 0x7b, 0x56, 0xe9, 0x3d, 
0xc6, 0xc3, 0x1d, 0xbd, 0xe1, 0x31, 0xed, 0x3c, 0x3f, 0x33, 0x94, 0xbd, 0x7e, 0xaf, 0xdc, 0x3d, 0x97, 0xaa, 0x84, 0xbb, 0xdf, 0x34, 0x0b, 0x3d, 0xdd, 0xaf, 0x2e, 0xbd, 0x53, 0x1e, 0xb0, 0x3d, 
0x45, 0x93, 0x62, 0xbc, 0xbc, 0x53, 0x1d, 0x3d, 0xe6, 0x69, 0xa6, 0x3d, 0x19, 0xfb, 0x3c, 0xbd, 0x6e, 0x57, 0x63, 0x3d, 0xe4, 0xaa, 0x6e, 0xbd, 0xf4, 0xba, 0x69, 0x3d, 0x7a, 0xe7, 0x0e, 0x3d, 
0xe8, 0xe1, 0xdd, 0xbc, 0xd1, 0xe0, 0xaa, 0xbd, 0xb4, 0xd2, 0xb8, 0x3d, 0x03, 0x19, 0xad, 0xbb, 0xd5, 0x84, 0x53, 0xbc, 0xaa, 0x28, 0xf1, 0x3b, 0xfc, 0xae, 0x53, 0x3d, 0x0a, 0x70, 0xb4, 0xbd, 
0x72, 0xeb, 0x12, 0x3d, 0x3b, 0xe1, 0x25, 0xbd, 0x99, 0x1c, 0xe7, 0xbc, 0x4f, 0x89, 0xf0, 0x3c, 0x6c, 0xc6, 0x86, 0xbd, 0xd9, 0x03, 0x45, 0xbd, 0xf6, 0xf6, 0x13, 0xbd, 0xc9, 0xb5, 0x8a, 0xbd, 
0x3a, 0xa8, 0xe5, 0xbd, 0xd6, 0x79, 0xa6, 0xbb, 0x3e, 0x4e, 0x9a, 0xbd, 0x3a, 0x22, 0xb5, 0x3d, 0xb6, 0xaa, 0x00, 0x3d, 0xdf, 0x1c, 0x42, 0x3d, 0x11, 0x33, 0x6e, 0xbc, 0x4b, 0x7f, 0x34, 0xbd, 
0xb5, 0x7c, 0x4b, 0x3d, 0x84, 0x95, 0x2c, 0xbc, 0xde, 0xb7, 0x0b, 0x3c, 0x56, 0x64, 0x0c, 0xbd, 0xd6, 0xdc, 0x56, 0xbd, 0x9c, 0xb2, 0xc4, 0xbd, 0x04, 0x63, 0x86, 0xbc, 0xe7, 0xae, 0x5c, 0xbd, 
0xfc, 0xf3, 0xd9, 0xbc, 0xb7, 0x41, 0x32, 0xbc, 0x63, 0xfc, 0x85, 0x3d, 0xb6, 0x0f, 0x87, 0x3d, 0x37, 0x88, 0xe6, 0x3d, 0x56, 0x8a, 0xed, 0x3d, 0x6f, 0x34, 0x81, 0xbd, 0xc9, 0x56, 0x09, 0x3e, 
0x66, 0x95, 0xc8, 0x3d, 0x3f, 0xe2, 0xda, 0x3d, 0x43, 0x65, 0xb6, 0xbd, 0x9f, 0x1d, 0x2d, 0x3d, 0x24, 0x74, 0xdd, 0xbd, 0x57, 0x32, 0x7f, 0xbd, 0x9d, 0x1d, 0x7b, 0x3d, 0xa2, 0x83, 0xe8, 0x3c, 
0x03, 0x59, 0x80, 0xbc, 0x3b, 0x25, 0x96, 0x3d, 0x21, 0xa8, 0x01, 0xbd, 0x6d, 0x42, 0x8d, 0x3d, 0xf3, 0x36, 0xc0, 0x3d, 0x87, 0xd5, 0x9c, 0xbc, 0xe9, 0xfb, 0x38, 0x3c, 0xe2, 0x47, 0x5c, 0xbd, 
0x48, 0x8f, 0x19, 0x3d, 0x2f, 0x71, 0xbf, 0xbd, 0xcf, 0xa7, 0xee, 0x3c, 0xce, 0x95, 0xce, 0x3c, 0x0c, 0x5e, 0x17, 0xbc, 0x2c, 0x35, 0xee, 0xbc, 0xa9, 0x5e, 0xa7, 0x3a, 0x74, 0x19, 0x2a, 0x3d, 
0x33, 0x90, 0x82, 0x3d, 0x8a, 0x25, 0xe2, 0x3c, 0x37, 0x05, 0xb5, 0xbc, 0xbf, 0x16, 0x2e, 0x3d, 0xf1, 0xd4, 0xf0, 0x3c, 0x2b, 0x42, 0x60, 0x3d, 0x5c, 0x96, 0xab, 0x3d, 0x28, 0x28, 0xc7, 0xbc, 
0xdb, 0xde, 0xa4, 0xbd, 0x16, 0xa4, 0x88, 0x3b, 0x44, 0x8b, 0xb3, 0x3d, 0x80, 0xf6, 0xa8, 0xbd, 0x03, 0x46, 0x8a, 0x3d, 0x65, 0xf5, 0x6b, 0x3c, 0x14, 0x14, 0xeb, 0xbb, 0x1e, 0x78, 0xe8, 0xbd, 
0xa6, 0xab, 0x2e, 0x3d, 0x3f, 0xbf, 0x78, 0x3d, 0x9c, 0xea, 0x81, 0x3d, 0x76, 0x63, 0xa7, 0x3c, 0x78, 0x80, 0xa4, 0x3d, 0x27, 0xfb, 0x4f, 0xbd, 0x6f, 0x1e, 0xb1, 0x3c, 0xa6, 0xb8, 0xcf, 0x3c, 
0xf9, 0xec, 0x85, 0xbd, 0x90, 0xe4, 0xbe, 0x3c, 0x33, 0x00, 0xdb, 0xbc, 0x4f, 0xfd, 0x91, 0x3d, 0xf9, 0xc2, 0xea, 0xbc, 0x05, 0x5f, 0x7f, 0x3d, 0xd0, 0x15, 0x3f, 0xbc, 0x45, 0x82, 0xd7, 0xbc, 
0x1a, 0xb6, 0x2f, 0xbd, 0x00, 0x3b, 0x30, 0x3d, 0xdf, 0x35, 0xc6, 0xbc, 0x4c, 0x8f, 0xc5, 0x39, 0xeb, 0x90, 0x4f, 0x3d, 0xeb, 0xaf, 0x5e, 0x3d, 0xe8, 0x99, 0x93, 0xbd, 0x6f, 0x88, 0xad, 0x3c, 
0x60, 0x09, 0x1f, 0x3d, 0xbb, 0x92, 0x08, 0xbd, 0x55, 0x5d, 0xd9, 0xbc, 0x24, 0x58, 0xac, 0xbd, 0xa8, 0x78, 0xb9, 0x3c, 0x71, 0xcc, 0x06, 0xbd, 0x11, 0xab, 0x96, 0xbc, 0xc6, 0xbf, 0x8a, 0xbc, 
0xc4, 0x10, 0x44, 0x3d, 0x68, 0xc3, 0xda, 0xbd, 0xfc, 0xf9, 0x69, 0xbc, 0xbe, 0x5b, 0x4d, 0x3c, 0x65, 0xfa, 0x17, 0x3d, 0x99, 0x82, 0xb7, 0x3d, 0x32, 0x2c, 0xf6, 0xbc, 0x89, 0x1c, 0x86, 0xbd, 
0x9f, 0xe9, 0x82, 0xbd, 0x0c, 0xc7, 0xb6, 0x3d, 0xdc, 0xbb, 0x9c, 0x3d, 0x81, 0x6c, 0x06, 0x3e, 0x32, 0xe4, 0xe5, 0x3d, 0xcd, 0xa1, 0x77, 0xbd, 0xf6, 0x12, 0xb1, 0xbd, 0x1e, 0x99, 0x96, 0x3c, 
0x60, 0x7d, 0xf0, 0x3b, 0x82, 0x8b, 0xcc, 0x3d, 0xd3, 0xfe, 0xa0, 0xbd, 0x06, 0x08, 0x22, 0x3d, 0xce, 0x6c, 0x45, 0xbd, 0x46, 0x36, 0xae, 0xbd, 0x19, 0x95, 0x66, 0x3d, 0xbe, 0x8c, 0x73, 0x3d, 
0xa7, 0x98, 0x12, 0xbc, 0x2a, 0xe3, 0xc2, 0xbc, 0x69, 0x16, 0xb3, 0x3c, 0x12, 0xd5, 0x2e, 0xba, 0x65, 0x53, 0x9c, 0x3b, 0xe5, 0xbf, 0xd6, 0xbd, 0x75, 0xa6, 0x23, 0xbd, 0x84, 0x51, 0x8b, 0xbd, 
0x42, 0x5b, 0xb2, 0xbd, 0xcc, 0x45, 0x9a, 0x3c, 0x6b, 0x64, 0x1e, 0x3c, 0xcd, 0x19, 0xf0, 0x3d, 0xfb, 0xa7, 0x79, 0xbd, 0xcc, 0xaa, 0x0a, 0x3e, 0xb8, 0x94, 0x01, 0x3e, 0x10, 0x4d, 0xc8, 0x3d, 
0xd5, 0x0b, 0xd2, 0x3d, 0xb7, 0x26, 0x73, 0xbc, 0xa6, 0x41, 0xcd, 0xbc, 0xa7, 0x48, 0x85, 0x3d, 0x36, 0xee, 0xcf, 0xbc, 0x7d, 0x9b, 0x2c, 0xbd, 0x1d, 0x2d, 0x40, 0x3d, 0x03, 0x48, 0x15, 0xbd, 
0x3d, 0x3e, 0x25, 0xbc, 0x14, 0x85, 0x8d, 0xbd, 0x49, 0xf1, 0x85, 0x3d, 0xa9, 0xfc, 0x24, 0x3d, 0xa5, 0xe9, 0xd0, 0xbd, 0x84, 0x39, 0x0f, 0x3d, 0xf6, 0x4d, 0xc3, 0xbd, 0x98, 0xdd, 0x9a, 0xbd, 
0xcd, 0xf9, 0x18, 0x3d, 0xa3, 0xd0, 0x22, 0xbd, 0x6a, 0xcf, 0x3e, 0x3d, 0xdd, 0xbc, 0xd5, 0xbd, 0x36, 0xbb, 0xcd, 0x3d, 0xc1, 0xd7, 0xb6, 0x3c, 0xb3, 0x01, 0x85, 0xbd, 0x7a, 0xef, 0x9b, 0x3d, 
0x7c, 0x8b, 0xa4, 0xbd, 0x2f, 0x36, 0xda, 0xbd, 0x25, 0x9d, 0x86, 0x3d, 0xc0, 0xf4, 0xcb, 0x3d, 0xfd, 0x97, 0x85, 0xbd, 0x6c, 0x15, 0x60, 0x3c, 0xa6, 0x71, 0xc6, 0xbd, 0x68, 0x87, 0x67, 0x3d, 
0x56, 0x81, 0xdc, 0xbd, 0x48, 0x2c, 0x78, 0x3b, 0x9d, 0x01, 0x4d, 0xbd, 0x05, 0xc8, 0x9d, 0xbd, 0xff, 0xfd, 0xc6, 0x3d, 0xd5, 0x76, 0x2b, 0x3d, 0x26, 0x11, 0x25, 0xbd, 0xfd, 0x7f, 0x4e, 0xbd, 
0xd7, 0x11, 0x5a, 0x3d, 0x7e, 0x2f, 0x4a, 0xbd, 0x20, 0x55, 0xa7, 0x3d, 0x78, 0xe2, 0x60, 0x3d, 0x92, 0x35, 0x16, 0xbd, 0xe6, 0xa6, 0x36, 0x3d, 0x2c, 0x4f, 0x83, 0x3d, 0x0c, 0x62, 0xbb, 0x3d, 
0x77, 0x61, 0x6a, 0x3b, 0x1a, 0x34, 0xd3, 0x3d, 0xd5, 0x8d, 0x7f, 0xbd, 0xd2, 0x2d, 0xd5, 0x3c, 0xcf, 0x3b, 0xcb, 0x3d, 0x82, 0xd1, 0x2b, 0x3d, 0x15, 0xb6, 0x8a, 0xbd, 0x29, 0xb5, 0x35, 0xbd, 
0xe4, 0x4e, 0xcb, 0x3d, 0x0c, 0x07, 0x6d, 0xba, 0xae, 0x98, 0xd6, 0xbd, 0x6e, 0x8c, 0xad, 0xbd, 0x51, 0x72, 0xe3, 0xbd, 0xaf, 0x1b, 0xd2, 0x3d, 0x14, 0xe0, 0x87, 0x3d, 0x76, 0x07, 0xc4, 0xbd, 
0x73, 0x5b, 0xba, 0xbb, 0x1b, 0x27, 0xab, 0x3d, 0x44, 0x80, 0xa9, 0x3d, 0x45, 0x69, 0xd7, 0x3c, 0x9e, 0x8f, 0x0c, 0x3b, 0x7c, 0xe8, 0x2b, 0xbd, 0x36, 0xa2, 0x55, 0xbd, 0x19, 0x22, 0xb5, 0xbd, 
0x3b, 0xdf, 0x82, 0x3d, 0x57, 0xa4, 0xef, 0x3d, 0xf2, 0xb6, 0xb9, 0xbc, 0x14, 0xe1, 0x3a, 0x3d, 0x35, 0xdb, 0x7b, 0x3d, 0xb1, 0x59, 0x2a, 0xbd, 0x0d, 0xce, 0x90, 0x3c, 0x29, 0xe4, 0x49, 0xbc, 
0x4e, 0x04, 0xed, 0xbd, 0xed, 0xa0, 0xb2, 0xbd, 0x87, 0x50, 0x62, 0xbd, 0x7a, 0xeb, 0xf3, 0xbc, 0x05, 0x11, 0x13, 0x3d, 0x82, 0x43, 0xe7, 0xbc, 0x75, 0xf2, 0x2c, 0x3d, 0xc3, 0xa7, 0x75, 0xbc, 
0x44, 0xa1, 0x19, 0xbd, 0xc1, 0xab, 0x85, 0xbd, 0x60, 0xd8, 0xc8, 0xbd, 0xa2, 0xf4, 0x9f, 0xbc, 0x95, 0xcb, 0x72, 0xbd, 0x50, 0x42, 0x1f, 0xbc, 0xd3, 0xcb, 0x06, 0x3d, 0x1f, 0xb6, 0x0d, 0xbd, 
0xa3, 0x8b, 0xb2, 0xbd, 0xe2, 0x9f, 0x01, 0x3c, 0x42, 0x13, 0xbf, 0xbd, 0x0f, 0x2c, 0x90, 0xbd, 0xe5, 0xfb, 0x51, 0x39, 0x38, 0xbb, 0x54, 0xbd, 0x94, 0x6f, 0x91, 0xbc, 0x19, 0x60, 0xa7, 0xbd, 
0x95, 0x5d, 0x2f, 0xbd, 0xe6, 0xca, 0xc9, 0xbd, 0x23, 0x07, 0x3b, 0x3d, 0x72, 0xa1, 0xe7, 0x3d, 0x44, 0x21, 0x69, 0xbd, 0x34, 0x74, 0x39, 0xbc, 0x2f, 0xec, 0x40, 0x3d, 0x26, 0x66, 0x59, 0xbd, 
0xbf, 0x83, 0x46, 0xbd, 0x06, 0xc3, 0xb3, 0xbd, 0xfe, 0xf1, 0x48, 0x3b, 0x30, 0x83, 0x46, 0xbc, 0x25, 0x26, 0x07, 0x3c, 0x9d, 0x85, 0xa5, 0xbd, 0x7d, 0x3d, 0x28, 0x3d, 0xbd, 0x6b, 0xdc, 0x3d, 
0x69, 0xcc, 0x9b, 0x3d, 0x08, 0x53, 0xa7, 0x3d, 0xf2, 0xe3, 0xf5, 0x3c, 0xc9, 0x38, 0x94, 0x3d, 0xb5, 0xbf, 0xb4, 0x3d, 0x72, 0x11, 0xac, 0x3c, 0xd6, 0xf6, 0x86, 0xbd, 0x73, 0xa0, 0x91, 0x3d, 
0x09, 0xcd, 0x88, 0x3c, 0x40, 0x54, 0x1c, 0xbd, 0x68, 0x21, 0x00, 0xbe, 0x41, 0xf0, 0x30, 0x3d, 0x9a, 0xdc, 0xb4, 0xbd, 0x75, 0x49, 0x3f, 0xbd, 0x9a, 0xe9, 0x0d, 0xbe, 0x75, 0x4b, 0x38, 0xbb, 
0xda, 0x1d, 0xb2, 0x3c, 0x71, 0x5e, 0x98, 0xbc, 0x55, 0xde, 0xe6, 0xb9, 0x89, 0x76, 0xfd, 0x3c, 0xb9, 0x5d, 0x65, 0x3d, 0x08, 0x51, 0xc3, 0xbd, 0xc4, 0x18, 0x46, 0xbd, 0x33, 0x85, 0xab, 0x3d, 
0xa1, 0x11, 0xe8, 0x3c, 0xb2, 0xc9, 0x15, 0x3d, 0x88, 0xfb, 0xc2, 0x3c, 0x21, 0x5d, 0x93, 0xbd, 0xe4, 0x94, 0xc8, 0xbc, 0x89, 0x93, 0x75, 0xbd, 0x04, 0x45, 0x8b, 0xbd, 0xff, 0x13, 0xc7, 0x3d, 
0x5a, 0xf9, 0xbb, 0xbc, 0x35, 0xa3, 0xcd, 0x3d, 0xd0, 0x0c, 0x2a, 0xbd, 0x76, 0x48, 0x84, 0xbd, 0x64, 0x1d, 0x01, 0x3d, 0xa0, 0xe8, 0x1a, 0xbd, 0x42, 0xb0, 0x21, 0x3c, 0x22, 0x62, 0x93, 0x3d, 
0x4c, 0x85, 0x8e, 0x3d, 0xa0, 0x82, 0xa6, 0xbd, 0x67, 0xaa, 0x87, 0xbc, 0x2b, 0xa3, 0xac, 0x3c, 0xf6, 0x5a, 0xa6, 0x3d, 0x89, 0x35, 0xd6, 0x3d, 0x9a, 0xb0, 0x5f, 0x3d, 0xfe, 0x24, 0xd3, 0xbd, 
0xb9, 0xef, 0x89, 0xbd, 0x82, 0x9f, 0xea, 0xbd, 0xfe, 0x9b, 0xb8, 0x3c, 0xbd, 0x70, 0x2e, 0xbd, 0x16, 0x72, 0xcc, 0xbd, 0x59, 0x53, 0xce, 0xbd, 0x1f, 0xfb, 0x4e, 0x3d, 0x06, 0x15, 0xf4, 0xbd, 
0x9f, 0x9a, 0x98, 0xbd, 0x19, 0xa7, 0x6f, 0xbb, 0x4b, 0xde, 0xd9, 0xbd, 0x15, 0x89, 0x18, 0x3d, 0x9e, 0x45, 0x01, 0xbd, 0x3b, 0x4d, 0xbc, 0xbc, 0x9c, 0x37, 0x48, 0x3d, 0x95, 0x05, 0xe3, 0xbc, 
0xb0, 0xe0, 0xc2, 0x3d, 0x70, 0xed, 0x49, 0x3d, 0x14, 0x8b, 0x0d, 0x3c, 0x2e, 0xa4, 0x02, 0xbc, 0x17, 0x68, 0xc5, 0x3b, 0x1c, 0x22, 0x14, 0x3d, 0xf1, 0xe6, 0x77, 0xbd, 0xcc, 0xdb, 0xd9, 0x3d, 
0xe7, 0xee, 0x86, 0x3d, 0xdb, 0x63, 0x8a, 0x3d, 0x50, 0xe6, 0x62, 0xbd, 0xa2, 0x92, 0x86, 0xbd, 0x3f, 0xcd, 0xa8, 0x3d, 0xe5, 0x0e, 0xfd, 0xbc, 0x6e, 0xcb, 0x39, 0x3d, 0x40, 0xa8, 0xf8, 0xbc, 
0x37, 0x24, 0xa0, 0x3d, 0x8a, 0xbf, 0x53, 0xbd, 0x31, 0x31, 0x89, 0x3d, 0x07, 0x13, 0xc7, 0xbd, 0x0a, 0xe6, 0x2b, 0x3d, 0xca, 0xf3, 0x84, 0x3c, 0x57, 0x14, 0xfa, 0x3d, 0xfd, 0xee, 0xfc, 0x3d, 
0x4d, 0x6f, 0xb8, 0x3d, 0x0e, 0xeb, 0xb6, 0x3d, 0x26, 0xd0, 0x0b, 0xbd, 0x4e, 0x23, 0x95, 0xbc, 0xf2, 0x2d, 0xa1, 0x3c, 0x4d, 0xc8, 0x37, 0xbc, 0x98, 0xf2, 0xf4, 0xbb, 0xae, 0xcc, 0xda, 0xbb, 
0x30, 0x05, 0x13, 0xb9, 0xef, 0x60, 0x23, 0x3d, 0xf7, 0xfb, 0xaa, 0xbc, 0xc4, 0x9c, 0x56, 0x3d, 0xd2, 0xb1, 0x62, 0x3c, 0x14, 0xf9, 0xa9, 0x3d, 0xc7, 0x37, 0x92, 0x3d, 0x46, 0x22, 0x1d, 0xbd, 
0x46, 0x10, 0x68, 0x3c, 0x21, 0x43, 0x37, 0xbd, 0xd3, 0x85, 0xcf, 0x3d, 0xa8, 0x87, 0xae, 0x3d, 0x8c, 0xb0, 0xe9, 0xbd, 0xf8, 0x4c, 0x4a, 0x3c, 0xa2, 0xd0, 0x5c, 0xbd, 0x73, 0x72, 0x8a, 0xbc, 
0xf7, 0x51, 0xbb, 0xbc, 0x95, 0x6b, 0x1b, 0xbd, 0x65, 0xbe, 0x38, 0x3d, 0x3a, 0x0c, 0xc3, 0x3b, 0x5b, 0xe5, 0x10, 0x3d, 0x5e, 0x77, 0xfd, 0xbc, 0x4c, 0x93, 0x90, 0xbd, 0xd4, 0x81, 0x5e, 0x3d, 
0xd3, 0xc8, 0x69, 0xbc, 0x06, 0xa5, 0xc8, 0xbd, 0xcc, 0x64, 0xbe, 0x3c, 0xbf, 0x9b, 0x61, 0x3d, 0x03, 0x4d, 0xb5, 0x3c, 0x19, 0x7c, 0xcd, 0x3c, 0x20, 0xa2, 0xd0, 0xbd, 0x58, 0x07, 0x72, 0xbc, 
0x41, 0x26, 0xb6, 0x3d, 0x78, 0x53, 0xb8, 0xbb, 0x62, 0x3c, 0xc7, 0x3d, 0x83, 0x0b, 0xc8, 0x3d, 0x1a, 0xeb, 0x4e, 0xbd, 0x4d, 0x17, 0xe6, 0xbc, 0xe1, 0xf1, 0xde, 0x3d, 0x3b, 0x85, 0x28, 0xbd, 
0xb3, 0x22, 0xd0, 0x3c, 0x17, 0x3e, 0x9d, 0x3d, 0x41, 0x16, 0x06, 0xbd, 0x45, 0xe1, 0xbf, 0x3d, 0xe9, 0xa0, 0x2b, 0x3d, 0x4c, 0x01, 0x90, 0x3c, 0x1e, 0xda, 0xa2, 0x3d, 0x11, 0x59, 0xa0, 0x3d, 
0x90, 0xeb, 0x0e, 0xbd, 0x53, 0x96, 0xc0, 0x3d, 0x28, 0x36, 0xbb, 0x3d, 0x56, 0x0f, 0xb0, 0x3d, 0x34, 0x8d, 0x94, 0xbd, 0x85, 0x00, 0xcc, 0x3c, 0x73, 0x1b, 0x8e, 0xbc, 0xeb, 0x23, 0xc9, 0x3a, 
0xff, 0x69, 0xe1, 0x3d, 0x60, 0x35, 0x2a, 0xbd, 0xb9, 0xe1, 0x75, 0xbd, 0xa2, 0x66, 0xb3, 0x3d, 0x62, 0x1d, 0xb4, 0x3c, 0x61, 0xd2, 0x66, 0x3d, 0xca, 0x30, 0xa7, 0x3d, 0x2e, 0x92, 0x92, 0xbd, 
0x9a, 0x0d, 0x9c, 0xbd, 0x9a, 0xc1, 0x3b, 0xbc, 0x55, 0x9a, 0xf3, 0x3d, 0x5f, 0xd1, 0x41, 0xbc, 0xde, 0x8d, 0xed, 0xbc, 0x52, 0x79, 0x06, 0x3e, 0xf4, 0x14, 0x82, 0xbd, 0x18, 0xcb, 0xc0, 0x3d, 
0xe9, 0x3d, 0xa6, 0xbc, 0x2c, 0x2d, 0x85, 0x3d, 0x1f, 0xc3, 0x73, 0x3c, 0xd4, 0xbc, 0xbd, 0x3a, 0xcc, 0xe6, 0x8f, 0xbc, 0x7b, 0xaa, 0x0c, 0xbd, 0x34, 0x6a, 0x87, 0x3d, 0x11, 0xe6, 0x2d, 0x3d, 
0x8d, 0x20, 0xad, 0xbd, 0xb4, 0x43, 0x09, 0xbd, 0x98, 0x16, 0x6a, 0xbd, 0x43, 0x6e, 0x02, 0xbd, 0xb7, 0x6f, 0x17, 0x3d, 0x6b, 0x69, 0x8f, 0xbd, 0x5b, 0x38, 0x97, 0x3a, 0xcb, 0xa1, 0x8b, 0xbd, 
0x33, 0xde, 0x4d, 0xbc, 0xd2, 0x9a, 0xf8, 0xbc, 0xf7, 0xce, 0x9e, 0xbd, 0xf6, 0x12, 0xa7, 0xbd, 0x4f, 0x1a, 0x98, 0xbd, 0xed, 0x7d, 0x94, 0xbd, 0xf1, 0x97, 0xfc, 0x3c, 0x14, 0x58, 0xa8, 0xbd, 
0x4b, 0xe3, 0x16, 0x3d, 0x20, 0x98, 0xf9, 0x3c, 0x1d, 0x01, 0xd8, 0xbd, 0x97, 0x50, 0xb6, 0xbd, 0x9e, 0x16, 0xb8, 0x3d, 0xb9, 0x6a, 0xd3, 0xbd, 0x4b, 0x7b, 0xb6, 0x3d, 0xb1, 0xa8, 0x61, 0x3c, 
0x19, 0xba, 0xae, 0x3d, 0x7c, 0x3a, 0x02, 0x3d, 0xd4, 0x60, 0xd2, 0x3d, 0x9c, 0xd6, 0x09, 0x3d, 0x8a, 0x99, 0x84, 0x3d, 0x47, 0xc6, 0x73, 0x3d, 0x8f, 0x33, 0xe4, 0x3c, 0x9b, 0xc9, 0xbe, 0xbd, 
0x9a, 0x32, 0x9a, 0x3c, 0x33, 0x4d, 0x6e, 0x3d, 0x2b, 0xaa, 0xa2, 0x3d, 0xe5, 0x19, 0x10, 0x3b, 0x6f, 0x4d, 0xc8, 0xbc, 0x4f, 0x55, 0xe3, 0x3c, 0xd4, 0x76, 0xbc, 0x3d, 0xb9, 0x0b, 0xb3, 0x3d, 
0xc3, 0x2b, 0xfa, 0xbc, 0xbd, 0x36, 0xb4, 0xbd, 0x98, 0x13, 0x94, 0xbd, 0x35, 0x4a, 0x5d, 0xbc, 0x69, 0x21, 0x08, 0xbd, 0xce, 0xf6, 0x49, 0xbb, 0x70, 0x8f, 0xdb, 0x3d, 0x34, 0x9e, 0x42, 0xbc, 
0x6b, 0x71, 0x3b, 0x3d, 0xef, 0x35, 0x38, 0x3b, 0x7f, 0xc4, 0x32, 0x3c, 0xa8, 0xfd, 0xa6, 0xbd, 0xee, 0x8f, 0xcd, 0x3b, 0xcb, 0x65, 0x58, 0xbd, 0x87, 0x35, 0x87, 0xbd, 0xfe, 0x64, 0x6e, 0x3c, 
0xdb, 0xd9, 0x54, 0xbd, 0x2b, 0x4c, 0xce, 0xbc, 0x58, 0x01, 0xc5, 0x3b, 0x47, 0xdb, 0x5e, 0xbd, 0xa5, 0x97, 0x31, 0xbd, 0x74, 0xcd, 0xc1, 0xbd, 0xc5, 0x96, 0x98, 0xbd, 0xa1, 0x98, 0x9e, 0xbd, 
0x52, 0x5f, 0xad, 0x3b, 0xe8, 0x6e, 0xcc, 0xbc, 0xe1, 0x36, 0x4c, 0xbd, 0xe7, 0x35, 0xc9, 0xbd, 0x23, 0x71, 0xed, 0x3c, 0xa7, 0xc4, 0x43, 0xbd, 0xa0, 0x3a, 0xbd, 0xbc, 0xfe, 0xc9, 0xc2, 0xbd, 
0xf4, 0x53, 0xa3, 0x3d, 0x34, 0xa4, 0xda, 0xbc, 0x1d, 0x8d, 0x92, 0xbd, 0x47, 0xeb, 0xd7, 0xbd, 0x24, 0x59, 0xe4, 0xbd, 0x8b, 0x3c, 0x92, 0x3d, 0x51, 0x76, 0xf4, 0xbd, 0xa6, 0xd7, 0x73, 0x3d, 
0x32, 0x11, 0x82, 0x3d, 0x29, 0x5f, 0x0e, 0xbd, 0x55, 0x01, 0x81, 0x3d, 0x38, 0x41, 0x89, 0xbc, 0xd1, 0xb8, 0xe5, 0xbc, 0xd9, 0x83, 0xa5, 0xbd, 0x6c, 0x85, 0xa4, 0x3b, 0x92, 0x81, 0x64, 0xbd, 
0x2f, 0x33, 0xc4, 0xbc, 0x66, 0x94, 0xe3, 0x3b, 0x06, 0xa8, 0x80, 0xbd, 0x23, 0xa4, 0x8f, 0x3d, 0xe9, 0x49, 0x03, 0x3c, 0x05, 0xe6, 0xeb, 0x3c, 0xa1, 0xbe, 0x9c, 0x3c, 0x3c, 0x40, 0x8c, 0xbd, 
0xad, 0x93, 0x17, 0x3b, 0x66, 0xec, 0x8d, 0x3c, 0x89, 0xfb, 0x16, 0xbd, 0x8e, 0x1c, 0xfe, 0xbd, 0x97, 0x4a, 0x89, 0xbd, 0xcc, 0x36, 0x0a, 0xbd, 0x08, 0x26, 0xdc, 0xbd, 0xb5, 0xaa, 0x3c, 0x3c, 
0x04, 0x65, 0xbe, 0x3d, 0x23, 0xa9, 0x80, 0xbd, 0xe9, 0x8e, 0xa3, 0xbd, 0x00, 0x96, 0xb3, 0xbd, 0x74, 0x74, 0x8f, 0xbc, 0x37, 0xb2, 0x92, 0x3d, 0x85, 0x9e, 0xd6, 0xbd, 0x52, 0x87, 0x8e, 0xbd, 
0xbd, 0x8e, 0xd5, 0xbb, 0xac, 0xc9, 0xde, 0x3d, 0x61, 0x03, 0xb9, 0xbd, 0xa1, 0x44, 0x88, 0x3d, 0x28, 0xc0, 0x78, 0xbd, 0xf7, 0x67, 0xba, 0x3d, 0x14, 0x24, 0x02, 0xbd, 0xd7, 0xf8, 0x55, 0xbd, 
0x12, 0x0c, 0xab, 0xbd, 0xf2, 0xff, 0xc9, 0x3d, 0xcf, 0xae, 0xd1, 0xbd, 0xa9, 0x4e, 0x33, 0x3d, 0xfd, 0x53, 0x14, 0x3d, 0xb5, 0xb4, 0x45, 0xbd, 0x0a, 0xbf, 0xbb, 0x3c, 0xba, 0xdf, 0xa0, 0x3c, 
