__attribute__((section("network_model_sec"), aligned(16))) char model_pte[] = {
0x3c, 0x00, 0x00, 0x00, 0x45, 0x54, 0x31, 0x32, 0x65, 0x68, 0x30, 0x30, 0x18, 0x00, 0x00, 0x00, 0xd8, 0x06, 0x00, 0x00, 0x00, 0x00, 0x00, 0x00, 0x00, 0x07, 0x00, 0x00, 0x00, 0x00, 0x00, 0x00, 
0x00, 0x00, 0x00, 0x00, 0x00, 0x00, 0x00, 0x00, 0x00, 0x00, 0x00, 0x00, 0x10, 0x00, 0x18, 0x00, 0x00, 0x00, 0x04, 0x00, 0x08, 0x00, 0x0c, 0x00, 0x10, 0x00, 0x14, 0x00, 0x10, 0x00, 0x00, 0x00, 
0x64, 0x00, 0x00, 0x00, 0x5c, 0x00, 0x00, 0x00, 0x54, 0x00, 0x00, 0x00, 0x30, 0x00, 0x00, 0x00, 0x04, 0x00, 0x00, 0x00, 0x10, 0xfe, 0xff, 0xff, 0x04, 0x00, 0x00, 0x00, 0x03, 0x00, 0x00, 0x00, 
0x00, 0x00, 0x00, 0x00, 0x00, 0x00, 0x00, 0x00, 0x00, 0x00, 0x00, 0x00, 0x00, 0x00, 0x00, 0x00, 0x20, 0x03, 0x00, 0x00, 0x00, 0x00, 0x00, 0x00, 0x00, 0x00, 0x00, 0x00, 0x01, 0x00, 0x00, 0x00, 
0x0c, 0x00, 0x00, 0x00, 0x08, 0x00, 0x10, 0x00, 0x00, 0x00, 0x04, 0x00, 0x08, 0x00, 0x00, 0x00, 0x28, 0x03, 0x00, 0x00, 0x00, 0x00, 0x00, 0x00, 0x00, 0x00, 0x00, 0x00, 0x00, 0x00, 0x00, 0x00, 
0x00, 0x00, 0x00, 0x00, 0x01, 0x00, 0x00, 0x00, 0x1c, 0x00, 0x00, 0x00, 0x00, 0x00, 0x16, 0x00, 0x28, 0x00, 0x04, 0x00, 0x08, 0x00, 0x0c, 0x00, 0x10, 0x00, 0x14, 0x00, 0x18, 0x00, 0x1c, 0x00, 
0x20, 0x00, 0x24, 0x00, 0x16, 0x00, 0x00, 0x00, 0x04, 0x06, 0x00, 0x00, 0xb0, 0x04, 0x00, 0x00, 0xac, 0x01, 0x00, 0x00, 0xa0, 0x01, 0x00, 0x00, 0x94, 0x01, 0x00, 0x00, 0xc4, 0x00, 0x00, 0x00, 
0x28, 0x00, 0x00, 0x00, 0x20, 0x00, 0x00, 0x00, 0x04, 0x00, 0x00, 0x00, 0x02, 0x00, 0x00, 0x00, 0x00, 0x00, 0x00, 0x00, 0x00, 0x00, 0x00, 0x00, 0xc0, 0x04, 0x00, 0x00, 0x00, 0x00, 0x00, 0x00, 
0x00, 0x00, 0x00, 0x00, 0x00, 0x00, 0x00, 0x00, 0x03, 0x00, 0x00, 0x00, 0x5c, 0x00, 0x00, 0x00, 0x2c, 0x00, 0x00, 0x00, 0x04, 0x00, 0x00, 0x00, 0xa4, 0xfb, 0xff, 0xff, 0x10, 0x00, 0x00, 0x00, 
0x04, 0x00, 0x00, 0x00, 0x03, 0x00, 0x00, 0x00, 0x6f, 0x75, 0x74, 0x00, 0x0b, 0x00, 0x00, 0x00, 0x61, 0x74, 0x65, 0x6e, 0x3a, 0x3a, 0x61, 0x64, 0x64, 0x6d, 0x6d, 0x00, 0xc8, 0xfb, 0xff, 0xff, 
0x10, 0x00, 0x00, 0x00, 0x04, 0x00, 0x00, 0x00, 0x03, 0x00, 0x00, 0x00, 0x6f, 0x75, 0x74, 0x00, 0x12, 0x00, 0x00, 0x00, 0x61, 0x74, 0x65, 0x6e, 0x3a, 0x3a, 0x70, 0x65, 0x72, 0x6d, 0x75, 0x74, 
0x65, 0x5f, 0x63, 0x6f, 0x70, 0x79, 0x00, 0x00, 0xf4, 0xfb, 0xff, 0xff, 0x14, 0x00, 0x00, 0x00, 0x04, 0x00, 0x00, 0x00, 0x07, 0x00, 0x00, 0x00, 0x64, 0x65, 0x66, 0x61, 0x75, 0x6c, 0x74, 0x00, 
0x18, 0x00, 0x00, 0x00, 0x65, 0x78, 0x65, 0x63, 0x75, 0x74, 0x6f, 0x72, 0x63, 0x68, 0x5f, 0x70, 0x72, 0x69, 0x6d, 0x3a, 0x3a, 0x65, 0x74, 0x5f, 0x76, 0x69, 0x65, 0x77, 0x00, 0x00, 0x00, 0x00, 
0x01, 0x00, 0x00, 0x00, 0x10, 0x00, 0x00, 0x00, 0x00, 0x00, 0x0a, 0x00, 0x10, 0x00, 0x04, 0x00, 0x08, 0x00, 0x0c, 0x00, 0x0a, 0x00, 0x00, 0x00, 0xb0, 0x00, 0x00, 0x00, 0xa8, 0x00, 0x00, 0x00, 
0x04, 0x00, 0x00, 0x00, 0x03, 0x00, 0x00, 0x00, 0x70, 0x00, 0x00, 0x00, 0x40, 0x00, 0x00, 0x00, 0x04, 0x00, 0x00, 0x00, 0xac, 0xfc, 0xff, 0xff, 0x00, 0x00, 0x00, 0x01, 0x04, 0x00, 0x00, 0x00, 
0x6c, 0xfc, 0xff, 0xff, 0x02, 0x00, 0x00, 0x00, 0x04, 0x00, 0x00, 0x00, 0x07, 0x00, 0x00, 0x00, 0x01, 0x00, 0x00, 0x00, 0x06, 0x00, 0x00, 0x00, 0x07, 0x00, 0x00, 0x00, 0x0c, 0x00, 0x00, 0x00, 
0x0d, 0x00, 0x00, 0x00, 0x0b, 0x00, 0x00, 0x00, 0x0b, 0x00, 0x00, 0x00, 0xe4, 0xfc, 0xff, 0xff, 0x00, 0x00, 0x00, 0x01, 0x04, 0x00, 0x00, 0x00, 0xa4, 0xfc, 0xff, 0xff, 0x01, 0x00, 0x00, 0x00, 
0x04, 0x00, 0x00, 0x00, 0x04, 0x00, 0x00, 0x00, 0x00, 0x00, 0x00, 0x00, 0x0a, 0x00, 0x00, 0x00, 0x07, 0x00, 0x00, 0x00, 0x07, 0x00, 0x00, 0x00, 0x10, 0xfd, 0xff, 0xff, 0x00, 0x00, 0x00, 0x01, 
0x0c, 0x00, 0x00, 0x00, 0x08, 0x00, 0x08, 0x00, 0x00, 0x00, 0x04, 0x00, 0x08, 0x00, 0x00, 0x00, 0x04, 0x00, 0x00, 0x00, 0x03, 0x00, 0x00, 0x00, 0x02, 0x00, 0x00, 0x00, 0x05, 0x00, 0x00, 0x00, 
0x06, 0x00, 0x00, 0x00, 0x00, 0x00, 0x00, 0x00, 0x00, 0x00, 0x00, 0x00, 0x01, 0x00, 0x00, 0x00, 0x0b, 0x00, 0x00, 0x00, 0x01, 0x00, 0x00, 0x00, 0x02, 0x00, 0x00, 0x00, 0x0e, 0x00, 0x00, 0x00, 
0xb0, 0x02, 0x00, 0x00, 0x74, 0x02, 0x00, 0x00, 0x10, 0x02, 0x00, 0x00, 0xe4, 0x01, 0x00, 0x00, 0xc8, 0x01, 0x00, 0x00, 0x9c, 0x01, 0x00, 0x00, 0x48, 0x01, 0x00, 0x00, 0xf0, 0x00, 0x00, 0x00, 
0xc8, 0x00, 0x00, 0x00, 0xb0, 0x00, 0x00, 0x00, 0x80, 0x00, 0x00, 0x00, 0x3c, 0x00, 0x00, 0x00, 0x20, 0x00, 0x00, 0x00, 0x04, 0x00, 0x00, 0x00, 0x90, 0xfd, 0xff, 0xff, 0x00, 0x00, 0x00, 0x02, 
0x04, 0x00, 0x00, 0x00, 0x46, 0xfe, 0xff, 0xff, 0x01, 0x00, 0x00, 0x00, 0x00, 0x00, 0x00, 0x00, 0xa8, 0xfd, 0xff, 0xff, 0x00, 0x00, 0x00, 0x02, 0x04, 0x00, 0x00, 0x00, 0x5e, 0xfe, 0xff, 0xff, 
0x01, 0x00, 0x00, 0x00, 0x00, 0x00, 0x00, 0x00, 0xc0, 0xfd, 0xff, 0xff, 0x00, 0x00, 0x00, 0x05, 0x04, 0x00, 0x00, 0x00, 0x5a, 0xff, 0xff, 0xff, 0x00, 0x00, 0x06, 0x01, 0x20, 0x00, 0x00, 0x00, 
0x14, 0x00, 0x00, 0x00, 0x04, 0x00, 0x00, 0x00, 0x94, 0xfd, 0xff, 0xff, 0x01, 0x00, 0x00, 0x00, 0xb0, 0x04, 0x00, 0x00, 0x02, 0x00, 0x00, 0x00, 0x00, 0x01, 0x00, 0x00, 0x02, 0x00, 0x00, 0x00, 
0x01, 0x00, 0x00, 0x00, 0x02, 0x00, 0x00, 0x00, 0x00, 0xfe, 0xff, 0xff, 0x00, 0x00, 0x00, 0x07, 0x04, 0x00, 0x00, 0x00, 0x66, 0xfe, 0xff, 0xff, 0x04, 0x00, 0x00, 0x00, 0x02, 0x00, 0x00, 0x00, 
0x08, 0x00, 0x00, 0x00, 0x00, 0x00, 0x00, 0x00, 0x09, 0x00, 0x00, 0x00, 0x00, 0x00, 0x00, 0x00, 0x00, 0x00, 0x00, 0x00, 0x2c, 0xfe, 0xff, 0xff, 0x00, 0x00, 0x00, 0x02, 0x08, 0x00, 0x00, 0x00, 
0x04, 0x00, 0x04, 0x00, 0x04, 0x00, 0x00, 0x00, 0xd8, 0xfe, 0xff, 0xff, 0x00, 0x00, 0x00, 0x02, 0x0c, 0x00, 0x00, 0x00, 0x00, 0x00, 0x06, 0x00, 0x10, 0x00, 0x04, 0x00, 0x06, 0x00, 0x00, 0x00, 
0x01, 0x00, 0x00, 0x00, 0x00, 0x00, 0x00, 0x00, 0x00, 0x00, 0x00, 0x00, 0xfc, 0xfe, 0xff, 0xff, 0x00, 0x00, 0x00, 0x05, 0x18, 0x00, 0x00, 0x00, 0x00, 0x00, 0x12, 0x00, 0x14, 0x00, 0x06, 0x00, 
0x00, 0x00, 0x08, 0x00, 0x0c, 0x00, 0x07, 0x00, 0x00, 0x00, 0x10, 0x00, 0x12, 0x00, 0x00, 0x00, 0x00, 0x00, 0x06, 0x01, 0x20, 0x00, 0x00, 0x00, 0x14, 0x00, 0x00, 0x00, 0x04, 0x00, 0x00, 0x00, 
0x4c, 0xfe, 0xff, 0xff, 0x01, 0x00, 0x00, 0x00, 0x90, 0x01, 0x00, 0x00, 0x02, 0x00, 0x00, 0x00, 0x00, 0x01, 0x00, 0x00, 0x02, 0x00, 0x00, 0x00, 0x64, 0x00, 0x00, 0x00, 0x02, 0x00, 0x00, 0x00, 
0x50, 0xff, 0xff, 0xff, 0x00, 0x00, 0x00, 0x05, 0x18, 0x00, 0x00, 0x00, 0x00, 0x00, 0x12, 0x00, 0x14, 0x00, 0x07, 0x00, 0x00, 0x00, 0x08, 0x00, 0x0c, 0x00, 0x00, 0x00, 0x00, 0x00, 0x10, 0x00, 
0x12, 0x00, 0x00, 0x00, 0x00, 0x00, 0x00, 0x06, 0x1c, 0x00, 0x00, 0x00, 0x10, 0x00, 0x00, 0x00, 0x04, 0x00, 0x00, 0x00, 0x46, 0xff, 0xff, 0xff, 0x01, 0x00, 0x00, 0x00, 0x02, 0x00, 0x00, 0x00, 
0x00, 0x01, 0x00, 0x00, 0x02, 0x00, 0x00, 0x00, 0x01, 0x00, 0x00, 0x00, 0x64, 0x00, 0x00, 0x00, 0x08, 0xff, 0xff, 0xff, 0x00, 0x00, 0x00, 0x07, 0x04, 0x00, 0x00, 0x00, 0x6e, 0xff, 0xff, 0xff, 
0x04, 0x00, 0x00, 0x00, 0x02, 0x00, 0x00, 0x00, 0x03, 0x00, 0x00, 0x00, 0x00, 0x00, 0x00, 0x00, 0x04, 0x00, 0x00, 0x00, 0x00, 0x00, 0x00, 0x00, 0x30, 0xff, 0xff, 0xff, 0x00, 0x00, 0x00, 0x02, 
0x04, 0x00, 0x00, 0x00, 0xe6, 0xff, 0xff, 0xff, 0xff, 0xff, 0xff, 0xff, 0xff, 0xff, 0xff, 0xff, 0xe0, 0xff, 0xff, 0xff, 0x00, 0x00, 0x00, 0x02, 0x0c, 0x00, 0x00, 0x00, 0x00, 0x00, 0x06, 0x00, 
0x0c, 0x00, 0x04, 0x00, 0x06, 0x00, 0x00, 0x00, 0x01, 0x00, 0x00, 0x00, 0x00, 0x00, 0x00, 0x00, 0x08, 0x00, 0x0e, 0x00, 0x07, 0x00, 0x08, 0x00, 0x08, 0x00, 0x00, 0x00, 0x00, 0x00, 0x00, 0x05, 
0x18, 0x00, 0x00, 0x00, 0x00, 0x00, 0x12, 0x00, 0x16, 0x00, 0x07, 0x00, 0x00, 0x00, 0x08, 0x00, 0x0c, 0x00, 0x00, 0x00, 0x00, 0x00, 0x10, 0x00, 0x12, 0x00, 0x00, 0x00, 0x00, 0x00, 0x00, 0x06, 
0x24, 0x00, 0x00, 0x00, 0x18, 0x00, 0x00, 0x00, 0x0c, 0x00, 0x00, 0x00, 0x00, 0x00, 0x06, 0x00, 0x08, 0x00, 0x04, 0x00, 0x06, 0x00, 0x00, 0x00, 0x01, 0x00, 0x00, 0x00, 0x04, 0x00, 0x00, 0x00, 
0x00, 0x01, 0x02, 0x03, 0x04, 0x00, 0x00, 0x00, 0x01, 0x00, 0x00, 0x00, 0x01, 0x00, 0x00, 0x00, 0x0a, 0x00, 0x00, 0x00, 0x0a, 0x00, 0x00, 0x00, 0xd0, 0xff, 0xff, 0xff, 0x00, 0x00, 0x00, 0x05, 
0x04, 0x00, 0x00, 0x00, 0xc8, 0xff, 0xff, 0xff, 0x00, 0x00, 0x06, 0x01, 0x14, 0x00, 0x00, 0x00, 0x08, 0x00, 0x00, 0x00, 0x02, 0x00, 0x00, 0x00, 0x01, 0x00, 0x00, 0x00, 0x00, 0x00, 0x00, 0x00, 
0x01, 0x00, 0x00, 0x00, 0x02, 0x00, 0x00, 0x00, 0x08, 0x00, 0x0c, 0x00, 0x07, 0x00, 0x08, 0x00, 0x08, 0x00, 0x00, 0x00, 0x00, 0x00, 0x00, 0x05, 0x14, 0x00, 0x00, 0x00, 0x10, 0x00, 0x14, 0x00, 
0x06, 0x00, 0x00, 0x00, 0x08, 0x00, 0x0c, 0x00, 0x07, 0x00, 0x10, 0x00, 0x10, 0x00, 0x00, 0x00, 0x00, 0x00, 0x06, 0x01, 0x14, 0x00, 0x00, 0x00, 0x08, 0x00, 0x00, 0x00, 0x01, 0x00, 0x00, 0x00, 
0x02, 0x00, 0x00, 0x00, 0x00, 0x01, 0x00, 0x00, 0x02, 0x00, 0x00, 0x00, 0x02, 0x00, 0x00, 0x00, 0x64, 0x00, 0x00, 0x00, 0x08, 0x00, 0x0c, 0x00, 0x04, 0x00, 0x08, 0x00, 0x08, 0x00, 0x00, 0x00, 
0x48, 0x00, 0x00, 0x00, 0x04, 0x00, 0x00, 0x00, 0x39, 0x00, 0x00, 0x00, 0x5b, 0x31, 0x2c, 0x20, 0x7b, 0x22, 0x74, 0x79, 0x70, 0x65, 0x22, 0x3a, 0x20, 0x6e, 0x75, 0x6c, 0x6c, 0x2c, 0x20, 0x22, 
0x63, 0x6f, 0x6e, 0x74, 0x65, 0x78, 0x74, 0x22, 0x3a, 0x20, 0x6e, 0x75, 0x6c, 0x6c, 0x2c, 0x20, 0x22, 0x63, 0x68, 0x69, 0x6c, 0x64, 0x72, 0x65, 0x6e, 0x5f, 0x73, 0x70, 0x65, 0x63, 0x22, 0x3a, 
0x20, 0x5b, 0x5d, 0x7d, 0x5d, 0x00, 0x00, 0x00, 0xfe, 0x00, 0x00, 0x00, 0x5b, 0x31, 0x2c, 0x20, 0x7b, 0x22, 0x74, 0x79, 0x70, 0x65, 0x22, 0x3a, 0x20, 0x22, 0x62, 0x75, 0x69, 0x6c, 0x74, 0x69, 
0x6e, 0x73, 0x2e, 0x74, 0x75, 0x70, 0x6c, 0x65, 0x22, 0x2c, 0x20, 0x22, 0x63, 0x6f, 0x6e, 0x74, 0x65, 0x78, 0x74, 0x22, 0x3a, 0x20, 0x22, 0x6e, 0x75, 0x6c, 0x6c, 0x22, 0x2c, 0x20, 0x22, 0x63, 
0x68, 0x69, 0x6c, 0x64, 0x72, 0x65, 0x6e, 0x5f, 0x73, 0x70, 0x65, 0x63, 0x22, 0x3a, 0x20, 0x5b, 0x7b, 0x22, 0x74, 0x79, 0x70, 0x65, 0x22, 0x3a, 0x20, 0x22, 0x62, 0x75, 0x69, 0x6c, 0x74, 0x69, 
0x6e, 0x73, 0x2e, 0x74, 0x75, 0x70, 0x6c, 0x65, 0x22, 0x2c, 0x20, 0x22, 0x63, 0x6f, 0x6e, 0x74, 0x65, 0x78, 0x74, 0x22, 0x3a, 0x20, 0x22, 0x6e, 0x75, 0x6c, 0x6c, 0x22, 0x2c, 0x20, 0x22, 0x63, 
0x68, 0x69, 0x6c, 0x64, 0x72, 0x65, 0x6e, 0x5f, 0x73, 0x70, 0x65, 0x63, 0x22, 0x3a, 0x20, 0x5b, 0x7b, 0x22, 0x74, 0x79, 0x70, 0x65, 0x22, 0x3a, 0x20, 0x6e, 0x75, 0x6c, 0x6c, 0x2c, 0x20, 0x22, 
0x63, 0x6f, 0x6e, 0x74, 0x65, 0x78, 0x74, 0x22, 0x3a, 0x20, 0x6e, 0x75, 0x6c, 0x6c, 0x2c, 0x20, 0x22, 0x63, 0x68, 0x69, 0x6c, 0x64, 0x72, 0x65, 0x6e, 0x5f, 0x73, 0x70, 0x65, 0x63, 0x22, 0x3a, 
0x20, 0x5b, 0x5d, 0x7d, 0x5d, 0x7d, 0x2c, 0x20, 0x7b, 0x22, 0x74, 0x79, 0x70, 0x65, 0x22, 0x3a, 0x20, 0x22, 0x62, 0x75, 0x69, 0x6c, 0x74, 0x69, 0x6e, 0x73, 0x2e, 0x64, 0x69, 0x63, 0x74, 0x22, 
0x2c, 0x20, 0x22, 0x63, 0x6f, 0x6e, 0x74, 0x65, 0x78, 0x74, 0x22, 0x3a, 0x20, 0x22, 0x5b, 0x5d, 0x22, 0x2c, 0x20, 0x22, 0x63, 0x68, 0x69, 0x6c, 0x64, 0x72, 0x65, 0x6e, 0x5f, 0x73, 0x70, 0x65, 
0x63, 0x22, 0x3a, 0x20, 0x5b, 0x5d, 0x7d, 0x5d, 0x7d, 0x5d, 0x00, 0x00, 0x07, 0x00, 0x00, 0x00, 0x66, 0x6f, 0x72, 0x77, 0x61, 0x72, 0x64, 0x00, 0x00, 0x00, 0x00, 0x00, 0x00, 0x00, 0x00, 0x00, 
0x00, 0x00, 0x00, 0x00, 0x00, 0x00, 0x00, 0x00, 0x00, 0x00, 0x00, 0x00, 0x00, 0x00, 0x00, 0x00, 0x00, 0x00, 0x00, 0x00, 0x00, 0x00, 0x00, 0x00, 0x00, 0x00, 0x00, 0x00, 0x00, 0x00, 0x00, 0x00, 
0x23, 0xdf, 0x86, 0x3d, 0xe1, 0x4f, 0x3d, 0x3d, 0x36, 0xd1, 0x1a, 0xbd, 0x9f, 0x00, 0xb8, 0x3d, 0xa0, 0x9e, 0xeb, 0xbc, 0x33, 0x5e, 0x41, 0x3d, 0x97, 0xb3, 0xff, 0x3b, 0x5e, 0x07, 0x14, 0xbd, 
0x33, 0xe6, 0x7f, 0xbc, 0xb9, 0x12, 0x6d, 0xbd, 0xe0, 0xba, 0x8f, 0x3d, 0x83, 0x78, 0x9e, 0x3d, 0x72, 0xb1, 0xae, 0xbd, 0x80, 0xa9, 0xf7, 0xbb, 0xef, 0x70, 0x73, 0x3d, 0x6c, 0x23, 0x0e, 0xbd, 
0xed, 0x7e, 0xaa, 0x3c, 0xbc, 0x6e, 0x44, 0x3d, 0x0f, 0x6c, 0x91, 0xbd, 0xa6, 0xc8, 0xb9, 0x3c, 0x34, 0x23, 0xc5, 0x3d, 0xdf, 0x46, 0x89, 0x3b, 0x82, 0x07, 0x82, 0xbd, 0xf1, 0x41, 0x0c, 0x3d, 
0x10, 0xd7, 0x0d, 0xbd, 0xcb, 0x90, 0xb9, 0xbc, 0x06, 0xb8, 0x6d, 0xbd, 0xa0, 0x08, 0xc2, 0xbd, 0x8d, 0x7a, 0x69, 0x3d, 0x7f, 0x03, 0x95, 0x3d, 0xf4, 0x0b, 0xa9, 0x3d, 0x7d, 0x8f, 0xc5, 0x3d, 
0x52, 0x55, 0x88, 0xbd, 0xf1, 0x6b, 0x99, 0x3c, 0x06, 0xf4, 0x68, 0xbd, 0x27, 0x15, 0x5e, 0x3d, 0x11, 0xcb, 0x45, 0xbd, 0xa7, 0x4d, 0x8d, 0xbd, 0xd9, 0x81, 0xd9, 0x3d, 0x86, 0xf1, 0x14, 0xbd, 
0xbf, 0x77, 0xd4, 0x3c, 0x06, 0xbd, 0x3b, 0xbd, 0x21, 0x17, 0x79, 0x3d, 0x04, 0x9e, 0x03, 0xbd, 0xb2, 0x41, 0xbc, 0xbc, 0xfb, 0xd2, 0x31, 0xbd, 0x80, 0x20, 0xb1, 0xbd, 0x93, 0x86, 0xb4, 0x3d, 
0x7e, 0x97, 0xa4, 0x3d, 0x94, 0x44, 0x08, 0xbd, 0x83, 0xf7, 0xc1, 0x3d, 0xc7, 0x17, 0xa2, 0xbd, 0xe3, 0x84, 0xaa, 0x3d, 0xd4, 0x66, 0x53, 0x3d, 0x6a, 0x4b, 0xf8, 0x3c, 0xdf, 0xc7, 0x16, 0xbd, 
0x6c, 0x45, 0xa2, 0x3c, 0xe0, 0x99, 0xb5, 0xbd, 0x33, 0xae, 0xad, 0x3d, 0xdc, 0xca, 0xc0, 0x3d, 0x3e, 0x07, 0x90, 0xbd, 0xe1, 0xe1, 0xa4, 0x3c, 0x41, 0x74, 0xd5, 0x3a, 0xf3, 0x85, 0xac, 0x3d, 
0xb9, 0x9c, 0xb8, 0x3c, 0x5d, 0x36, 0x56, 0x3d, 0x70, 0x02, 0x41, 0x3d, 0xd7, 0x7a, 0xa3, 0xbd, 0x88, 0x8c, 0xbf, 0x3d, 0x13, 0xda, 0x8c, 0x3d, 0xed, 0x38, 0x2c, 0xbd, 0x70, 0xbd, 0x9c, 0xbd, 
0xc9, 0xb1, 0xfb, 0x3c, 0x58, 0xf4, 0x7f, 0xbd, 0x6c, 0x8c, 0x40, 0x3d, 0xc8, 0xfc, 0x90, 0x3d, 0xf3, 0x5f, 0x64, 0x3d, 0x68, 0x19, 0xcb, 0xbd, 0xbc, 0x00, 0xd5, 0xbc, 0x73, 0x51, 0xc4, 0xbc, 
0xf6, 0x01, 0x88, 0xbd, 0xba, 0x0d, 0x17, 0xbd, 0x71, 0xb4, 0x18, 0xbd, 0x33, 0x0f, 0xad, 0x3c, 0xfd, 0x2c, 0xe6, 0x3c, 0xcf, 0xcb, 0x2c, 0xbd, 0x08, 0x17, 0x6f, 0xbc, 0x99, 0x4d, 0x21, 0xbb, 
0x47, 0x1d, 0x17, 0x3d, 0xdf, 0xf9, 0xa5, 0x3c, 0xe4, 0xa2, 0xe8, 0xbc, 0x8d, 0xf3, 0x4a, 0x3d, 0xc0, 0x0c, 0x8c, 0xbd, 0x6f, 0x47, 0x91, 0x3b, 0xaf, 0x88, 0x91, 0x3d, 0xf7, 0x56, 0x4b, 0x3d, 
0xfd, 0xb5, 0x45, 0x3d, 0x85, 0xe7, 0xd7, 0xbd, 0xcd, 0x37, 0x0c, 0xbd, 0x5a, 0x76, 0x7a, 0xbd, 0x58, 0x19, 0x3f, 0xbd, 0x08, 0x70, 0xaa, 0xbc, 0x9f, 0xf2, 0x11, 0xbd, 0x90, 0xa2, 0x5e, 0xbd, 
0x74, 0x21, 0x63, 0xbd, 0x4f, 0xbd, 0x29, 0xbd, 0xd5, 0xfc, 0x6f, 0x3a, 0xd8, 0x22, 0x8e, 0x3c, 0xba, 0x28, 0x81, 0x3c, 0xa2, 0x8f, 0x0c, 0xbd, 0x6f, 0xc7, 0xc0, 0x3d, 0xb1, 0x30, 0x0e, 0x3d, 
0x11, 0xfc, 0x24, 0x3c, 0x0c, 0x94, 0x10, 0x3c, 0xdf, 0x21, 0xa5, 0xbd, 0xc6, 0x6c, 0xd4, 0x3b, 0xa9, 0xa1, 0x82, 0x3d, 0xb4, 0x64, 0x90, 0xbc, 0x16, 0x94, 0x42, 0xbd, 0x4a, 0x0d, 0xa0, 0x3d, 
0x96, 0xe0, 0x78, 0xbd, 0x97, 0xee, 0x02, 0x3d, 0x98, 0x18, 0x65, 0x3c, 0xf8, 0x65, 0x58, 0xbd, 0x47, 0x3c, 0x0a, 0x3c, 0x22, 0x06, 0x9f, 0x3c, 0x52, 0xb0, 0x41, 0xbd, 0xb6, 0x29, 0x25, 0x3d, 
0x3e, 0xd1, 0x20, 0x3a, 0x7d, 0xd1, 0x25, 0x3d, 0xc7, 0x07, 0x54, 0xbd, 0xfa, 0x68, 0x4a, 0xbd, 0x92, 0x8c, 0x8a, 0xbd, 0xdb, 0x52, 0xeb, 0x3b, 0x74, 0xb4, 0x90, 0xbd, 0x96, 0x38, 0x3e, 0xbd, 
0x51, 0x76, 0x41, 0x3d, 0x37, 0x4f, 0xbf, 0xbd, 0x6b, 0x1f, 0x92, 0x3d, 0x2b, 0x4c, 0x1c, 0x3c, 0xe2, 0xa7, 0x07, 0xbd, 0xbf, 0x32, 0x55, 0xbb, 0x78, 0x0c, 0x53, 0xbd, 0x29, 0xd9, 0x6d, 0xbd, 
0x62, 0x56, 0x8d, 0xbd, 0x1d, 0x01, 0x3f, 0x3d, 0xa7, 0x4d, 0x9e, 0xbd, 0x49, 0xcb, 0x8f, 0x3d, 0xe9, 0x92, 0xb8, 0x3d, 0x33, 0x9d, 0x74, 0xbb, 0xbf, 0x22, 0xad, 0x3d, 0x36, 0xb4, 0x00, 0xbc, 
0x72, 0x66, 0x8e, 0xbd, 0xb9, 0x8a, 0x81, 0x3d, 0x52, 0x14, 0xba, 0xbd, 0x55, 0x38, 0xf8, 0x3d, 0x40, 0xaa, 0xb2, 0xbd, 0x6f, 0xd1, 0xe8, 0xbc, 0xff, 0xd0, 0xa8, 0xbc, 0xf5, 0x6a, 0x5f, 0x3d, 
0x04, 0x2e, 0x8b, 0xbd, 0x0b, 0x70, 0xc4, 0x3d, 0xb0, 0x2e, 0x81, 0xbc, 0xdc, 0xe2, 0x7c, 0xbd, 0x21, 0x2f, 0x66, 0x3d, 0xbc, 0xe1, 0x82, 0xbd, 0x34, 0x9e, 0xd5, 0x3d, 0x87, 0x15, 0x1d, 0xbd, 
0x7e, 0xba, 0x61, 0x3d, 0x58, 0xd6, 0x27, 0xb9, 0xf3, 0xc0, 0x39, 0xbc, 0xe3, 0x7f, 0x94, 0xbd, 0xcf, 0x92, 0x94, 0x3c, 0xea, 0x3f, 0xa6, 0x3d, 0x24, 0xa9, 0xb7, 0xbd, 0x10, 0xca, 0xa0, 0x3d, 
0xe6, 0xaa, 0x09, 0x3c, 0x9b, 0x49, 0x24, 0xbd, 0x3e, 0x5c, 0xa1, 0x3c, 0xd6, 0x25, 0x6a, 0x3d, 0x37, 0xf1, 0x64, 0x3d, 0xc2, 0x43, 0x5e, 0xbd, 0x44, 0xbe, 0xb5, 0xbd, 0xda, 0x35, 0xd9, 0x3c, 
0x37, 0x32, 0x83, 0xbd, 0x69, 0x19, 0x43, 0xbc, 0x43, 0x5f, 0x92, 0x3c, 0x4c, 0xd3, 0xac, 0x3d, 0x18, 0x62, 0x16, 0xbd, 0x89, 0x8a, 0xdf, 0x3d, 0xcc, 0x8a, 0x1f, 0xbc, 0xd6, 0x2d, 0xed, 0x3c, 
0xb7, 0x54, 0xe8, 0xb9, 0x51, 0x9e, 0xa5, 0xbd, 0xfa, 0x84, 0x92, 0x3d, 0xb5, 0x9c, 0xd2, 0x3d, 0x8f, 0xc0, 0x4f, 0xbc, 0xcb, 0x42, 0x5f, 0xbd, 0x17, 0xeb, 0x8a, 0xbd, 0x07, 0x3c, 0x73, 0x3c, 
0xe0, 0xfd, 0xc0, 0xbb, 0xe1, 0xa4, 0xa8, 0x3d, };
