__attribute__((section("network_model_sec"), aligned(16))) char model_pte[] = {
0x3c, 0x00, 0x00, 0x00, 0x45, 0x54, 0x31, 0x32, 0x65, 0x68, 0x30, 0x30, 0x18, 0x00, 0x00, 0x00, 0xb0, 0x05, 0x00, 0x00, 0x00, 0x00, 0x00, 0x00, 0x00, 0x06, 0x00, 0x00, 0x00, 0x00, 0x00, 0x00, 
0x00, 0x00, 0x00, 0x00, 0x00, 0x00, 0x00, 0x00, 0x00, 0x00, 0x00, 0x00, 0x10, 0x00, 0x18, 0x00, 0x00, 0x00, 0x04, 0x00, 0x08, 0x00, 0x0c, 0x00, 0x10, 0x00, 0x14, 0x00, 0x10, 0x00, 0x00, 0x00, 
0x64, 0x00, 0x00, 0x00, 0x5c, 0x00, 0x00, 0x00, 0x54, 0x00, 0x00, 0x00, 0x30, 0x00, 0x00, 0x00, 0x04, 0x00, 0x00, 0x00, 0xe0, 0xfe, 0xff, 0xff, 0x04, 0x00, 0x00, 0x00, 0x03, 0x00, 0x00, 0x00, 
0x00, 0x00, 0x00, 0x00, 0x00, 0x00, 0x00, 0x00, 0x00, 0x00, 0x00, 0x00, 0x00, 0x00, 0x00, 0x00, 0x80, 0x25, 0x00, 0x00, 0x00, 0x00, 0x00, 0x00, 0x00, 0x00, 0x00, 0x00, 0x01, 0x00, 0x00, 0x00, 
0x0c, 0x00, 0x00, 0x00, 0x08, 0x00, 0x10, 0x00, 0x00, 0x00, 0x04, 0x00, 0x08, 0x00, 0x00, 0x00, 0xbc, 0x25, 0x00, 0x00, 0x00, 0x00, 0x00, 0x00, 0x00, 0x00, 0x00, 0x00, 0x00, 0x00, 0x00, 0x00, 
0x00, 0x00, 0x00, 0x00, 0x01, 0x00, 0x00, 0x00, 0x1c, 0x00, 0x00, 0x00, 0x00, 0x00, 0x16, 0x00, 0x28, 0x00, 0x04, 0x00, 0x08, 0x00, 0x0c, 0x00, 0x10, 0x00, 0x14, 0x00, 0x18, 0x00, 0x1c, 0x00, 
0x20, 0x00, 0x24, 0x00, 0x16, 0x00, 0x00, 0x00, 0xdc, 0x04, 0x00, 0x00, 0x88, 0x03, 0x00, 0x00, 0xfc, 0x00, 0x00, 0x00, 0xf0, 0x00, 0x00, 0x00, 0xe4, 0x00, 0x00, 0x00, 0x60, 0x00, 0x00, 0x00, 
0x28, 0x00, 0x00, 0x00, 0x20, 0x00, 0x00, 0x00, 0x04, 0x00, 0x00, 0x00, 0x02, 0x00, 0x00, 0x00, 0x00, 0x00, 0x00, 0x00, 0x00, 0x00, 0x00, 0x00, 0xc0, 0x02, 0x00, 0x00, 0x00, 0x00, 0x00, 0x00, 
0x00, 0x00, 0x00, 0x00, 0x00, 0x00, 0x00, 0x00, 0x01, 0x00, 0x00, 0x00, 0x04, 0x00, 0x00, 0x00, 0xc4, 0xfc, 0xff, 0xff, 0x10, 0x00, 0x00, 0x00, 0x04, 0x00, 0x00, 0x00, 0x03, 0x00, 0x00, 0x00, 
0x6f, 0x75, 0x74, 0x00, 0x11, 0x00, 0x00, 0x00, 0x61, 0x74, 0x65, 0x6e, 0x3a, 0x3a, 0x63, 0x6f, 0x6e, 0x76, 0x6f, 0x6c, 0x75, 0x74, 0x69, 0x6f, 0x6e, 0x00, 0x00, 0x00, 0x01, 0x00, 0x00, 0x00, 
0x10, 0x00, 0x00, 0x00, 0x00, 0x00, 0x0a, 0x00, 0x10, 0x00, 0x04, 0x00, 0x08, 0x00, 0x0c, 0x00, 0x0a, 0x00, 0x00, 0x00, 0x64, 0x00, 0x00, 0x00, 0x5c, 0x00, 0x00, 0x00, 0x04, 0x00, 0x00, 0x00, 
0x01, 0x00, 0x00, 0x00, 0x04, 0x00, 0x00, 0x00, 0x6c, 0xfd, 0xff, 0xff, 0x00, 0x00, 0x00, 0x01, 0x0c, 0x00, 0x00, 0x00, 0x08, 0x00, 0x08, 0x00, 0x00, 0x00, 0x04, 0x00, 0x08, 0x00, 0x00, 0x00, 
0x04, 0x00, 0x00, 0x00, 0x0b, 0x00, 0x00, 0x00, 0x02, 0x00, 0x00, 0x00, 0x00, 0x00, 0x00, 0x00, 0x01, 0x00, 0x00, 0x00, 0x05, 0x00, 0x00, 0x00, 0x07, 0x00, 0x00, 0x00, 0x09, 0x00, 0x00, 0x00, 
0x0a, 0x00, 0x00, 0x00, 0x0c, 0x00, 0x00, 0x00, 0x0d, 0x00, 0x00, 0x00, 0x03, 0x00, 0x00, 0x00, 0x03, 0x00, 0x00, 0x00, 0x00, 0x00, 0x00, 0x00, 0x00, 0x00, 0x00, 0x00, 0x01, 0x00, 0x00, 0x00, 
0x03, 0x00, 0x00, 0x00, 0x01, 0x00, 0x00, 0x00, 0x02, 0x00, 0x00, 0x00, 0x0e, 0x00, 0x00, 0x00, 0x34, 0x02, 0x00, 0x00, 0xf8, 0x01, 0x00, 0x00, 0x98, 0x01, 0x00, 0x00, 0x34, 0x01, 0x00, 0x00, 
0x10, 0x01, 0x00, 0x00, 0xec, 0x00, 0x00, 0x00, 0xd4, 0x00, 0x00, 0x00, 0xac, 0x00, 0x00, 0x00, 0x90, 0x00, 0x00, 0x00, 0x6c, 0x00, 0x00, 0x00, 0x58, 0x00, 0x00, 0x00, 0x44, 0x00, 0x00, 0x00, 
0x20, 0x00, 0x00, 0x00, 0x04, 0x00, 0x00, 0x00, 0x0c, 0xfe, 0xff, 0xff, 0x00, 0x00, 0x00, 0x02, 0x04, 0x00, 0x00, 0x00, 0x16, 0xff, 0xff, 0xff, 0x01, 0x00, 0x00, 0x00, 0x00, 0x00, 0x00, 0x00, 
0x24, 0xfe, 0xff, 0xff, 0x00, 0x00, 0x00, 0x07, 0x04, 0x00, 0x00, 0x00, 0x86, 0xfe, 0xff, 0xff, 0x04, 0x00, 0x00, 0x00, 0x01, 0x00, 0x00, 0x00, 0x0b, 0x00, 0x00, 0x00, 0x00, 0x00, 0x00, 0x00, 
0x44, 0xfe, 0xff, 0xff, 0x00, 0x00, 0x00, 0x02, 0x04, 0x00, 0x00, 0x00, 0x84, 0xff, 0xff, 0xff, 0x54, 0xfe, 0xff, 0xff, 0x00, 0x00, 0x00, 0x03, 0x04, 0x00, 0x00, 0x00, 0x94, 0xff, 0xff, 0xff, 
0x64, 0xfe, 0xff, 0xff, 0x00, 0x00, 0x00, 0x07, 0x04, 0x00, 0x00, 0x00, 0xc6, 0xfe, 0xff, 0xff, 0x04, 0x00, 0x00, 0x00, 0x01, 0x00, 0x00, 0x00, 0x08, 0x00, 0x00, 0x00, 0x00, 0x00, 0x00, 0x00, 
0x84, 0xfe, 0xff, 0xff, 0x00, 0x00, 0x00, 0x02, 0x04, 0x00, 0x00, 0x00, 0x8e, 0xff, 0xff, 0xff, 0x01, 0x00, 0x00, 0x00, 0x00, 0x00, 0x00, 0x00, 0x9c, 0xfe, 0xff, 0xff, 0x00, 0x00, 0x00, 0x07, 
0x04, 0x00, 0x00, 0x00, 0xfe, 0xfe, 0xff, 0xff, 0x04, 0x00, 0x00, 0x00, 0x01, 0x00, 0x00, 0x00, 0x06, 0x00, 0x00, 0x00, 0x00, 0x00, 0x00, 0x00, 0x00, 0x00, 0x00, 0x00, 0xc0, 0xfe, 0xff, 0xff, 
0x00, 0x00, 0x00, 0x02, 0x08, 0x00, 0x00, 0x00, 0x04, 0x00, 0x04, 0x00, 0x04, 0x00, 0x00, 0x00, 0xd4, 0xfe, 0xff, 0xff, 0x00, 0x00, 0x00, 0x07, 0x04, 0x00, 0x00, 0x00, 0x36, 0xff, 0xff, 0xff, 
0x04, 0x00, 0x00, 0x00, 0x01, 0x00, 0x00, 0x00, 0x04, 0x00, 0x00, 0x00, 0x00, 0x00, 0x00, 0x00, 0x88, 0xff, 0xff, 0xff, 0x00, 0x00, 0x00, 0x02, 0x0c, 0x00, 0x00, 0x00, 0x00, 0x00, 0x06, 0x00, 
0x0c, 0x00, 0x04, 0x00, 0x06, 0x00, 0x00, 0x00, 0x01, 0x00, 0x00, 0x00, 0x00, 0x00, 0x00, 0x00, 0xa8, 0xff, 0xff, 0xff, 0x00, 0x00, 0x00, 0x05, 0x18, 0x00, 0x00, 0x00, 0x00, 0x00, 0x12, 0x00, 
0x14, 0x00, 0x06, 0x00, 0x00, 0x00, 0x08, 0x00, 0x0c, 0x00, 0x07, 0x00, 0x00, 0x00, 0x10, 0x00, 0x12, 0x00, 0x00, 0x00, 0x00, 0x00, 0x06, 0x01, 0x20, 0x00, 0x00, 0x00, 0x14, 0x00, 0x00, 0x00, 
0x04, 0x00, 0x00, 0x00, 0xf8, 0xfe, 0xff, 0xff, 0x01, 0x00, 0x00, 0x00, 0x80, 0x02, 0x00, 0x00, 0x03, 0x00, 0x00, 0x00, 0x00, 0x01, 0x02, 0x00, 0x03, 0x00, 0x00, 0x00, 0x01, 0x00, 0x00, 0x00, 
0x0f, 0x00, 0x00, 0x00, 0x01, 0x00, 0x00, 0x00, 0x08, 0x00, 0x0e, 0x00, 0x07, 0x00, 0x08, 0x00, 0x08, 0x00, 0x00, 0x00, 0x00, 0x00, 0x00, 0x05, 0x18, 0x00, 0x00, 0x00, 0x00, 0x00, 0x12, 0x00, 
0x16, 0x00, 0x07, 0x00, 0x00, 0x00, 0x08, 0x00, 0x0c, 0x00, 0x00, 0x00, 0x00, 0x00, 0x10, 0x00, 0x12, 0x00, 0x00, 0x00, 0x00, 0x00, 0x00, 0x06, 0x24, 0x00, 0x00, 0x00, 0x18, 0x00, 0x00, 0x00, 
0x0c, 0x00, 0x00, 0x00, 0x00, 0x00, 0x06, 0x00, 0x08, 0x00, 0x04, 0x00, 0x06, 0x00, 0x00, 0x00, 0x01, 0x00, 0x00, 0x00, 0x03, 0x00, 0x00, 0x00, 0x00, 0x01, 0x02, 0x00, 0x03, 0x00, 0x00, 0x00, 
0x01, 0x00, 0x00, 0x00, 0x10, 0x00, 0x00, 0x00, 0x0a, 0x00, 0x00, 0x00, 0xd0, 0xff, 0xff, 0xff, 0x00, 0x00, 0x00, 0x05, 0x04, 0x00, 0x00, 0x00, 0xc8, 0xff, 0xff, 0xff, 0x00, 0x00, 0x06, 0x01, 
0x14, 0x00, 0x00, 0x00, 0x08, 0x00, 0x00, 0x00, 0x02, 0x00, 0x00, 0x00, 0x01, 0x00, 0x00, 0x00, 0x00, 0x00, 0x00, 0x00, 0x01, 0x00, 0x00, 0x00, 0x0f, 0x00, 0x00, 0x00, 0x08, 0x00, 0x0c, 0x00, 
0x07, 0x00, 0x08, 0x00, 0x08, 0x00, 0x00, 0x00, 0x00, 0x00, 0x00, 0x05, 0x14, 0x00, 0x00, 0x00, 0x10, 0x00, 0x14, 0x00, 0x06, 0x00, 0x00, 0x00, 0x08, 0x00, 0x0c, 0x00, 0x07, 0x00, 0x10, 0x00, 
0x10, 0x00, 0x00, 0x00, 0x00, 0x00, 0x06, 0x01, 0x14, 0x00, 0x00, 0x00, 0x08, 0x00, 0x00, 0x00, 0x01, 0x00, 0x00, 0x00, 0x03, 0x00, 0x00, 0x00, 0x00, 0x01, 0x02, 0x00, 0x03, 0x00, 0x00, 0x00, 
0x0f, 0x00, 0x00, 0x00, 0x10, 0x00, 0x00, 0x00, 0x0a, 0x00, 0x00, 0x00, 0x08, 0x00, 0x0c, 0x00, 0x04, 0x00, 0x08, 0x00, 0x08, 0x00, 0x00, 0x00, 0x48, 0x00, 0x00, 0x00, 0x04, 0x00, 0x00, 0x00, 
0x39, 0x00, 0x00, 0x00, 0x5b, 0x31, 0x2c, 0x20, 0x7b, 0x22, 0x74, 0x79, 0x70, 0x65, 0x22, 0x3a, 0x20, 0x6e, 0x75, 0x6c, 0x6c, 0x2c, 0x20, 0x22, 0x63, 0x6f, 0x6e, 0x74, 0x65, 0x78, 0x74, 0x22, 
0x3a, 0x20, 0x6e, 0x75, 0x6c, 0x6c, 0x2c, 0x20, 0x22, 0x63, 0x68, 0x69, 0x6c, 0x64, 0x72, 0x65, 0x6e, 0x5f, 0x73, 0x70, 0x65, 0x63, 0x22, 0x3a, 0x20, 0x5b, 0x5d, 0x7d, 0x5d, 0x00, 0x00, 0x00, 
0xfe, 0x00, 0x00, 0x00, 0x5b, 0x31, 0x2c, 0x20, 0x7b, 0x22, 0x74, 0x79, 0x70, 0x65, 0x22, 0x3a, 0x20, 0x22, 0x62, 0x75, 0x69, 0x6c, 0x74, 0x69, 0x6e, 0x73, 0x2e, 0x74, 0x75, 0x70, 0x6c, 0x65, 
0x22, 0x2c, 0x20, 0x22, 0x63, 0x6f, 0x6e, 0x74, 0x65, 0x78, 0x74, 0x22, 0x3a, 0x20, 0x22, 0x6e, 0x75, 0x6c, 0x6c, 0x22, 0x2c, 0x20, 0x22, 0x63, 0x68, 0x69, 0x6c, 0x64, 0x72, 0x65, 0x6e, 0x5f, 
0x73, 0x70, 0x65, 0x63, 0x22, 0x3a, 0x20, 0x5b, 0x7b, 0x22, 0x74, 0x79, 0x70, 0x65, 0x22, 0x3a, 0x20, 0x22, 0x62, 0x75, 0x69, 0x6c, 0x74, 0x69, 0x6e, 0x73, 0x2e, 0x74, 0x75, 0x70, 0x6c, 0x65, 
0x22, 0x2c, 0x20, 0x22, 0x63, 0x6f, 0x6e, 0x74, 0x65, 0x78, 0x74, 0x22, 0x3a, 0x20, 0x22, 0x6e, 0x75, 0x6c, 0x6c, 0x22, 0x2c, 0x20, 0x22, 0x63, 0x68, 0x69, 0x6c, 0x64, 0x72, 0x65, 0x6e, 0x5f, 
0x73, 0x70, 0x65, 0x63, 0x22, 0x3a, 0x20, 0x5b, 0x7b, 0x22, 0x74, 0x79, 0x70, 0x65, 0x22, 0x3a, 0x20, 0x6e, 0x75, 0x6c, 0x6c, 0x2c, 0x20, 0x22, 0x63, 0x6f, 0x6e, 0x74, 0x65, 0x78, 0x74, 0x22, 
0x3a, 0x20, 0x6e, 0x75, 0x6c, 0x6c, 0x2c, 0x20, 0x22, 0x63, 0x68, 0x69, 0x6c, 0x64, 0x72, 0x65, 0x6e, 0x5f, 0x73, 0x70, 0x65, 0x63, 0x22, 0x3a, 0x20, 0x5b, 0x5d, 0x7d, 0x5d, 0x7d, 0x2c, 0x20, 
0x7b, 0x22, 0x74, 0x79, 0x70, 0x65, 0x22, 0x3a, 0x20, 0x22, 0x62, 0x75, 0x69, 0x6c, 0x74, 0x69, 0x6e, 0x73, 0x2e, 0x64, 0x69, 0x63, 0x74, 0x22, 0x2c, 0x20, 0x22, 0x63, 0x6f, 0x6e, 0x74, 0x65, 
0x78, 0x74, 0x22, 0x3a, 0x20, 0x22, 0x5b, 0x5d, 0x22, 0x2c, 0x20, 0x22, 0x63, 0x68, 0x69, 0x6c, 0x64, 0x72, 0x65, 0x6e, 0x5f, 0x73, 0x70, 0x65, 0x63, 0x22, 0x3a, 0x20, 0x5b, 0x5d, 0x7d, 0x5d, 
0x7d, 0x5d, 0x00, 0x00, 0x07, 0x00, 0x00, 0x00, 0x66, 0x6f, 0x72, 0x77, 0x61, 0x72, 0x64, 0x00, 0x00, 0x00, 0x00, 0x00, 0x00, 0x00, 0x00, 0x00, 0x00, 0x00, 0x00, 0x00, 0x00, 0x00, 0x00, 0x00, 
0x00, 0x00, 0x00, 0x00, 0x00, 0x00, 0x00, 0x00, 0x00, 0x00, 0x00, 0x00, 0x00, 0x00, 0x00, 0x00, 0x00, 0x00, 0x00, 0x00, 0x00, 0x00, 0x00, 0x00, 0x00, 0x00, 0x00, 0x00, 0x00, 0x00, 0x00, 0x00, 
0x00, 0x00, 0x00, 0x00, 0x00, 0x00, 0x00, 0x00, 0x00, 0x00, 0x00, 0x00, 0x00, 0x00, 0x00, 0x00, 0x00, 0x00, 0x00, 0x00, 0x00, 0x00, 0x00, 0x00, 0x00, 0x00, 0x00, 0x00, 0x00, 0x00, 0x00, 0x00, 
0xf7, 0x43, 0xf2, 0x3c, 0xdc, 0xc4, 0x04, 0x3d, 0xf4, 0xa8, 0x33, 0xbd, 0x43, 0x2c, 0x2b, 0xbd, 0x69, 0xaf, 0xb0, 0xbd, 0x04, 0x78, 0x63, 0xbd, 0x80, 0xdc, 0x17, 0xbd, 0x83, 0x64, 0x21, 0x3b, 
0xef, 0xd4, 0x86, 0x3d, 0xd1, 0x5d, 0x85, 0xbd, 0x09, 0x48, 0x97, 0xbd, 0x71, 0x56, 0x87, 0x3d, 0xc0, 0x1b, 0x59, 0x3d, 0xd4, 0x21, 0xb3, 0xbc, 0x74, 0x4c, 0x6c, 0xbd, 0xf2, 0xa6, 0x1e, 0xbd, 
0x8c, 0x9d, 0x7f, 0xbd, 0xbd, 0x6e, 0x1a, 0x3d, 0xa7, 0x19, 0x54, 0x3d, 0x6a, 0xce, 0x0d, 0xbc, 0xb6, 0xc9, 0x21, 0xbd, 0xa0, 0xce, 0x63, 0xbd, 0xfa, 0x51, 0x93, 0x3d, 0x1c, 0xb1, 0x07, 0xbd, 
0x02, 0x52, 0x93, 0xbc, 0x0e, 0x93, 0x95, 0x3c, 0x9e, 0x81, 0x2f, 0x3c, 0x0e, 0xc6, 0x31, 0xbd, 0xa9, 0x2c, 0x54, 0xbd, 0xd8, 0xa9, 0x78, 0x3c, 0x68, 0xbe, 0x9e, 0x3d, 0xdf, 0x97, 0x34, 0xbd, 
0xb1, 0xf3, 0x88, 0xbd, 0x9a, 0xad, 0x18, 0xbd, 0x00, 0x44, 0x48, 0xbd, 0x80, 0xb8, 0x78, 0xbc, 0x61, 0x23, 0x74, 0x3d, 0xeb, 0x6d, 0x03, 0x3d, 0xff, 0x2a, 0x87, 0xbd, 0x68, 0xb7, 0xa8, 0xbc, 
0xa3, 0xd2, 0xea, 0xbc, 0x10, 0xb6, 0x2e, 0x3d, 0xef, 0xbf, 0xf9, 0xbc, 0xcb, 0x7f, 0x5f, 0xbd, 0x10, 0x68, 0x32, 0xbd, 0x82, 0x2e, 0x6c, 0xbc, 0x86, 0x71, 0x0d, 0x3d, 0x1f, 0xf5, 0xc0, 0xba, 
0xd7, 0xe6, 0x45, 0xbc, 0x48, 0xb8, 0x92, 0x3d, 0x70, 0x9b, 0x70, 0x3d, 0x4b, 0x58, 0x4b, 0xbd, 0xc6, 0xc2, 0x84, 0x3c, 0x32, 0x61, 0x63, 0xbd, 0x32, 0x94, 0x6d, 0xbd, 0xf8, 0x01, 0x26, 0x3d, 
0x46, 0x5c, 0xe3, 0x3c, 0xdc, 0xa0, 0xe4, 0x3b, 0xb8, 0xcf, 0x09, 0xbd, 0x6b, 0xeb, 0x56, 0xbd, 0x8f, 0xd3, 0x5b, 0x3d, 0xf2, 0x0f, 0x3e, 0xbd, 0x60, 0x4e, 0x1f, 0x3b, 0x59, 0x76, 0xe2, 0xbc, 
0xfa, 0x47, 0x8d, 0xbd, 0x9e, 0x80, 0x7f, 0xbc, 0xc6, 0x34, 0x9f, 0x3c, 0xd9, 0xb8, 0xb7, 0x3d, 0x26, 0x1e, 0x87, 0xbd, 0x78, 0x19, 0x5f, 0x3d, 0xb1, 0xaf, 0xaf, 0x3b, 0x1e, 0x50, 0xa5, 0xbd, 
0x33, 0x99, 0x16, 0x3d, 0xd0, 0x92, 0x88, 0xbd, 0x39, 0x4f, 0xa5, 0xbd, 0xf1, 0xd6, 0x6e, 0xbd, 0x93, 0x5d, 0xb7, 0x3d, 0x1b, 0x7b, 0x86, 0xbc, 0xab, 0xf6, 0xb1, 0x3c, 0xeb, 0x39, 0xdc, 0x3c, 
0xc5, 0xd9, 0x9a, 0x3d, 0xe8, 0x8c, 0x9e, 0xbc, 0x77, 0x77, 0x0c, 0x3d, 0x09, 0xbe, 0x4d, 0xbc, 0x02, 0x6d, 0x44, 0xbd, 0x82, 0x5e, 0xa5, 0x3d, 0x30, 0xc2, 0x34, 0x3d, 0x95, 0x4f, 0x7e, 0xbd, 
0xbf, 0x59, 0x2c, 0x3d, 0x63, 0x5e, 0x7c, 0x3d, 0xa5, 0xf9, 0x3e, 0x3c, 0x34, 0x83, 0x0f, 0x3c, 0x8d, 0xb5, 0x40, 0xbd, 0xd4, 0xa6, 0x04, 0xbd, 0x7b, 0x99, 0xa5, 0xbd, 0x1a, 0x03, 0xc7, 0xbc, 
0x72, 0xdd, 0x8c, 0x3d, 0x48, 0x6e, 0x98, 0x3d, 0xee, 0x18, 0x4e, 0xbd, 0xbf, 0x16, 0xd8, 0x3b, 0x10, 0x4e, 0x08, 0x3b, 0xd6, 0x40, 0x52, 0x3d, 0x3e, 0xe3, 0x3b, 0xbc, 0xa5, 0x88, 0x93, 0xbd, 
0x7f, 0x23, 0xac, 0x3d, 0x65, 0xee, 0x6c, 0x3d, 0x5c, 0x09, 0x95, 0xbc, 0x1b, 0x77, 0x45, 0xbd, 0xf3, 0x20, 0x84, 0x3c, 0x37, 0x77, 0x61, 0x3d, 0x2a, 0x65, 0xa6, 0xbc, 0xd3, 0x10, 0x49, 0xbd, 
0xb2, 0xda, 0x99, 0xba, 0x21, 0x02, 0x50, 0xbd, 0x08, 0xcc, 0xc4, 0xbd, 0x31, 0x6e, 0x87, 0x3d, 0x80, 0x85, 0x88, 0xbc, 0xfd, 0x15, 0x8b, 0x3d, 0xf6, 0x80, 0x07, 0xbd, 0x73, 0x93, 0xa8, 0x3d, 
0x6e, 0x1e, 0x78, 0xbd, 0xc3, 0x4e, 0x39, 0xbd, 0x7b, 0xa0, 0x95, 0xbd, 0xf9, 0x9f, 0xca, 0x3a, 0x56, 0x68, 0x91, 0xbd, 0xb1, 0xee, 0x6c, 0x3d, 0x0b, 0x6b, 0x4c, 0x3d, 0x8a, 0x5c, 0x15, 0xbd, 
0x59, 0x56, 0x72, 0x3d, 0xe1, 0x51, 0x70, 0xbd, 0xf5, 0xb2, 0x6e, 0xbc, 0xe5, 0x0a, 0x8b, 0xbd, 0xca, 0xd2, 0xb1, 0x3d, 0x0a, 0x45, 0x11, 0xbd, 0xaf, 0xd5, 0xa6, 0xbd, 0xd1, 0x7c, 0xa8, 0x3d, 
0xff, 0xe6, 0xbd, 0x3c, 0x39, 0x85, 0x81, 0xbc, 0xc7, 0x12, 0xe1, 0xbc, 0x72, 0x78, 0x3a, 0xbd, 0x05, 0xbc, 0x36, 0x3d, 0x8e, 0x19, 0x84, 0x3d, 0x5d, 0x60, 0x1b, 0x3d, 0xab, 0xd0, 0xb4, 0xbc, 
0xa1, 0x8c, 0x42, 0xbd, 0x43, 0x4b, 0x3d, 0xbd, 0xd2, 0xef, 0xba, 0xbc, 0x8a, 0x01, 0x53, 0x3d, 0xb1, 0x86, 0x43, 0xbc, 0x6c, 0xd3, 0x3a, 0x3d, 0x37, 0xe2, 0xd0, 0x3b, 0xa3, 0xd5, 0x90, 0xbd, 
0xc3, 0x89, 0xf0, 0xbc, 0xec, 0xcd, 0x84, 0xbd, 0xd2, 0x40, 0xd7, 0x3c, 0x7b, 0x78, 0x2b, 0x3b, 0x25, 0x60, 0x12, 0xbd, 0x5a, 0x8a, 0x8b, 0xbd, 0x00, 0x24, 0x30, 0x3d, 0x9f, 0x2d, 0x99, 0xbd, 
0x95, 0xbf, 0x30, 0xbc, 0xe7, 0x95, 0xcb, 0x3c, 0xca, 0x81, 0x56, 0xbc, 0xc1, 0xe7, 0xac, 0x3c, 0x8b, 0xa3, 0x0f, 0xbd, 0x50, 0x04, 0xa7, 0x3b, 0xdc, 0x6f, 0x88, 0x3d, 0x92, 0xda, 0x88, 0xbc, 
0xe8, 0x49, 0x38, 0x3d, 0x20, 0x2b, 0x92, 0x3d, 0xa0, 0xf6, 0xd4, 0xbc, 0xcb, 0xdd, 0xbb, 0x3c, 0xe3, 0xf4, 0x83, 0x3d, 0x57, 0x0e, 0x84, 0xbd, 0x93, 0x36, 0x79, 0xbc, 0x90, 0x11, 0x0d, 0xbd, 
0x30, 0x8d, 0xd2, 0x3c, 0x79, 0x4b, 0xd8, 0xbc, 0x1d, 0x4f, 0x87, 0xbd, 0xb0, 0x32, 0x2d, 0x3c, 0xf6, 0x20, 0x6f, 0x3d, 0x37, 0x42, 0x64, 0xbc, 0xae, 0x9d, 0x4f, 0xbc, 0x8b, 0x11, 0x2a, 0xbd, 
0xfe, 0xd1, 0x89, 0x3d, 0xec, 0xb0, 0x26, 0xbd, 0xa0, 0x6c, 0x80, 0x3d, 0xac, 0x61, 0x70, 0x3c, 0x28, 0xd9, 0x9c, 0x3c, 0x05, 0x8f, 0x3e, 0xbd, 0x6a, 0x7b, 0x02, 0x3d, 0x5b, 0x2f, 0x1e, 0xbd, 
0x51, 0xb6, 0xac, 0x3d, 0x9e, 0xfd, 0x11, 0x3d, 0x67, 0xc5, 0x92, 0x3d, 0x9a, 0x26, 0x0a, 0xbc, 0x88, 0xd2, 0xe7, 0xbc, 0x98, 0x67, 0x2b, 0xbd, 0xaa, 0x0c, 0xfd, 0x3c, 0x31, 0xcd, 0x87, 0x3c, 
0xf9, 0x38, 0xe5, 0x3a, 0xcf, 0xb1, 0x8a, 0xbd, 0xe9, 0x9f, 0x39, 0x3d, 0x4a, 0x5f, 0x5f, 0xbd, 0xda, 0x0d, 0x85, 0x3d, 0x8f, 0xe8, 0xd6, 0x3b, 0x11, 0x1a, 0x84, 0x3d, 0xe9, 0x78, 0x84, 0xba, 
0xf6, 0x4d, 0xa5, 0x3a, 0xc4, 0x27, 0x9a, 0xbd, 0x72, 0x0b, 0x2c, 0x3d, 0x61, 0x8b, 0xe6, 0xbc, 0x51, 0xd3, 0x67, 0xbd, 0x83, 0xac, 0x9e, 0x3c, 0x13, 0xd9, 0x8f, 0x3d, 0xda, 0xc0, 0xd7, 0xbc, 
0x98, 0x63, 0x7f, 0xbd, 0x74, 0xa9, 0xf7, 0x3b, 0x40, 0x7c, 0xee, 0xbc, 0x0a, 0x42, 0x3d, 0xbd, 0x79, 0x23, 0x0d, 0x3d, 0x5b, 0x92, 0x05, 0x3d, 0xc0, 0x96, 0x9b, 0x3b, 0xc1, 0x55, 0x61, 0xbd, 
0xd3, 0xd1, 0x28, 0xbd, 0x57, 0xfb, 0x2e, 0x3c, 0x28, 0x05, 0x6f, 0xbd, 0x8b, 0x58, 0xac, 0x3c, 0x7c, 0xd8, 0x35, 0xbd, 0x27, 0xa0, 0xa6, 0xbd, 0xba, 0x54, 0x59, 0x3c, 0x11, 0xf9, 0x49, 0xbb, 
0x28, 0x43, 0x00, 0x3c, 0x12, 0xa5, 0x6b, 0x3d, 0xd6, 0x08, 0xed, 0xbb, 0xb0, 0x47, 0xb2, 0xbd, 0x1c, 0xfe, 0xb5, 0xbb, 0x5e, 0xd3, 0x94, 0x3d, 0x23, 0x3e, 0x54, 0xbc, 0x21, 0xb9, 0x4d, 0x3d, 
0x6f, 0x66, 0x8f, 0xbd, 0x3d, 0xab, 0xe3, 0xbc, 0xba, 0xd8, 0x81, 0x3d, 0x92, 0xef, 0x97, 0xb8, 0xee, 0x44, 0x3d, 0x3d, 0xaa, 0xe0, 0x9c, 0x3b, 0x62, 0xd1, 0x73, 0x3d, 0xc6, 0xa5, 0x8e, 0xbd, 
0xa8, 0x56, 0x6a, 0x3c, 0x2a, 0x5b, 0x7e, 0x3b, 0x2f, 0xa1, 0x99, 0x3d, 0x31, 0x6d, 0x02, 0x3d, 0x4d, 0x42, 0x4b, 0xbd, 0xbf, 0x4c, 0x7c, 0x3c, 0x7d, 0xdf, 0x4c, 0xbd, 0x1b, 0x26, 0xa7, 0xbc, 
0xc5, 0xc7, 0x92, 0xbd, 0xb8, 0xa1, 0x06, 0x3b, 0xc2, 0x13, 0x49, 0x3c, 0x95, 0x9b, 0x8c, 0xbd, 0xcc, 0xf3, 0x8d, 0x3d, 0xcd, 0x0b, 0x9e, 0xbb, 0xab, 0x50, 0x17, 0xbd, 0xf3, 0xc6, 0x6b, 0xbc, 
0xbd, 0xa3, 0xa8, 0x3c, 0x29, 0x3d, 0x98, 0xbd, 0xb3, 0x79, 0x28, 0x3d, 0x02, 0x79, 0xa8, 0x3a, 0x10, 0x61, 0x79, 0xbc, 0x4f, 0x6a, 0x82, 0xbd, 0x29, 0x57, 0x6a, 0x3c, 0x0b, 0x9f, 0x8c, 0x3c, 
0x65, 0x40, 0xf2, 0x3c, 0x89, 0xe4, 0x5b, 0x3c, 0xce, 0x4f, 0x7b, 0x3d, 0xe1, 0xe5, 0x07, 0xbd, 0xe2, 0x99, 0xd8, 0x3c, 0x97, 0xc9, 0xf3, 0xbc, 0x1a, 0x67, 0x44, 0xbb, 0xa7, 0x01, 0x72, 0xbc, 
0xe5, 0x85, 0x8e, 0xbd, 0x7c, 0x14, 0x8a, 0xbc, 0xc7, 0x24, 0x8d, 0x3d, 0x33, 0x13, 0xd4, 0xbc, 0x26, 0xb9, 0x7f, 0xbd, 0x40, 0xe5, 0x0f, 0x3d, 0x12, 0x35, 0x2d, 0xbd, 0xfb, 0x1c, 0x60, 0xbd, 
0xf1, 0x5c, 0x90, 0xbd, 0x39, 0x09, 0xce, 0x3c, 0x62, 0xdb, 0x9e, 0x3c, 0x71, 0xbd, 0x55, 0xbd, 0xc4, 0x28, 0x36, 0x3d, 0x64, 0xe2, 0x7d, 0xbd, 0xc4, 0x3d, 0x05, 0x3d, 0xaf, 0x24, 0x85, 0x3d, 
0xa5, 0x42, 0xa9, 0xbc, 0x8f, 0x8b, 0x0d, 0xbd, 0x29, 0xf6, 0x3b, 0xbc, 0x51, 0x04, 0x68, 0xbd, 0xf7, 0xd4, 0x46, 0x3b, 0x92, 0xd1, 0x1e, 0xbc, 0xc8, 0xd3, 0x8e, 0xbd, 0xab, 0x14, 0x97, 0xbd, 
0x00, 0xc2, 0x02, 0xbd, 0xd7, 0x26, 0x80, 0xbd, 0x27, 0xf4, 0x66, 0xbd, 0x22, 0x53, 0x53, 0x3b, 0x33, 0x53, 0x77, 0xbc, 0x36, 0x2c, 0xa2, 0x3c, 0xe8, 0x46, 0x13, 0xbd, 0x2d, 0x3a, 0x7b, 0x3d, 
0x0a, 0xa1, 0x81, 0x3d, 0x8f, 0x6a, 0x4d, 0x3d, 0x88, 0xd8, 0xba, 0x3c, 0x92, 0xba, 0x11, 0x3d, 0xcb, 0x9a, 0x7b, 0xbd, 0x9c, 0x06, 0x87, 0x3d, 0x83, 0x60, 0x95, 0x39, 0x2d, 0x21, 0x88, 0x3d, 
0x90, 0xaf, 0xd1, 0xbc, 0xdb, 0xf5, 0x99, 0x3c, 0xda, 0x74, 0x06, 0x3d, 0xe3, 0x06, 0x38, 0x3d, 0x28, 0x41, 0x59, 0x3c, 0xf3, 0x35, 0x1f, 0x3d, 0xf7, 0xd1, 0x1b, 0x3d, 0x6e, 0xa4, 0xa8, 0xbc, 
0x35, 0x44, 0xcf, 0xbc, 0x10, 0x80, 0x90, 0xbd, 0x47, 0x98, 0x23, 0x39, 0xb5, 0x7e, 0x01, 0x3c, 0x93, 0xe5, 0x7b, 0x3d, 0x68, 0xae, 0x8c, 0x3d, 0x0d, 0x26, 0x5b, 0x3d, 0x2a, 0xd4, 0xc4, 0xbc, 
0x6d, 0xe8, 0xba, 0xb9, 0xe5, 0x76, 0x8e, 0x3b, 0x2e, 0x0d, 0x85, 0xbd, 0x86, 0x8f, 0x81, 0x3d, 0x07, 0x25, 0xf5, 0xbb, 0x18, 0xde, 0x27, 0x3d, 0xe4, 0x45, 0x2c, 0xbd, 0x3b, 0x16, 0x96, 0x3c, 
0x5b, 0xf0, 0x80, 0x3d, 0x16, 0x3f, 0x97, 0x3d, 0x95, 0x44, 0x29, 0xbd, 0x1c, 0x0b, 0x2b, 0xbd, 0x0b, 0x42, 0x2c, 0x3d, 0xda, 0xb2, 0xa8, 0x3d, 0xa2, 0x86, 0x8f, 0x3d, 0x99, 0xa7, 0xdc, 0x3c, 
0x95, 0xda, 0x80, 0x3d, 0x78, 0xe6, 0xeb, 0x3b, 0x80, 0x6d, 0x83, 0xbc, 0xd1, 0x98, 0x8f, 0x3d, 0xfa, 0x7d, 0xf4, 0x3c, 0xb3, 0x4f, 0x09, 0x3c, 0x35, 0x09, 0x06, 0xbd, 0x59, 0x59, 0x94, 0xbc, 
0xfb, 0x39, 0x9b, 0x3d, 0x26, 0x59, 0x41, 0xbd, 0x69, 0x88, 0xee, 0xbb, 0x27, 0xe6, 0x2d, 0x3d, 0xd4, 0x56, 0x6d, 0xbc, 0x25, 0x78, 0x8c, 0x3c, 0x14, 0xa8, 0x15, 0xbd, 0x7e, 0x5b, 0x68, 0xbd, 
0xf8, 0xfa, 0x83, 0x3d, 0x2d, 0xe0, 0x85, 0xbd, 0xd8, 0xc5, 0x91, 0xbd, 0x74, 0xd8, 0x14, 0xbc, 0x45, 0x6b, 0x83, 0x3d, 0xd5, 0xcd, 0x15, 0xbd, 0x1f, 0x5c, 0x6b, 0x3d, 0x32, 0x3b, 0x48, 0xbd, 
0x9c, 0x92, 0xb6, 0xbc, 0x2d, 0x75, 0x22, 0xbd, 0x57, 0x9d, 0x1c, 0x3d, 0x0c, 0xda, 0x05, 0x3c, 0xa1, 0x95, 0x7c, 0xbd, 0x24, 0xe7, 0x9b, 0xbc, 0xe1, 0x85, 0x52, 0xbd, 0xc4, 0x45, 0x3d, 0x3d, 
0x8e, 0x63, 0x11, 0x3d, 0x96, 0x59, 0x3e, 0x3d, 0x3b, 0xda, 0x81, 0x3d, 0x58, 0xc1, 0x83, 0xbd, 0x3b, 0xf9, 0x4f, 0xbc, 0xe2, 0x8a, 0x08, 0xbc, 0x95, 0xa8, 0x90, 0xbd, 0xb9, 0x87, 0xa8, 0x3c, 
0x3f, 0x79, 0x07, 0x3d, 0xb7, 0x39, 0x14, 0xbd, 0x82, 0x31, 0x67, 0x3d, 0x9c, 0x02, 0x9c, 0xbc, 0x0a, 0x17, 0xda, 0xbc, 0x30, 0x81, 0x2c, 0x3d, 0xd8, 0xef, 0x82, 0xbc, 0x70, 0x4f, 0x87, 0xbd, 
0x60, 0x50, 0xec, 0x3c, 0x1b, 0x6a, 0x43, 0xbc, 0xc7, 0x1b, 0xa4, 0x3c, 0xba, 0xb8, 0x90, 0x3b, 0xf6, 0xdc, 0xa3, 0x3d, 0x78, 0x97, 0x87, 0x3d, 0xeb, 0xf5, 0x64, 0x3d, 0xf4, 0x52, 0xbc, 0x3b, 
0xa2, 0x0e, 0xf6, 0xbc, 0x00, 0x2a, 0x29, 0xbd, 0xfa, 0xcb, 0xc7, 0x3b, 0x1d, 0x37, 0x0c, 0xbb, 0x76, 0xfc, 0x87, 0x3d, 0x81, 0x68, 0x7f, 0xbd, 0x98, 0x4c, 0x91, 0x3d, 0x0e, 0x2f, 0x36, 0x3d, 
0xee, 0x70, 0x83, 0x3d, 0xd6, 0x7c, 0x5f, 0x3c, 0xf3, 0x13, 0x7e, 0x3d, 0x08, 0x52, 0x8e, 0xbc, 0x9b, 0xe2, 0x90, 0xbd, 0x66, 0xae, 0x58, 0x3d, 0x84, 0xf8, 0x40, 0x3a, 0x04, 0x7f, 0xd9, 0xbc, 
0x7d, 0x1d, 0x30, 0x3d, 0xc4, 0x1a, 0x30, 0xbd, 0xf6, 0xa0, 0xce, 0xbc, 0xd5, 0xcb, 0x7f, 0xbd, 0xc1, 0xc6, 0x3b, 0x3d, 0x81, 0xc9, 0x25, 0xbd, 0x1a, 0xd9, 0x0d, 0x3c, 0x96, 0x12, 0xbf, 0xbc, 
0x23, 0xaf, 0x0d, 0xbd, 0x19, 0xaf, 0x9b, 0xbd, 0xd3, 0xda, 0x37, 0xbd, 0x43, 0x34, 0x77, 0xbd, 0xc9, 0xe7, 0x53, 0xbc, 0xed, 0xb1, 0xa0, 0x3c, 0x4e, 0x8d, 0x15, 0x3d, 0x6e, 0x8c, 0x15, 0xbb, 
0x5d, 0x4f, 0x98, 0xbd, 0xf8, 0xa9, 0x30, 0x3d, 0xe0, 0x9e, 0x1a, 0xbd, 0x6f, 0x7e, 0xcb, 0x3c, 0x23, 0x42, 0x94, 0xbd, 0x89, 0x4e, 0x9a, 0x3d, 0x2a, 0x52, 0x6f, 0xbd, 0x6b, 0xa0, 0x4f, 0x3d, 
0xa1, 0xc0, 0xec, 0xbc, 0x3f, 0x67, 0xcc, 0xbc, 0x5a, 0xa5, 0xa2, 0x3d, 0x20, 0xa2, 0x71, 0x3d, 0x0d, 0xf0, 0x56, 0x3d, 0x5a, 0x2c, 0x80, 0x3d, 0x93, 0x98, 0x95, 0x3c, 0xda, 0x62, 0x8d, 0x3d, 
0xd0, 0x4a, 0x2b, 0x3d, 0x6f, 0x98, 0x24, 0xbd, 0xc3, 0x0f, 0x58, 0xbc, 0x53, 0x60, 0xd6, 0x3b, 0x2f, 0x2f, 0x59, 0xbc, 0x4b, 0xd0, 0x97, 0xbc, 0xa5, 0xe0, 0xaa, 0x3c, 0x05, 0xef, 0x44, 0x3c, 
0x46, 0xbe, 0xa0, 0xbc, 0x72, 0x45, 0x4a, 0xbd, 0x8f, 0x8b, 0xe5, 0xbc, 0xef, 0x1d, 0xd5, 0x3c, 0x89, 0x74, 0xf5, 0xbc, 0x01, 0x28, 0x8a, 0xbd, 0x1d, 0x3f, 0x23, 0x3b, 0xda, 0xd3, 0x30, 0x3d, 
0x9e, 0x6a, 0x6d, 0xbd, 0x6e, 0xd5, 0x2a, 0xbd, 0x1c, 0x27, 0xc5, 0xbc, 0x92, 0xf2, 0x83, 0x3d, 0xeb, 0xbf, 0xc6, 0xbc, 0xd9, 0x65, 0x6a, 0xbd, 0x8c, 0x56, 0x60, 0xbc, 0x25, 0xa5, 0x33, 0xbc, 
0xad, 0x04, 0xa5, 0xbd, 0x55, 0x8f, 0x18, 0x3d, 0xbb, 0x1f, 0xb7, 0xbc, 0xc3, 0x2e, 0x4b, 0x3d, 0xb1, 0x04, 0x78, 0x3d, 0xad, 0x88, 0x87, 0x3d, 0x66, 0xdc, 0x3f, 0xbc, 0xe3, 0x7e, 0xc1, 0x3c, 
0x2a, 0x9b, 0x8f, 0x3c, 0x6d, 0xec, 0x39, 0x3d, 0xc9, 0x40, 0x9d, 0x3c, 0x1c, 0xeb, 0x5c, 0xbd, 0x06, 0xc6, 0x3e, 0xbd, 0x42, 0x5a, 0x2d, 0x3c, 0x84, 0x81, 0x77, 0xbd, 0x01, 0xb3, 0x39, 0x3b, 
0x92, 0xf4, 0xa5, 0x3d, 0x2e, 0xe2, 0xa7, 0xbb, 0xf6, 0x3f, 0x54, 0xbd, 0x6b, 0xf4, 0x68, 0x3d, 0x14, 0x95, 0x84, 0x3d, 0x26, 0x0e, 0x01, 0x3d, 0x2c, 0x1f, 0xf8, 0xbc, 0xfa, 0x6c, 0x25, 0x3d, 
0x3e, 0xe3, 0x09, 0xbd, 0xef, 0x3e, 0xa4, 0xbd, 0xb7, 0x2e, 0x01, 0xbd, 0x59, 0x1c, 0x37, 0x3a, 0x47, 0xc8, 0x90, 0xbd, 0x9d, 0x92, 0x9c, 0xbb, 0x84, 0xde, 0xc3, 0x3c, 0x3d, 0x8b, 0x70, 0x3c, 
0x46, 0x8b, 0x8a, 0x3d, 0x5b, 0x6d, 0x90, 0x3d, 0xe2, 0x76, 0xa5, 0x3c, 0x08, 0x66, 0xd5, 0x3c, 0xcb, 0xf5, 0x88, 0xbc, 0x91, 0xf1, 0xaf, 0x3a, 0x70, 0x91, 0x83, 0x3d, 0xe3, 0x16, 0x02, 0xbd, 
0xbc, 0xdb, 0x73, 0xbd, 0x10, 0x53, 0x42, 0x3d, 0xba, 0x26, 0xd4, 0xbc, 0xcb, 0xcf, 0x87, 0x3c, 0xc6, 0xe1, 0x2c, 0x3d, 0xa2, 0x7c, 0x84, 0x3d, 0xcc, 0xc9, 0xea, 0x3c, 0x60, 0x9e, 0x66, 0xbd, 
0x1f, 0x80, 0xa9, 0xbd, 0x2a, 0xce, 0x01, 0xbd, 0x1c, 0x4b, 0x8e, 0xbd, 0x74, 0xc5, 0xf8, 0x3c, 0xc0, 0x1e, 0x64, 0xbd, 0x4f, 0x0a, 0x63, 0x3d, 0x2a, 0x52, 0x02, 0xbd, 0x29, 0xeb, 0xe7, 0xbc, 
0xa9, 0xf1, 0xd0, 0xbc, 0x5d, 0x69, 0x3d, 0x3c, 0x39, 0xa6, 0x6a, 0xbd, 0x09, 0x3d, 0x92, 0xbc, 0x49, 0x5a, 0x35, 0x3b, 0x47, 0x80, 0x00, 0xbd, 0x74, 0x61, 0x92, 0x3c, 0x22, 0x6d, 0x0a, 0xbc, 
0x9a, 0xc0, 0xaf, 0xbd, 0xdc, 0x59, 0x95, 0xbd, 0x01, 0xf1, 0x7d, 0x3d, 0x4f, 0x3a, 0x34, 0x3d, 0x89, 0x6f, 0x82, 0xbd, 0x70, 0xe0, 0x88, 0xbd, 0x59, 0x42, 0x13, 0x3d, 0x99, 0xa2, 0x36, 0x3d, 
0x1f, 0x53, 0x8e, 0x3d, 0x3c, 0x57, 0x98, 0xbd, 0xf0, 0xbe, 0x98, 0xbd, 0xa3, 0x36, 0x81, 0xbd, 0x0a, 0x30, 0xe1, 0xbc, 0x64, 0x35, 0x61, 0x3d, 0x95, 0x0f, 0x74, 0x3d, 0xc1, 0x94, 0xdf, 0x3c, 
0xaf, 0x01, 0x61, 0xbd, 0x95, 0xf7, 0x91, 0xbc, 0x57, 0x0a, 0x75, 0x3d, 0x80, 0x2a, 0x4e, 0xbd, 0x4d, 0x90, 0xcc, 0x3c, 0x9b, 0x6f, 0x70, 0xbc, 0x4e, 0x91, 0x94, 0x3d, 0x17, 0x8a, 0xeb, 0xbb, 
0x27, 0x0d, 0x07, 0x3d, 0x58, 0x1c, 0xae, 0xbc, 0x08, 0x1c, 0x38, 0xbd, 0x5b, 0xe4, 0xed, 0x3c, 0xbd, 0xe8, 0x96, 0xbb, 0x6d, 0x5e, 0x8d, 0x3d, 0xae, 0xdc, 0x46, 0x3c, 0x30, 0xc5, 0x1d, 0xbd, 
0xc6, 0x0f, 0xb4, 0xbc, 0xdd, 0x17, 0x5b, 0xbd, 0xd9, 0xc3, 0xbc, 0xbc, 0x9d, 0x65, 0x71, 0xbd, 0xb5, 0x2d, 0x60, 0xbc, 0xb5, 0x5a, 0x91, 0x3d, 0x92, 0x9b, 0x5a, 0xbd, 0x17, 0x2b, 0xaa, 0xbc, 
0x2a, 0x74, 0x7c, 0x3c, 0x8f, 0x82, 0x91, 0xbd, 0x11, 0x5b, 0x96, 0x3d, 0xf6, 0xe1, 0x7a, 0xbd, 0x55, 0xa4, 0x8b, 0xbd, 0xd6, 0xf9, 0x01, 0x3c, 0x46, 0x9c, 0xa5, 0xbc, 0x6e, 0xd1, 0xac, 0x3d, 
0xc7, 0xe4, 0xae, 0xbc, 0x36, 0xeb, 0x2c, 0x3c, 0xf5, 0x5e, 0x4e, 0x3d, 0x00, 0x09, 0x26, 0xbd, 0x41, 0x6f, 0xb6, 0x3c, 0x07, 0x98, 0x15, 0x3b, 0xa3, 0xa9, 0x95, 0x3d, 0x71, 0x08, 0xce, 0x3c, 
0xd8, 0xb8, 0x58, 0x3d, 0x32, 0x9b, 0xb4, 0x3c, 0x5d, 0xc6, 0xc0, 0xbc, 0x00, 0x2f, 0x36, 0x3d, 0xae, 0x20, 0x64, 0xbd, 0xa5, 0xd7, 0xfd, 0xbc, 0xb2, 0xad, 0x55, 0xbd, 0xaf, 0x44, 0x64, 0xbc, 
0x5a, 0x20, 0x67, 0xbd, 0x5d, 0x62, 0x90, 0x3d, 0x35, 0x78, 0x0b, 0x3c, 0x58, 0x2b, 0x4a, 0xbd, 0x03, 0x87, 0x5b, 0xbb, 0x18, 0x8e, 0xc8, 0xbc, 0x94, 0x59, 0x47, 0xbd, 0x62, 0x77, 0x2e, 0xbd, 
0x27, 0x14, 0x44, 0xbd, 0x4c, 0x1d, 0x18, 0xbd, 0x15, 0x10, 0x8b, 0xbd, 0xca, 0xd1, 0x3c, 0x3c, 0x49, 0x0c, 0x6a, 0x3c, 0xb3, 0x19, 0x86, 0xbd, 0x24, 0x75, 0x21, 0x3c, 0x8d, 0x32, 0x1e, 0x3d, 
0xa4, 0x36, 0x0d, 0x3c, 0x92, 0xa7, 0x84, 0x3c, 0xd6, 0x20, 0xd8, 0x3b, 0x0e, 0xea, 0xdc, 0xbd, 0x4c, 0xbb, 0xa2, 0x3c, 0x94, 0xc6, 0xa7, 0xba, 0x87, 0x24, 0x84, 0x3d, 0xb8, 0xfc, 0x8e, 0xbd, 
0x9a, 0x73, 0x50, 0xbb, 0x62, 0x67, 0x71, 0xbd, 0xd1, 0xea, 0x59, 0x3d, 0xc0, 0x8f, 0x4a, 0x3d, 0x6d, 0xd1, 0x7a, 0xbd, 0x0f, 0x19, 0x02, 0xbd, 0xd2, 0x79, 0x46, 0xbd, 0x58, 0x07, 0x96, 0x3d, 
0xff, 0x77, 0xfb, 0xbb, 0x4c, 0x2c, 0xaa, 0x3c, 0xe2, 0xe2, 0x7e, 0x3c, 0xff, 0x09, 0x27, 0xbd, 0x35, 0xcc, 0x77, 0x3d, 0x4e, 0xe4, 0x1b, 0x3c, 0xf6, 0x50, 0x85, 0xbd, 0x94, 0xa5, 0x3d, 0xbd, 
0x35, 0x2d, 0x43, 0x3d, 0xdb, 0x9c, 0x6d, 0xbd, 0x12, 0x9c, 0x62, 0x3d, 0xcc, 0xe0, 0x37, 0x3c, 0x42, 0xd2, 0xa1, 0x3c, 0xa9, 0x47, 0x6b, 0x3b, 0xc1, 0xd6, 0x9d, 0xbd, 0x1a, 0xa7, 0xb3, 0x3c, 
0xd9, 0x45, 0xa5, 0x3d, 0xb4, 0xd4, 0x50, 0xbd, 0x3e, 0xae, 0x4a, 0x3d, 0x2a, 0x24, 0xd7, 0x3a, 0xd9, 0xe3, 0x28, 0xbd, 0xcf, 0x08, 0x0c, 0xbd, 0x8b, 0x29, 0x4f, 0xbc, 0x39, 0xf4, 0x10, 0xbd, 
0x66, 0xa6, 0x05, 0x3d, 0x6f, 0x3c, 0x95, 0x3d, 0x8d, 0xc6, 0x37, 0x3d, 0x9d, 0x68, 0x06, 0x3d, 0x19, 0x58, 0xa3, 0x3d, 0xba, 0xc4, 0xd6, 0x3c, 0x55, 0x84, 0x0a, 0xbd, 0x0c, 0xcc, 0xe9, 0xbc, 
0x9a, 0x6a, 0xf8, 0xbc, 0x8a, 0x58, 0x9f, 0xbc, 0x57, 0xb4, 0xd3, 0x3c, 0xde, 0xa2, 0x8d, 0x3d, 0xe1, 0x3c, 0x9e, 0x3d, 0x70, 0xce, 0x39, 0x3d, 0x07, 0xd9, 0x19, 0xbd, 0xba, 0x27, 0x42, 0xbb, 
0x54, 0x0b, 0x63, 0xbd, 0x2c, 0x53, 0x8b, 0x3d, 0xcb, 0xf9, 0x05, 0x3d, 0x17, 0xaf, 0x95, 0x3d, 0x70, 0x89, 0x21, 0x3d, 0x88, 0x0c, 0x93, 0x3c, 0x11, 0x3d, 0x19, 0xbd, 0xc4, 0xcb, 0x67, 0xbd, 
0xf2, 0x55, 0x7a, 0xbd, 0x9e, 0xf9, 0x87, 0xbd, 0xfb, 0xaf, 0x64, 0x3d, 0x51, 0x8f, 0x70, 0xbd, 0x4f, 0x2a, 0x93, 0x3d, 0x95, 0x96, 0xfc, 0xbc, 0x14, 0xe4, 0xbb, 0xbc, 0x23, 0x05, 0x8e, 0x3d, 
0xc5, 0xe4, 0x5a, 0xbd, 0xbd, 0x9d, 0x86, 0x3d, 0xfd, 0x2e, 0xfa, 0x3c, 0x1d, 0xb6, 0xa7, 0xbc, 0xbe, 0xfc, 0xa0, 0x39, 0x36, 0x66, 0x8b, 0xbb, 0xcd, 0x4f, 0x03, 0x3d, 0xae, 0xd4, 0x8e, 0xbc, 
0x99, 0x82, 0xd3, 0x3c, 0x46, 0x7c, 0x73, 0x3d, 0x10, 0xe5, 0x23, 0xbd, 0x42, 0xb7, 0xfe, 0x3b, 0x5e, 0x6b, 0x84, 0x3d, 0x8e, 0x0c, 0x9e, 0x3d, 0x75, 0xfa, 0xed, 0xbc, 0x24, 0x1d, 0x8b, 0x3c, 
0x0e, 0xb3, 0x4b, 0x3d, 0xb1, 0xaa, 0x6f, 0x3d, 0xd8, 0x39, 0x85, 0xbc, 0x40, 0x56, 0x7f, 0xbd, 0x9a, 0x92, 0x74, 0x3d, 0xc4, 0xc5, 0xa9, 0x3d, 0xbd, 0x62, 0x6a, 0xbc, 0x72, 0x56, 0x39, 0xbc, 
0x32, 0x88, 0x5c, 0xbc, 0x75, 0x18, 0x92, 0x3d, 0x96, 0x4f, 0x42, 0xbd, 0x98, 0x06, 0x77, 0x3d, 0x33, 0x76, 0xa4, 0x3c, 0xd0, 0xbb, 0x60, 0xbc, 0xeb, 0x6b, 0x4a, 0xbd, 0x01, 0x53, 0x48, 0xbd, 
0x49, 0x81, 0x91, 0x3d, 0x63, 0x4a, 0xe9, 0x3c, 0x0a, 0x54, 0x96, 0x3d, 0xd9, 0xfb, 0x8e, 0xbb, 0xe6, 0x52, 0x27, 0xbd, 0x44, 0x7f, 0x19, 0xbd, 0xc6, 0x48, 0x88, 0xbd, 0xf2, 0xef, 0xa3, 0xbc, 
0x80, 0x83, 0x81, 0x3d, 0xcc, 0xb5, 0xa4, 0x3c, 0x51, 0x57, 0xa5, 0xbd, 0xe2, 0xdf, 0x47, 0xbd, 0x47, 0xa4, 0x24, 0x3c, 0x70, 0x1b, 0xe6, 0xbc, 0x04, 0x52, 0x8a, 0x3d, 0x69, 0xe6, 0xa5, 0x3b, 
0xd8, 0x30, 0x18, 0x3d, 0xb3, 0x7d, 0xa2, 0xbd, 0x60, 0x8d, 0x46, 0xbd, 0xd5, 0xfc, 0x86, 0x3d, 0x80, 0xd0, 0x17, 0xbc, 0xe7, 0xd1, 0x53, 0x3d, 0x03, 0x6a, 0x9d, 0xbc, 0xd6, 0xcf, 0x47, 0x3c, 
0x7e, 0x6c, 0x19, 0xbd, 0x5a, 0xd2, 0xca, 0xbc, 0x02, 0x08, 0x03, 0xbc, 0x24, 0xcc, 0x83, 0x3d, 0xa6, 0x6c, 0x21, 0x3d, 0xb5, 0x24, 0xf7, 0x3c, 0x7e, 0x52, 0x5f, 0xbd, 0x28, 0xcd, 0x47, 0x3d, 
0xd7, 0x37, 0x21, 0x3d, 0xb7, 0x63, 0xee, 0x3c, 0xd8, 0xff, 0x5c, 0xbd, 0x13, 0x65, 0x22, 0x3b, 0xd0, 0x82, 0x4a, 0x3c, 0x4e, 0x69, 0x83, 0xbc, 0x26, 0xec, 0x4a, 0x3d, 0x89, 0x85, 0x1d, 0xbd, 
0xa9, 0x3e, 0xf0, 0xbb, 0x7a, 0x63, 0xf5, 0xbb, 0x57, 0xd7, 0x97, 0xbd, 0xe1, 0x6f, 0x4c, 0x3c, 0x14, 0xb4, 0x85, 0xbd, 0x14, 0x3f, 0x8b, 0x3b, 0xcf, 0x3e, 0x43, 0x3d, 0xf4, 0xcc, 0x24, 0x3c, 
0x83, 0x8c, 0x50, 0x3c, 0x76, 0x66, 0x04, 0x3c, 0x2f, 0x90, 0x35, 0xbd, 0x4c, 0x57, 0x2b, 0x3d, 0x9a, 0xd5, 0x0b, 0x3d, 0x12, 0xa7, 0xef, 0xba, 0xbe, 0x88, 0xd7, 0x3c, 0xb8, 0xd6, 0xfd, 0x3b, 
0xc6, 0x46, 0x2b, 0x3d, 0x2a, 0x58, 0x97, 0xbc, 0x85, 0xbd, 0x28, 0xbd, 0xa3, 0xd7, 0x97, 0x3d, 0x70, 0xe1, 0x16, 0x3d, 0x9d, 0x56, 0xc7, 0x3c, 0x58, 0xaf, 0x89, 0x3c, 0x9d, 0xc7, 0x86, 0x3d, 
0xca, 0xa2, 0xa8, 0x3c, 0xf5, 0xdc, 0x8f, 0x3b, 0x51, 0x02, 0xf4, 0x3c, 0x97, 0x46, 0x94, 0x3d, 0x81, 0x20, 0x53, 0xbd, 0x6f, 0x77, 0xd2, 0xbc, 0x6b, 0x51, 0x4f, 0x3c, 0x73, 0x8d, 0xd7, 0x3c, 
0xe7, 0xef, 0xcd, 0x3c, 0xbf, 0x2b, 0xbf, 0xbb, 0x87, 0x34, 0x25, 0xbd, 0x59, 0xfc, 0x85, 0x3d, 0xb2, 0x67, 0x7c, 0x3c, 0x1f, 0x45, 0x9e, 0xbc, 0xad, 0xb6, 0x4c, 0x3d, 0x64, 0xc1, 0xb1, 0xbb, 
0x04, 0x37, 0x1c, 0xbd, 0x0d, 0x09, 0x29, 0xbd, 0xd0, 0x2e, 0x4e, 0xbb, 0x29, 0x12, 0xce, 0x3b, 0xf1, 0x4e, 0x6c, 0x3c, 0x20, 0x76, 0x80, 0xbd, 0xa8, 0x1f, 0x7e, 0x3c, 0x2c, 0x4a, 0x81, 0xbd, 
0x27, 0x9b, 0xce, 0x3b, 0xaa, 0x29, 0x7e, 0x3d, 0xa1, 0x90, 0x7d, 0x3d, 0xf8, 0x06, 0xfd, 0x3c, 0xcd, 0xc8, 0x41, 0xbd, 0xc9, 0xfb, 0x37, 0xbd, 0x81, 0x5f, 0x11, 0x3b, 0x47, 0x27, 0x0d, 0xbd, 
0xc8, 0x93, 0x9b, 0x3d, 0xa7, 0x06, 0x96, 0xbd, 0xad, 0x36, 0x47, 0x3d, 0x98, 0x3d, 0xa6, 0xbd, 0x77, 0x4e, 0x47, 0xbd, 0xdd, 0x0f, 0x61, 0xbd, 0xfd, 0x13, 0x34, 0xbc, 0x6b, 0x58, 0x1a, 0xbd, 
0x46, 0x36, 0x44, 0xbd, 0xff, 0x82, 0x62, 0x3d, 0x0f, 0x3d, 0xb4, 0x3c, 0xe9, 0x7b, 0x79, 0xbd, 0xe4, 0x28, 0x96, 0xbd, 0x1b, 0xb6, 0x23, 0x3d, 0x60, 0x21, 0x81, 0x3d, 0x4e, 0x3c, 0x79, 0xbc, 
0xd2, 0x85, 0xfe, 0xbc, 0x60, 0x52, 0x80, 0xbc, 0xaf, 0xef, 0x99, 0x3d, 0x07, 0x8b, 0x35, 0xbd, 0x3d, 0x9c, 0x11, 0xbd, 0x68, 0x72, 0xed, 0xbc, 0x55, 0x9f, 0x6d, 0xbc, 0x1b, 0xf0, 0x74, 0xbc, 
0xd7, 0x31, 0x71, 0xbc, 0x35, 0x34, 0x7f, 0xbb, 0xc4, 0x73, 0x0c, 0x3d, 0x3c, 0x3c, 0xad, 0x3d, 0xc1, 0x9a, 0xf9, 0xbc, 0xd8, 0x5a, 0x4b, 0x3b, 0xcf, 0xf7, 0xe0, 0x3c, 0x83, 0x37, 0xac, 0x3c, 
0x45, 0xb0, 0x94, 0x3d, 0xaa, 0x1e, 0x9d, 0x3d, 0x16, 0x39, 0x49, 0xbd, 0x7c, 0x35, 0x0a, 0x3d, 0xc7, 0x05, 0xdf, 0x3c, 0x85, 0x9a, 0x6d, 0x3c, 0x2c, 0x66, 0x31, 0xbd, 0x42, 0xe1, 0x35, 0xbb, 
0xc4, 0x00, 0x8f, 0x3d, 0x7b, 0x1b, 0x56, 0xbd, 0xdf, 0xe3, 0x9c, 0xbd, 0xe0, 0x15, 0xe9, 0xb9, 0x79, 0xa9, 0x8a, 0x3c, 0x8d, 0x3a, 0xe4, 0x3a, 0x0e, 0x0a, 0x34, 0x3d, 0x8a, 0x5c, 0xc0, 0x3c, 
0xcb, 0xe2, 0x22, 0x3d, 0x56, 0x14, 0xe2, 0xbc, 0xf2, 0x3e, 0xd0, 0xbd, 0xa4, 0x0f, 0x71, 0xbd, 0x24, 0x3b, 0x8b, 0xbd, 0x4e, 0x17, 0x2b, 0x3d, 0xaa, 0xc4, 0x17, 0x3d, 0x95, 0x49, 0xf0, 0x38, 
0x9a, 0xd4, 0x35, 0xbd, 0xb6, 0x1b, 0xa6, 0xbd, 0x8d, 0x7d, 0xa5, 0xbc, 0xbb, 0xa8, 0x24, 0xbd, 0x75, 0x99, 0x0a, 0x3c, 0xb4, 0xb6, 0x86, 0xbb, 0xc3, 0x63, 0x47, 0xbb, 0x2c, 0xdb, 0x01, 0x3d, 
0x79, 0x8a, 0x41, 0xbd, 0x81, 0x5d, 0x8f, 0x3c, 0x73, 0xc8, 0x76, 0x3d, 0x26, 0x23, 0x5b, 0x3c, 0xcd, 0xb3, 0x04, 0xbd, 0x84, 0x71, 0x25, 0x3d, 0xc9, 0xfb, 0x47, 0x3d, 0x06, 0x64, 0xfc, 0x3c, 
0x12, 0x48, 0xc4, 0x3c, 0x01, 0x67, 0x2e, 0x3d, 0x93, 0x1d, 0xa9, 0x3c, 0x4c, 0xf6, 0xc1, 0xbc, 0x8e, 0x0b, 0x32, 0xbd, 0xc4, 0xf5, 0x7d, 0xbd, 0x00, 0x91, 0x13, 0xbd, 0xce, 0xd2, 0x84, 0x3b, 
0x1c, 0x55, 0xd4, 0x3c, 0x67, 0x6d, 0xd7, 0xbc, 0xa7, 0xda, 0x9f, 0x3d, 0x82, 0x55, 0x6b, 0xbd, 0x99, 0xe6, 0x89, 0x3d, 0x90, 0x34, 0x84, 0x3d, 0x8a, 0x46, 0x26, 0x3d, 0xa9, 0xc6, 0x99, 0x3d, 
0x36, 0xc4, 0x97, 0x3d, 0x6a, 0xc3, 0x2b, 0xbd, 0x58, 0xb4, 0xd7, 0x3c, 0x6e, 0x1b, 0x27, 0x3c, 0xea, 0xbf, 0x33, 0xbd, 0x99, 0x66, 0x2a, 0x3d, 0x8b, 0xd2, 0x5f, 0x3d, 0x27, 0x36, 0x10, 0x3d, 
0xa3, 0x18, 0x3b, 0xbd, 0xb4, 0x84, 0x48, 0xbd, 0x66, 0xb0, 0xd0, 0xbc, 0xd4, 0xfb, 0x53, 0xbd, 0xc2, 0x2b, 0x41, 0x3d, 0xdf, 0x97, 0x9a, 0xbd, 0x1c, 0x9c, 0x24, 0xbd, 0x37, 0x40, 0x13, 0xbd, 
0x02, 0x7e, 0x84, 0x3d, 0x2e, 0x82, 0x88, 0x3d, 0x5e, 0xb9, 0x92, 0xbc, 0xa4, 0x30, 0x46, 0x3d, 0x25, 0xd8, 0x4a, 0xbd, 0x07, 0xdf, 0xca, 0x3c, 0x28, 0x22, 0x93, 0x3c, 0xb5, 0x7f, 0xe8, 0xbb, 
0x25, 0x4a, 0x5a, 0x3c, 0xce, 0x5b, 0x5e, 0xbd, 0x88, 0x3a, 0x14, 0xbd, 0x54, 0xc5, 0x6f, 0x3c, 0xaa, 0x00, 0x95, 0xbd, 0xbe, 0x33, 0x3b, 0xbd, 0xae, 0xcc, 0x15, 0x3c, 0xe7, 0x5a, 0x0c, 0xba, 
0x9e, 0x8a, 0x51, 0x3d, 0x34, 0xd8, 0x94, 0xbd, 0xfa, 0x1a, 0x57, 0xbb, 0xb7, 0x37, 0xce, 0xbb, 0xd1, 0x1c, 0x3c, 0x3c, 0xd6, 0x57, 0x6b, 0x3d, 0x4b, 0x5c, 0x2a, 0xbd, 0x42, 0x89, 0x33, 0xbd, 
0xf0, 0x18, 0x9f, 0xbd, 0x16, 0x5b, 0x18, 0x3d, 0x62, 0xc6, 0x21, 0xbc, 0x8d, 0xca, 0x18, 0xbc, 0x12, 0xe7, 0xa5, 0x3d, 0xe6, 0xc3, 0x6b, 0x3c, 0x26, 0x6c, 0xd0, 0xbd, 0xf5, 0x11, 0x4e, 0x3d, 
0x7d, 0x1e, 0xdc, 0x3a, 0x4c, 0xc3, 0xb3, 0x3b, 0x79, 0xa9, 0x82, 0xbb, 0x5c, 0x19, 0x1f, 0xbd, 0x02, 0x3d, 0xca, 0xbc, 0x5d, 0x41, 0x6a, 0xbd, 0x7c, 0x24, 0x1c, 0x3d, 0xed, 0x80, 0xa3, 0xbd, 
0x0d, 0xb1, 0x94, 0xbd, 0xee, 0xfa, 0x8d, 0xbd, 0x65, 0x10, 0x4a, 0xbd, 0x13, 0xbd, 0x22, 0xbd, 0x25, 0x42, 0x52, 0x3d, 0x90, 0x64, 0x89, 0xbd, 0x8f, 0xd0, 0x06, 0xbd, 0x85, 0x3d, 0xdc, 0x3c, 
0xdf, 0xaf, 0x3d, 0xbd, 0xcc, 0x2f, 0xe6, 0xbc, 0xc8, 0x01, 0x69, 0xbd, 0x45, 0x7d, 0x4f, 0xbd, 0x2f, 0x3b, 0xd6, 0xbc, 0x4f, 0xff, 0xa5, 0xbd, 0xc4, 0x7c, 0x99, 0xbd, 0x68, 0xb3, 0xa1, 0xbc, 
0xa4, 0x39, 0x54, 0xbd, 0x2e, 0x5e, 0x02, 0xbd, 0x57, 0xc8, 0x32, 0xbd, 0xbc, 0x45, 0x54, 0x3d, 0x92, 0x4e, 0x5b, 0x3d, 0xba, 0x47, 0xdb, 0x3c, 0x8c, 0xd8, 0x69, 0x3d, 0x68, 0x50, 0x79, 0xbd, 
0x90, 0xd6, 0xc9, 0x3c, 0xaa, 0x4e, 0xc2, 0x3c, 0x73, 0xbc, 0x8f, 0x3d, 0xc6, 0xf4, 0xbf, 0xbc, 0xe9, 0xc7, 0x24, 0x3d, 0x9b, 0xb7, 0x29, 0x3c, 0xa9, 0x82, 0xf1, 0xbb, 0xe7, 0x79, 0xef, 0xbc, 
0xc5, 0xe2, 0x8e, 0x3c, 0x2d, 0x0c, 0x37, 0xbd, 0x72, 0x12, 0x31, 0x3d, 0x0b, 0xf4, 0x02, 0x3d, 0x69, 0xc3, 0x20, 0xbc, 0xf6, 0xe0, 0xc4, 0xbc, 0xf5, 0x55, 0x56, 0x3b, 0x8e, 0xa8, 0x37, 0xbd, 
0xab, 0x77, 0x10, 0x3d, 0x0f, 0xd2, 0xb0, 0xbc, 0xf2, 0xa3, 0x49, 0x3d, 0xac, 0x4b, 0xd0, 0xbb, 0x75, 0x10, 0x41, 0xbd, 0xbe, 0x74, 0x20, 0x3d, 0xab, 0xfc, 0xa1, 0xbc, 0x8a, 0x7c, 0x5a, 0xbd, 
0xfa, 0x63, 0xe5, 0x3c, 0x8b, 0x0d, 0x0a, 0x3b, 0x8c, 0xfb, 0x1c, 0x3d, 0xcc, 0x93, 0x96, 0xbd, 0xdc, 0xfb, 0xb4, 0xbc, 0xfc, 0xf2, 0x40, 0x3d, 0x5c, 0x8b, 0xb7, 0x3d, 0x1e, 0xf7, 0xdf, 0x3b, 
0xcb, 0x3a, 0x60, 0xbb, 0x90, 0xee, 0x4b, 0xbd, 0xe2, 0x46, 0xd7, 0x3c, 0xdf, 0x49, 0x8c, 0xbd, 0x4f, 0xc0, 0x3a, 0xbd, 0xdc, 0x24, 0x53, 0xbd, 0x5d, 0xd1, 0x9d, 0xbd, 0xdb, 0x1e, 0x20, 0x3d, 
0x8b, 0xb9, 0x07, 0x3d, 0xcc, 0x87, 0xa5, 0xbc, 0xd8, 0x4b, 0x7f, 0xbd, 0xc5, 0xa8, 0x92, 0xbd, 0xa3, 0xf6, 0xa5, 0xbc, 0x70, 0x04, 0x22, 0xbd, 0xa2, 0x3a, 0x2e, 0xbc, 0x02, 0x9c, 0x2f, 0xbd, 
0x30, 0xb8, 0x39, 0xbd, 0x8c, 0x86, 0x84, 0xbc, 0xdb, 0xa3, 0x6d, 0x3d, 0xf2, 0x71, 0x2e, 0xbd, 0x20, 0x30, 0x64, 0xbc, 0xeb, 0x91, 0x56, 0xbd, 0x9b, 0xfd, 0x64, 0xbc, 0x25, 0x9e, 0x85, 0x3d, 
0x1f, 0x2f, 0x0d, 0xbd, 0xc6, 0x77, 0xdb, 0xbb, 0xee, 0x23, 0x44, 0x3d, 0x87, 0x67, 0x94, 0x3d, 0x35, 0xf8, 0x4b, 0xbb, 0x6c, 0xdb, 0x8d, 0x3c, 0x45, 0x4a, 0x8f, 0xbd, 0x2e, 0xa4, 0xae, 0x3b, 
0x33, 0x5e, 0x82, 0x3d, 0x29, 0x5c, 0x26, 0x3d, 0x43, 0xf1, 0x7c, 0xbd, 0x50, 0x7f, 0x04, 0x3d, 0x5f, 0x32, 0xf3, 0xbc, 0xd9, 0x44, 0x8e, 0xbd, 0x40, 0x50, 0x29, 0xbd, 0xf3, 0x97, 0x1a, 0xbd, 
0x10, 0x29, 0x00, 0x3d, 0x85, 0x4f, 0x98, 0x3d, 0xcb, 0xef, 0x34, 0xbd, 0x98, 0xbf, 0x44, 0x3d, 0xdf, 0x21, 0xa4, 0xbb, 0x71, 0xae, 0x59, 0xbd, 0x35, 0xe0, 0xc3, 0x3b, 0x5a, 0x5f, 0x87, 0xbc, 
0x4f, 0x17, 0x51, 0xbc, 0x84, 0xb9, 0xfa, 0x3b, 0x8c, 0x13, 0x28, 0xbd, 0x00, 0xa0, 0xc7, 0xbc, 0x41, 0x45, 0x29, 0x3d, 0xa9, 0x65, 0x40, 0x3d, 0xdd, 0xf7, 0x82, 0xbd, 0x6f, 0x7c, 0x8e, 0xbd, 
0x77, 0x24, 0x83, 0x3c, 0x59, 0x07, 0x8d, 0x3d, 0xf0, 0x31, 0xde, 0x3c, 0xd2, 0x9e, 0x15, 0x3d, 0x1c, 0x35, 0x49, 0xbd, 0x51, 0xf1, 0x1d, 0xbd, 0xb5, 0x28, 0xa1, 0xbd, 0x53, 0x1d, 0x5d, 0x3c, 
0x3d, 0xe8, 0x86, 0xbd, 0x65, 0xed, 0x32, 0x3d, 0x29, 0x19, 0x81, 0xbd, 0x40, 0xbd, 0x91, 0xbc, 0x5a, 0x99, 0x72, 0x3d, 0x1e, 0x62, 0x75, 0xbd, 0xe6, 0xe8, 0x94, 0x3d, 0x8d, 0x0f, 0x9e, 0x3d, 
0xa0, 0x10, 0x58, 0xbd, 0x55, 0x8b, 0x21, 0xbc, 0xb8, 0x73, 0x8d, 0xbd, 0xa4, 0x44, 0x25, 0x3b, 0x3d, 0xa1, 0xd0, 0x3b, 0xbc, 0x62, 0xfa, 0x3b, 0x66, 0xb9, 0x20, 0xbd, 0xeb, 0xb9, 0x28, 0xbd, 
0x4c, 0x0a, 0x16, 0x3d, 0x3d, 0x47, 0x43, 0x3d, 0x32, 0x3e, 0x1f, 0xbd, 0x9e, 0xf2, 0x59, 0x3d, 0xec, 0xd8, 0x32, 0x3d, 0xd2, 0xac, 0x16, 0x3c, 0x6e, 0x42, 0x4e, 0xbb, 0x25, 0x41, 0x98, 0x3c, 
0x47, 0x61, 0x1b, 0x3d, 0xf4, 0x57, 0x10, 0xbd, 0x45, 0x62, 0x98, 0xbd, 0x89, 0xdd, 0x73, 0x3c, 0x66, 0xd0, 0x42, 0xbd, 0x9e, 0x3a, 0xbc, 0xbd, 0x70, 0x42, 0x8a, 0xbd, 0x50, 0x30, 0xd5, 0xba, 
0x95, 0xaf, 0x8f, 0x3d, 0xc0, 0xcd, 0x70, 0x3d, 0xf3, 0xab, 0x08, 0xbc, 0xd4, 0xc5, 0xf4, 0x3b, 0x5f, 0x73, 0xd1, 0xbc, 0xe9, 0x63, 0x66, 0x3d, 0x98, 0x29, 0xc5, 0xbc, 0xc6, 0xe2, 0xe1, 0xbc, 
0x34, 0x7d, 0x58, 0x3c, 0x34, 0xba, 0xb2, 0xbb, 0x15, 0x5f, 0x14, 0xbd, 0xdd, 0x82, 0x20, 0xbd, 0x81, 0xf1, 0xa1, 0x3c, 0x0d, 0xe6, 0xdc, 0xbc, 0x0c, 0x2a, 0xa6, 0xbc, 0xbf, 0xdb, 0xe2, 0xbb, 
0x54, 0x7f, 0x06, 0x3d, 0x44, 0xc7, 0x68, 0x3d, 0xc8, 0x4d, 0xa1, 0x3b, 0xa6, 0x1f, 0x2a, 0x3d, 0x8d, 0x5c, 0x54, 0x3c, 0x4e, 0x80, 0x17, 0xbc, 0xc4, 0xa2, 0xcc, 0xbc, 0xb5, 0x7c, 0x66, 0x3d, 
0xd7, 0x2b, 0x66, 0xbd, 0x88, 0x75, 0x38, 0x3d, 0x08, 0x71, 0xa9, 0x3d, 0xef, 0xe3, 0x53, 0xbb, 0xb2, 0x7e, 0x60, 0x3d, 0xb8, 0x78, 0xc9, 0x3b, 0x8e, 0x15, 0xd1, 0x3c, 0xc1, 0x13, 0x5e, 0xbd, 
0x94, 0x58, 0xbd, 0x3a, 0x66, 0xfd, 0xff, 0xbc, 0xec, 0xbe, 0x8f, 0xbd, 0xd0, 0xec, 0x21, 0xbd, 0xec, 0xcb, 0x85, 0x3d, 0x80, 0x5f, 0x98, 0xbd, 0x73, 0xb8, 0x95, 0xbd, 0x3d, 0x5a, 0x2c, 0xbc, 
0xd7, 0x9f, 0xbe, 0x39, 0x97, 0x4c, 0x5a, 0x3d, 0xba, 0x82, 0x8e, 0xbd, 0x15, 0xb6, 0xe9, 0x3c, 0x13, 0x6c, 0x96, 0xbd, 0xc9, 0xd9, 0x69, 0xbd, 0x5c, 0x75, 0x02, 0xbc, 0xfd, 0x6b, 0x3f, 0x3d, 
0xde, 0x97, 0xfe, 0xbc, 0x35, 0x57, 0xc9, 0x3c, 0x76, 0xec, 0x97, 0x3d, 0x42, 0x6e, 0x5b, 0xbc, 0xe9, 0xe1, 0x44, 0x3b, 0x68, 0x26, 0xbb, 0xbd, 0x4a, 0xe6, 0x0d, 0x3d, 0xbc, 0x1a, 0xae, 0xbc, 
0x1d, 0x1f, 0x38, 0xbc, 0xe6, 0x3f, 0x90, 0x3d, 0xed, 0x7e, 0xd4, 0xbc, 0x12, 0x0c, 0x7d, 0x3d, 0xdf, 0xc4, 0x61, 0xbc, 0x19, 0x35, 0x5b, 0x3d, 0xc9, 0xac, 0x11, 0xbd, 0xa2, 0xe8, 0x4a, 0x3d, 
0x82, 0x53, 0x3f, 0x3d, 0x24, 0x4d, 0x36, 0x3d, 0xdf, 0x68, 0x9e, 0xbd, 0x6a, 0x75, 0x04, 0x3d, 0x29, 0x3d, 0x08, 0x3d, 0x17, 0x2b, 0x04, 0xbd, 0xa7, 0x5e, 0xc7, 0x3c, 0x02, 0xa1, 0x56, 0xbd, 
0x9e, 0x48, 0x2e, 0xbb, 0x0c, 0x25, 0x0c, 0x3c, 0x0c, 0xdc, 0x4d, 0xbc, 0x47, 0xc6, 0x39, 0xbd, 0xa0, 0x93, 0x5d, 0xbd, 0x9c, 0xcb, 0xfd, 0xbc, 0xa9, 0x58, 0x7e, 0xbd, 0xa1, 0x19, 0x15, 0x3d, 
0xcf, 0x1d, 0x53, 0xbd, 0xe9, 0x2f, 0x9e, 0xbd, 0x21, 0xf6, 0x83, 0x3d, 0x4b, 0xe7, 0x5f, 0xbd, 0xbe, 0xaf, 0x4e, 0xbd, 0x6b, 0xf5, 0x92, 0x3c, 0x1b, 0x98, 0x28, 0xb9, 0xbd, 0x0e, 0x13, 0x3d, 
0x3d, 0xed, 0x3f, 0x3d, 0xd7, 0x26, 0x81, 0xbb, 0x56, 0x2f, 0x1f, 0xbd, 0xdb, 0x53, 0xd6, 0xbc, 0xc7, 0x64, 0x38, 0xbd, 0x15, 0x04, 0x44, 0xbd, 0x7b, 0xe9, 0x6e, 0x3d, 0xa6, 0x34, 0x19, 0xbb, 
0x02, 0xa8, 0x8e, 0xbd, 0xd5, 0x12, 0xdf, 0x3c, 0x27, 0x81, 0x24, 0xbd, 0xc4, 0x06, 0x68, 0x3d, 0xa2, 0x36, 0xf1, 0xbc, 0xb1, 0xc6, 0x69, 0xbc, 0xe9, 0xd6, 0x38, 0xbd, 0xf8, 0xd6, 0x65, 0xbd, 
0x83, 0xa7, 0x69, 0x3d, 0x75, 0xed, 0x16, 0x3d, 0x60, 0x95, 0x8a, 0xbd, 0x2f, 0x71, 0x83, 0x3d, 0x24, 0x06, 0xd3, 0xbc, 0x2a, 0x77, 0x5f, 0x3d, 0xab, 0xeb, 0xe9, 0xbc, 0xf6, 0xfd, 0x17, 0x3d, 
0x47, 0x72, 0x00, 0x3d, 0x08, 0xdd, 0x27, 0xbc, 0xd3, 0xd9, 0xad, 0x3d, 0x9b, 0xf2, 0x83, 0xbc, 0x8b, 0x67, 0x84, 0x3c, 0xc9, 0xf1, 0xbf, 0x3c, 0xdb, 0x93, 0x5f, 0x3d, 0x53, 0xdf, 0x90, 0xbd, 
0x6d, 0xe9, 0x28, 0xbd, 0x98, 0x90, 0x9d, 0x3d, 0x22, 0xa0, 0xa1, 0xba, 0xe7, 0x4d, 0xdf, 0xbb, 0x51, 0xaf, 0x64, 0xbd, 0xfa, 0x99, 0x0d, 0x3d, 0xbf, 0x5e, 0x56, 0xbd, 0x85, 0xff, 0xe5, 0xbc, 
0xd0, 0x7e, 0x8c, 0xbd, 0x43, 0x4d, 0xe9, 0xbc, 0x61, 0x34, 0x53, 0xbc, 0xa0, 0xb7, 0x57, 0xbd, 0x88, 0x37, 0x5f, 0x3d, 0x53, 0xbf, 0x9e, 0xbd, 0x41, 0x4f, 0x90, 0xbc, 0x3f, 0x6b, 0x5e, 0x3d, 
0xde, 0xf8, 0x06, 0x3c, 0xa1, 0x71, 0x49, 0x3d, 0x83, 0x7a, 0x8a, 0xbc, 0xdf, 0xcb, 0xd2, 0xbc, 0xea, 0xdf, 0x17, 0x3c, 0x81, 0xf4, 0x9b, 0x3c, 0xad, 0x3e, 0x9a, 0xbd, 0xfe, 0x85, 0x45, 0x3c, 
0x4e, 0xcd, 0xc9, 0xba, 0x7e, 0x42, 0x14, 0x3d, 0xfb, 0x5a, 0x1a, 0xbd, 0xd9, 0x75, 0x3f, 0xbd, 0x7f, 0xda, 0x3a, 0xbc, 0xcf, 0x3a, 0x96, 0x3d, 0x45, 0x6d, 0x37, 0xbc, 0x10, 0xfe, 0x68, 0xbd, 
0x53, 0x3c, 0x54, 0x3d, 0x08, 0xb3, 0xcc, 0xbc, 0xfe, 0xb3, 0x43, 0x3c, 0x6e, 0x48, 0x2e, 0x3d, 0x35, 0x02, 0x08, 0xbd, 0xb2, 0x94, 0x22, 0x3d, 0x34, 0x8d, 0x4f, 0x3c, 0x5e, 0x9a, 0x59, 0x3d, 
0x96, 0xf5, 0xe9, 0xbc, 0x2f, 0x47, 0xac, 0x3d, 0x7d, 0x7c, 0x79, 0xbc, 0xed, 0xbb, 0xe5, 0xbc, 0x63, 0x74, 0x92, 0xbd, 0xe4, 0xaf, 0xfd, 0xbc, 0xa5, 0x36, 0x8b, 0x3d, 0x56, 0xab, 0x6f, 0x3d, 
0x4f, 0x7a, 0x31, 0xbd, 0x65, 0xfc, 0x40, 0x3d, 0xe4, 0xf6, 0x97, 0xbd, 0xb1, 0xc4, 0xd5, 0xbc, 0x52, 0xa7, 0x00, 0xbd, 0xae, 0x77, 0x71, 0xbd, 0xba, 0xff, 0x6d, 0xbd, 0x91, 0x9a, 0xa5, 0xbd, 
0xb2, 0x9c, 0x2a, 0xbd, 0x5b, 0x1b, 0x49, 0x3d, 0x7f, 0x71, 0x55, 0x3d, 0x78, 0xac, 0x39, 0xbc, 0xa3, 0x61, 0xae, 0x3d, 0x9c, 0xa4, 0x78, 0x3d, 0x66, 0x74, 0x5b, 0xbd, 0x5e, 0x6d, 0xac, 0xbd, 
0x69, 0x97, 0x34, 0xbd, 0x9d, 0x52, 0x52, 0x3d, 0xcb, 0xaf, 0x5a, 0xbd, 0x59, 0xde, 0xca, 0x3b, 0xce, 0x12, 0x37, 0x3c, 0x1b, 0xff, 0x4a, 0x3d, 0xff, 0x9e, 0xf7, 0x39, 0x75, 0x63, 0xe4, 0xbc, 
0x2a, 0xcd, 0x30, 0xbd, 0xf4, 0xdb, 0xad, 0x3d, 0xb0, 0x36, 0x80, 0x3d, 0xd5, 0x04, 0x85, 0x3c, 0x7b, 0x37, 0x1f, 0x3d, 0x73, 0x63, 0x98, 0xbd, 0xbf, 0x70, 0x03, 0xbd, 0xe7, 0x1e, 0x4e, 0xbd, 
0xac, 0xac, 0x96, 0x3c, 0x73, 0x72, 0x79, 0xba, 0xd8, 0x0d, 0x19, 0xbd, 0x5f, 0xda, 0x8c, 0x3d, 0xc8, 0x66, 0x11, 0xbd, 0xa0, 0x65, 0x9b, 0xb7, 0xb0, 0xf3, 0x94, 0xbd, 0xd5, 0xe5, 0x04, 0x3d, 
0x18, 0x8c, 0x73, 0x3d, 0x0e, 0xe3, 0x82, 0xbd, 0x26, 0x78, 0xca, 0x3c, 0xfe, 0x1c, 0xf6, 0x3b, 0xb9, 0x66, 0x9a, 0x3d, 0x22, 0x05, 0xab, 0xbd, 0x53, 0x88, 0x7a, 0x3d, 0xc9, 0x68, 0x9e, 0x3b, 
0xb8, 0x23, 0x79, 0x3c, 0xda, 0xad, 0xa1, 0xbd, 0x8c, 0x27, 0xe9, 0xbc, 0xc8, 0xcd, 0x18, 0x3d, 0x69, 0xbd, 0x5a, 0xbc, 0x2c, 0xff, 0x80, 0xbd, 0xe3, 0x81, 0x62, 0x3d, 0x2c, 0xbe, 0x92, 0x3c, 
0xe9, 0xec, 0x82, 0x3d, 0x79, 0x66, 0x14, 0xbd, 0xcc, 0xbf, 0xcc, 0x3c, 0x0b, 0x24, 0x93, 0x3d, 0x6e, 0x1b, 0xbb, 0xbc, 0x6a, 0x0c, 0x7a, 0x3d, 0xdc, 0x7a, 0xc1, 0xbc, 0x0b, 0xad, 0x80, 0x3d, 
0x6c, 0x24, 0x99, 0x3c, 0xab, 0x73, 0x9a, 0xbd, 0x83, 0x48, 0xb3, 0x3c, 0x6a, 0x8a, 0x37, 0xbd, 0x2b, 0x4e, 0xb2, 0xbc, 0x62, 0x68, 0x86, 0x3d, 0x8c, 0x1d, 0xe1, 0x3b, 0x45, 0x49, 0xb0, 0xbc, 
0x18, 0x3f, 0x1c, 0x3d, 0xe2, 0x84, 0x17, 0x3c, 0xd7, 0x55, 0xda, 0x3c, 0xc8, 0xfa, 0x40, 0xbb, 0xc0, 0x82, 0x30, 0xbc, 0x24, 0xe9, 0x9d, 0x3c, 0x6c, 0x0c, 0x19, 0x3d, 0x90, 0xee, 0xa2, 0xbc, 
0x17, 0x78, 0x4d, 0x3d, 0xc1, 0x3a, 0x77, 0x3c, 0x7e, 0x21, 0x40, 0xbd, 0x81, 0x58, 0x74, 0x3d, 0x52, 0x86, 0xa8, 0x3b, 0xbe, 0xf7, 0xa6, 0xbc, 0x4d, 0x19, 0x3f, 0x3d, 0xcd, 0xd6, 0xa5, 0x3c, 
0xb5, 0x66, 0x01, 0x3d, 0x49, 0xc0, 0x86, 0x3d, 0x61, 0x03, 0x85, 0xbd, 0xae, 0x72, 0x14, 0x3c, 0xa3, 0xe1, 0x30, 0xbd, 0x76, 0xdb, 0x12, 0x3d, 0xbc, 0x0c, 0x0f, 0xbd, 0x73, 0x08, 0xfb, 0x3b, 
0x68, 0x8d, 0x64, 0xbd, 0x85, 0xa8, 0x36, 0x3c, 0x0a, 0xae, 0xb6, 0xbd, 0x2c, 0xc0, 0xfe, 0xbb, 0x4d, 0xc3, 0x3c, 0xbd, 0x1e, 0x14, 0x81, 0x3d, 0x00, 0x9b, 0x7d, 0xbd, 0x77, 0x67, 0x83, 0xbc, 
0xdc, 0x37, 0xa4, 0xbc, 0xc9, 0xc9, 0x08, 0xbd, 0x30, 0x32, 0x50, 0xbc, 0x86, 0xc7, 0x85, 0xbc, 0x77, 0x88, 0x84, 0xbc, 0x88, 0x96, 0x19, 0x3d, 0xbd, 0x07, 0xaa, 0x3d, 0x79, 0xd9, 0x62, 0x3c, 
0xd5, 0x3a, 0x83, 0xbd, 0x70, 0xce, 0x0f, 0x3d, 0x22, 0xb3, 0x59, 0x3d, 0xf3, 0xaa, 0x82, 0x3d, 0x1e, 0xd9, 0x32, 0x3d, 0x65, 0x6c, 0x8a, 0x3c, 0xf1, 0x06, 0x11, 0xbc, 0x89, 0x4c, 0x08, 0xbd, 
0xf8, 0xf7, 0x58, 0x3d, 0x16, 0xae, 0x98, 0xba, 0xca, 0x35, 0xb9, 0x3b, 0x8a, 0x07, 0x83, 0xbb, 0x46, 0xa0, 0x82, 0x3c, 0x42, 0x67, 0x2e, 0xbd, 0x97, 0xbd, 0x43, 0xbd, 0x60, 0x78, 0x61, 0xbd, 
0x19, 0xf0, 0xb3, 0x3c, 0x2a, 0xce, 0x8c, 0x3c, 0x5b, 0x7a, 0xf9, 0x3c, 0x64, 0x8d, 0x87, 0xbd, 0x5e, 0x96, 0x06, 0xbc, 0x05, 0x6e, 0xe4, 0xbc, 0x5c, 0x25, 0x90, 0x3d, 0x29, 0x1d, 0x74, 0xbc, 
0x92, 0x24, 0xd3, 0xbc, 0x17, 0xf2, 0xc4, 0x3c, 0x68, 0x40, 0x17, 0xbd, 0x78, 0xa6, 0x2f, 0x3d, 0xed, 0x7e, 0x3b, 0x3d, 0x79, 0xae, 0x3d, 0x3c, 0xb3, 0xdb, 0x2a, 0x3d, 0x05, 0x88, 0x15, 0xbd, 
0x28, 0x61, 0xaa, 0xbc, 0xa6, 0x30, 0x0d, 0x3d, 0x0a, 0x0f, 0x7b, 0x3c, 0x58, 0xbc, 0x9c, 0xbd, 0x86, 0x5f, 0x08, 0x3d, 0x4a, 0x21, 0x37, 0xbd, 0x44, 0xa8, 0x82, 0x3b, 0xfe, 0xd3, 0x97, 0x3b, 
0xdd, 0x7c, 0xa4, 0xba, 0x7d, 0x7d, 0x0e, 0x3c, 0x4d, 0x7e, 0xa8, 0x3d, 0xc3, 0xaf, 0x80, 0xbc, 0xb2, 0xf5, 0x66, 0xbd, 0xbf, 0x81, 0x24, 0xbd, 0xa0, 0x1a, 0xbe, 0x3b, 0xca, 0xdc, 0x2f, 0x3d, 
0xc2, 0xf7, 0xd8, 0xbc, 0x75, 0x49, 0xac, 0xbb, 0x04, 0x17, 0x97, 0xbc, 0x5a, 0xf7, 0xf8, 0x3b, 0x11, 0xe9, 0x9e, 0x3c, 0xe0, 0x5a, 0xb5, 0xbc, 0xf9, 0xf7, 0xce, 0x3a, 0x83, 0x79, 0x9e, 0xbd, 
0x90, 0xf1, 0x20, 0xbd, 0x47, 0x86, 0x0c, 0xbc, 0xe6, 0xb0, 0x40, 0x3b, 0xf5, 0xac, 0x0c, 0x3b, 0x95, 0x78, 0x91, 0x3d, 0x3f, 0x8d, 0x68, 0x3d, 0x31, 0xa2, 0xce, 0x3c, 0xa9, 0x9f, 0x3b, 0x3d, 
0xd6, 0x15, 0x90, 0xbd, 0x4d, 0x60, 0xc5, 0xbb, 0x75, 0x92, 0xe7, 0x3b, 0x70, 0xe2, 0xa4, 0x3c, 0x1d, 0x92, 0x99, 0xbd, 0x72, 0x70, 0x86, 0x3d, 0xd8, 0x72, 0x72, 0x3d, 0x99, 0xde, 0x08, 0xbd, 
0x6d, 0xd6, 0x89, 0x3d, 0x9d, 0xe9, 0x2e, 0xbc, 0x42, 0xbc, 0x2c, 0xbc, 0x53, 0x77, 0x45, 0xbd, 0x2a, 0x0d, 0x8c, 0x3d, 0xa9, 0xd1, 0x9d, 0xbd, 0x6b, 0x5e, 0x9d, 0xbd, 0x2b, 0xf9, 0x14, 0xbd, 
0x6b, 0xf4, 0x58, 0x3d, 0x3a, 0xd2, 0xa9, 0xbb, 0xc0, 0xd0, 0x64, 0x3c, 0x48, 0x70, 0x1f, 0x3c, 0x3e, 0xc7, 0x83, 0xbd, 0x8a, 0x7f, 0x84, 0xbb, 0x93, 0xd8, 0xa4, 0xbc, 0x8d, 0x12, 0xd6, 0xbc, 
0x58, 0xbc, 0x14, 0x3d, 0x88, 0xcb, 0x0b, 0x3d, 0xd0, 0x87, 0x9a, 0x3c, 0x9e, 0x91, 0x0b, 0xbd, 0xcd, 0xab, 0x2c, 0xbd, 0xec, 0x14, 0x6b, 0xbd, 0x9a, 0xc7, 0xb9, 0xbd, 0x51, 0x17, 0x48, 0x3d, 
0xce, 0x02, 0x41, 0x3d, 0x06, 0x58, 0x8a, 0x3c, 0x07, 0xba, 0x84, 0x3d, 0x1b, 0xa8, 0x50, 0xbd, 0x49, 0x54, 0x5d, 0xbd, 0xdf, 0x54, 0xbd, 0x3c, 0xc2, 0x0a, 0x71, 0xbc, 0x3d, 0x06, 0x96, 0x3d, 
0x73, 0x08, 0x90, 0xbd, 0x6c, 0x8d, 0x07, 0x37, 0x3f, 0x8d, 0x86, 0xbd, 0xd3, 0x48, 0xe5, 0x3c, 0x3b, 0x59, 0x98, 0x3d, 0xcc, 0x52, 0x6f, 0xbd, 0x9f, 0x23, 0x93, 0xbd, 0xed, 0x1d, 0x89, 0x3d, 
0xe3, 0xa8, 0xbd, 0x3c, 0xc6, 0x0b, 0x81, 0x3d, 0xf5, 0x6b, 0x58, 0x3c, 0xf3, 0xe1, 0xdb, 0xbc, 0x72, 0xd9, 0x84, 0x3c, 0x43, 0x62, 0xb8, 0xbc, 0xbf, 0x5d, 0x3e, 0x3d, 0xfc, 0xf3, 0x78, 0xb9, 
0xb6, 0xfc, 0x4a, 0xbd, 0x30, 0xe3, 0x58, 0xbc, 0xd4, 0x5a, 0x17, 0x3d, 0x4e, 0xa8, 0x24, 0xbd, 0xd0, 0xbd, 0x9d, 0x3d, 0xef, 0x61, 0x25, 0x3d, 0xd8, 0x59, 0x15, 0xbd, 0xd2, 0xa4, 0x82, 0xbd, 
0xe8, 0x78, 0x2d, 0x3d, 0xf0, 0xd8, 0x72, 0x3d, 0x59, 0x1b, 0x03, 0xbd, 0x40, 0x46, 0x83, 0x3d, 0x05, 0xb3, 0x1f, 0xbd, 0x59, 0x7d, 0x1a, 0xbd, 0x58, 0x1f, 0xac, 0xbd, 0xa8, 0x67, 0x87, 0xbd, 
0x23, 0x41, 0xba, 0x3c, 0xef, 0x24, 0xe7, 0x3c, 0x1f, 0x18, 0x97, 0x3d, 0x8d, 0x04, 0xcb, 0xbc, 0xf9, 0xb2, 0x08, 0xbb, 0x5e, 0x0e, 0x54, 0xbd, 0xbe, 0x48, 0x11, 0xbd, 0xe5, 0x80, 0x5e, 0x3c, 
0x17, 0x33, 0x94, 0xbc, 0xa2, 0x85, 0xfa, 0x3c, 0x2b, 0xcd, 0x70, 0x3d, 0xdf, 0x2d, 0x06, 0xbd, 0xbc, 0x63, 0x93, 0xbc, 0x40, 0x8c, 0xbc, 0x3c, 0x3d, 0xd7, 0xf1, 0x3c, 0xd2, 0xac, 0xc0, 0xbc, 
0xdf, 0x6e, 0xf9, 0xbb, 0x15, 0x1d, 0x12, 0xbd, 0xba, 0xa9, 0x8f, 0xbd, 0x70, 0xfb, 0xcc, 0xbc, 0x30, 0xd8, 0x64, 0x3d, 0x03, 0xea, 0x8a, 0x3d, 0x63, 0x52, 0x71, 0x3d, 0xb0, 0x8d, 0xdd, 0x3c, 
0x33, 0xa8, 0xa5, 0xbd, 0xe6, 0x0b, 0x87, 0x3d, 0x87, 0xa8, 0xb2, 0x3c, 0xc0, 0x6b, 0x6f, 0xbd, 0x9c, 0x62, 0xe8, 0xbc, 0x79, 0x83, 0x20, 0xbd, 0x05, 0x93, 0x17, 0xbd, 0x10, 0x3f, 0x8b, 0xbc, 
0xe4, 0xa9, 0x0e, 0xbd, 0x93, 0xcf, 0xa4, 0xbd, 0xa2, 0x4e, 0x9c, 0x3c, 0x0d, 0x87, 0xa6, 0xbc, 0xab, 0x5c, 0x38, 0xbd, 0x64, 0x6e, 0xe6, 0x3b, 0x5b, 0x18, 0x00, 0x3d, 0x7b, 0x5d, 0x8e, 0xbc, 
0x9e, 0xca, 0xa0, 0x3c, 0xb1, 0xd1, 0x9e, 0x3d, 0x76, 0x37, 0xb7, 0xbb, 0x26, 0xb3, 0xc3, 0x3c, 0xf7, 0x72, 0x81, 0xbd, 0x38, 0x12, 0x81, 0x3d, 0xd3, 0xc1, 0x87, 0xbd, 0x02, 0x7d, 0x72, 0xbd, 
0x59, 0x6b, 0x0d, 0xbc, 0x5c, 0x7c, 0x4d, 0x3d, 0x7f, 0x03, 0xaa, 0xbb, 0x91, 0xfc, 0x9f, 0x3d, 0x92, 0xa7, 0xbf, 0x3c, 0xd3, 0x89, 0x47, 0x3c, 0x53, 0x7e, 0xf4, 0x3c, 0x5f, 0x76, 0x8b, 0x3d, 
0x8f, 0x88, 0x9b, 0x3b, 0x45, 0xca, 0xf2, 0x3c, 0x40, 0x6e, 0x6c, 0xbd, 0xfb, 0xbf, 0x15, 0xbd, 0x5f, 0x5c, 0x60, 0xbd, 0xea, 0x57, 0xde, 0x3c, 0xe6, 0xb5, 0x88, 0x3d, 0x8f, 0xed, 0x80, 0xbd, 
0x58, 0xf5, 0x77, 0xbd, 0xb2, 0xaf, 0x79, 0x3b, 0xd0, 0x64, 0x07, 0x3c, 0xc2, 0x55, 0x30, 0xbd, 0x3b, 0x3a, 0xd4, 0x3c, 0x21, 0xae, 0x74, 0xbd, 0x64, 0x07, 0xae, 0x3d, 0x79, 0xfb, 0xc3, 0x3c, 
0x47, 0x5c, 0x6d, 0x3d, 0x65, 0xff, 0x6a, 0xbd, 0x43, 0x6c, 0xdf, 0xbb, 0x93, 0xb5, 0x7c, 0x3d, 0xa1, 0xdb, 0x84, 0xbd, 0x8b, 0xc2, 0x66, 0xbd, 0x3e, 0xf3, 0x60, 0xbd, 0x2c, 0xa9, 0x89, 0x3d, 
0xd2, 0xb9, 0x1c, 0x3d, 0x71, 0x05, 0xa4, 0x3c, 0xe9, 0xb3, 0x83, 0x3c, 0x1d, 0xc7, 0xab, 0xbd, 0xee, 0x27, 0x50, 0x3c, 0x19, 0xae, 0x76, 0xbd, 0xd9, 0x45, 0x3b, 0xbd, 0xcc, 0x00, 0x81, 0xbc, 
0xce, 0x98, 0x82, 0xbd, 0xb5, 0xbe, 0x04, 0x3c, 0x76, 0x9a, 0x2f, 0xbc, 0x18, 0xef, 0xed, 0xbc, 0x3b, 0x17, 0x6d, 0x3d, 0xae, 0x34, 0x8a, 0xbd, 0xbb, 0x3b, 0xf9, 0xbc, 0x25, 0xa2, 0x36, 0xbd, 
0x99, 0x55, 0x77, 0x3c, 0xe5, 0x2c, 0xb3, 0xbc, 0xeb, 0xda, 0x6c, 0xbd, 0x39, 0x0b, 0x95, 0x3c, 0xc6, 0x89, 0x9f, 0xbd, 0xa5, 0x35, 0xef, 0x3c, 0x12, 0x74, 0x86, 0xbd, 0xe2, 0x49, 0x87, 0x3d, 
0x2b, 0x26, 0x38, 0xbd, 0x8a, 0x28, 0x64, 0x3d, 0xae, 0x40, 0xaf, 0x3c, 0xb7, 0x0a, 0x04, 0x3c, 0x9d, 0x02, 0x91, 0x3d, 0xd4, 0x20, 0x8a, 0xbc, 0xe2, 0x8f, 0x05, 0xbc, 0x59, 0xc6, 0x5b, 0x3d, 
0xe4, 0x3c, 0x77, 0x3d, 0xb6, 0x99, 0xfb, 0xbb, 0xfe, 0x10, 0x5d, 0x3d, 0xa0, 0xab, 0x9c, 0x3b, 0x48, 0x45, 0x9c, 0xbd, 0xed, 0x80, 0x76, 0xbc, 0x69, 0x03, 0x4e, 0x3d, 0x2b, 0x00, 0xad, 0xbd, 
0x75, 0x06, 0x3c, 0x3d, 0xc0, 0x85, 0x3d, 0xbd, 0x89, 0xad, 0x3a, 0xbd, 0x77, 0xf5, 0xf1, 0xba, 0xfa, 0xb6, 0x33, 0xbd, 0x46, 0x03, 0x96, 0xbd, 0xe0, 0xea, 0x14, 0xbd, 0x15, 0xba, 0xf3, 0x3c, 
0x89, 0x18, 0x28, 0x3d, 0x04, 0xc6, 0xcb, 0xbb, 0x5d, 0x7d, 0x42, 0xbd, 0x9f, 0xca, 0x34, 0x3d, 0xd4, 0x4b, 0xe6, 0xbb, 0xbc, 0x9c, 0x07, 0xbc, 0xee, 0x58, 0xa4, 0x3c, 0xf5, 0xae, 0x9a, 0xbd, 
0x86, 0xd6, 0xc1, 0x3c, 0xf5, 0x0a, 0x48, 0xbd, 0xd7, 0xf9, 0x1c, 0x3b, 0x64, 0x41, 0xe3, 0x3b, 0x88, 0xbc, 0x56, 0x3d, 0x99, 0xde, 0xf0, 0xbc, 0xff, 0x52, 0x6b, 0x3d, 0xf0, 0x9c, 0x73, 0xbd, 
0x10, 0x34, 0x8a, 0x3d, 0xb0, 0x58, 0x90, 0xbc, 0x13, 0x4f, 0x12, 0x3c, 0xc3, 0xd6, 0x1c, 0xbd, 0xa9, 0x04, 0x0e, 0xbd, 0x58, 0xb3, 0xb4, 0xbb, 0x8b, 0xa3, 0x61, 0xbd, 0x91, 0x7c, 0x44, 0xbb, 
0x64, 0xcf, 0xb1, 0xbc, 0x3b, 0xe4, 0x95, 0x3d, 0x1d, 0x69, 0x5d, 0x3d, 0xdd, 0x2e, 0xf2, 0xbc, 0xaa, 0xc5, 0xce, 0xbb, 0x19, 0xcb, 0xa2, 0xbc, 0xcb, 0x1a, 0x3d, 0xbd, 0x55, 0x9a, 0xb2, 0xbc, 
0xab, 0x38, 0x90, 0x3d, 0xca, 0xf8, 0x52, 0xbd, 0x36, 0x3b, 0x42, 0x3d, 0x6a, 0x93, 0x1d, 0x3b, 0x48, 0x42, 0x2c, 0x3d, 0xbb, 0x56, 0x2f, 0xbd, 0xca, 0x3b, 0x6f, 0x3c, 0xb6, 0xeb, 0x23, 0x3d, 
0xd6, 0xd2, 0x96, 0x3c, 0x37, 0xf9, 0x98, 0x3d, 0x57, 0x60, 0xa5, 0x3d, 0x0c, 0xc1, 0x26, 0xbc, 0x4e, 0x02, 0x16, 0x3c, 0xad, 0x4d, 0x7b, 0x3d, 0x6a, 0x3e, 0xe8, 0x3b, 0x2d, 0x32, 0x8a, 0x3d, 
0x2f, 0xac, 0xd6, 0xbc, 0xc9, 0x43, 0xc5, 0xbc, 0xbb, 0x9c, 0x6f, 0xb8, 0xf1, 0x8c, 0x54, 0x3d, 0x30, 0xc1, 0xef, 0x3b, 0x9b, 0x2c, 0x07, 0x3c, 0x12, 0x59, 0x8c, 0xbd, 0xbf, 0xab, 0x11, 0xbd, 
0x4b, 0xd5, 0xbd, 0xbc, 0xf1, 0x38, 0xcb, 0xbb, 0x83, 0x79, 0x40, 0x3c, 0x11, 0x94, 0x42, 0x3d, 0x89, 0x4d, 0xa1, 0xbd, 0x9c, 0x62, 0x71, 0xbd, 0x18, 0x92, 0x89, 0xbd, 0x38, 0x87, 0xa3, 0x3c, 
0x83, 0x0c, 0x2d, 0x3c, 0x79, 0x5f, 0xed, 0xbc, 0xbb, 0x96, 0x76, 0x3c, 0x42, 0xf4, 0x13, 0x3d, 0x4b, 0xc4, 0x9a, 0xbc, 0xde, 0x87, 0x90, 0xbd, 0x5e, 0xd3, 0xba, 0x3c, 0x3b, 0xae, 0x86, 0x3c, 
0xfb, 0x0f, 0x0a, 0xbc, 0x61, 0xf4, 0x88, 0x3d, 0xef, 0x26, 0x71, 0x3d, 0x06, 0xe9, 0x21, 0xbd, 0xd1, 0xc6, 0x29, 0xbd, 0x37, 0x82, 0x85, 0x3d, 0xa2, 0x02, 0xc2, 0xbb, 0xc4, 0xb5, 0x8d, 0x3d, 
0x29, 0x39, 0x68, 0x3d, 0x84, 0xd2, 0x66, 0xbd, 0x12, 0xb5, 0x87, 0xbd, 0x9f, 0xe2, 0x22, 0xbd, 0xaf, 0x09, 0x85, 0xbd, 0xa2, 0xf1, 0x4b, 0x3d, 0xaf, 0x90, 0xb1, 0xbd, 0xd6, 0xe3, 0x4e, 0x3d, 
0x3b, 0x1e, 0xc3, 0x3c, 0xdf, 0x6a, 0x93, 0x3d, 0xe2, 0xc6, 0x8f, 0x3d, 0x20, 0x3f, 0x9b, 0xbc, 0xf9, 0x78, 0x59, 0xbb, 0x0d, 0xb0, 0xa5, 0xbc, 0x0b, 0xa1, 0x52, 0x3d, 0x6d, 0xe6, 0x20, 0xbc, 
0x99, 0x9d, 0x98, 0xba, 0x13, 0x8f, 0x2f, 0xbc, 0xf7, 0x3b, 0x8c, 0x3d, 0xa3, 0x08, 0x39, 0xbd, 0x6c, 0x7f, 0x77, 0xbd, 0xa3, 0xb3, 0x9a, 0xbb, 0x4e, 0x81, 0x90, 0x3d, 0x68, 0xe0, 0x04, 0x3c, 
0x2b, 0x70, 0xd3, 0xbc, 0xfe, 0x98, 0x8e, 0x3d, 0x32, 0xfc, 0x77, 0x3a, 0xca, 0xef, 0x1d, 0x3d, 0x94, 0x43, 0x05, 0x3d, 0xa3, 0xf7, 0xaf, 0xbc, 0xef, 0xef, 0x8a, 0x3d, 0xe8, 0x15, 0xdd, 0xbb, 
0xf4, 0xf3, 0xd4, 0x3b, 0x51, 0xbb, 0xa7, 0xbd, 0xab, 0xf0, 0xa3, 0xbd, 0x5a, 0xdd, 0x35, 0xbd, 0x74, 0x19, 0xce, 0xbc, 0xf4, 0xa1, 0x6b, 0xbc, 0xdf, 0xa3, 0x1a, 0x3d, 0x4a, 0x52, 0x6a, 0xbc, 
0x4e, 0x9a, 0x14, 0xbd, 0x4f, 0x0f, 0x5c, 0x3d, 0xaf, 0xe9, 0x51, 0x3c, 0x43, 0x14, 0x9c, 0xbd, 0xb8, 0x57, 0x0c, 0x3d, 0x12, 0x71, 0x4c, 0x3d, 0x9a, 0xde, 0x36, 0x3d, 0xb0, 0x53, 0x0d, 0x3c, 
0xc1, 0xbd, 0x8d, 0xbd, 0x3d, 0x83, 0x06, 0xbd, 0x08, 0x75, 0x08, 0xbd, 0x26, 0xe2, 0x31, 0xbc, 0xbf, 0xda, 0x4d, 0xbd, 0xd2, 0xce, 0x8c, 0x3d, 0xbb, 0x66, 0xa9, 0x3d, 0x4a, 0xfb, 0x35, 0xbd, 
0x22, 0x20, 0x06, 0xbc, 0xf0, 0x5e, 0x99, 0xbc, 0xf0, 0x44, 0x17, 0x3b, 0xcb, 0xa4, 0xa3, 0xbd, 0x05, 0xeb, 0x84, 0xbc, 0x79, 0x80, 0xe1, 0x3b, 0xdd, 0x0d, 0x4e, 0xbd, 0x3f, 0x6e, 0xa4, 0xbb, 
0x9d, 0x91, 0x6b, 0xbc, 0xa7, 0x10, 0x5a, 0xbd, 0x78, 0x3a, 0x60, 0xbc, 0xcf, 0x65, 0xaf, 0x3c, 0x2b, 0xda, 0xb3, 0xbd, 0x51, 0x86, 0x61, 0xbd, 0x00, 0xab, 0x78, 0xbd, 0x10, 0x8a, 0x9c, 0x3a, 
0x79, 0xa9, 0x81, 0x3d, 0xb5, 0xd8, 0x79, 0xbd, 0xb0, 0x41, 0x40, 0x3c, 0xf1, 0x03, 0x1a, 0x3c, 0x5a, 0xca, 0x9a, 0x3c, 0x34, 0x98, 0xdc, 0xb6, 0x72, 0x50, 0x68, 0xbd, 0xb2, 0x87, 0x7b, 0xbb, 
0x8f, 0x98, 0x2f, 0x3d, 0x59, 0x2a, 0xfb, 0x3c, 0x04, 0x68, 0x5a, 0xbd, 0x54, 0x7e, 0x11, 0xbd, 0xcb, 0x7b, 0x3d, 0xbd, 0x27, 0xf1, 0x2b, 0x3d, 0x28, 0x46, 0x85, 0xbd, 0x36, 0xe9, 0x4e, 0x3d, 
0xb2, 0x57, 0x09, 0xbc, 0x47, 0x6f, 0x65, 0xbc, 0xf2, 0x28, 0x89, 0xbd, 0xb1, 0xde, 0xe2, 0xbc, 0xaf, 0xef, 0xf0, 0x3c, 0xbf, 0xd5, 0x9b, 0xbc, 0xaf, 0xc4, 0xc4, 0x3c, 0x83, 0x19, 0x19, 0xbd, 
0xdd, 0x4b, 0x5c, 0x3d, 0x59, 0x5a, 0xa2, 0x3d, 0xee, 0x7a, 0x90, 0xbd, 0x05, 0x3a, 0x08, 0xbd, 0x12, 0x4f, 0x98, 0x3d, 0x4d, 0xab, 0x69, 0x3d, 0x6e, 0x47, 0x7d, 0xbd, 0x1e, 0x08, 0x4d, 0xbd, 
0xcf, 0xed, 0x55, 0x3c, 0x15, 0x45, 0x5f, 0xbd, 0x0d, 0x43, 0x3c, 0x3d, 0x75, 0x20, 0x4c, 0x3d, 0x14, 0xa0, 0x0c, 0xbc, 0x1d, 0xb0, 0xe8, 0x3c, 0x2f, 0x6d, 0x3c, 0xbc, 0x6d, 0xdf, 0xcb, 0x3c, 
0xb2, 0x24, 0x88, 0xbd, 0x5a, 0xcb, 0xb5, 0x3d, 0xca, 0xcc, 0x08, 0xbb, 0x9f, 0xe1, 0x3f, 0x3d, 0xff, 0xfe, 0xeb, 0x3c, 0xb0, 0xb7, 0x74, 0x3d, 0x2a, 0x58, 0x5b, 0x3c, 0xa7, 0xac, 0x6c, 0xbd, 
0x33, 0x1b, 0x0b, 0x3d, 0xca, 0xca, 0x14, 0x3d, 0x1d, 0x84, 0x06, 0x3d, 0x3d, 0x4b, 0x11, 0xbc, 0x56, 0x2d, 0x4b, 0x3d, 0x54, 0x2c, 0x17, 0x3d, 0xcf, 0xeb, 0x9c, 0x3c, 0xc3, 0x25, 0xa3, 0x3d, 
0x3c, 0x41, 0x3d, 0xbc, 0x87, 0x29, 0x80, 0x3b, 0x16, 0x7e, 0x44, 0xbd, 0x6d, 0x2d, 0x15, 0x3d, 0x5b, 0xdc, 0x8f, 0x3d, 0xcb, 0xb1, 0x80, 0xbd, 0x0d, 0x13, 0x7b, 0xbc, 0x86, 0xc4, 0x55, 0x3c, 
0x77, 0x6e, 0x06, 0xbd, 0x3b, 0xc2, 0xa6, 0x3c, 0x6d, 0x66, 0x85, 0x3d, 0x01, 0xd5, 0xa5, 0x3d, 0x21, 0x54, 0x94, 0xbd, 0x4d, 0xaa, 0xb0, 0xbb, 0xd8, 0x44, 0x5c, 0x3d, 0x57, 0xce, 0xcf, 0xbc, 
0x03, 0x42, 0x30, 0x3c, 0x5b, 0xbe, 0x0e, 0xbd, 0x71, 0x19, 0x66, 0xbc, 0xd3, 0x14, 0x6e, 0x3d, 0x38, 0x58, 0x42, 0x3d, 0xf9, 0x57, 0x04, 0xbd, 0x9b, 0x9e, 0xb6, 0x3c, 0x18, 0xdf, 0x8d, 0xbd, 
0x4f, 0x5d, 0xaa, 0x39, 0x02, 0xc5, 0x5b, 0xbb, 0xb2, 0xe8, 0x87, 0xbd, 0x63, 0x2e, 0x5c, 0xbd, 0x32, 0x63, 0x44, 0xbd, 0x23, 0x28, 0x6f, 0x3d, 0x86, 0x7b, 0xfe, 0x3c, 0x2e, 0xa9, 0x01, 0x3d, 
0x6f, 0x01, 0x06, 0xbc, 0x92, 0x78, 0x86, 0xbd, 0x7c, 0xd3, 0x0c, 0xbd, 0x87, 0x41, 0xcb, 0xbc, 0xed, 0x5b, 0xbf, 0xbc, 0xdd, 0x31, 0x96, 0x3c, 0xc4, 0x89, 0x18, 0x3c, 0x8e, 0x41, 0x29, 0x3c, 
0x76, 0xe1, 0x62, 0x3d, 0xb6, 0xea, 0x58, 0x3d, 0x93, 0xc8, 0xaa, 0x3c, 0x58, 0x34, 0xc8, 0x3c, 0x46, 0x02, 0x91, 0x3d, 0x59, 0x0a, 0x60, 0xbd, 0x02, 0xaa, 0xa2, 0xbc, 0xeb, 0xdc, 0x06, 0x3d, 
0x07, 0xaf, 0xc5, 0xbb, 0x1b, 0xf4, 0x20, 0xbb, 0x76, 0xd2, 0x3a, 0xbd, 0x80, 0xfc, 0x81, 0xbd, 0x1f, 0x3e, 0x85, 0x3c, 0xce, 0xab, 0x85, 0x3d, 0xf4, 0x8d, 0xa0, 0x3d, 0xf3, 0x75, 0x32, 0x3d, 
0x6c, 0x16, 0x64, 0x3d, 0xcc, 0x71, 0x11, 0xbd, 0xba, 0xe2, 0xbc, 0xbc, 0xd7, 0xc9, 0x4c, 0x3a, 0x31, 0xbd, 0x93, 0xbd, 0x2a, 0xa9, 0x5a, 0x39, 0x8e, 0xdb, 0x2b, 0x3b, 0xdd, 0x4f, 0x4d, 0x3c, 
0x81, 0xd6, 0x21, 0x3d, 0xf6, 0x28, 0x1c, 0xbd, 0xf6, 0x2e, 0x14, 0xbc, 0x5f, 0x0e, 0x41, 0x3d, 0x84, 0xff, 0x22, 0xbd, 0xf2, 0x1e, 0x8d, 0x3c, 0x55, 0x55, 0x04, 0xbd, 0xb9, 0x00, 0x43, 0x3d, 
0xaa, 0xd5, 0x61, 0xbd, 0x01, 0x35, 0xa2, 0xbd, 0x9b, 0x8a, 0x55, 0x3d, 0x0e, 0xfa, 0x11, 0xbd, 0xb8, 0x1c, 0xc1, 0x3c, 0x32, 0x43, 0xd4, 0x3a, 0x28, 0xf1, 0x8e, 0x3d, 0x8d, 0x1f, 0xa0, 0x3c, 
0x9f, 0x03, 0x15, 0xbd, 0xe0, 0x94, 0x1f, 0x3c, 0x46, 0xc8, 0x8c, 0x39, 0x9f, 0x4b, 0x29, 0x3d, 0x47, 0xab, 0x8f, 0xbc, 0x56, 0xb8, 0x5b, 0x3d, 0x26, 0xb3, 0x19, 0x3c, 0x70, 0xfe, 0xd8, 0xbc, 
0xed, 0xd4, 0x8d, 0x3d, 0x53, 0x29, 0xb6, 0x3c, 0x78, 0x55, 0x9d, 0x3d, 0x27, 0xef, 0x11, 0xbd, 0x94, 0x90, 0x56, 0x3d, 0x52, 0x48, 0xd5, 0x3b, 0x91, 0xde, 0x46, 0x3d, 0x7b, 0x52, 0xd3, 0xbb, 
0x85, 0x2c, 0xcc, 0xbc, 0xd6, 0x83, 0x49, 0x3c, 0xe4, 0x9d, 0xa8, 0xbc, 0xec, 0xfb, 0x16, 0xbc, 0x04, 0x03, 0x71, 0xbc, 0xe4, 0xdb, 0x10, 0xbc, 0xa0, 0xd7, 0x19, 0x3c, 0x09, 0x7e, 0x92, 0xbd, 
0x73, 0x8e, 0x22, 0xbd, 0xe6, 0x4c, 0x6b, 0x3d, 0x70, 0x40, 0x0b, 0x3d, 0x98, 0x3c, 0xf1, 0xbc, 0xaa, 0x94, 0x04, 0x3d, 0x10, 0x9c, 0x05, 0xbc, 0x96, 0xa0, 0x2f, 0x3d, 0x71, 0x72, 0x84, 0xbd, 
0x66, 0xb2, 0x9e, 0x3b, 0xc2, 0xe7, 0x02, 0xbd, 0x50, 0xbd, 0x54, 0xbd, 0x4e, 0xb2, 0x71, 0x3d, 0xc9, 0xce, 0x09, 0xbd, 0x30, 0xbd, 0x84, 0xbd, 0xb5, 0x2a, 0xba, 0x3a, 0xfb, 0x74, 0xbc, 0x3b, 
0xa0, 0xf4, 0x58, 0xbd, 0xba, 0x96, 0x8d, 0x3c, 0x70, 0xf9, 0x14, 0xbd, 0x2f, 0x88, 0xad, 0xbc, 0x0a, 0xa2, 0x4c, 0x3d, 0xcd, 0x0b, 0x6f, 0x3d, 0x01, 0xc5, 0x02, 0xbc, 0x55, 0x88, 0x06, 0xbd, 
0xd0, 0x56, 0x54, 0xbd, 0xe3, 0x5a, 0xdd, 0x3c, 0xf5, 0x34, 0x1c, 0xbd, 0x4a, 0x14, 0x8e, 0x3d, 0x1a, 0xfd, 0x8b, 0x3d, 0x39, 0xcf, 0x88, 0xbd, 0xe6, 0x99, 0x06, 0xbd, 0xa5, 0x0e, 0xd9, 0x3b, 
0xa7, 0x4d, 0x40, 0xbd, 0x0b, 0xa3, 0x31, 0x3d, 0x10, 0x01, 0x8a, 0x3d, 0x66, 0x36, 0x5e, 0xbc, 0x2d, 0x75, 0x55, 0xbd, 0x32, 0x50, 0x81, 0xbd, 0x8f, 0x7b, 0xad, 0xbc, 0x93, 0xe3, 0x4a, 0x39, 
0x7a, 0x7c, 0x26, 0x3c, 0x4c, 0x94, 0x3b, 0x3d, 0x63, 0x09, 0x0a, 0xba, 0x28, 0x59, 0x2e, 0x3d, 0xfa, 0x0e, 0xeb, 0x3c, 0xd4, 0x96, 0x17, 0x3d, 0x74, 0x9f, 0x1e, 0xbd, 0x50, 0x5a, 0x55, 0xbd, 
0x48, 0xd7, 0xad, 0xbd, 0x0f, 0x27, 0x03, 0xbd, 0x8b, 0x3f, 0x20, 0xbd, 0xfd, 0xd9, 0x12, 0xbd, 0xd6, 0x69, 0xf9, 0x3c, 0x5b, 0x60, 0x57, 0x3d, 0x2b, 0x26, 0x8f, 0x3d, 0xf5, 0x5f, 0x28, 0x3d, 
0xf0, 0x8f, 0xde, 0x3a, 0xcb, 0xc9, 0x78, 0x3d, 0x27, 0x9b, 0x91, 0xbc, 0x4b, 0x96, 0x80, 0x3d, 0x6b, 0x38, 0x55, 0xbc, 0x90, 0x55, 0x9f, 0x3d, 0x58, 0x23, 0x65, 0x3d, 0x95, 0xd8, 0x79, 0xbd, 
0x47, 0x74, 0x27, 0x3d, 0x2b, 0x93, 0x0e, 0xbc, 0x2f, 0x5c, 0x6f, 0xbd, 0x45, 0x1a, 0xd0, 0xbc, 0x08, 0x05, 0x8b, 0xbd, 0x7a, 0xe1, 0x4e, 0x3d, 0xc1, 0x3c, 0xeb, 0xbb, 0xbe, 0x80, 0x20, 0x3d, 
0x43, 0xac, 0x97, 0x3d, 0x4d, 0x65, 0x7c, 0x3d, 0x94, 0xd4, 0xd2, 0xbc, 0x28, 0xb4, 0x16, 0xbd, 0x9b, 0x74, 0xfa, 0x3b, 0x90, 0x0f, 0xd8, 0x3c, 0xa0, 0x51, 0x60, 0xbd, 0x1a, 0xbd, 0xfa, 0x3c, 
0xbd, 0xc7, 0x1c, 0x3d, 0x8d, 0xad, 0xe1, 0x3c, 0xea, 0xc3, 0x3d, 0xbd, 0x08, 0x56, 0x47, 0x3c, 0x3b, 0xd2, 0xbc, 0x3c, 0x45, 0xdc, 0x27, 0xbc, 0xbd, 0xba, 0x6e, 0x3d, 0xdd, 0xef, 0x61, 0xbd, 
0x07, 0x32, 0x41, 0x3d, 0x4d, 0x5f, 0xc3, 0xbc, 0x50, 0x14, 0xaa, 0xbc, 0x0f, 0xe6, 0x31, 0x3d, 0xf3, 0xe2, 0x4f, 0x3d, 0xcc, 0x14, 0x99, 0x3a, 0x3a, 0x53, 0xcc, 0xbc, 0xff, 0x34, 0x9a, 0xbc, 
0x42, 0x0d, 0x01, 0xbd, 0x1f, 0x06, 0x63, 0xbd, 0x09, 0x7d, 0x18, 0x3d, 0x5a, 0x58, 0x3a, 0x3d, 0x77, 0x27, 0x96, 0xbd, 0x13, 0x45, 0x75, 0x3d, 0xae, 0x75, 0xf0, 0xbb, 0x34, 0x37, 0x03, 0xbd, 
0xfa, 0x38, 0x2c, 0x3d, 0xfd, 0x05, 0x37, 0x3d, 0x4d, 0x9d, 0x4e, 0xbd, 0x68, 0x4a, 0x99, 0xbc, 0x08, 0xcd, 0x84, 0x3c, 0x63, 0x56, 0xbd, 0x3d, 0xe4, 0x5c, 0x26, 0x3d, 0xf3, 0x56, 0xe5, 0x3c, 
0x88, 0xf0, 0x2b, 0xbd, 0xac, 0x22, 0xd0, 0xbc, 0x96, 0x5d, 0x38, 0x3d, 0x7a, 0x85, 0x2a, 0xbd, 0xd2, 0x2d, 0x42, 0x3d, 0xe1, 0x6b, 0x8d, 0x3d, 0xb0, 0xf2, 0x05, 0xbb, 0xba, 0xd2, 0x6f, 0xbc, 
0x4b, 0xb2, 0x04, 0x3c, 0xbc, 0xae, 0x3e, 0xbd, 0xaf, 0x43, 0x5a, 0x3d, 0x6f, 0x2c, 0x03, 0x3d, 0x3c, 0x45, 0x5d, 0xbd, 0xdf, 0x70, 0x89, 0x3c, 0xc9, 0xaf, 0x75, 0xbc, 0xc4, 0x2f, 0x54, 0x3d, 
0xd2, 0x9e, 0x14, 0xbd, 0x2f, 0x1b, 0xb0, 0x3d, 0x13, 0xe0, 0x9a, 0x3d, 0x27, 0xe1, 0x56, 0xbd, 0x26, 0xce, 0xae, 0xbb, 0x26, 0x7c, 0x93, 0xbd, 0x62, 0x69, 0x13, 0xbd, 0x57, 0x17, 0xbb, 0x3b, 
0x1f, 0xb4, 0x12, 0x3d, 0x29, 0x38, 0x27, 0xbc, 0xb9, 0x1d, 0xce, 0xbc, 0xc3, 0x4c, 0x62, 0x3c, 0x75, 0x7e, 0x46, 0xbd, 0x5b, 0x5a, 0xee, 0x3c, 0x75, 0x2b, 0xa5, 0x3d, 0xfb, 0x7e, 0x0a, 0xbd, 
0xa8, 0x88, 0x7a, 0xbd, 0x88, 0x16, 0x29, 0xbd, 0xac, 0xbb, 0x63, 0xbc, 0x23, 0x71, 0x57, 0x3c, 0x1e, 0xfb, 0x8c, 0xbd, 0x02, 0x69, 0x3c, 0xbd, 0x37, 0x4c, 0xa0, 0x3c, 0x12, 0x5b, 0x5b, 0x3c, 
0xe3, 0x34, 0x50, 0x3d, 0xbd, 0x18, 0xba, 0xbc, 0xd4, 0x3f, 0x33, 0x3b, 0x7c, 0x82, 0x8b, 0x3d, 0x83, 0x3d, 0x45, 0xbd, 0x96, 0xa5, 0xd8, 0xbb, 0x0a, 0x89, 0x95, 0xbd, 0xb1, 0x6f, 0x1d, 0x3d, 
0xfe, 0x9b, 0x76, 0xbd, 0x3f, 0x67, 0x69, 0x3d, 0xd3, 0x66, 0xa3, 0x3c, 0x2c, 0x7b, 0xa7, 0xbb, 0x4f, 0x28, 0x72, 0x3c, 0xc0, 0x9b, 0xbb, 0xbc, 0xa0, 0x19, 0x5a, 0x3d, 0x3f, 0xad, 0xa4, 0xbc, 
0x59, 0xff, 0x8e, 0xbd, 0xa5, 0x48, 0x84, 0x3d, 0x00, 0xa6, 0xa9, 0x3d, 0xc8, 0x9f, 0x8f, 0xbc, 0x64, 0x17, 0x78, 0x3d, 0xd7, 0x15, 0xfb, 0x3a, 0xb8, 0xac, 0x10, 0x3c, 0x03, 0xd1, 0x69, 0x3d, 
0x25, 0xc9, 0xe6, 0xbc, 0x91, 0x71, 0x16, 0x3d, 0x34, 0xe7, 0x98, 0xbd, 0x9c, 0x95, 0xc8, 0x3d, 0x82, 0xb9, 0xc2, 0x3c, 0xfd, 0x2d, 0x2a, 0xbd, 0x37, 0x11, 0x07, 0x3b, 0x42, 0xb9, 0x42, 0x3d, 
0x1e, 0xd0, 0x51, 0x3d, 0xa7, 0xb3, 0x28, 0x3d, 0xa5, 0xbb, 0x94, 0x3c, 0x8c, 0xa7, 0xe2, 0x3c, 0xe9, 0x32, 0x55, 0x3d, 0xd3, 0x3c, 0xd2, 0x3b, 0xe4, 0x0d, 0x73, 0xbc, 0x03, 0x80, 0xb5, 0x3c, 
0x89, 0xc0, 0xc7, 0x3c, 0x88, 0x55, 0x7a, 0x3d, 0xa1, 0xc5, 0xd6, 0x3c, 0x7f, 0xd6, 0x97, 0xbd, 0x2c, 0x92, 0x50, 0xbc, 0x28, 0x26, 0x3e, 0xbd, 0x65, 0x38, 0x81, 0xbd, 0x8e, 0x7c, 0x51, 0xbd, 
0xed, 0x8f, 0xce, 0xbb, 0x2c, 0x6a, 0x99, 0xbd, 0x30, 0x5c, 0x13, 0x3d, 0x72, 0xe7, 0x2b, 0x3d, 0xb2, 0x77, 0x74, 0x3d, 0xb0, 0x8c, 0x97, 0x3d, 0x51, 0x09, 0xa2, 0xbd, 0x13, 0x37, 0x41, 0x3d, 
0x0e, 0x4d, 0xa3, 0x3d, 0x48, 0x53, 0xa0, 0x3d, 0x8b, 0xee, 0x9a, 0x3c, 0xbc, 0xd4, 0x85, 0x3d, 0x99, 0x3a, 0x8d, 0xbc, 0x15, 0xc6, 0x21, 0x3d, 0xfc, 0x0e, 0x66, 0xbd, 0x36, 0xb1, 0xdb, 0x3c, 
0xa8, 0xf7, 0x91, 0xb8, 0x4a, 0xad, 0x2d, 0x3c, 0x25, 0x6b, 0x2d, 0xbd, 0x7f, 0x3e, 0x8c, 0xbd, 0xcc, 0x7f, 0x82, 0xbd, 0x55, 0x30, 0x7c, 0xbd, 0x0d, 0xc9, 0x89, 0xbd, 0x56, 0x7d, 0x89, 0x3d, 
0xa0, 0x4e, 0x0e, 0xbd, 0xd0, 0x1a, 0x02, 0xbd, 0xf8, 0xda, 0x37, 0x3d, 0xa4, 0xbd, 0x30, 0xbd, 0xac, 0x47, 0xc6, 0x3c, 0x3f, 0xdc, 0x0c, 0x3d, 0x71, 0xcd, 0x0a, 0x3d, 0x3d, 0xa8, 0x85, 0xbd, 
0x43, 0xcd, 0x90, 0xbd, 0x44, 0x06, 0xa3, 0x3d, 0xd6, 0x84, 0x38, 0x3d, 0xad, 0xba, 0x27, 0xbd, 0x01, 0x13, 0x10, 0xbd, 0x70, 0xd1, 0xba, 0xbc, 0x61, 0x2b, 0x89, 0xbd, 0x18, 0xfd, 0x77, 0xbd, 
0x3d, 0x55, 0xad, 0xbd, 0xb0, 0xb0, 0x1d, 0x3d, 0x5b, 0x7a, 0xc9, 0xbb, 0x1f, 0xd8, 0xdb, 0xbc, 0x26, 0x92, 0x12, 0x3d, 0x89, 0x43, 0x2b, 0xbd, 0x8d, 0xc9, 0x75, 0xbd, 0x7e, 0xc9, 0xe6, 0xbc, 
0x9d, 0x6e, 0x8a, 0x3d, 0x5f, 0x2f, 0xa7, 0xbd, 0xd9, 0xab, 0x9b, 0xbd, 0x94, 0x6c, 0x52, 0xbd, 0x53, 0x9d, 0x4e, 0x3d, 0x43, 0xc7, 0xbd, 0x3c, 0x54, 0xdb, 0x82, 0x3d, 0xbe, 0x8e, 0x4b, 0xba, 
0x98, 0xeb, 0xd7, 0xbc, 0x98, 0x59, 0x3f, 0xbd, 0x89, 0x6a, 0xd1, 0xbc, 0x67, 0xde, 0xbb, 0xbc, 0x14, 0x29, 0xac, 0x3d, 0x89, 0xb0, 0xfb, 0xbb, 0x44, 0x34, 0x6b, 0xbd, 0xaa, 0x2a, 0x78, 0xbd, 
0x67, 0xe4, 0x8b, 0x3c, 0x5d, 0x04, 0x2f, 0x3b, 0xbd, 0x9c, 0x34, 0xbd, 0xda, 0xa4, 0x96, 0x3d, 0x34, 0xdc, 0x92, 0xbd, 0xd1, 0x74, 0x14, 0x3c, 0x47, 0xad, 0x37, 0x3d, 0x99, 0xad, 0xf9, 0x3c, 
0x74, 0x7f, 0x6e, 0x3d, 0xb2, 0x58, 0x8b, 0x3d, 0xad, 0x7a, 0x82, 0x3a, 0xbf, 0xcc, 0x46, 0xbd, 0x58, 0xf4, 0x06, 0x3c, 0x09, 0xe9, 0x19, 0x3b, 0xe6, 0xea, 0x21, 0x3d, 0x7b, 0xf3, 0x63, 0x3c, 
0x5e, 0xf8, 0x4f, 0xbc, 0xd5, 0xd7, 0xe4, 0x3c, 0xcc, 0xcb, 0x59, 0xbd, 0xaa, 0x2d, 0x20, 0xbd, 0x3d, 0xb9, 0xdb, 0x3c, 0x5f, 0xbd, 0x07, 0x3c, 0x43, 0x97, 0x74, 0xbd, 0x77, 0x2c, 0x7c, 0x3d, 
0x29, 0xd2, 0x96, 0xbd, 0x40, 0x6c, 0x74, 0xbd, 0x89, 0x92, 0x14, 0xbd, 0xb2, 0x0e, 0x90, 0x3d, 0x10, 0x9a, 0x6b, 0xbc, 0xd9, 0x5f, 0x7f, 0x3d, 0xc3, 0x87, 0x96, 0x3d, 0xb4, 0x97, 0x8e, 0xbd, 
0x75, 0xf7, 0x20, 0xbd, 0xa8, 0xb8, 0x4a, 0xbd, 0x76, 0x05, 0x87, 0xbc, 0x00, 0x45, 0x85, 0xbc, 0xf2, 0xa5, 0x5d, 0xbd, 0xd4, 0x4b, 0x9d, 0x3d, 0x79, 0x30, 0x15, 0xbd, 0x81, 0xda, 0x86, 0x3d, 
0x5a, 0xb6, 0x80, 0x3d, 0x79, 0x1f, 0x6c, 0xbd, 0x0b, 0x05, 0x93, 0xbc, 0x58, 0x9f, 0x7f, 0xbc, 0xcb, 0xc4, 0xd8, 0x3c, 0xd6, 0xcd, 0x9a, 0xbd, 0xef, 0x9a, 0xde, 0xbc, 0x5d, 0x1f, 0x0b, 0xbd, 
0xe7, 0xed, 0xde, 0x3c, 0x1d, 0x65, 0x93, 0x3d, 0x9f, 0x6d, 0xd4, 0x3c, 0x10, 0xec, 0x14, 0x3d, 0x55, 0x8a, 0xec, 0x3c, 0xad, 0x31, 0x78, 0xbc, 0xd3, 0x52, 0x4a, 0xbd, 0xb6, 0x3f, 0xa8, 0x3c, 
0x9f, 0xc0, 0xdf, 0x3c, 0x87, 0x6d, 0x86, 0xbd, 0x67, 0x0c, 0x52, 0xbd, 0xa2, 0xc3, 0x6c, 0x3d, 0xec, 0x9e, 0x02, 0x3c, 0x1a, 0xa9, 0x93, 0xbd, 0xd0, 0xfb, 0xc7, 0xbc, 0x2b, 0x60, 0x1d, 0xbd, 
0xb8, 0x33, 0xe6, 0x3c, 0xf5, 0x57, 0x8e, 0xbd, 0xb9, 0x60, 0x9c, 0xbd, 0xe0, 0xad, 0x7c, 0x3d, 0x66, 0xf5, 0x67, 0x3b, 0xfe, 0x02, 0x9b, 0x3d, 0x51, 0x6f, 0x71, 0x3c, 0xc7, 0x07, 0x5c, 0xbc, 
0xea, 0x42, 0x69, 0xbc, 0x52, 0x64, 0xa7, 0xbd, 0x50, 0x9c, 0x63, 0xbd, 0x92, 0x56, 0xff, 0x3c, 0x4b, 0x4a, 0x3a, 0x3d, 0x8c, 0x73, 0x82, 0x3d, 0xfe, 0xb3, 0x8d, 0xbd, 0x15, 0x4e, 0x86, 0x3c, 
0x55, 0xdd, 0x79, 0x3c, 0xb8, 0xf1, 0x7f, 0x3d, 0x05, 0x9d, 0x8c, 0xbd, 0xa5, 0x26, 0xa9, 0xbc, 0xdf, 0xa0, 0x53, 0x3c, 0x0b, 0x2f, 0x03, 0x3d, 0xcb, 0xc5, 0x56, 0x3d, 0x21, 0x24, 0xf5, 0x3b, 
0xc2, 0x93, 0x6a, 0x3d, 0xde, 0x2d, 0x2f, 0x3b, 0xae, 0x7d, 0x8a, 0xbc, 0x6a, 0x96, 0x82, 0xbd, 0xea, 0x6a, 0x1b, 0xbd, 0x15, 0x1c, 0x87, 0xbd, 0xad, 0x29, 0x18, 0x3d, 0xe9, 0x41, 0xec, 0x3c, 
0x25, 0x92, 0x73, 0xbd, 0xc0, 0x61, 0x66, 0x3d, 0x8f, 0xac, 0x3f, 0x3d, 0x97, 0xba, 0x43, 0x3d, 0x5c, 0x28, 0x89, 0x3d, 0xd3, 0xa4, 0x3b, 0x3c, 0x34, 0xc9, 0x0d, 0x3d, 0xba, 0xc6, 0x6d, 0x3d, 
0x6c, 0xbb, 0x96, 0xbd, 0x54, 0xc0, 0x05, 0x3d, 0x7f, 0xa5, 0x9f, 0xbd, 0xbf, 0x6d, 0x81, 0x3d, 0x13, 0xa4, 0xc9, 0x3c, 0x94, 0x95, 0x41, 0xbd, 0x35, 0xb7, 0x45, 0x3d, 0x17, 0x03, 0x70, 0x3d, 
0x47, 0x4b, 0x5e, 0xbd, 0xe8, 0xa6, 0x07, 0x3d, 0x41, 0x88, 0x9f, 0x3d, 0x0e, 0x0e, 0x96, 0x3a, 0x84, 0xf2, 0x49, 0xbc, 0x3b, 0x39, 0x2b, 0xbd, 0xd3, 0xc3, 0x4f, 0xbd, 0x5c, 0xc0, 0xa8, 0x3c, 
0xc8, 0x08, 0x35, 0xbd, 0x88, 0xfe, 0x24, 0x3d, 0xd5, 0x22, 0x53, 0xbd, 0xe1, 0x18, 0x78, 0x3d, 0x0f, 0x8d, 0x68, 0x3d, 0xf5, 0xdd, 0x7c, 0x3d, 0xd0, 0x3a, 0x42, 0xbd, 0x7a, 0xe7, 0xdb, 0x3b, 
0x88, 0x4f, 0xc6, 0xbc, 0x47, 0xeb, 0xb8, 0xbc, 0x08, 0x59, 0x38, 0x3c, 0x41, 0x9a, 0x5b, 0xbd, 0x20, 0x18, 0x10, 0x3d, 0x0e, 0x7b, 0x05, 0xbd, 0x57, 0x15, 0x80, 0x3d, 0x7f, 0x99, 0x96, 0xbd, 
0x27, 0x27, 0xf8, 0x3c, 0xe3, 0x19, 0xfc, 0x3c, 0xf2, 0xad, 0x81, 0xbd, 0xf6, 0x4a, 0x65, 0x3c, 0x65, 0xb0, 0x56, 0x3d, 0xd6, 0xf8, 0x2d, 0x3c, 0x3d, 0x39, 0x24, 0x3c, 0x77, 0xd7, 0x3e, 0xbd, 
0x3b, 0x8c, 0xe9, 0xbc, 0xc6, 0x28, 0xa7, 0x3b, 0xad, 0xef, 0x62, 0xbd, 0xc2, 0xfc, 0xff, 0xbc, 0x99, 0x4f, 0x39, 0xbc, 0x2d, 0x28, 0x4a, 0x3c, 0xd2, 0x45, 0x1b, 0xb9, 0x12, 0xf7, 0x94, 0x3d, 
0x78, 0x42, 0x3d, 0xbd, 0xdf, 0x86, 0x5e, 0x3d, 0xf8, 0xb7, 0x8d, 0x3c, 0xb3, 0x53, 0xf3, 0xbc, 0xf1, 0xe0, 0x17, 0x3c, 0xcf, 0x63, 0x42, 0xbd, 0xd6, 0x52, 0xc6, 0xbc, 0xbd, 0x92, 0x76, 0x3c, 
0xde, 0x07, 0x8d, 0xbd, 0x7c, 0xac, 0xba, 0x3c, 0x34, 0xa3, 0xe0, 0x3c, 0x06, 0xd3, 0x6a, 0xbd, 0xe3, 0xd5, 0x0a, 0xbd, 0x65, 0x79, 0x23, 0x3d, 0x4d, 0x9a, 0x58, 0x3d, 0xe1, 0xe1, 0x62, 0x3d, 
0xd0, 0x31, 0x8d, 0xbc, 0x1f, 0x95, 0x16, 0x3c, 0x73, 0xb3, 0x96, 0x3d, 0x25, 0x89, 0x2c, 0x3d, 0xdd, 0xff, 0x16, 0xbc, 0x1b, 0xe9, 0x44, 0xbd, 0x13, 0x4a, 0x4c, 0xbd, };
