__attribute__((section("network_model_sec"), aligned(16))) char model_pte[] = {
0x3c, 0x00, 0x00, 0x00, 0x45, 0x54, 0x31, 0x32, 0x65, 0x68, 0x30, 0x30, 0x18, 0x00, 0x00, 0x00, 0xf0, 0x13, 0x00, 0x00, 0x00, 0x00, 0x00, 0x00, 0x00, 0x14, 0x00, 0x00, 0x00, 0x00, 0x00, 0x00, 
0x00, 0x00, 0x00, 0x00, 0x00, 0x00, 0x00, 0x00, 0x00, 0x00, 0x00, 0x00, 0x10, 0x00, 0x18, 0x00, 0x00, 0x00, 0x04, 0x00, 0x08, 0x00, 0x0c, 0x00, 0x10, 0x00, 0x14, 0x00, 0x10, 0x00, 0x00, 0x00, 
0x84, 0x00, 0x00, 0x00, 0x7c, 0x00, 0x00, 0x00, 0x74, 0x00, 0x00, 0x00, 0x50, 0x00, 0x00, 0x00, 0x04, 0x00, 0x00, 0x00, 0x40, 0xfa, 0xff, 0xff, 0x04, 0x00, 0x00, 0x00, 0x07, 0x00, 0x00, 0x00, 
0x00, 0x00, 0x00, 0x00, 0x00, 0x00, 0x00, 0x00, 0x00, 0x00, 0x00, 0x00, 0x00, 0x00, 0x00, 0x00, 0x30, 0x00, 0x00, 0x00, 0x00, 0x00, 0x00, 0x00, 0x40, 0x00, 0x00, 0x00, 0x00, 0x00, 0x00, 0x00, 
0x40, 0x10, 0x00, 0x00, 0x00, 0x00, 0x00, 0x00, 0x80, 0x10, 0x00, 0x00, 0x00, 0x00, 0x00, 0x00, 0x00, 0x11, 0x00, 0x00, 0x00, 0x00, 0x00, 0x00, 0x00, 0x00, 0x00, 0x00, 0x01, 0x00, 0x00, 0x00, 
0x0c, 0x00, 0x00, 0x00, 0x08, 0x00, 0x10, 0x00, 0x00, 0x00, 0x04, 0x00, 0x08, 0x00, 0x00, 0x00, 0x08, 0x11, 0x00, 0x00, 0x00, 0x00, 0x00, 0x00, 0x00, 0x00, 0x00, 0x00, 0x00, 0x00, 0x00, 0x00, 
0x00, 0x00, 0x00, 0x00, 0x01, 0x00, 0x00, 0x00, 0x1c, 0x00, 0x00, 0x00, 0x00, 0x00, 0x16, 0x00, 0x28, 0x00, 0x04, 0x00, 0x08, 0x00, 0x0c, 0x00, 0x10, 0x00, 0x14, 0x00, 0x18, 0x00, 0x1c, 0x00, 
0x20, 0x00, 0x24, 0x00, 0x16, 0x00, 0x00, 0x00, 0xfc, 0x12, 0x00, 0x00, 0xa8, 0x11, 0x00, 0x00, 0x7c, 0x05, 0x00, 0x00, 0x70, 0x05, 0x00, 0x00, 0x64, 0x05, 0x00, 0x00, 0x10, 0x02, 0x00, 0x00, 
0x28, 0x00, 0x00, 0x00, 0x20, 0x00, 0x00, 0x00, 0x04, 0x00, 0x00, 0x00, 0x02, 0x00, 0x00, 0x00, 0x00, 0x00, 0x00, 0x00, 0x00, 0x00, 0x00, 0x00, 0x90, 0x15, 0x00, 0x00, 0x00, 0x00, 0x00, 0x00, 
0x00, 0x00, 0x00, 0x00, 0x00, 0x00, 0x00, 0x00, 0x0a, 0x00, 0x00, 0x00, 0xb4, 0x01, 0x00, 0x00, 0x8c, 0x01, 0x00, 0x00, 0x58, 0x01, 0x00, 0x00, 0x1c, 0x01, 0x00, 0x00, 0xe4, 0x00, 0x00, 0x00, 
0xb4, 0x00, 0x00, 0x00, 0x80, 0x00, 0x00, 0x00, 0x58, 0x00, 0x00, 0x00, 0x30, 0x00, 0x00, 0x00, 0x04, 0x00, 0x00, 0x00, 0xc8, 0xee, 0xff, 0xff, 0x10, 0x00, 0x00, 0x00, 0x04, 0x00, 0x00, 0x00, 
0x03, 0x00, 0x00, 0x00, 0x6f, 0x75, 0x74, 0x00, 0x0e, 0x00, 0x00, 0x00, 0x61, 0x74, 0x65, 0x6e, 0x3a, 0x3a, 0x5f, 0x73, 0x6f, 0x66, 0x74, 0x6d, 0x61, 0x78, 0x00, 0x00, 0xf0, 0xee, 0xff, 0xff, 
0x10, 0x00, 0x00, 0x00, 0x04, 0x00, 0x00, 0x00, 0x03, 0x00, 0x00, 0x00, 0x6f, 0x75, 0x74, 0x00, 0x0b, 0x00, 0x00, 0x00, 0x61, 0x74, 0x65, 0x6e, 0x3a, 0x3a, 0x61, 0x64, 0x64, 0x6d, 0x6d, 0x00, 
0x14, 0xef, 0xff, 0xff, 0x10, 0x00, 0x00, 0x00, 0x04, 0x00, 0x00, 0x00, 0x03, 0x00, 0x00, 0x00, 0x6f, 0x75, 0x74, 0x00, 0x09, 0x00, 0x00, 0x00, 0x61, 0x74, 0x65, 0x6e, 0x3a, 0x3a, 0x63, 0x61, 
0x74, 0x00, 0x00, 0x00, 0x38, 0xef, 0xff, 0xff, 0x14, 0x00, 0x00, 0x00, 0x04, 0x00, 0x00, 0x00, 0x07, 0x00, 0x00, 0x00, 0x69, 0x6e, 0x74, 0x5f, 0x6f, 0x75, 0x74, 0x00, 0x11, 0x00, 0x00, 0x00, 
0x61, 0x74, 0x65, 0x6e, 0x3a, 0x3a, 0x73, 0x65, 0x6c, 0x65, 0x63, 0x74, 0x5f, 0x63, 0x6f, 0x70, 0x79, 0x00, 0x00, 0x00, 0x68, 0xef, 0xff, 0xff, 0x10, 0x00, 0x00, 0x00, 0x04, 0x00, 0x00, 0x00, 
0x03, 0x00, 0x00, 0x00, 0x6f, 0x75, 0x74, 0x00, 0x12, 0x00, 0x00, 0x00, 0x61, 0x74, 0x65, 0x6e, 0x3a, 0x3a, 0x70, 0x65, 0x72, 0x6d, 0x75, 0x74, 0x65, 0x5f, 0x63, 0x6f, 0x70, 0x79, 0x00, 0x00, 
0x94, 0xef, 0xff, 0xff, 0x18, 0x00, 0x00, 0x00, 0x04, 0x00, 0x00, 0x00, 0x08, 0x00, 0x00, 0x00, 0x64, 0x69, 0x6d, 0x73, 0x5f, 0x6f, 0x75, 0x74, 0x00, 0x00, 0x00, 0x00, 0x12, 0x00, 0x00, 0x00, 
0x61, 0x74, 0x65, 0x6e, 0x3a, 0x3a, 0x73, 0x71, 0x75, 0x65, 0x65, 0x7a, 0x65, 0x5f, 0x63, 0x6f, 0x70, 0x79, 0x00, 0x00, 0xc8, 0xef, 0xff, 0xff, 0x10, 0x00, 0x00, 0x00, 0x04, 0x00, 0x00, 0x00, 
0x03, 0x00, 0x00, 0x00, 0x6f, 0x75, 0x74, 0x00, 0x1d, 0x00, 0x00, 0x00, 0x61, 0x74, 0x65, 0x6e, 0x3a, 0x3a, 0x6d, 0x61, 0x78, 0x5f, 0x70, 0x6f, 0x6f, 0x6c, 0x32, 0x64, 0x5f, 0x77, 0x69, 0x74, 
0x68, 0x5f, 0x69, 0x6e, 0x64, 0x69, 0x63, 0x65, 0x73, 0x00, 0x00, 0x00, 0x00, 0xf0, 0xff, 0xff, 0x10, 0x00, 0x00, 0x00, 0x04, 0x00, 0x00, 0x00, 0x03, 0x00, 0x00, 0x00, 0x6f, 0x75, 0x74, 0x00, 
0x14, 0x00, 0x00, 0x00, 0x61, 0x74, 0x65, 0x6e, 0x3a, 0x3a, 0x75, 0x6e, 0x73, 0x71, 0x75, 0x65, 0x65, 0x7a, 0x65, 0x5f, 0x63, 0x6f, 0x70, 0x79, 0x00, 0x00, 0x00, 0x00, 0x30, 0xf0, 0xff, 0xff, 
0x10, 0x00, 0x00, 0x00, 0x04, 0x00, 0x00, 0x00, 0x03, 0x00, 0x00, 0x00, 0x6f, 0x75, 0x74, 0x00, 0x0a, 0x00, 0x00, 0x00, 0x61, 0x74, 0x65, 0x6e, 0x3a, 0x3a, 0x72, 0x65, 0x6c, 0x75, 0x00, 0x00, 
0x54, 0xf0, 0xff, 0xff, 0x10, 0x00, 0x00, 0x00, 0x04, 0x00, 0x00, 0x00, 0x03, 0x00, 0x00, 0x00, 0x6f, 0x75, 0x74, 0x00, 0x11, 0x00, 0x00, 0x00, 0x61, 0x74, 0x65, 0x6e, 0x3a, 0x3a, 0x63, 0x6f, 
0x6e, 0x76, 0x6f, 0x6c, 0x75, 0x74, 0x69, 0x6f, 0x6e, 0x00, 0x00, 0x00, 0x01, 0x00, 0x00, 0x00, 0x10, 0x00, 0x00, 0x00, 0x00, 0x00, 0x0a, 0x00, 0x10, 0x00, 0x04, 0x00, 0x08, 0x00, 0x0c, 0x00, 
0x0a, 0x00, 0x00, 0x00, 0x34, 0x03, 0x00, 0x00, 0x2c, 0x03, 0x00, 0x00, 0x04, 0x00, 0x00, 0x00, 0x0f, 0x00, 0x00, 0x00, 0xd4, 0x02, 0x00, 0x00, 0xa8, 0x02, 0x00, 0x00, 0x78, 0x02, 0x00, 0x00, 
0x34, 0x02, 0x00, 0x00, 0x04, 0x02, 0x00, 0x00, 0xd4, 0x01, 0x00, 0x00, 0xa0, 0x01, 0x00, 0x00, 0x6c, 0x01, 0x00, 0x00, 0x3c, 0x01, 0x00, 0x00, 0x0c, 0x01, 0x00, 0x00, 0xd0, 0x00, 0x00, 0x00, 
0xa4, 0x00, 0x00, 0x00, 0x74, 0x00, 0x00, 0x00, 0x38, 0x00, 0x00, 0x00, 0x04, 0x00, 0x00, 0x00, 0x34, 0xf1, 0xff, 0xff, 0x00, 0x00, 0x00, 0x01, 0x04, 0x00, 0x00, 0x00, 0xf0, 0xf0, 0xff, 0xff, 
0x09, 0x00, 0x00, 0x00, 0x04, 0x00, 0x00, 0x00, 0x05, 0x00, 0x00, 0x00, 0x42, 0x00, 0x00, 0x00, 0x46, 0x00, 0x00, 0x00, 0x47, 0x00, 0x00, 0x00, 0x45, 0x00, 0x00, 0x00, 0x45, 0x00, 0x00, 0x00, 
0x64, 0xf1, 0xff, 0xff, 0x00, 0x00, 0x00, 0x01, 0x04, 0x00, 0x00, 0x00, 0x20, 0xf1, 0xff, 0xff, 0x08, 0x00, 0x00, 0x00, 0x04, 0x00, 0x00, 0x00, 0x07, 0x00, 0x00, 0x00, 0x05, 0x00, 0x00, 0x00, 
0x3d, 0x00, 0x00, 0x00, 0x3e, 0x00, 0x00, 0x00, 0x43, 0x00, 0x00, 0x00, 0x44, 0x00, 0x00, 0x00, 0x42, 0x00, 0x00, 0x00, 0x42, 0x00, 0x00, 0x00, 0x9c, 0xf1, 0xff, 0xff, 0x00, 0x00, 0x00, 0x01, 
0x04, 0x00, 0x00, 0x00, 0x58, 0xf1, 0xff, 0xff, 0x05, 0x00, 0x00, 0x00, 0x04, 0x00, 0x00, 0x00, 0x04, 0x00, 0x00, 0x00, 0x04, 0x00, 0x00, 0x00, 0x41, 0x00, 0x00, 0x00, 0x3e, 0x00, 0x00, 0x00, 
0x3e, 0x00, 0x00, 0x00, 0xc8, 0xf1, 0xff, 0xff, 0x00, 0x00, 0x00, 0x01, 0x04, 0x00, 0x00, 0x00, 0x84, 0xf1, 0xff, 0xff, 0x01, 0x00, 0x00, 0x00, 0x04, 0x00, 0x00, 0x00, 0x03, 0x00, 0x00, 0x00, 
0x3a, 0x00, 0x00, 0x00, 0x3d, 0x00, 0x00, 0x00, 0x3d, 0x00, 0x00, 0x00, 0xf0, 0xf1, 0xff, 0xff, 0x00, 0x00, 0x00, 0x01, 0x04, 0x00, 0x00, 0x00, 0xac, 0xf1, 0xff, 0xff, 0x08, 0x00, 0x00, 0x00, 
0x04, 0x00, 0x00, 0x00, 0x07, 0x00, 0x00, 0x00, 0x03, 0x00, 0x00, 0x00, 0x33, 0x00, 0x00, 0x00, 0x36, 0x00, 0x00, 0x00, 0x3b, 0x00, 0x00, 0x00, 0x3c, 0x00, 0x00, 0x00, 0x3a, 0x00, 0x00, 0x00, 
0x3a, 0x00, 0x00, 0x00, 0x28, 0xf2, 0xff, 0xff, 0x00, 0x00, 0x00, 0x01, 0x04, 0x00, 0x00, 0x00, 0xe4, 0xf1, 0xff, 0xff, 0x05, 0x00, 0x00, 0x00, 0x04, 0x00, 0x00, 0x00, 0x04, 0x00, 0x00, 0x00, 
0x02, 0x00, 0x00, 0x00, 0x39, 0x00, 0x00, 0x00, 0x36, 0x00, 0x00, 0x00, 0x36, 0x00, 0x00, 0x00, 0x54, 0xf2, 0xff, 0xff, 0x00, 0x00, 0x00, 0x01, 0x04, 0x00, 0x00, 0x00, 0x10, 0xf2, 0xff, 0xff, 
0x07, 0x00, 0x00, 0x00, 0x04, 0x00, 0x00, 0x00, 0x04, 0x00, 0x00, 0x00, 0x34, 0x00, 0x00, 0x00, 0x35, 0x00, 0x00, 0x00, 0x33, 0x00, 0x00, 0x00, 0x33, 0x00, 0x00, 0x00, 0x80, 0xf2, 0xff, 0xff, 
0x00, 0x00, 0x00, 0x01, 0x04, 0x00, 0x00, 0x00, 0x3c, 0xf2, 0xff, 0xff, 0x06, 0x00, 0x00, 0x00, 0x04, 0x00, 0x00, 0x00, 0x05, 0x00, 0x00, 0x00, 0x28, 0x00, 0x00, 0x00, 0x31, 0x00, 0x00, 0x00, 
0x32, 0x00, 0x00, 0x00, 0x30, 0x00, 0x00, 0x00, 0x30, 0x00, 0x00, 0x00, 0xb0, 0xf2, 0xff, 0xff, 0x00, 0x00, 0x00, 0x01, 0x04, 0x00, 0x00, 0x00, 0x6c, 0xf2, 0xff, 0xff, 0x06, 0x00, 0x00, 0x00, 
0x04, 0x00, 0x00, 0x00, 0x05, 0x00, 0x00, 0x00, 0x28, 0x00, 0x00, 0x00, 0x2e, 0x00, 0x00, 0x00, 0x2f, 0x00, 0x00, 0x00, 0x2d, 0x00, 0x00, 0x00, 0x2d, 0x00, 0x00, 0x00, 0xe0, 0xf2, 0xff, 0xff, 
0x00, 0x00, 0x00, 0x01, 0x04, 0x00, 0x00, 0x00, 0x9c, 0xf2, 0xff, 0xff, 0x05, 0x00, 0x00, 0x00, 0x04, 0x00, 0x00, 0x00, 0x04, 0x00, 0x00, 0x00, 0x25, 0x00, 0x00, 0x00, 0x2c, 0x00, 0x00, 0x00, 
0x28, 0x00, 0x00, 0x00, 0x28, 0x00, 0x00, 0x00, 0x0c, 0xf3, 0xff, 0xff, 0x00, 0x00, 0x00, 0x01, 0x04, 0x00, 0x00, 0x00, 0xc8, 0xf2, 0xff, 0xff, 0x04, 0x00, 0x00, 0x00, 0x04, 0x00, 0x00, 0x00, 
0x04, 0x00, 0x00, 0x00, 0x15, 0x00, 0x00, 0x00, 0x27, 0x00, 0x00, 0x00, 0x25, 0x00, 0x00, 0x00, 0x25, 0x00, 0x00, 0x00, 0x38, 0xf3, 0xff, 0xff, 0x00, 0x00, 0x00, 0x01, 0x04, 0x00, 0x00, 0x00, 
0xf4, 0xf2, 0xff, 0xff, 0x03, 0x00, 0x00, 0x00, 0x04, 0x00, 0x00, 0x00, 0x09, 0x00, 0x00, 0x00, 0x13, 0x00, 0x00, 0x00, 0x19, 0x00, 0x00, 0x00, 0x1c, 0x00, 0x00, 0x00, 0x1f, 0x00, 0x00, 0x00, 
0x22, 0x00, 0x00, 0x00, 0x23, 0x00, 0x00, 0x00, 0x15, 0x00, 0x00, 0x00, 0x16, 0x00, 0x00, 0x00, 0x24, 0x00, 0x00, 0x00, 0x78, 0xf3, 0xff, 0xff, 0x00, 0x00, 0x00, 0x01, 0x04, 0x00, 0x00, 0x00, 
0x34, 0xf3, 0xff, 0xff, 0x02, 0x00, 0x00, 0x00, 0x04, 0x00, 0x00, 0x00, 0x04, 0x00, 0x00, 0x00, 0x12, 0x00, 0x00, 0x00, 0x14, 0x00, 0x00, 0x00, 0x13, 0x00, 0x00, 0x00, 0x13, 0x00, 0x00, 0x00, 
0xa4, 0xf3, 0xff, 0xff, 0x00, 0x00, 0x00, 0x01, 0x04, 0x00, 0x00, 0x00, 0x60, 0xf3, 0xff, 0xff, 0x01, 0x00, 0x00, 0x00, 0x04, 0x00, 0x00, 0x00, 0x03, 0x00, 0x00, 0x00, 0x07, 0x00, 0x00, 0x00, 
0x12, 0x00, 0x00, 0x00, 0x12, 0x00, 0x00, 0x00, 0xcc, 0xf3, 0xff, 0xff, 0x00, 0x00, 0x00, 0x01, 0x0c, 0x00, 0x00, 0x00, 0x08, 0x00, 0x08, 0x00, 0x00, 0x00, 0x04, 0x00, 0x08, 0x00, 0x00, 0x00, 
0x04, 0x00, 0x00, 0x00, 0x0b, 0x00, 0x00, 0x00, 0x06, 0x00, 0x00, 0x00, 0x00, 0x00, 0x00, 0x00, 0x01, 0x00, 0x00, 0x00, 0x09, 0x00, 0x00, 0x00, 0x0b, 0x00, 0x00, 0x00, 0x0d, 0x00, 0x00, 0x00, 
0x0e, 0x00, 0x00, 0x00, 0x10, 0x00, 0x00, 0x00, 0x11, 0x00, 0x00, 0x00, 0x07, 0x00, 0x00, 0x00, 0x07, 0x00, 0x00, 0x00, 0x00, 0x00, 0x00, 0x00, 0x00, 0x00, 0x00, 0x00, 0x01, 0x00, 0x00, 0x00, 
0x45, 0x00, 0x00, 0x00, 0x01, 0x00, 0x00, 0x00, 0x06, 0x00, 0x00, 0x00, 0x48, 0x00, 0x00, 0x00, 0xd4, 0x0b, 0x00, 0x00, 0x98, 0x0b, 0x00, 0x00, 0x60, 0x0b, 0x00, 0x00, 0x2c, 0x0b, 0x00, 0x00, 
0xf4, 0x0a, 0x00, 0x00, 0xc0, 0x0a, 0x00, 0x00, 0x60, 0x0a, 0x00, 0x00, 0xfc, 0x09, 0x00, 0x00, 0xd8, 0x09, 0x00, 0x00, 0xb4, 0x09, 0x00, 0x00, 0x9c, 0x09, 0x00, 0x00, 0x74, 0x09, 0x00, 0x00, 
0x58, 0x09, 0x00, 0x00, 0x34, 0x09, 0x00, 0x00, 0x20, 0x09, 0x00, 0x00, 0x0c, 0x09, 0x00, 0x00, 0xe8, 0x08, 0x00, 0x00, 0xcc, 0x08, 0x00, 0x00, 0x88, 0x08, 0x00, 0x00, 0x3c, 0x08, 0x00, 0x00, 
0x20, 0x08, 0x00, 0x00, 0xd8, 0x07, 0x00, 0x00, 0x78, 0x07, 0x00, 0x00, 0x5c, 0x07, 0x00, 0x00, 0x40, 0x07, 0x00, 0x00, 0x14, 0x07, 0x00, 0x00, 0xf8, 0x06, 0x00, 0x00, 0xdc, 0x06, 0x00, 0x00, 
0xb0, 0x06, 0x00, 0x00, 0x9c, 0x06, 0x00, 0x00, 0x88, 0x06, 0x00, 0x00, 0x5c, 0x06, 0x00, 0x00, 0x40, 0x06, 0x00, 0x00, 0x24, 0x06, 0x00, 0x00, 0xf8, 0x05, 0x00, 0x00, 0xe4, 0x05, 0x00, 0x00, 
0xc0, 0x05, 0x00, 0x00, 0x78, 0x05, 0x00, 0x00, 0x50, 0x05, 0x00, 0x00, 0x2c, 0x05, 0x00, 0x00, 0xe8, 0x04, 0x00, 0x00, 0xd4, 0x04, 0x00, 0x00, 0xb8, 0x04, 0x00, 0x00, 0x9c, 0x04, 0x00, 0x00, 
0x68, 0x04, 0x00, 0x00, 0x24, 0x04, 0x00, 0x00, 0x08, 0x04, 0x00, 0x00, 0xf4, 0x03, 0x00, 0x00, 0xb0, 0x03, 0x00, 0x00, 0x94, 0x03, 0x00, 0x00, 0x78, 0x03, 0x00, 0x00, 0x38, 0x03, 0x00, 0x00, 
0x14, 0x03, 0x00, 0x00, 0xf4, 0x02, 0x00, 0x00, 0xb0, 0x02, 0x00, 0x00, 0x94, 0x02, 0x00, 0x00, 0x80, 0x02, 0x00, 0x00, 0x54, 0x02, 0x00, 0x00, 0x10, 0x02, 0x00, 0x00, 0xf4, 0x01, 0x00, 0x00, 
0xd8, 0x01, 0x00, 0x00, 0x98, 0x01, 0x00, 0x00, 0x54, 0x01, 0x00, 0x00, 0x34, 0x01, 0x00, 0x00, 0x20, 0x01, 0x00, 0x00, 0xf4, 0x00, 0x00, 0x00, 0xb0, 0x00, 0x00, 0x00, 0x94, 0x00, 0x00, 0x00, 
0x78, 0x00, 0x00, 0x00, 0x34, 0x00, 0x00, 0x00, 0x18, 0x00, 0x00, 0x00, 0x04, 0x00, 0x00, 0x00, 0x54, 0xf5, 0xff, 0xff, 0x00, 0x00, 0x00, 0x03, 0x04, 0x00, 0x00, 0x00, 0x5c, 0xf7, 0xff, 0xff, 
0x64, 0xf5, 0xff, 0xff, 0x00, 0x00, 0x00, 0x02, 0x04, 0x00, 0x00, 0x00, 0x36, 0xf7, 0xff, 0xff, 0x01, 0x00, 0x00, 0x00, 0x00, 0x00, 0x00, 0x00, 0x7c, 0xf5, 0xff, 0xff, 0x00, 0x00, 0x00, 0x05, 
0x04, 0x00, 0x00, 0x00, 0x2e, 0xf7, 0xff, 0xff, 0x00, 0x00, 0x06, 0x01, 0x20, 0x00, 0x00, 0x00, 0x14, 0x00, 0x00, 0x00, 0x04, 0x00, 0x00, 0x00, 0x4c, 0xf5, 0xff, 0xff, 0x01, 0x00, 0x00, 0x00, 
0x00, 0x15, 0x00, 0x00, 0x02, 0x00, 0x00, 0x00, 0x00, 0x01, 0x00, 0x00, 0x02, 0x00, 0x00, 0x00, 0x01, 0x00, 0x00, 0x00, 0x02, 0x00, 0x00, 0x00, 0xbc, 0xf5, 0xff, 0xff, 0x00, 0x00, 0x00, 0x02, 
0x04, 0x00, 0x00, 0x00, 0x8e, 0xf7, 0xff, 0xff, 0x01, 0x00, 0x00, 0x00, 0x00, 0x00, 0x00, 0x00, 0xd4, 0xf5, 0xff, 0xff, 0x00, 0x00, 0x00, 0x02, 0x04, 0x00, 0x00, 0x00, 0xa6, 0xf7, 0xff, 0xff, 
0x01, 0x00, 0x00, 0x00, 0x00, 0x00, 0x00, 0x00, 0xec, 0xf5, 0xff, 0xff, 0x00, 0x00, 0x00, 0x05, 0x04, 0x00, 0x00, 0x00, 0x9e, 0xf7, 0xff, 0xff, 0x00, 0x00, 0x06, 0x01, 0x20, 0x00, 0x00, 0x00, 
0x14, 0x00, 0x00, 0x00, 0x04, 0x00, 0x00, 0x00, 0xbc, 0xf5, 0xff, 0xff, 0x01, 0x00, 0x00, 0x00, 0x80, 0x15, 0x00, 0x00, 0x02, 0x00, 0x00, 0x00, 0x00, 0x01, 0x00, 0x00, 0x02, 0x00, 0x00, 0x00, 
0x01, 0x00, 0x00, 0x00, 0x02, 0x00, 0x00, 0x00, 0x2c, 0xf6, 0xff, 0xff, 0x00, 0x00, 0x00, 0x07, 0x04, 0x00, 0x00, 0x00, 0x56, 0xf7, 0xff, 0xff, 0x04, 0x00, 0x00, 0x00, 0x02, 0x00, 0x00, 0x00, 
0x3f, 0x00, 0x00, 0x00, 0x00, 0x00, 0x00, 0x00, 0x40, 0x00, 0x00, 0x00, 0x00, 0x00, 0x00, 0x00, 0x54, 0xf6, 0xff, 0xff, 0x00, 0x00, 0x00, 0x02, 0x04, 0x00, 0x00, 0x00, 0x5c, 0xf8, 0xff, 0xff, 
0x64, 0xf6, 0xff, 0xff, 0x00, 0x00, 0x00, 0x02, 0x04, 0x00, 0x00, 0x00, 0x46, 0xfc, 0xff, 0xff, 0x01, 0x00, 0x00, 0x00, 0x00, 0x00, 0x00, 0x00, 0x00, 0x00, 0x00, 0x00, 0x80, 0xf6, 0xff, 0xff, 
0x00, 0x00, 0x00, 0x05, 0x04, 0x00, 0x00, 0x00, 0x32, 0xf8, 0xff, 0xff, 0x00, 0x00, 0x06, 0x01, 0x20, 0x00, 0x00, 0x00, 0x14, 0x00, 0x00, 0x00, 0x04, 0x00, 0x00, 0x00, 0x50, 0xf6, 0xff, 0xff, 
0x01, 0x00, 0x00, 0x00, 0x00, 0x15, 0x00, 0x00, 0x02, 0x00, 0x00, 0x00, 0x00, 0x01, 0x00, 0x00, 0x02, 0x00, 0x00, 0x00, 0x10, 0x00, 0x00, 0x00, 0x02, 0x00, 0x00, 0x00, 0xc0, 0xf6, 0xff, 0xff, 
0x00, 0x00, 0x00, 0x05, 0x04, 0x00, 0x00, 0x00, 0x72, 0xf8, 0xff, 0xff, 0x00, 0x00, 0x06, 0x01, 0x1c, 0x00, 0x00, 0x00, 0x10, 0x00, 0x00, 0x00, 0x04, 0x00, 0x00, 0x00, 0xfe, 0xf7, 0xff, 0xff, 
0x01, 0x00, 0x00, 0x00, 0x02, 0x00, 0x00, 0x00, 0x00, 0x01, 0x00, 0x00, 0x02, 0x00, 0x00, 0x00, 0x01, 0x00, 0x00, 0x00, 0x10, 0x00, 0x00, 0x00, 0xfc, 0xf6, 0xff, 0xff, 0x00, 0x00, 0x00, 0x02, 
0x04, 0x00, 0x00, 0x00, 0xce, 0xf8, 0xff, 0xff, 0x01, 0x00, 0x00, 0x00, 0x00, 0x00, 0x00, 0x00, 0x14, 0xf7, 0xff, 0xff, 0x00, 0x00, 0x00, 0x02, 0x04, 0x00, 0x00, 0x00, 0xe6, 0xf8, 0xff, 0xff, 
0x01, 0x00, 0x00, 0x00, 0x00, 0x00, 0x00, 0x00, 0x2c, 0xf7, 0xff, 0xff, 0x00, 0x00, 0x00, 0x05, 0x04, 0x00, 0x00, 0x00, 0xde, 0xf8, 0xff, 0xff, 0x00, 0x00, 0x06, 0x01, 0x20, 0x00, 0x00, 0x00, 
0x14, 0x00, 0x00, 0x00, 0x04, 0x00, 0x00, 0x00, 0xfc, 0xf6, 0xff, 0xff, 0x01, 0x00, 0x00, 0x00, 0x00, 0x15, 0x00, 0x00, 0x02, 0x00, 0x00, 0x00, 0x00, 0x01, 0x00, 0x00, 0x02, 0x00, 0x00, 0x00, 
0x01, 0x00, 0x00, 0x00, 0x10, 0x00, 0x00, 0x00, 0x6c, 0xf7, 0xff, 0xff, 0x00, 0x00, 0x00, 0x07, 0x04, 0x00, 0x00, 0x00, 0x96, 0xf8, 0xff, 0xff, 0x04, 0x00, 0x00, 0x00, 0x02, 0x00, 0x00, 0x00, 
0x37, 0x00, 0x00, 0x00, 0x00, 0x00, 0x00, 0x00, 0x38, 0x00, 0x00, 0x00, 0x00, 0x00, 0x00, 0x00, 0x94, 0xf7, 0xff, 0xff, 0x00, 0x00, 0x00, 0x02, 0x04, 0x00, 0x00, 0x00, 0x9c, 0xf9, 0xff, 0xff, 
0xa4, 0xf7, 0xff, 0xff, 0x00, 0x00, 0x00, 0x02, 0x04, 0x00, 0x00, 0x00, 0x76, 0xf9, 0xff, 0xff, 0x01, 0x00, 0x00, 0x00, 0x00, 0x00, 0x00, 0x00, 0xbc, 0xf7, 0xff, 0xff, 0x00, 0x00, 0x00, 0x05, 
0x04, 0x00, 0x00, 0x00, 0x6e, 0xf9, 0xff, 0xff, 0x00, 0x00, 0x06, 0x01, 0x20, 0x00, 0x00, 0x00, 0x14, 0x00, 0x00, 0x00, 0x04, 0x00, 0x00, 0x00, 0x8c, 0xf7, 0xff, 0xff, 0x01, 0x00, 0x00, 0x00, 
0x00, 0x03, 0x00, 0x00, 0x02, 0x00, 0x00, 0x00, 0x00, 0x01, 0x00, 0x00, 0x02, 0x00, 0x00, 0x00, 0x40, 0x00, 0x00, 0x00, 0x10, 0x00, 0x00, 0x00, 0xfc, 0xf7, 0xff, 0xff, 0x00, 0x00, 0x00, 0x02, 
0x04, 0x00, 0x00, 0x00, 0xde, 0xfd, 0xff, 0xff, 0x01, 0x00, 0x00, 0x00, 0x00, 0x00, 0x00, 0x00, 0x00, 0x00, 0x00, 0x00, 0x18, 0xf8, 0xff, 0xff, 0x00, 0x00, 0x00, 0x0a, 0x04, 0x00, 0x00, 0x00, 
0x42, 0xf9, 0xff, 0xff, 0x04, 0x00, 0x00, 0x00, 0x02, 0x00, 0x00, 0x00, 0x2d, 0x00, 0x00, 0x00, 0x30, 0x00, 0x00, 0x00, 0x38, 0xf8, 0xff, 0xff, 0x00, 0x00, 0x00, 0x05, 0x04, 0x00, 0x00, 0x00, 
0xea, 0xf9, 0xff, 0xff, 0x00, 0x00, 0x06, 0x01, 0x1c, 0x00, 0x00, 0x00, 0x10, 0x00, 0x00, 0x00, 0x04, 0x00, 0x00, 0x00, 0x76, 0xf9, 0xff, 0xff, 0x01, 0x00, 0x00, 0x00, 0x02, 0x00, 0x00, 0x00, 
0x00, 0x01, 0x00, 0x00, 0x02, 0x00, 0x00, 0x00, 0x01, 0x00, 0x00, 0x00, 0x40, 0x00, 0x00, 0x00, 0x74, 0xf8, 0xff, 0xff, 0x00, 0x00, 0x00, 0x02, 0x04, 0x00, 0x00, 0x00, 0x46, 0xfa, 0xff, 0xff, 
0x01, 0x00, 0x00, 0x00, 0x00, 0x00, 0x00, 0x00, 0x8c, 0xf8, 0xff, 0xff, 0x00, 0x00, 0x00, 0x02, 0x04, 0x00, 0x00, 0x00, 0x5e, 0xfa, 0xff, 0xff, 0x02, 0x00, 0x00, 0x00, 0x00, 0x00, 0x00, 0x00, 
0xa4, 0xf8, 0xff, 0xff, 0x00, 0x00, 0x00, 0x05, 0x04, 0x00, 0x00, 0x00, 0x56, 0xfa, 0xff, 0xff, 0x00, 0x00, 0x06, 0x01, 0x20, 0x00, 0x00, 0x00, 0x14, 0x00, 0x00, 0x00, 0x04, 0x00, 0x00, 0x00, 
0x74, 0xf8, 0xff, 0xff, 0x01, 0x00, 0x00, 0x00, 0x00, 0x15, 0x00, 0x00, 0x02, 0x00, 0x00, 0x00, 0x00, 0x01, 0x00, 0x00, 0x02, 0x00, 0x00, 0x00, 0x01, 0x00, 0x00, 0x00, 0x20, 0x00, 0x00, 0x00, 
0xe4, 0xf8, 0xff, 0xff, 0x00, 0x00, 0x00, 0x02, 0x04, 0x00, 0x00, 0x00, 0xec, 0xfa, 0xff, 0xff, 0xf4, 0xf8, 0xff, 0xff, 0x00, 0x00, 0x00, 0x02, 0x04, 0x00, 0x00, 0x00, 0xc6, 0xfa, 0xff, 0xff, 
0x02, 0x00, 0x00, 0x00, 0x00, 0x00, 0x00, 0x00, 0x0c, 0xf9, 0xff, 0xff, 0x00, 0x00, 0x00, 0x05, 0x04, 0x00, 0x00, 0x00, 0xbe, 0xfa, 0xff, 0xff, 0x00, 0x00, 0x06, 0x01, 0x20, 0x00, 0x00, 0x00, 
0x14, 0x00, 0x00, 0x00, 0x04, 0x00, 0x00, 0x00, 0xdc, 0xf8, 0xff, 0xff, 0x01, 0x00, 0x00, 0x00, 0x00, 0x13, 0x00, 0x00, 0x02, 0x00, 0x00, 0x00, 0x00, 0x01, 0x00, 0x00, 0x02, 0x00, 0x00, 0x00, 
0x01, 0x00, 0x00, 0x00, 0x20, 0x00, 0x00, 0x00, 0x4c, 0xf9, 0xff, 0xff, 0x00, 0x00, 0x00, 0x07, 0x04, 0x00, 0x00, 0x00, 0x76, 0xfa, 0xff, 0xff, 0x04, 0x00, 0x00, 0x00, 0x03, 0x00, 0x00, 0x00, 
0x29, 0x00, 0x00, 0x00, 0x00, 0x00, 0x00, 0x00, 0x2a, 0x00, 0x00, 0x00, 0x00, 0x00, 0x00, 0x00, 0x2b, 0x00, 0x00, 0x00, 0x00, 0x00, 0x00, 0x00, 0x7c, 0xf9, 0xff, 0xff, 0x00, 0x00, 0x00, 0x02, 
0x04, 0x00, 0x00, 0x00, 0x4e, 0xfb, 0xff, 0xff, 0x01, 0x00, 0x00, 0x00, 0x00, 0x00, 0x00, 0x00, 0x94, 0xf9, 0xff, 0xff, 0x00, 0x00, 0x00, 0x02, 0x04, 0x00, 0x00, 0x00, 0x66, 0xfb, 0xff, 0xff, 
0x02, 0x00, 0x00, 0x00, 0x00, 0x00, 0x00, 0x00, 0xac, 0xf9, 0xff, 0xff, 0x00, 0x00, 0x00, 0x02, 0x04, 0x00, 0x00, 0x00, 0xb4, 0xfb, 0xff, 0xff, 0xbc, 0xf9, 0xff, 0xff, 0x00, 0x00, 0x00, 0x05, 
0x04, 0x00, 0x00, 0x00, 0x6e, 0xfb, 0xff, 0xff, 0x00, 0x00, 0x06, 0x01, 0x1c, 0x00, 0x00, 0x00, 0x10, 0x00, 0x00, 0x00, 0x04, 0x00, 0x00, 0x00, 0xfa, 0xfa, 0xff, 0xff, 0x01, 0x00, 0x00, 0x00, 
0x03, 0x00, 0x00, 0x00, 0x00, 0x01, 0x02, 0x00, 0x03, 0x00, 0x00, 0x00, 0x01, 0x00, 0x00, 0x00, 0x20, 0x00, 0x00, 0x00, 0x02, 0x00, 0x00, 0x00, 0xfc, 0xf9, 0xff, 0xff, 0x00, 0x00, 0x00, 0x07, 
0x04, 0x00, 0x00, 0x00, 0x26, 0xfb, 0xff, 0xff, 0x04, 0x00, 0x00, 0x00, 0x01, 0x00, 0x00, 0x00, 0x26, 0x00, 0x00, 0x00, 0x00, 0x00, 0x00, 0x00, 0x78, 0xfb, 0xff, 0xff, 0x00, 0x00, 0x00, 0x02, 
0x0c, 0x00, 0x00, 0x00, 0x00, 0x00, 0x06, 0x00, 0x10, 0x00, 0x04, 0x00, 0x06, 0x00, 0x00, 0x00, 0xfe, 0xff, 0xff, 0xff, 0xff, 0xff, 0xff, 0xff, 0x00, 0x00, 0x00, 0x00, 0x40, 0xfa, 0xff, 0xff, 
0x00, 0x00, 0x00, 0x05, 0x04, 0x00, 0x00, 0x00, 0xf2, 0xfb, 0xff, 0xff, 0x00, 0x00, 0x06, 0x01, 0x20, 0x00, 0x00, 0x00, 0x14, 0x00, 0x00, 0x00, 0x04, 0x00, 0x00, 0x00, 0x10, 0xfa, 0xff, 0xff, 
0x01, 0x00, 0x00, 0x00, 0x00, 0x13, 0x00, 0x00, 0x03, 0x00, 0x00, 0x00, 0x00, 0x01, 0x02, 0x00, 0x03, 0x00, 0x00, 0x00, 0x01, 0x00, 0x00, 0x00, 0x02, 0x00, 0x00, 0x00, 0x20, 0x00, 0x00, 0x00, 
0x84, 0xfa, 0xff, 0xff, 0x00, 0x00, 0x00, 0x0a, 0x04, 0x00, 0x00, 0x00, 0xae, 0xfb, 0xff, 0xff, 0x04, 0x00, 0x00, 0x00, 0x02, 0x00, 0x00, 0x00, 0x15, 0x00, 0x00, 0x00, 0x16, 0x00, 0x00, 0x00, 
0xa4, 0xfa, 0xff, 0xff, 0x00, 0x00, 0x00, 0x03, 0x04, 0x00, 0x00, 0x00, 0xac, 0xfc, 0xff, 0xff, 0xb4, 0xfa, 0xff, 0xff, 0x00, 0x00, 0x00, 0x07, 0x04, 0x00, 0x00, 0x00, 0xde, 0xfb, 0xff, 0xff, 
0x04, 0x00, 0x00, 0x00, 0x02, 0x00, 0x00, 0x00, 0x20, 0x00, 0x00, 0x00, 0x00, 0x00, 0x00, 0x00, 0x21, 0x00, 0x00, 0x00, 0x00, 0x00, 0x00, 0x00, 0xdc, 0xfa, 0xff, 0xff, 0x00, 0x00, 0x00, 0x02, 
0x04, 0x00, 0x00, 0x00, 0xae, 0xfc, 0xff, 0xff, 0x01, 0x00, 0x00, 0x00, 0x00, 0x00, 0x00, 0x00, 0xf4, 0xfa, 0xff, 0xff, 0x00, 0x00, 0x00, 0x02, 0x04, 0x00, 0x00, 0x00, 0xc6, 0xfc, 0xff, 0xff, 
0x01, 0x00, 0x00, 0x00, 0x00, 0x00, 0x00, 0x00, 0x0c, 0xfb, 0xff, 0xff, 0x00, 0x00, 0x00, 0x07, 0x04, 0x00, 0x00, 0x00, 0x36, 0xfc, 0xff, 0xff, 0x04, 0x00, 0x00, 0x00, 0x02, 0x00, 0x00, 0x00, 
0x1d, 0x00, 0x00, 0x00, 0x00, 0x00, 0x00, 0x00, 0x1e, 0x00, 0x00, 0x00, 0x00, 0x00, 0x00, 0x00, 0x34, 0xfb, 0xff, 0xff, 0x00, 0x00, 0x00, 0x02, 0x04, 0x00, 0x00, 0x00, 0x3c, 0xfd, 0xff, 0xff, 
0x44, 0xfb, 0xff, 0xff, 0x00, 0x00, 0x00, 0x02, 0x04, 0x00, 0x00, 0x00, 0x4c, 0xfd, 0xff, 0xff, 0x54, 0xfb, 0xff, 0xff, 0x00, 0x00, 0x00, 0x07, 0x04, 0x00, 0x00, 0x00, 0x7e, 0xfc, 0xff, 0xff, 
0x04, 0x00, 0x00, 0x00, 0x02, 0x00, 0x00, 0x00, 0x1a, 0x00, 0x00, 0x00, 0x00, 0x00, 0x00, 0x00, 0x1b, 0x00, 0x00, 0x00, 0x00, 0x00, 0x00, 0x00, 0x7c, 0xfb, 0xff, 0xff, 0x00, 0x00, 0x00, 0x02, 
0x04, 0x00, 0x00, 0x00, 0x4e, 0xfd, 0xff, 0xff, 0x03, 0x00, 0x00, 0x00, 0x00, 0x00, 0x00, 0x00, 0x94, 0xfb, 0xff, 0xff, 0x00, 0x00, 0x00, 0x02, 0x04, 0x00, 0x00, 0x00, 0x66, 0xfd, 0xff, 0xff, 
0x01, 0x00, 0x00, 0x00, 0x00, 0x00, 0x00, 0x00, 0xac, 0xfb, 0xff, 0xff, 0x00, 0x00, 0x00, 0x07, 0x04, 0x00, 0x00, 0x00, 0xd6, 0xfc, 0xff, 0xff, 0x04, 0x00, 0x00, 0x00, 0x02, 0x00, 0x00, 0x00, 
0x17, 0x00, 0x00, 0x00, 0x00, 0x00, 0x00, 0x00, 0x18, 0x00, 0x00, 0x00, 0x00, 0x00, 0x00, 0x00, 0xd4, 0xfb, 0xff, 0xff, 0x00, 0x00, 0x00, 0x02, 0x04, 0x00, 0x00, 0x00, 0xa6, 0xfd, 0xff, 0xff, 
0x03, 0x00, 0x00, 0x00, 0x00, 0x00, 0x00, 0x00, 0xec, 0xfb, 0xff, 0xff, 0x00, 0x00, 0x00, 0x02, 0x04, 0x00, 0x00, 0x00, 0xbe, 0xfd, 0xff, 0xff, 0x01, 0x00, 0x00, 0x00, 0x00, 0x00, 0x00, 0x00, 
0x60, 0xfd, 0xff, 0xff, 0x00, 0x00, 0x00, 0x05, 0x18, 0x00, 0x00, 0x00, 0x00, 0x00, 0x12, 0x00, 0x14, 0x00, 0x07, 0x00, 0x00, 0x00, 0x08, 0x00, 0x0c, 0x00, 0x00, 0x00, 0x00, 0x00, 0x10, 0x00, 
0x12, 0x00, 0x00, 0x00, 0x00, 0x00, 0x00, 0x04, 0x20, 0x00, 0x00, 0x00, 0x14, 0x00, 0x00, 0x00, 0x04, 0x00, 0x00, 0x00, 0xe8, 0xfb, 0xff, 0xff, 0x01, 0x00, 0x00, 0x00, 0x00, 0x13, 0x00, 0x00, 
0x04, 0x00, 0x00, 0x00, 0x00, 0x01, 0x02, 0x03, 0x04, 0x00, 0x00, 0x00, 0x01, 0x00, 0x00, 0x00, 0x02, 0x00, 0x00, 0x00, 0x01, 0x00, 0x00, 0x00, 0x20, 0x00, 0x00, 0x00, 0x60, 0xfc, 0xff, 0xff, 
0x00, 0x00, 0x00, 0x05, 0x04, 0x00, 0x00, 0x00, 0x12, 0xfe, 0xff, 0xff, 0x00, 0x00, 0x06, 0x01, 0x1c, 0x00, 0x00, 0x00, 0x10, 0x00, 0x00, 0x00, 0x04, 0x00, 0x00, 0x00, 0x9e, 0xfd, 0xff, 0xff, 
0x01, 0x00, 0x00, 0x00, 0x04, 0x00, 0x00, 0x00, 0x00, 0x01, 0x02, 0x03, 0x04, 0x00, 0x00, 0x00, 0x01, 0x00, 0x00, 0x00, 0x02, 0x00, 0x00, 0x00, 0x01, 0x00, 0x00, 0x00, 0x20, 0x00, 0x00, 0x00, 
0xa4, 0xfc, 0xff, 0xff, 0x00, 0x00, 0x00, 0x02, 0x04, 0x00, 0x00, 0x00, 0x76, 0xfe, 0xff, 0xff, 0xfe, 0xff, 0xff, 0xff, 0xff, 0xff, 0xff, 0xff, 0xbc, 0xfc, 0xff, 0xff, 0x00, 0x00, 0x00, 0x05, 
0x04, 0x00, 0x00, 0x00, 0x6e, 0xfe, 0xff, 0xff, 0x00, 0x00, 0x06, 0x01, 0x20, 0x00, 0x00, 0x00, 0x14, 0x00, 0x00, 0x00, 0x04, 0x00, 0x00, 0x00, 0x8c, 0xfc, 0xff, 0xff, 0x01, 0x00, 0x00, 0x00, 
0x00, 0x03, 0x00, 0x00, 0x04, 0x00, 0x00, 0x00, 0x00, 0x01, 0x02, 0x03, 0x04, 0x00, 0x00, 0x00, 0x01, 0x00, 0x00, 0x00, 0x02, 0x00, 0x00, 0x00, 0x01, 0x00, 0x00, 0x00, 0x60, 0x00, 0x00, 0x00, 
0x04, 0xfd, 0xff, 0xff, 0x00, 0x00, 0x00, 0x05, 0x04, 0x00, 0x00, 0x00, 0xb6, 0xfe, 0xff, 0xff, 0x00, 0x00, 0x06, 0x01, 0x1c, 0x00, 0x00, 0x00, 0x10, 0x00, 0x00, 0x00, 0x04, 0x00, 0x00, 0x00, 
0x42, 0xfe, 0xff, 0xff, 0x01, 0x00, 0x00, 0x00, 0x03, 0x00, 0x00, 0x00, 0x00, 0x01, 0x02, 0x00, 0x03, 0x00, 0x00, 0x00, 0x01, 0x00, 0x00, 0x00, 0x02, 0x00, 0x00, 0x00, 0x60, 0x00, 0x00, 0x00, 
0x44, 0xfd, 0xff, 0xff, 0x00, 0x00, 0x00, 0x02, 0x04, 0x00, 0x00, 0x00, 0x16, 0xff, 0xff, 0xff, 0x01, 0x00, 0x00, 0x00, 0x00, 0x00, 0x00, 0x00, 0x5c, 0xfd, 0xff, 0xff, 0x00, 0x00, 0x00, 0x07, 
0x04, 0x00, 0x00, 0x00, 0x86, 0xfe, 0xff, 0xff, 0x04, 0x00, 0x00, 0x00, 0x01, 0x00, 0x00, 0x00, 0x0f, 0x00, 0x00, 0x00, 0x00, 0x00, 0x00, 0x00, 0x7c, 0xfd, 0xff, 0xff, 0x00, 0x00, 0x00, 0x02, 
0x04, 0x00, 0x00, 0x00, 0x84, 0xff, 0xff, 0xff, 0x8c, 0xfd, 0xff, 0xff, 0x00, 0x00, 0x00, 0x03, 0x04, 0x00, 0x00, 0x00, 0x94, 0xff, 0xff, 0xff, 0x9c, 0xfd, 0xff, 0xff, 0x00, 0x00, 0x00, 0x07, 
0x04, 0x00, 0x00, 0x00, 0xc6, 0xfe, 0xff, 0xff, 0x04, 0x00, 0x00, 0x00, 0x01, 0x00, 0x00, 0x00, 0x0c, 0x00, 0x00, 0x00, 0x00, 0x00, 0x00, 0x00, 0xbc, 0xfd, 0xff, 0xff, 0x00, 0x00, 0x00, 0x02, 
0x04, 0x00, 0x00, 0x00, 0x8e, 0xff, 0xff, 0xff, 0x01, 0x00, 0x00, 0x00, 0x00, 0x00, 0x00, 0x00, 0xd4, 0xfd, 0xff, 0xff, 0x00, 0x00, 0x00, 0x07, 0x04, 0x00, 0x00, 0x00, 0xfe, 0xfe, 0xff, 0xff, 
0x04, 0x00, 0x00, 0x00, 0x01, 0x00, 0x00, 0x00, 0x0a, 0x00, 0x00, 0x00, 0x00, 0x00, 0x00, 0x00, 0x00, 0x00, 0x00, 0x00, 0xf8, 0xfd, 0xff, 0xff, 0x00, 0x00, 0x00, 0x02, 0x08, 0x00, 0x00, 0x00, 
0x04, 0x00, 0x04, 0x00, 0x04, 0x00, 0x00, 0x00, 0x0c, 0xfe, 0xff, 0xff, 0x00, 0x00, 0x00, 0x07, 0x04, 0x00, 0x00, 0x00, 0x36, 0xff, 0xff, 0xff, 0x04, 0x00, 0x00, 0x00, 0x01, 0x00, 0x00, 0x00, 
0x08, 0x00, 0x00, 0x00, 0x00, 0x00, 0x00, 0x00, 0x88, 0xff, 0xff, 0xff, 0x00, 0x00, 0x00, 0x02, 0x0c, 0x00, 0x00, 0x00, 0x00, 0x00, 0x06, 0x00, 0x0c, 0x00, 0x04, 0x00, 0x06, 0x00, 0x00, 0x00, 
0x01, 0x00, 0x00, 0x00, 0x00, 0x00, 0x00, 0x00, 0xa8, 0xff, 0xff, 0xff, 0x00, 0x00, 0x00, 0x05, 0x18, 0x00, 0x00, 0x00, 0x00, 0x00, 0x12, 0x00, 0x14, 0x00, 0x06, 0x00, 0x00, 0x00, 0x08, 0x00, 
0x0c, 0x00, 0x07, 0x00, 0x00, 0x00, 0x10, 0x00, 0x12, 0x00, 0x00, 0x00, 0x00, 0x00, 0x06, 0x01, 0x20, 0x00, 0x00, 0x00, 0x14, 0x00, 0x00, 0x00, 0x04, 0x00, 0x00, 0x00, 0x30, 0xfe, 0xff, 0xff, 
0x01, 0x00, 0x00, 0x00, 0x00, 0x03, 0x00, 0x00, 0x03, 0x00, 0x00, 0x00, 0x00, 0x01, 0x02, 0x00, 0x03, 0x00, 0x00, 0x00, 0x01, 0x00, 0x00, 0x00, 0x02, 0x00, 0x00, 0x00, 0x60, 0x00, 0x00, 0x00, 
0x08, 0x00, 0x0e, 0x00, 0x07, 0x00, 0x08, 0x00, 0x08, 0x00, 0x00, 0x00, 0x00, 0x00, 0x00, 0x05, 0x18, 0x00, 0x00, 0x00, 0x00, 0x00, 0x12, 0x00, 0x16, 0x00, 0x07, 0x00, 0x00, 0x00, 0x08, 0x00, 
0x0c, 0x00, 0x00, 0x00, 0x00, 0x00, 0x10, 0x00, 0x12, 0x00, 0x00, 0x00, 0x00, 0x00, 0x00, 0x06, 0x24, 0x00, 0x00, 0x00, 0x18, 0x00, 0x00, 0x00, 0x0c, 0x00, 0x00, 0x00, 0x00, 0x00, 0x06, 0x00, 
0x08, 0x00, 0x04, 0x00, 0x06, 0x00, 0x00, 0x00, 0x01, 0x00, 0x00, 0x00, 0x03, 0x00, 0x00, 0x00, 0x00, 0x01, 0x02, 0x00, 0x03, 0x00, 0x00, 0x00, 0x01, 0x00, 0x00, 0x00, 0x01, 0x00, 0x00, 0x00, 
0x64, 0x00, 0x00, 0x00, 0x08, 0xff, 0xff, 0xff, 0x00, 0x00, 0x00, 0x05, 0x04, 0x00, 0x00, 0x00, 0x00, 0xff, 0xff, 0xff, 0x00, 0x00, 0x06, 0x01, 0x14, 0x00, 0x00, 0x00, 0x08, 0x00, 0x00, 0x00, 
0x06, 0x00, 0x00, 0x00, 0x01, 0x00, 0x00, 0x00, 0x00, 0x00, 0x00, 0x00, 0x01, 0x00, 0x00, 0x00, 0x02, 0x00, 0x00, 0x00, 0x38, 0xff, 0xff, 0xff, 0x00, 0x00, 0x00, 0x05, 0x04, 0x00, 0x00, 0x00, 
0x30, 0xff, 0xff, 0xff, 0x00, 0x00, 0x06, 0x01, 0x14, 0x00, 0x00, 0x00, 0x08, 0x00, 0x00, 0x00, 0x05, 0x00, 0x00, 0x00, 0x02, 0x00, 0x00, 0x00, 0x00, 0x01, 0x00, 0x00, 0x02, 0x00, 0x00, 0x00, 
0x02, 0x00, 0x00, 0x00, 0x10, 0x00, 0x00, 0x00, 0x6c, 0xff, 0xff, 0xff, 0x00, 0x00, 0x00, 0x05, 0x04, 0x00, 0x00, 0x00, 0x64, 0xff, 0xff, 0xff, 0x00, 0x00, 0x06, 0x01, 0x14, 0x00, 0x00, 0x00, 
0x08, 0x00, 0x00, 0x00, 0x04, 0x00, 0x00, 0x00, 0x01, 0x00, 0x00, 0x00, 0x00, 0x00, 0x00, 0x00, 0x01, 0x00, 0x00, 0x00, 0x10, 0x00, 0x00, 0x00, 0x9c, 0xff, 0xff, 0xff, 0x00, 0x00, 0x00, 0x05, 
0x04, 0x00, 0x00, 0x00, 0x94, 0xff, 0xff, 0xff, 0x00, 0x00, 0x06, 0x01, 0x14, 0x00, 0x00, 0x00, 0x08, 0x00, 0x00, 0x00, 0x03, 0x00, 0x00, 0x00, 0x02, 0x00, 0x00, 0x00, 0x00, 0x01, 0x00, 0x00, 
0x02, 0x00, 0x00, 0x00, 0x10, 0x00, 0x00, 0x00, 0x40, 0x00, 0x00, 0x00, 0xd0, 0xff, 0xff, 0xff, 0x00, 0x00, 0x00, 0x05, 0x04, 0x00, 0x00, 0x00, 0xc8, 0xff, 0xff, 0xff, 0x00, 0x00, 0x06, 0x01, 
0x14, 0x00, 0x00, 0x00, 0x08, 0x00, 0x00, 0x00, 0x02, 0x00, 0x00, 0x00, 0x01, 0x00, 0x00, 0x00, 0x00, 0x00, 0x00, 0x00, 0x01, 0x00, 0x00, 0x00, 0x02, 0x00, 0x00, 0x00, 0x08, 0x00, 0x0c, 0x00, 
0x07, 0x00, 0x08, 0x00, 0x08, 0x00, 0x00, 0x00, 0x00, 0x00, 0x00, 0x05, 0x14, 0x00, 0x00, 0x00, 0x10, 0x00, 0x14, 0x00, 0x06, 0x00, 0x00, 0x00, 0x08, 0x00, 0x0c, 0x00, 0x07, 0x00, 0x10, 0x00, 
0x10, 0x00, 0x00, 0x00, 0x00, 0x00, 0x06, 0x01, 0x14, 0x00, 0x00, 0x00, 0x08, 0x00, 0x00, 0x00, 0x01, 0x00, 0x00, 0x00, 0x03, 0x00, 0x00, 0x00, 0x00, 0x01, 0x02, 0x00, 0x03, 0x00, 0x00, 0x00, 
0x02, 0x00, 0x00, 0x00, 0x01, 0x00, 0x00, 0x00, 0x05, 0x00, 0x00, 0x00, 0x08, 0x00, 0x0c, 0x00, 0x04, 0x00, 0x08, 0x00, 0x08, 0x00, 0x00, 0x00, 0x48, 0x00, 0x00, 0x00, 0x04, 0x00, 0x00, 0x00, 
0x39, 0x00, 0x00, 0x00, 0x5b, 0x31, 0x2c, 0x20, 0x7b, 0x22, 0x74, 0x79, 0x70, 0x65, 0x22, 0x3a, 0x20, 0x6e, 0x75, 0x6c, 0x6c, 0x2c, 0x20, 0x22, 0x63, 0x6f, 0x6e, 0x74, 0x65, 0x78, 0x74, 0x22, 
0x3a, 0x20, 0x6e, 0x75, 0x6c, 0x6c, 0x2c, 0x20, 0x22, 0x63, 0x68, 0x69, 0x6c, 0x64, 0x72, 0x65, 0x6e, 0x5f, 0x73, 0x70, 0x65, 0x63, 0x22, 0x3a, 0x20, 0x5b, 0x5d, 0x7d, 0x5d, 0x00, 0x00, 0x00, 
0xfe, 0x00, 0x00, 0x00, 0x5b, 0x31, 0x2c, 0x20, 0x7b, 0x22, 0x74, 0x79, 0x70, 0x65, 0x22, 0x3a, 0x20, 0x22, 0x62, 0x75, 0x69, 0x6c, 0x74, 0x69, 0x6e, 0x73, 0x2e, 0x74, 0x75, 0x70, 0x6c, 0x65, 
0x22, 0x2c, 0x20, 0x22, 0x63, 0x6f, 0x6e, 0x74, 0x65, 0x78, 0x74, 0x22, 0x3a, 0x20, 0x22, 0x6e, 0x75, 0x6c, 0x6c, 0x22, 0x2c, 0x20, 0x22, 0x63, 0x68, 0x69, 0x6c, 0x64, 0x72, 0x65, 0x6e, 0x5f, 
0x73, 0x70, 0x65, 0x63, 0x22, 0x3a, 0x20, 0x5b, 0x7b, 0x22, 0x74, 0x79, 0x70, 0x65, 0x22, 0x3a, 0x20, 0x22, 0x62, 0x75, 0x69, 0x6c, 0x74, 0x69, 0x6e, 0x73, 0x2e, 0x74, 0x75, 0x70, 0x6c, 0x65, 
0x22, 0x2c, 0x20, 0x22, 0x63, 0x6f, 0x6e, 0x74, 0x65, 0x78, 0x74, 0x22, 0x3a, 0x20, 0x22, 0x6e, 0x75, 0x6c, 0x6c, 0x22, 0x2c, 0x20, 0x22, 0x63, 0x68, 0x69, 0x6c, 0x64, 0x72, 0x65, 0x6e, 0x5f, 
0x73, 0x70, 0x65, 0x63, 0x22, 0x3a, 0x20, 0x5b, 0x7b, 0x22, 0x74, 0x79, 0x70, 0x65, 0x22, 0x3a, 0x20, 0x6e, 0x75, 0x6c, 0x6c, 0x2c, 0x20, 0x22, 0x63, 0x6f, 0x6e, 0x74, 0x65, 0x78, 0x74, 0x22, 
0x3a, 0x20, 0x6e, 0x75, 0x6c, 0x6c, 0x2c, 0x20, 0x22, 0x63, 0x68, 0x69, 0x6c, 0x64, 0x72, 0x65, 0x6e, 0x5f, 0x73, 0x70, 0x65, 0x63, 0x22, 0x3a, 0x20, 0x5b, 0x5d, 0x7d, 0x5d, 0x7d, 0x2c, 0x20, 
0x7b, 0x22, 0x74, 0x79, 0x70, 0x65, 0x22, 0x3a, 0x20, 0x22, 0x62, 0x75, 0x69, 0x6c, 0x74, 0x69, 0x6e, 0x73, 0x2e, 0x64, 0x69, 0x63, 0x74, 0x22, 0x2c, 0x20, 0x22, 0x63, 0x6f, 0x6e, 0x74, 0x65, 
0x78, 0x74, 0x22, 0x3a, 0x20, 0x22, 0x5b, 0x5d, 0x22, 0x2c, 0x20, 0x22, 0x63, 0x68, 0x69, 0x6c, 0x64, 0x72, 0x65, 0x6e, 0x5f, 0x73, 0x70, 0x65, 0x63, 0x22, 0x3a, 0x20, 0x5b, 0x5d, 0x7d, 0x5d, 
0x7d, 0x5d, 0x00, 0x00, 0x07, 0x00, 0x00, 0x00, 0x66, 0x6f, 0x72, 0x77, 0x61, 0x72, 0x64, 0x00, 0x00, 0x00, 0x00, 0x00, 0x00, 0x00, 0x00, 0x00, 0x00, 0x00, 0x00, 0x00, 0x00, 0x00, 0x00, 0x00, 
0x3a, 0x89, 0x94, 0xbe, 0x36, 0x2e, 0x31, 0x3e, 0x1c, 0x0f, 0x24, 0x3e, 0xbc, 0x85, 0x9f, 0xbe, 0x25, 0x36, 0xe2, 0x3e, 0x1c, 0x4f, 0x89, 0x3e, 0xb8, 0x13, 0xe3, 0xbe, 0xcc, 0x0a, 0x36, 0xbd, 
0x54, 0x26, 0x83, 0xbe, 0x9c, 0xc5, 0x36, 0x3e, 0x00, 0x00, 0x00, 0x00, 0x00, 0x00, 0x00, 0x00, 0xf2, 0x2f, 0xd8, 0x3e, 0xde, 0x53, 0xd0, 0x3d, 0x00, 0x00, 0x00, 0x00, 0x00, 0x00, 0x00, 0x00, 
0x37, 0x79, 0x59, 0x3d, 0x6c, 0x3f, 0x57, 0x3d, 0xb1, 0x09, 0xe0, 0x3c, 0x30, 0xb1, 0x2d, 0x3c, 0x97, 0x12, 0xbb, 0xbc, 0x79, 0x83, 0x1b, 0x3c, 0x53, 0xb4, 0xab, 0x3c, 0x53, 0x6a, 0xad, 0x3d, 
0x1e, 0x72, 0xb8, 0x3d, 0xbc, 0xcc, 0x80, 0x3d, 0x18, 0x84, 0xbd, 0xbd, 0xbf, 0xc8, 0xd5, 0x3c, 0x74, 0xeb, 0x74, 0xbd, 0x04, 0x1b, 0x32, 0x3d, 0x48, 0xeb, 0x7b, 0x3d, 0x55, 0x75, 0x81, 0x39, 
0x74, 0x1f, 0xab, 0x3d, 0xa3, 0x2e, 0x31, 0xbc, 0x61, 0xa9, 0xcc, 0x3d, 0xbe, 0xa1, 0x16, 0x3d, 0x14, 0xa5, 0x85, 0xbc, 0x4c, 0x9c, 0xeb, 0x3d, 0xe5, 0xd4, 0x98, 0x3d, 0xc6, 0xce, 0xe7, 0xbd, 
0x0e, 0xff, 0x97, 0xbd, 0xaa, 0xe3, 0xd0, 0x3d, 0xba, 0xfd, 0xa3, 0x3c, 0x71, 0xb1, 0x24, 0xbd, 0xb8, 0x7e, 0x49, 0xbd, 0x83, 0x08, 0x9e, 0x3d, 0x30, 0x20, 0x65, 0x3d, 0x42, 0x86, 0x2e, 0x3d, 
0x86, 0x18, 0xaa, 0xbc, 0x9c, 0x01, 0x9f, 0x3d, 0xae, 0xaf, 0x43, 0x3d, 0x24, 0xa8, 0xcb, 0xbd, 0xc3, 0x7f, 0xec, 0xbd, 0x92, 0xaa, 0xf7, 0x3d, 0xfa, 0x5b, 0xc0, 0x3c, 0xac, 0x66, 0xab, 0x3d, 
0x9c, 0x3a, 0x0e, 0x3d, 0x0c, 0x44, 0xa4, 0x3d, 0x81, 0x1c, 0x3a, 0x3d, 0x03, 0xb2, 0x91, 0x3d, 0x86, 0xc9, 0x01, 0xbd, 0x48, 0xa1, 0x9a, 0x3b, 0x61, 0x8e, 0x28, 0x3d, 0x78, 0xb7, 0x8f, 0xbd, 
0x42, 0xbd, 0x8c, 0x3d, 0x34, 0x96, 0xb5, 0xbd, 0xa5, 0x5d, 0x7b, 0x3d, 0x49, 0xb1, 0x92, 0xbd, 0x48, 0x9b, 0x16, 0xbd, 0x2f, 0x2e, 0x8b, 0x3d, 0x8e, 0xb1, 0xa4, 0x3d, 0x4a, 0x86, 0xe9, 0x3d, 
0xdb, 0x38, 0x80, 0x3c, 0x2f, 0x58, 0x23, 0xbd, 0xcf, 0xa7, 0xc2, 0x3d, 0x6d, 0x8c, 0x8d, 0x3c, 0x06, 0x3e, 0x31, 0x3d, 0x7b, 0x92, 0x71, 0x3d, 0x89, 0x78, 0x87, 0x3d, 0xe1, 0x41, 0xbd, 0xbd, 
0x34, 0xce, 0xfd, 0x3c, 0x61, 0xd6, 0xc7, 0x3d, 0xf4, 0x2b, 0xbf, 0x3d, 0xf1, 0x31, 0x8a, 0xbd, 0x00, 0x78, 0x76, 0xbd, 0x1e, 0x41, 0x02, 0xbd, 0xf7, 0x7c, 0x64, 0x3d, 0xde, 0xb4, 0x15, 0x3d, 
0x31, 0x54, 0x64, 0x3d, 0x9f, 0xab, 0xae, 0xbb, 0x83, 0xda, 0x8a, 0xbd, 0x10, 0x4f, 0xba, 0xbd, 0x44, 0x3a, 0xa8, 0x3d, 0x2e, 0xc7, 0x3f, 0xbc, 0x6c, 0x33, 0xc4, 0xbc, 0x88, 0xc8, 0xd2, 0x3b, 
0xd3, 0xaf, 0xf3, 0xbd, 0x93, 0xd4, 0x90, 0xbd, 0x46, 0x02, 0xd4, 0xbd, 0x92, 0xb9, 0xc9, 0xbd, 0x80, 0xa8, 0x0d, 0xbc, 0xd2, 0x24, 0x79, 0x3d, 0xab, 0x0c, 0x8a, 0xbd, 0x02, 0x82, 0x44, 0xbd, 
0x0f, 0xe6, 0x99, 0x3d, 0x5b, 0xe2, 0xfc, 0xbd, 0xe5, 0xcd, 0x59, 0xbb, 0xc1, 0x63, 0x6d, 0x3d, 0x25, 0xbf, 0xcf, 0xbd, 0x00, 0x6e, 0x21, 0xbd, 0x0c, 0xea, 0x95, 0x3d, 0x90, 0x3b, 0xbf, 0x3d, 
0xe0, 0x85, 0x35, 0xbd, 0x02, 0x7e, 0x80, 0x3d, 0xef, 0x42, 0xd2, 0xbd, 0xc6, 0x5c, 0xca, 0xbc, 0xa0, 0x36, 0x67, 0x3d, 0xb6, 0xc0, 0x65, 0x3d, 0x9a, 0xbd, 0xab, 0xbd, 0xe8, 0x36, 0xdc, 0x3d, 
0xec, 0x0d, 0x87, 0x3d, 0x0b, 0x5d, 0x20, 0xbd, 0xb3, 0x89, 0xfb, 0x3d, 0x1f, 0x4d, 0x23, 0xbd, 0x82, 0x2b, 0xc6, 0xbd, 0xd0, 0x51, 0xec, 0x3d, 0xd8, 0xdd, 0x13, 0xbd, 0x95, 0xec, 0xa9, 0xbd, 
0x6b, 0x8e, 0xf6, 0x3d, 0xd8, 0x73, 0x57, 0xbc, 0x6c, 0x1a, 0xcc, 0x3c, 0x43, 0x73, 0xcc, 0xbd, 0x17, 0xd2, 0x9d, 0x3d, 0x44, 0xbf, 0xa5, 0x3d, 0x04, 0x34, 0xa2, 0x3d, 0x61, 0x17, 0x2e, 0xbc, 
0x41, 0x58, 0x91, 0xbd, 0x74, 0xff, 0xf5, 0x3d, 0x28, 0x25, 0xc5, 0x3d, 0xff, 0x16, 0xb7, 0x3d, 0xb0, 0x1e, 0xcd, 0x3d, 0xad, 0x08, 0x99, 0x3d, 0x8b, 0x5c, 0xd8, 0x3d, 0xfe, 0xa8, 0xab, 0x3d, 
0x45, 0x95, 0x69, 0xbb, 0x6d, 0x48, 0x4e, 0xbd, 0x16, 0xc5, 0x90, 0x3d, 0x6c, 0xe2, 0x60, 0xbd, 0xf9, 0x4d, 0x97, 0x3d, 0x38, 0xf9, 0x31, 0xbd, 0xad, 0x1f, 0x23, 0xbd, 0x0d, 0x42, 0x85, 0x3d, 
0x72, 0x1d, 0x0d, 0x3c, 0x90, 0x87, 0xaa, 0x3d, 0x82, 0xf0, 0x44, 0xbd, 0xa6, 0x41, 0xfa, 0xbc, 0xeb, 0x12, 0xbf, 0x3d, 0xbd, 0x70, 0x96, 0x3d, 0xf9, 0xce, 0xdd, 0x3d, 0x53, 0x9c, 0xe6, 0xbc, 
0xfc, 0x9f, 0x04, 0xbc, 0x09, 0x5b, 0x06, 0xbd, 0x3f, 0x0f, 0xe8, 0x3d, 0x46, 0x2d, 0x7d, 0x3d, 0x95, 0x67, 0xf9, 0x3d, 0x1b, 0x8a, 0xa0, 0x3d, 0x49, 0xb5, 0x15, 0xbd, 0xfd, 0xde, 0x83, 0xbd, 
0x0f, 0x3d, 0x10, 0xbd, 0x22, 0xa2, 0xca, 0x3d, 0x6f, 0xb4, 0x90, 0x3c, 0xe4, 0xa2, 0x91, 0xbc, 0x91, 0x83, 0xd2, 0x3d, 0x04, 0x24, 0xd1, 0x3d, 0x59, 0xb5, 0x31, 0xbd, 0x64, 0x2b, 0x14, 0xbd, 
0x39, 0x5b, 0xd8, 0xbd, 0x65, 0xe6, 0x82, 0xbd, 0xf6, 0x07, 0x02, 0x3e, 0x58, 0x3e, 0x22, 0xbd, 0xe5, 0xdd, 0x84, 0x3b, 0x7d, 0x76, 0xd1, 0x3d, 0xc5, 0x03, 0xad, 0x3d, 0x9a, 0xaf, 0xcd, 0xbd, 
0x04, 0xcd, 0x86, 0xbd, 0x05, 0xdf, 0x5f, 0x3c, 0xed, 0x58, 0x90, 0x3d, 0xaf, 0xe2, 0x9e, 0x3d, 0xeb, 0x52, 0xc6, 0xbd, 0x15, 0x14, 0x23, 0x3d, 0x7a, 0xa7, 0x31, 0x3c, 0xe1, 0x32, 0x38, 0x3d, 
0xbc, 0xb2, 0x9d, 0xbd, 0xac, 0xfb, 0x84, 0xbb, 0xcf, 0x88, 0xc9, 0xbd, 0x3d, 0x91, 0xe8, 0xbd, 0x97, 0x08, 0x77, 0x3d, 0xfb, 0xef, 0x8e, 0xbd, 0x10, 0x1e, 0xc7, 0xbd, 0xc4, 0x75, 0xad, 0x3b, 
0xb7, 0xa0, 0xd8, 0xbc, 0xb6, 0x3b, 0x89, 0x3d, 0xa8, 0x88, 0xd1, 0x3d, 0xc2, 0xf9, 0xc2, 0x3c, 0xfa, 0xf3, 0x11, 0xbd, 0xaf, 0xef, 0x98, 0xbd, 0xa7, 0x83, 0x8b, 0x3d, 0x36, 0x8d, 0xdb, 0xbd, 
0x36, 0xe6, 0xac, 0xbd, 0x40, 0x2f, 0x3a, 0xbc, 0x00, 0xfd, 0xeb, 0x3d, 0x80, 0x1e, 0x27, 0x3d, 0x74, 0x57, 0x25, 0x3d, 0x06, 0xa8, 0xf1, 0x3d, 0x4c, 0x33, 0x62, 0x3d, 0x84, 0xd0, 0xba, 0x3d, 
0x38, 0xf8, 0xbc, 0x3d, 0xd0, 0xd3, 0xc7, 0x3c, 0x4a, 0x3b, 0xa6, 0x3d, 0x2a, 0x27, 0x98, 0x3d, 0x54, 0x60, 0xba, 0xbd, 0xfc, 0x16, 0x22, 0x3d, 0x08, 0x4d, 0x99, 0x3d, 0xa0, 0xe6, 0xcc, 0xbc, 
0xf8, 0x5f, 0x67, 0xbd, 0xfa, 0x19, 0x94, 0xbd, 0xda, 0x33, 0x9c, 0xbd, 0x10, 0xe8, 0x6d, 0x3d, 0x28, 0x9f, 0x8c, 0xbc, 0xac, 0x41, 0x0a, 0xbd, 0xa8, 0x20, 0x6f, 0xbd, 0x78, 0xc6, 0xf0, 0x3c, 
0x40, 0xbb, 0x72, 0xbd, 0x70, 0xae, 0xce, 0xbc, 0xf0, 0x11, 0x2c, 0x3d, 0x18, 0x2a, 0xb8, 0xbd, 0x98, 0x62, 0xe2, 0x3c, 0xec, 0x70, 0xd5, 0xbd, 0x90, 0x72, 0x72, 0x3c, 0x02, 0xaa, 0xca, 0xbd, 
0xe8, 0x9a, 0x8c, 0xbd, 0x40, 0x8a, 0x7e, 0xbd, 0x94, 0x0a, 0xa3, 0xbd, 0xec, 0xef, 0xff, 0xbd, 0x38, 0x5f, 0xd7, 0xbd, 0xc0, 0x05, 0xad, 0xbd, 0xcc, 0x2a, 0x55, 0xbd, 0x06, 0x1f, 0xae, 0x3d, 
0xc0, 0x6e, 0x1c, 0x3c, 0x44, 0x8b, 0x23, 0xbd, 0xbe, 0x98, 0xc3, 0xbd, 0x88, 0x91, 0x81, 0xbc, 0x40, 0x1c, 0xd6, 0x3d, 0x58, 0x8a, 0xe0, 0xbd, 0xbc, 0x3c, 0xe0, 0x3d, 0x10, 0xff, 0x2f, 0x3c, 
0xcc, 0x16, 0xa0, 0xbd, 0x0c, 0xcc, 0x31, 0xbd, 0x9c, 0x68, 0xbd, 0xbd, 0x10, 0xa7, 0x67, 0x3c, 0xb4, 0x22, 0xa3, 0xbd, 0x8c, 0x99, 0xdc, 0xbd, 0xac, 0xee, 0xc2, 0x3d, 0x1a, 0x6c, 0xd0, 0xbd, 
0x60, 0x69, 0x30, 0xbc, 0xbc, 0x3c, 0x9a, 0xbd, 0xd8, 0xa9, 0x92, 0x3c, 0x3c, 0x0f, 0xad, 0xbd, 0x84, 0x5f, 0xec, 0x3d, 0x28, 0x1d, 0xb9, 0xbc, 0xb4, 0xfc, 0x21, 0x3d, 0xd8, 0x4d, 0xfe, 0x3d, 
0x3b, 0x06, 0xc2, 0xbd, 0x1a, 0x32, 0xd8, 0x3d, 0x3b, 0x96, 0xa6, 0x3d, 0x29, 0x34, 0x30, 0xbd, 0x61, 0x50, 0x9f, 0xbd, 0x4b, 0x4f, 0x68, 0xbd, 0x61, 0x0f, 0xa6, 0x3d, 0x1f, 0x85, 0xcc, 0xbd, 
0x9c, 0xa1, 0xba, 0x3d, 0x4d, 0xb1, 0xe5, 0x3d, 0xd8, 0x19, 0x90, 0x3d, 0x17, 0x19, 0xd4, 0x3c, 0x9f, 0xb6, 0xd7, 0x3c, 0x28, 0x14, 0x72, 0xbc, 0xcb, 0xdc, 0x55, 0xbd, 0x85, 0xf3, 0xd3, 0xbd, 
0xd9, 0x95, 0x6b, 0x3d, 0x91, 0xad, 0xf8, 0xbc, 0xec, 0xe7, 0xa5, 0xbd, 0x99, 0xf7, 0x28, 0xbd, 0x1d, 0x3e, 0x8d, 0xbd, 0x58, 0x1d, 0x8d, 0xbd, 0xad, 0x6d, 0xaf, 0xbb, 0xc6, 0x93, 0x77, 0xbd, 
0x5b, 0x65, 0x90, 0xbc, 0x98, 0x20, 0x10, 0x3d, 0xef, 0xe4, 0xc7, 0x3d, 0xeb, 0xcf, 0x59, 0xbd, 0xd3, 0xa6, 0x52, 0x3d, 0x90, 0x0c, 0xdb, 0xbd, 0x37, 0xa2, 0x42, 0x3c, 0xed, 0x9e, 0xc7, 0xbc, 
0xc6, 0x43, 0x8b, 0x3d, 0x5a, 0x26, 0xff, 0x3d, 0x44, 0xce, 0x93, 0x3d, 0x37, 0xa6, 0xfa, 0x3d, 0xa4, 0x69, 0xbe, 0xbd, 0x94, 0x30, 0x47, 0x3c, 0xa8, 0x3e, 0xb2, 0x3c, 0xd6, 0x2b, 0xba, 0x3c, 
0x0e, 0x8a, 0x36, 0x3d, 0xad, 0xf1, 0xb8, 0xbc, 0x5e, 0x43, 0x17, 0x3d, 0x87, 0xc8, 0x11, 0x3d, 0xe1, 0xc6, 0xc3, 0xbd, 0xa7, 0xe3, 0xe1, 0x3d, 0x75, 0xaf, 0xf5, 0x3d, 0x5a, 0x9d, 0x86, 0xbd, 
0xe7, 0x0b, 0xf7, 0x3d, 0x95, 0x86, 0xff, 0x3b, 0x35, 0x90, 0x81, 0x3d, 0x2e, 0xd0, 0xed, 0x3d, 0xa3, 0x61, 0x9f, 0x3d, 0x4b, 0xec, 0xe1, 0x3d, 0xab, 0xcd, 0xaa, 0x3d, 0x94, 0x4f, 0xb9, 0x3d, 
0xe1, 0xe4, 0xa2, 0x3c, 0xc4, 0xa2, 0xe4, 0xbd, 0xa6, 0xd4, 0x3c, 0xbd, 0xe3, 0x31, 0x84, 0x3d, 0xc0, 0xa1, 0x7d, 0x3d, 0x93, 0x90, 0x76, 0x3b, 0x1f, 0xbb, 0x05, 0x3d, 0x88, 0x8a, 0xc8, 0xbd, 
0x2a, 0x29, 0x26, 0xbc, 0x81, 0xbd, 0xf0, 0xbd, 0xfa, 0xb7, 0xee, 0xbd, 0xb8, 0xfa, 0x00, 0x3d, 0xe6, 0x87, 0xe0, 0xbd, 0x53, 0x0f, 0x61, 0x3d, 0x6d, 0x79, 0x9d, 0x3d, 0x18, 0xa6, 0x11, 0x3d, 
0x39, 0x50, 0x64, 0xbd, 0xc0, 0xfa, 0x39, 0xbc, 0xcf, 0x93, 0xea, 0x3d, 0x71, 0xa7, 0xd4, 0x3c, 0x51, 0x8f, 0xb3, 0xbc, 0x0c, 0x74, 0xba, 0x3d, 0x74, 0x26, 0x8c, 0x3d, 0x45, 0xfa, 0x8f, 0x3d, 
0x92, 0x98, 0x82, 0x3d, 0xaf, 0x19, 0xbc, 0xbc, 0xdc, 0x18, 0xcf, 0x3d, 0x3f, 0x5e, 0xe5, 0x3d, 0x9b, 0x1f, 0xab, 0xbc, 0xe3, 0xd5, 0xa0, 0xbd, 0x50, 0x1b, 0x15, 0xbd, 0x86, 0xd0, 0x15, 0xbc, 
0x52, 0x85, 0x63, 0xbd, 0x47, 0xb2, 0xd1, 0xbd, 0xf8, 0x6f, 0xbd, 0x3b, 0x1c, 0x35, 0xa9, 0x3d, 0xfb, 0x4b, 0xac, 0xbc, 0xc9, 0x03, 0xe3, 0x3d, 0x24, 0xe4, 0x9d, 0x3c, 0x9f, 0x18, 0xcf, 0x3c, 
0x22, 0x49, 0xc1, 0x3c, 0xf8, 0xb7, 0x01, 0x3e, 0x8a, 0xd2, 0x7e, 0x3d, 0x0b, 0x3e, 0xe7, 0xbd, 0x8b, 0xda, 0xb4, 0xbd, 0xd5, 0x49, 0xb9, 0x3c, 0xe8, 0xad, 0x32, 0x3d, 0x2b, 0xfa, 0xe5, 0xbc, 
0xac, 0xd9, 0xe3, 0x3b, 0x60, 0xe8, 0x1b, 0x3d, 0x7f, 0x36, 0x7d, 0x3d, 0xbe, 0x15, 0x1e, 0x3c, 0x97, 0xe5, 0x68, 0x3d, 0x26, 0xac, 0x18, 0xbc, 0x82, 0xb3, 0xc0, 0xbd, 0x42, 0x09, 0x86, 0xbd, 
0x9c, 0x28, 0xba, 0x3d, 0xd0, 0x29, 0xd9, 0x3d, 0x2c, 0x23, 0xd2, 0xbc, 0x13, 0x5f, 0x9c, 0x3d, 0xcb, 0xae, 0xf7, 0x39, 0xd5, 0xe9, 0xf8, 0xbd, 0x66, 0xb6, 0x1e, 0xbd, 0xbd, 0x70, 0x83, 0x3d, 
0x0c, 0xf2, 0x0f, 0xbc, 0x44, 0xf7, 0xc0, 0x3d, 0xce, 0x2c, 0xe4, 0x3d, 0x82, 0x5e, 0x02, 0x3c, 0xc4, 0x82, 0xe0, 0xbd, 0x23, 0xe0, 0x75, 0x3a, 0x8c, 0x8e, 0x80, 0x3d, 0x45, 0xc2, 0x1c, 0x3d, 
0x50, 0x16, 0x25, 0xbc, 0x62, 0xcc, 0xeb, 0xbd, 0xb0, 0x28, 0xaf, 0xbd, 0x70, 0x61, 0x61, 0x3c, 0x70, 0x21, 0x4b, 0xbc, 0x82, 0x62, 0x96, 0xbd, 0xe8, 0x55, 0x94, 0xbd, 0xf0, 0x30, 0x36, 0x3d, 
0xa0, 0x41, 0x8d, 0xbc, 0x00, 0x77, 0x45, 0x3c, 0xc0, 0x8a, 0xd4, 0xbd, 0xc0, 0x4a, 0x70, 0x3b, 0xe6, 0x26, 0xe7, 0xbd, 0xf0, 0xdc, 0x92, 0xbd, 0xfc, 0x0d, 0xf7, 0x3d, 0x8a, 0xd3, 0x90, 0xbd, 
0xc0, 0x23, 0x07, 0xbc, 0xfa, 0x46, 0xdf, 0xbd, 0x50, 0xc4, 0x5f, 0xbd, 0xd6, 0xff, 0xc2, 0x3d, 0xfa, 0x30, 0x8b, 0xbd, 0x88, 0x3e, 0x03, 0x3d, 0x24, 0xd9, 0x02, 0xbd, 0x88, 0x14, 0xd2, 0xbd, 
0xfa, 0xe6, 0x83, 0xbd, 0x7c, 0xb5, 0x8c, 0x3d, 0xcc, 0x2d, 0xe1, 0x3d, 0xb2, 0x23, 0xf6, 0x3d, 0x44, 0x27, 0xac, 0x3d, 0x5a, 0x3a, 0xa1, 0xbd, 0xe0, 0x04, 0x22, 0x3c, 0x48, 0x6e, 0xe5, 0xbc, 
0xfc, 0x6a, 0x92, 0xbd, 0x0c, 0x51, 0x20, 0xbd, 0xfe, 0x65, 0xc6, 0xbd, 0x40, 0x85, 0x34, 0x3c, 0x70, 0x97, 0x4a, 0xbd, 0x4c, 0xaa, 0x27, 0xbd, 0x10, 0x3a, 0xc8, 0xbc, 0x72, 0x7a, 0xc1, 0x3d, 
0x50, 0x6c, 0xf6, 0xbd, 0x5c, 0x43, 0xda, 0x3d, 0x42, 0xb3, 0xaa, 0x3d, 0x18, 0x37, 0xa7, 0xbc, 0xb8, 0x4d, 0xc7, 0xbc, 0x5a, 0x0f, 0xe4, 0x3d, 0x58, 0x92, 0xb9, 0xbd, 0x1e, 0x3f, 0xf3, 0x3d, 
0x92, 0xc3, 0x83, 0xbd, 0x80, 0x1f, 0x8d, 0xbb, 0xe0, 0x92, 0x0c, 0x3c, 0x84, 0x3d, 0x5d, 0xbd, 0x16, 0x91, 0xe2, 0x3d, 0x62, 0xa9, 0xdf, 0x3d, 0xda, 0x2c, 0x92, 0x3d, 0x70, 0x39, 0xcb, 0x3d, 
0xc6, 0xe6, 0xfd, 0x3d, 0x1c, 0x03, 0x59, 0xbd, 0xd4, 0xcc, 0x3e, 0x3d, 0x50, 0xe3, 0x70, 0x3c, 0x6c, 0xbd, 0x77, 0xbd, 0xbe, 0x08, 0xb9, 0x3d, 0x94, 0x40, 0xb1, 0xbd, 0xf0, 0x47, 0x4e, 0x3c, 
0x5b, 0x40, 0xa6, 0xbc, 0xca, 0x10, 0xd9, 0xbd, 0x66, 0x5e, 0xdb, 0xbd, 0x29, 0xb9, 0x53, 0x3d, 0xfa, 0x3c, 0xd8, 0x3c, 0x64, 0x86, 0x71, 0xbd, 0x79, 0xd6, 0x1f, 0xbd, 0x9a, 0xe0, 0x56, 0x3c, 
0x76, 0xb5, 0xec, 0xbd, 0xa3, 0xd7, 0x09, 0xbd, 0xa5, 0x13, 0x81, 0x3d, 0xcf, 0x3d, 0xdb, 0xbd, 0xd7, 0xbc, 0xbb, 0x3d, 0x65, 0xff, 0xb4, 0x3d, 0xc7, 0xe1, 0x15, 0xbd, 0x24, 0xff, 0xe9, 0x3d, 
0x25, 0x34, 0xe4, 0x3d, 0xc1, 0xec, 0x2f, 0xbd, 0xf3, 0xd9, 0xf2, 0x3d, 0x59, 0x74, 0x49, 0x3d, 0x62, 0x6a, 0xe7, 0x3d, 0x7c, 0xbe, 0x7a, 0x3c, 0xf7, 0x3f, 0x5f, 0xbc, 0xe7, 0x78, 0xed, 0xbc, 
0x13, 0x57, 0x86, 0x3d, 0x05, 0xd1, 0x78, 0x3c, 0x49, 0xf8, 0xb6, 0xbd, 0x09, 0xd3, 0xb5, 0x3c, 0x09, 0x78, 0xd4, 0x3d, 0x31, 0x54, 0x16, 0xbd, 0xeb, 0x0e, 0xe6, 0x3d, 0x2c, 0xb0, 0x8e, 0x3d, 
0x85, 0xc3, 0x40, 0xbd, 0x05, 0x6d, 0x5e, 0x3d, 0xa4, 0xcf, 0xfc, 0x3c, 0xe1, 0x12, 0xd9, 0xbc, 0xb6, 0xed, 0xfd, 0x3d, 0xea, 0x32, 0x02, 0xbd, 0xda, 0xd5, 0x89, 0x3d, 0xf0, 0x41, 0x62, 0xbc, 
0xc5, 0xa1, 0xb9, 0x3d, 0x39, 0x4b, 0xad, 0xbd, 0x5f, 0xff, 0xbf, 0x3d, 0xd7, 0x23, 0xb2, 0xbd, 0x03, 0x8b, 0xbf, 0xbd, 0xb3, 0x5a, 0xbf, 0xbd, 0x86, 0x05, 0xa3, 0xbd, 0x00, 0xa9, 0xce, 0xbd, 
0xa5, 0x1f, 0xe0, 0x3d, 0x16, 0xe2, 0x84, 0xbd, 0xcd, 0x66, 0x8b, 0xbd, 0x21, 0xb6, 0xe2, 0xbd, 0xc2, 0xe7, 0x7f, 0x3d, 0x21, 0x5a, 0x58, 0xbd, 0xd4, 0xc9, 0x1e, 0xbd, 0xf7, 0x63, 0x4d, 0xbd, 
0x51, 0xbe, 0xd4, 0xbd, 0xf1, 0xee, 0x1c, 0xbd, 0xb3, 0xd6, 0xeb, 0x3d, 0x12, 0xf1, 0xd6, 0x3a, 0xa3, 0x54, 0xf8, 0x3d, 0x38, 0x74, 0x04, 0xbd, 0xe3, 0x0f, 0xcf, 0x3d, 0x1b, 0x42, 0x3a, 0xbc, 
0x97, 0xc6, 0x87, 0xbd, 0x58, 0xa7, 0x90, 0x3d, 0x1d, 0x02, 0xc5, 0x3d, 0x8f, 0x0f, 0x15, 0x3d, 0xdf, 0xfc, 0x27, 0xbd, 0x23, 0x56, 0x97, 0xbd, 0x1a, 0x69, 0x54, 0xbd, 0xf8, 0xef, 0xe6, 0xbc, 
0xfd, 0xd8, 0x42, 0xbc, 0x5e, 0x50, 0xac, 0x3c, 0x51, 0xb6, 0x83, 0x3d, 0x47, 0x62, 0x09, 0x3c, 0xc0, 0x3e, 0xb6, 0x3c, 0x69, 0xd1, 0xdc, 0x3b, 0x6d, 0x91, 0xb9, 0xbd, 0xc5, 0x86, 0x5c, 0x3c, 
0x04, 0x90, 0xe1, 0x3d, 0x02, 0x34, 0x87, 0x3b, 0x72, 0x93, 0x00, 0x3e, 0xd0, 0x23, 0x04, 0x3e, 0x8e, 0x17, 0x27, 0x3c, 0xd4, 0xff, 0x8d, 0x39, 0xb7, 0x36, 0x92, 0x3c, 0x45, 0x18, 0x80, 0x3d, 
0x0d, 0xed, 0x70, 0x3b, 0x71, 0x92, 0x66, 0x3d, 0xf1, 0x59, 0x34, 0xbd, 0xd9, 0x1f, 0x84, 0x3c, 0x21, 0x4c, 0xef, 0x3d, 0xc0, 0x94, 0xcf, 0xbd, 0xb8, 0x30, 0x6c, 0xbc, 0xc3, 0x81, 0xab, 0xbd, 
0x82, 0x3c, 0x16, 0x3c, 0x25, 0xc0, 0x3d, 0xbc, 0xfd, 0xf8, 0x8e, 0x3d, 0x5e, 0x8b, 0xbf, 0x3d, 0xd2, 0x8f, 0x5e, 0x3d, 0x80, 0xc3, 0xbc, 0xbd, 0xda, 0x6e, 0xce, 0x3d, 0x55, 0x45, 0x48, 0xbd, 
0xf0, 0xa1, 0x75, 0xbd, 0xf1, 0x56, 0x75, 0x3d, 0xff, 0xa6, 0xcd, 0xbc, 0x45, 0x1a, 0xeb, 0x3d, 0x5f, 0xe0, 0xa2, 0x3d, 0x57, 0x3d, 0x09, 0xbb, 0x64, 0x90, 0x62, 0xbd, 0x10, 0x79, 0xc8, 0x3d, 
0xfb, 0x06, 0xdb, 0x3d, 0x35, 0x17, 0x8e, 0x3c, 0x7b, 0xd0, 0xa0, 0xbd, 0x40, 0x6e, 0xb3, 0x3d, 0x89, 0x8a, 0xfa, 0x3c, 0xc2, 0xcb, 0x81, 0x3d, 0x6b, 0x43, 0xc9, 0xbd, 0xbe, 0x6e, 0xf4, 0x3c, 
0x39, 0x97, 0xdb, 0xbd, 0xd0, 0xa6, 0x6a, 0x3c, 0x46, 0x6f, 0xca, 0x3d, 0x8c, 0x29, 0x89, 0x3d, 0x50, 0x5d, 0x6c, 0xbb, 0xc0, 0x6e, 0x09, 0x3d, 0x2b, 0x4b, 0xa4, 0x3d, 0xde, 0x3c, 0xc6, 0x3d, 
0x71, 0xc0, 0x96, 0x3d, 0x52, 0xcb, 0x5c, 0x3d, 0xed, 0x01, 0x2b, 0xbd, 0xa1, 0xc7, 0xd1, 0xbd, 0xfa, 0x0e, 0xcc, 0x3d, 0xd6, 0xed, 0x36, 0xbd, 0x75, 0xc2, 0x92, 0xbd, 0x20, 0x40, 0x32, 0x3d, 
0x47, 0xc2, 0x93, 0x3d, 0x7d, 0x68, 0x95, 0xbd, 0xa7, 0x80, 0xbb, 0x3d, 0xc6, 0xfc, 0xd6, 0xbc, 0x52, 0xd2, 0x6a, 0x3d, 0x04, 0x16, 0x74, 0x3d, 0xc3, 0x2a, 0xe4, 0xbd, 0x83, 0x13, 0xd9, 0x3c, 
0x32, 0x6e, 0x48, 0xbd, 0x63, 0x2a, 0x08, 0xbd, 0x64, 0x9f, 0xd1, 0x3d, 0xc7, 0x5c, 0xec, 0xbd, 0x8a, 0x5b, 0xca, 0xbd, 0x0d, 0x1d, 0xdd, 0xbd, 0xf9, 0xb9, 0x9a, 0x3d, 0x87, 0x56, 0x26, 0x3c, 
0x5e, 0x55, 0x98, 0xbc, 0xb5, 0x19, 0x60, 0xbd, 0x52, 0x1a, 0x59, 0x3d, 0x80, 0xe2, 0xa6, 0x3d, 0x70, 0xb0, 0x3f, 0xbd, 0x0a, 0x4b, 0x9c, 0x3d, 0xfd, 0xf2, 0xf2, 0xbd, 0x17, 0xd5, 0x9f, 0x3d, 
0x26, 0xb9, 0xf1, 0xb9, 0x6d, 0xcb, 0x48, 0x3c, 0x85, 0xf0, 0xfc, 0x3c, 0xa2, 0x34, 0x90, 0x3d, 0x81, 0xd5, 0xeb, 0x3a, 0x46, 0x7f, 0xd2, 0xbc, 0xad, 0xbc, 0x1a, 0xbd, 0x3e, 0xe6, 0x9b, 0x3d, 
0x7c, 0x09, 0xdd, 0x3d, 0x24, 0x97, 0xde, 0x3d, 0x37, 0x30, 0xdd, 0xbd, 0x7a, 0x17, 0xd4, 0xb8, 0x0b, 0x9a, 0x97, 0xbd, 0xd1, 0xd6, 0x45, 0x3d, 0x8a, 0xe5, 0xc9, 0xbd, 0x33, 0x78, 0xc6, 0xbd, 
0x17, 0xa9, 0x92, 0xbd, 0xc5, 0xd6, 0x64, 0xbd, 0xb7, 0x53, 0x25, 0xbd, 0x8d, 0x8b, 0x1f, 0xbd, 0xd0, 0xa6, 0x7f, 0x3d, 0xb3, 0x62, 0xac, 0xbd, 0x5b, 0x2f, 0x23, 0x3c, 0xa9, 0x56, 0xb7, 0xbc, 
0x85, 0xe1, 0xc4, 0x3d, 0xd4, 0xbc, 0x0b, 0xbd, 0x82, 0xcf, 0x13, 0xbd, 0x8b, 0x3d, 0x9f, 0xbd, 0x14, 0xa7, 0xba, 0x3d, 0x7d, 0x7f, 0xc8, 0x3c, 0xf3, 0x3c, 0x4e, 0x3c, 0x7b, 0x13, 0xe6, 0xbd, 
0xe6, 0x62, 0xde, 0x3d, 0x60, 0x3d, 0xbd, 0xbd, 0xc0, 0x0c, 0xeb, 0x3b, 0x80, 0x32, 0xb9, 0xba, 0x1c, 0x4b, 0x43, 0xbd, 0x20, 0xcf, 0xb5, 0x3b, 0x38, 0x4d, 0x95, 0xbc, 0x76, 0x0b, 0xd4, 0xbd, 
0x38, 0xa8, 0xf6, 0x3d, 0x18, 0x2e, 0xff, 0x3c, 0x6c, 0x80, 0xed, 0x3d, 0xa4, 0x68, 0xdb, 0xbd, 0xa0, 0x8b, 0x44, 0xbd, 0xe0, 0x48, 0xfc, 0x3d, 0xf0, 0xca, 0xa4, 0xbc, 0x1a, 0xf8, 0x96, 0xbd, 
0x68, 0xfa, 0x21, 0xbd, 0x1e, 0x1e, 0x8b, 0xbd, 0x18, 0xd4, 0x8f, 0xbd, 0x04, 0x4b, 0xb3, 0xbd, 0x46, 0x4c, 0x9a, 0xbd, 0x5c, 0x1b, 0x65, 0x3d, 0xa8, 0x1e, 0x9f, 0xbc, 0xc4, 0x45, 0xe4, 0xbd, 
0x0e, 0x8a, 0xb0, 0x3d, 0xd0, 0x90, 0x8c, 0xbd, 0x00, 0xeb, 0xb1, 0x3d, 0x28, 0x9e, 0xb5, 0xbd, 0xf2, 0x55, 0xb0, 0x3d, 0x24, 0xe2, 0x6b, 0xbd, 0x38, 0x13, 0x08, 0xbd, 0x60, 0xbf, 0x61, 0x3d, 
0xe0, 0x7b, 0x46, 0xbd, 0xc4, 0x94, 0x2f, 0x3d, 0xc8, 0x4e, 0xd7, 0xbd, 0x90, 0xb6, 0x9e, 0xbc, 0x58, 0xdc, 0x4c, 0xbd, 0x10, 0x4a, 0xd0, 0x3c, 0x94, 0x4e, 0xb3, 0xbd, 0x70, 0xa4, 0x83, 0xbd, 
0xa0, 0xc3, 0x19, 0x3d, 0xb0, 0xa5, 0x09, 0xbc, 0x6c, 0x47, 0xf2, 0xbd, 0x7c, 0xed, 0x74, 0x3d, 0x40, 0x0f, 0x62, 0x3c, 0xd0, 0x6f, 0x0f, 0x3c, 0xc0, 0x57, 0x5a, 0xbd, 0x30, 0x05, 0x04, 0x3d, 
0x04, 0xbc, 0x19, 0xbd, 0x9a, 0x69, 0xb1, 0x3d, 0xb8, 0xaf, 0x45, 0xbd, 0x2c, 0xcc, 0x11, 0xbd, 0xa0, 0x76, 0x3b, 0xbd, 0xf4, 0x75, 0xd0, 0x3d, 0x18, 0x98, 0x23, 0xbd, 0x7c, 0x1f, 0xdd, 0xbd, 
0x1e, 0xaa, 0x8b, 0x3d, 0x20, 0x0b, 0xf9, 0x3c, 0xe8, 0xac, 0x9e, 0x3c, 0xa4, 0x29, 0x0c, 0xbd, 0x50, 0x72, 0x0a, 0x3d, 0x20, 0xaf, 0xc9, 0x3d, 0xf6, 0x66, 0xbe, 0x3d, 0x20, 0xab, 0x45, 0xbc, 
0xc3, 0x6a, 0x97, 0x3c, 0x53, 0x89, 0x00, 0xbe, 0x6c, 0x74, 0xdd, 0xbb, 0x9c, 0xf2, 0x85, 0xbd, 0xe2, 0x12, 0x65, 0xbc, 0xda, 0xc4, 0x97, 0x3d, 0xaf, 0x23, 0xea, 0xbd, 0xdc, 0xe8, 0x95, 0xbd, 
0x54, 0xd7, 0xa9, 0x3d, 0x3f, 0xec, 0x73, 0x3b, 0x0b, 0xaf, 0xcb, 0x3d, 0x2f, 0xaa, 0x55, 0xbd, 0xb6, 0x40, 0x8e, 0xbd, 0xae, 0xa1, 0xe6, 0x3d, 0x02, 0xf2, 0xe7, 0xbc, 0x1a, 0x15, 0xcb, 0x3d, 
0xda, 0x5b, 0x5d, 0x3c, 0xc3, 0x7d, 0xda, 0x3d, 0x33, 0xd1, 0xa8, 0xbd, 0xa6, 0x35, 0xec, 0xbc, 0xd8, 0x6c, 0xb8, 0x3d, 0x34, 0xbc, 0x26, 0xbd, 0xa4, 0xde, 0x94, 0x3d, 0x9f, 0xee, 0x97, 0xbd, 
0xfd, 0xe8, 0x1e, 0x3d, 0xd4, 0xa3, 0x9b, 0x3d, 0x6c, 0x73, 0x25, 0xbd, 0xdd, 0x96, 0x8a, 0xbd, 0x91, 0xbc, 0x1a, 0x3d, 0x1b, 0x1f, 0xb5, 0x3d, 0xa6, 0x4a, 0x88, 0xbd, 0x37, 0xc5, 0x28, 0x3d, 
0x04, 0x70, 0x85, 0xbd, 0xe2, 0xb2, 0x0b, 0x3d, 0xf9, 0x74, 0x90, 0x3d, 0x8a, 0x9f, 0x39, 0x3c, 0xb8, 0x4c, 0xa5, 0x3c, 0xb9, 0xb6, 0xff, 0xbd, 0x22, 0x44, 0xbd, 0x3c, 0x50, 0xea, 0xdb, 0xbc, 
0x8a, 0xdf, 0xa0, 0xbc, 0xf8, 0xdb, 0xf6, 0xbd, 0x10, 0x61, 0xf5, 0xbd, 0x5e, 0x0b, 0x29, 0x3b, 0xfd, 0x64, 0x64, 0xbd, 0x05, 0x4e, 0xdb, 0x3d, 0x0e, 0xeb, 0xa7, 0x3c, 0x9f, 0xbf, 0x41, 0xbd, 
0xec, 0x57, 0xae, 0x3c, 0x47, 0x64, 0xa3, 0x3d, 0x90, 0x73, 0xf0, 0xbb, 0x01, 0x48, 0x00, 0xbe, 0xdf, 0x16, 0xc9, 0x3d, 0xce, 0x87, 0xa7, 0xbc, 0x61, 0xb5, 0xa9, 0xbd, 0x04, 0x15, 0x93, 0xbc, 
0xf3, 0xb9, 0x0a, 0x3c, 0xe1, 0x55, 0xbc, 0x3d, 0xe3, 0xba, 0x5f, 0x3c, 0x1b, 0x27, 0x63, 0x3c, 0xcb, 0x06, 0xe4, 0x3d, 0x7d, 0x09, 0xed, 0x3c, 0x1e, 0x0e, 0x87, 0xbd, 0x26, 0x42, 0xd9, 0x3d, 
0x78, 0xec, 0x4a, 0xbd, 0x4e, 0x0f, 0x41, 0x3d, 0xdf, 0x19, 0xff, 0xbc, 0x1a, 0x6c, 0xb5, 0x3c, 0xbd, 0x41, 0xa6, 0x3d, 0xdf, 0xfc, 0xc8, 0x3d, 0x73, 0x4c, 0x93, 0x3d, 0xa2, 0xfc, 0xb2, 0x3b, 
0xea, 0x95, 0x89, 0x3d, 0x2d, 0x5d, 0xcc, 0xbc, 0x89, 0xc9, 0xf8, 0xbd, 0xa8, 0x21, 0x66, 0xbd, 0x7a, 0xf5, 0x0a, 0xbd, 0xe3, 0xeb, 0xe7, 0x3d, 0xc7, 0xf6, 0x29, 0xbc, 0x5d, 0xc1, 0xf0, 0xbd, 
0x67, 0xd4, 0xfd, 0xbd, 0xfa, 0xea, 0x09, 0x3c, 0xda, 0x87, 0xb8, 0x3d, 0x56, 0xcb, 0xc4, 0x3d, 0xc8, 0x4d, 0x79, 0xbc, 0x45, 0xde, 0x92, 0xbd, 0x0e, 0xc5, 0xd4, 0x3d, 0x39, 0xe8, 0x2a, 0x3d, 
0xf0, 0x93, 0x08, 0xbd, 0x44, 0xa7, 0x0f, 0x3d, 0x8e, 0x86, 0x04, 0x3d, 0xe7, 0xce, 0xeb, 0xbd, 0xeb, 0x31, 0x7c, 0xbd, 0x52, 0xaa, 0x10, 0x3d, 0x7e, 0x50, 0x04, 0x3d, 0x24, 0xbe, 0xd1, 0xbc, 
0xf7, 0x5e, 0xbe, 0x3c, 0x32, 0x92, 0x9e, 0xba, 0x6d, 0x01, 0xeb, 0xbc, 0x4b, 0x61, 0xcf, 0xbd, 0xd7, 0x8f, 0x66, 0xbd, 0xcf, 0x0b, 0x72, 0x3a, 0x0f, 0xc5, 0xec, 0xbc, 0xaa, 0xe0, 0x6b, 0x3d, 
0x22, 0x5b, 0xda, 0xbd, 0xf4, 0x07, 0xf1, 0xbd, 0x57, 0x41, 0xa2, 0xbc, 0xa1, 0x2e, 0xaf, 0xbd, 0xe5, 0x73, 0xc3, 0xbd, 0xda, 0x6d, 0xe4, 0x3d, 0x06, 0x69, 0xbb, 0xbc, 0x19, 0xc9, 0xe6, 0x3d, 
0x91, 0x41, 0x9a, 0xbd, 0xd2, 0x5b, 0x5f, 0xba, 0x2d, 0xda, 0x9f, 0xbd, 0x45, 0x15, 0xcc, 0x3d, 0x99, 0x92, 0x50, 0x3d, 0x68, 0xbc, 0x17, 0x3d, 0x9c, 0xe2, 0xb4, 0x3d, 0x9c, 0xf4, 0xfe, 0xbd, 
0xac, 0x18, 0x4b, 0xbd, 0xbc, 0x7d, 0xe1, 0x3c, 0xbb, 0x5e, 0x36, 0x3d, 0x74, 0x38, 0xfc, 0xbd, 0xad, 0xd7, 0xbc, 0xbd, 0x99, 0x4d, 0xb7, 0xbd, 0x71, 0x57, 0xec, 0x3d, 0x16, 0x31, 0x0f, 0x3c, 
0xbd, 0xeb, 0xdb, 0x3b, 0xce, 0x84, 0xbd, 0x3d, 0xaa, 0x16, 0x71, 0xbd, 0x78, 0x92, 0x9b, 0xbd, 0x49, 0x2f, 0x3d, 0xbc, 0x06, 0x7c, 0xee, 0xbc, 0x96, 0x62, 0x94, 0xbd, 0xed, 0x53, 0x1e, 0x3d, 
0x47, 0x26, 0x98, 0x3c, 0xbe, 0xef, 0x25, 0xbd, 0x1e, 0x1e, 0xcc, 0x3d, 0x3d, 0xd6, 0xd6, 0x3c, 0xca, 0x2e, 0x9a, 0xbd, 0x69, 0xc5, 0xd2, 0xbd, 0x17, 0x7a, 0xbc, 0x3c, 0x38, 0xc2, 0x86, 0x3d, 
0x6f, 0x27, 0x00, 0x3d, 0xf4, 0xcd, 0x82, 0x3c, 0x27, 0xa8, 0xc2, 0x3d, 0xcb, 0x96, 0xdb, 0xbd, 0xfc, 0xf7, 0xf3, 0x3c, 0x26, 0x16, 0xa0, 0x3c, 0x22, 0x62, 0xeb, 0x3d, 0xe1, 0x50, 0xa9, 0x3d, 
0x13, 0xe7, 0xef, 0x3d, 0x9d, 0x05, 0xdd, 0xbb, 0x15, 0x04, 0xef, 0x3d, 0xf2, 0x25, 0xcb, 0x3d, 0xb2, 0x39, 0xb4, 0x3c, 0xd5, 0x4c, 0xb8, 0x3d, 0xdc, 0xc4, 0xf1, 0xbd, 0x0c, 0xf8, 0x65, 0xbd, 
0x01, 0x0a, 0x5c, 0x3d, 0x0d, 0x4f, 0xe1, 0x3d, 0x3a, 0xea, 0x1e, 0x3d, 0xb5, 0xa7, 0x1d, 0xbd, 0x36, 0x43, 0xe6, 0x3d, 0x0c, 0xc0, 0x37, 0x39, 0x1a, 0x48, 0xf4, 0xbd, 0xf7, 0xa7, 0xfb, 0xbd, 
0xe1, 0xde, 0xc6, 0x3d, 0x1f, 0x3a, 0x9a, 0x3d, 0xf1, 0x95, 0x03, 0x3d, 0xb9, 0x4b, 0xed, 0x3d, 0x9a, 0x96, 0x16, 0x3c, 0x99, 0xaa, 0x51, 0xbd, 0xa2, 0xa6, 0x93, 0xbd, 0x75, 0x8b, 0xc9, 0x3d, 
0x69, 0x42, 0x95, 0xbd, 0xbe, 0x02, 0x66, 0xbd, 0x64, 0xa3, 0x8e, 0xbd, 0xb4, 0x84, 0x47, 0x3d, 0x73, 0x8b, 0xb8, 0xbd, 0x63, 0xd7, 0xde, 0x3c, 0xab, 0x6d, 0x41, 0x3d, 0xab, 0xd3, 0xcb, 0x3d, 
0x7c, 0x5d, 0xbf, 0xbd, 0x7d, 0x86, 0xc6, 0x3c, 0xb6, 0x97, 0x01, 0xbd, 0xe8, 0x07, 0x5e, 0x3d, 0x07, 0x2e, 0xe0, 0xbd, 0x72, 0x0e, 0x40, 0x3d, 0x1c, 0x4b, 0x9f, 0xbd, 0x2c, 0x68, 0x0d, 0x3d, 
0xcc, 0x42, 0x9c, 0x3c, 0xac, 0xb0, 0x82, 0xbb, 0x00, 0x6e, 0x66, 0xbd, 0x84, 0xd5, 0xad, 0xbd, 0x24, 0x68, 0x3a, 0x3c, 0x01, 0x25, 0x47, 0xbd, 0x98, 0x7f, 0x92, 0xbd, 0x9c, 0xdd, 0x9b, 0xbd, 
0x03, 0x2e, 0x31, 0x3d, 0x9f, 0x94, 0x85, 0x3d, 0xd6, 0x0b, 0x4b, 0x3b, 0x47, 0xcd, 0x9a, 0x3d, 0x97, 0x5d, 0x40, 0x3d, 0x05, 0x37, 0xdc, 0x3d, 0x3f, 0xf3, 0x66, 0x3d, 0xe6, 0x04, 0xc2, 0x3d, 
0x28, 0x67, 0xd4, 0x3c, 0xf5, 0xb4, 0x80, 0xbd, 0x6d, 0x68, 0x8b, 0xbd, 0x77, 0x14, 0xf7, 0x3b, 0x43, 0x09, 0xc8, 0xbc, 0x9f, 0xa1, 0xa4, 0x3b, 0x98, 0xc9, 0xca, 0x3d, 0xc5, 0xae, 0xa0, 0x3d, 
0x42, 0x96, 0xe1, 0x3d, 0x41, 0x71, 0xaf, 0x3d, 0x17, 0x4a, 0x42, 0x3d, 0x5a, 0x9a, 0xb4, 0x3c, 0xb2, 0x53, 0xed, 0xbc, 0x16, 0x84, 0x99, 0xbd, 0xa6, 0xc0, 0xa1, 0x3d, 0x04, 0x29, 0xac, 0xbd, 
0xb4, 0x97, 0x62, 0xbd, 0x72, 0x9a, 0x7e, 0xbd, 0x81, 0x0a, 0x69, 0x3d, 0x97, 0x41, 0x29, 0xbd, 0x6a, 0x10, 0xef, 0xbc, 0xd2, 0xbc, 0xee, 0x3b, 0x8c, 0x64, 0xa6, 0x3d, 0xe2, 0xda, 0xe9, 0xbc, 
0x79, 0xe0, 0xdf, 0xbd, 0xcb, 0x91, 0x05, 0x3e, 0x8c, 0x15, 0x8b, 0x3b, 0x83, 0x66, 0xbd, 0x3d, 0xbd, 0x57, 0xdb, 0x3d, 0x4e, 0xe7, 0xd4, 0x3d, 0x5d, 0x06, 0x9b, 0x3d, 0x15, 0x5c, 0x05, 0x3d, 
0xf6, 0x71, 0xd4, 0x3d, 0x44, 0x46, 0x30, 0x3d, 0x5f, 0xb2, 0xd4, 0xbd, 0x04, 0x66, 0xa1, 0xbc, 0x6d, 0x3d, 0xab, 0x3d, 0xda, 0xcb, 0x6d, 0x3d, 0xe6, 0x23, 0xa9, 0xbd, 0x90, 0x5f, 0x07, 0x3d, 
0xa2, 0xd6, 0xfa, 0x3d, 0x32, 0x48, 0xdc, 0x3d, 0x62, 0x7c, 0x53, 0x3d, 0xe5, 0xd0, 0x7a, 0x3d, 0x5c, 0x51, 0xa0, 0xbd, 0x62, 0x52, 0xb4, 0x3d, 0x43, 0x1e, 0xc2, 0xba, 0x9d, 0x54, 0x33, 0x3d, 
0xac, 0x6d, 0xb4, 0xbc, 0x5c, 0x1b, 0x05, 0xbd, 0x12, 0x94, 0x95, 0xbd, 0x2f, 0x22, 0x03, 0x3d, 0xd0, 0x28, 0x55, 0xbd, 0xf3, 0x3d, 0xa6, 0x3d, 0x0d, 0xd6, 0x52, 0x3c, 0x82, 0x53, 0x92, 0xbd, 
0x13, 0x85, 0x04, 0x3c, 0xb0, 0xb6, 0x5e, 0x3c, 0x0a, 0x61, 0x8a, 0xbd, 0x22, 0xb2, 0xa0, 0xbd, 0xd0, 0xc7, 0x7b, 0xbc, 0x8a, 0x89, 0x3d, 0x3d, 0x25, 0xae, 0x7c, 0x3d, 0xb7, 0x42, 0x37, 0xbc, 
0x4b, 0xb1, 0xfc, 0x3d, 0xe6, 0xb1, 0x99, 0x3d, 0xa9, 0x19, 0x7c, 0xbd, 0xe2, 0x12, 0xc2, 0x3c, 0x3d, 0x09, 0x00, 0x3e, 0x4f, 0x51, 0xa1, 0xbc, 0xe8, 0x0d, 0x4f, 0xbd, 0x9f, 0xaa, 0x30, 0x3d, 
0x8e, 0x65, 0xd2, 0x3d, 0x48, 0x71, 0x87, 0xbc, 0x8f, 0xd8, 0x6e, 0xbd, 0xed, 0x44, 0xd3, 0xbd, 0x09, 0x72, 0xf4, 0xbd, 0x15, 0x59, 0x1a, 0x3d, 0x99, 0x77, 0xe2, 0xbc, 0x4c, 0x0c, 0xff, 0x3d, 
0x36, 0xb9, 0x05, 0xbc, 0xbe, 0x7c, 0xe1, 0xbd, 0xc9, 0xb5, 0x8e, 0xbc, 0x06, 0x04, 0x82, 0xbc, 0x93, 0x93, 0xfe, 0x3d, 0x44, 0x56, 0xcd, 0xbd, 0x83, 0xc6, 0x95, 0x3d, 0x8f, 0x1c, 0x5d, 0xbd, 
0x2a, 0x6a, 0x72, 0xbd, 0xab, 0x77, 0xa6, 0xbd, 0xa7, 0xe2, 0x80, 0x3d, 0xf8, 0x29, 0x98, 0x3d, 0xe6, 0x3d, 0x6a, 0x3c, 0xd0, 0x63, 0x7e, 0x3a, 0xda, 0xa0, 0x80, 0x3d, 0x99, 0x60, 0xdf, 0xbd, 
0xce, 0x05, 0x0f, 0xbd, 0x09, 0xd1, 0x20, 0x3c, 0xae, 0x0f, 0xf7, 0xbc, 0x32, 0xc4, 0xe5, 0x3b, 0x8d, 0x1b, 0xde, 0x3d, 0xeb, 0x18, 0xe4, 0x3d, 0x9d, 0xed, 0x9d, 0x3d, 0xbe, 0x4e, 0xfc, 0xbd, 
0xb3, 0x5b, 0x8c, 0xbd, 0x58, 0x88, 0xe9, 0x3d, 0x41, 0xae, 0x7c, 0x3d, 0x18, 0x4d, 0xf6, 0x3c, 0x44, 0x08, 0xe1, 0xbd, 0xf4, 0xa3, 0x5d, 0xbd, 0xbf, 0xc6, 0xb8, 0x3d, 0x82, 0x52, 0xc8, 0x3d, 
0xc3, 0x67, 0x95, 0x3d, 0xa6, 0x8e, 0x87, 0xbb, 0x97, 0x5e, 0xee, 0x3d, 0x22, 0xa6, 0x96, 0xbd, 0x2c, 0x62, 0xce, 0xbd, 0x36, 0x43, 0x84, 0xbc, 0x74, 0x2a, 0x04, 0x3d, 0xe6, 0xc2, 0xcc, 0x3d, 
0x1a, 0x54, 0xed, 0x3c, 0x7e, 0xfb, 0x00, 0xbd, 0xec, 0x84, 0xa5, 0xbd, 0xd5, 0x16, 0x12, 0x3c, 0xbe, 0xc5, 0xfb, 0xbd, 0xf4, 0x72, 0xfb, 0xbd, 0x7c, 0xd8, 0x9c, 0x3d, 0xf3, 0x14, 0xc0, 0x3d, 
0xc1, 0x8f, 0x95, 0xbd, 0x64, 0x5a, 0x83, 0x3d, 0xe3, 0x78, 0x80, 0x3e, 0xb0, 0xbe, 0x82, 0xbc, 0x1e, 0x95, 0x2b, 0x3e, 0x33, 0x33, 0x64, 0x3e, 0x4c, 0x09, 0x7d, 0xbe, 0xa3, 0xef, 0xef, 0x3d, 
0x6c, 0xe7, 0x5d, 0x3e, 0xd5, 0x97, 0x7d, 0xbe, 0x28, 0x96, 0xf7, 0xbd, 0x36, 0xd8, 0x35, 0xbd, 0x83, 0x26, 0x9d, 0xbd, 0x38, 0xb9, 0xf5, 0xbd, 0x12, 0xee, 0x76, 0x3e, 0xef, 0xda, 0x89, 0x3d, 
0x4c, 0x27, 0x10, 0xbe, 0xc9, 0x61, 0x69, 0x3d, 0xbb, 0xc0, 0x41, 0xbe, 0xf8, 0x55, 0x5c, 0xbe, 0x85, 0xc6, 0x51, 0xbd, 0x9e, 0x08, 0xec, 0x3d, 0xac, 0x96, 0xdc, 0xbd, 0xc5, 0x74, 0x31, 0x3c, 
0xc2, 0x59, 0x1d, 0xbe, 0x0b, 0xfa, 0xd2, 0x3d, 0x5e, 0x53, 0x23, 0xbe, 0x8e, 0xb9, 0x7a, 0x3a, 0x0e, 0x19, 0x3c, 0x3d, 0x56, 0xfd, 0x04, 0x3d, 0x74, 0xdd, 0x92, 0xbd, 0x6f, 0xf7, 0x56, 0xbd, 
0xc2, 0xe4, 0x1f, 0x3e, 0xfe, 0xb2, 0x7b, 0x3d, };
