__attribute__((section("network_model_sec"), aligned(16))) char model_pte[] = {
0x3c, 0x00, 0x00, 0x00, 0x45, 0x54, 0x31, 0x32, 0x65, 0x68, 0x30, 0x30, 0x18, 0x00, 0x00, 0x00, 0xa0, 0x11, 0x00, 0x00, 0x00, 0x00, 0x00, 0x00, 0x00, 0x12, 0x00, 0x00, 0x00, 0x00, 0x00, 0x00, 
0x00, 0x00, 0x00, 0x00, 0x00, 0x00, 0x00, 0x00, 0x00, 0x00, 0x00, 0x00, 0x10, 0x00, 0x18, 0x00, 0x00, 0x00, 0x04, 0x00, 0x08, 0x00, 0x0c, 0x00, 0x10, 0x00, 0x14, 0x00, 0x10, 0x00, 0x00, 0x00, 
0x84, 0x00, 0x00, 0x00, 0x7c, 0x00, 0x00, 0x00, 0x74, 0x00, 0x00, 0x00, 0x50, 0x00, 0x00, 0x00, 0x04, 0x00, 0x00, 0x00, 0x00, 0xfb, 0xff, 0xff, 0x04, 0x00, 0x00, 0x00, 0x07, 0x00, 0x00, 0x00, 
0x00, 0x00, 0x00, 0x00, 0x00, 0x00, 0x00, 0x00, 0x00, 0x00, 0x00, 0x00, 0x00, 0x00, 0x00, 0x00, 0x30, 0x00, 0x00, 0x00, 0x00, 0x00, 0x00, 0x00, 0x40, 0x00, 0x00, 0x00, 0x00, 0x00, 0x00, 0x00, 
0x40, 0x10, 0x00, 0x00, 0x00, 0x00, 0x00, 0x00, 0x80, 0x10, 0x00, 0x00, 0x00, 0x00, 0x00, 0x00, 0x00, 0x11, 0x00, 0x00, 0x00, 0x00, 0x00, 0x00, 0x00, 0x00, 0x00, 0x00, 0x01, 0x00, 0x00, 0x00, 
0x0c, 0x00, 0x00, 0x00, 0x08, 0x00, 0x10, 0x00, 0x00, 0x00, 0x04, 0x00, 0x08, 0x00, 0x00, 0x00, 0x08, 0x11, 0x00, 0x00, 0x00, 0x00, 0x00, 0x00, 0x00, 0x00, 0x00, 0x00, 0x00, 0x00, 0x00, 0x00, 
0x00, 0x00, 0x00, 0x00, 0x01, 0x00, 0x00, 0x00, 0x1c, 0x00, 0x00, 0x00, 0x00, 0x00, 0x16, 0x00, 0x28, 0x00, 0x04, 0x00, 0x08, 0x00, 0x0c, 0x00, 0x10, 0x00, 0x14, 0x00, 0x18, 0x00, 0x1c, 0x00, 
0x20, 0x00, 0x24, 0x00, 0x16, 0x00, 0x00, 0x00, 0xac, 0x10, 0x00, 0x00, 0x58, 0x0f, 0x00, 0x00, 0xbc, 0x04, 0x00, 0x00, 0xb0, 0x04, 0x00, 0x00, 0xa4, 0x04, 0x00, 0x00, 0xec, 0x01, 0x00, 0x00, 
0x24, 0x00, 0x00, 0x00, 0x1c, 0x00, 0x00, 0x00, 0x04, 0x00, 0x00, 0x00, 0x02, 0x00, 0x00, 0x00, 0x00, 0x00, 0x00, 0x00, 0x00, 0x00, 0x00, 0x00, 0x90, 0x15, 0x00, 0x00, 0x00, 0x00, 0x00, 0x00, 
0x00, 0x00, 0x00, 0x00, 0x09, 0x00, 0x00, 0x00, 0x94, 0x01, 0x00, 0x00, 0x6c, 0x01, 0x00, 0x00, 0x38, 0x01, 0x00, 0x00, 0xfc, 0x00, 0x00, 0x00, 0xc4, 0x00, 0x00, 0x00, 0x88, 0x00, 0x00, 0x00, 
0x58, 0x00, 0x00, 0x00, 0x30, 0x00, 0x00, 0x00, 0x04, 0x00, 0x00, 0x00, 0x10, 0xf1, 0xff, 0xff, 0x10, 0x00, 0x00, 0x00, 0x04, 0x00, 0x00, 0x00, 0x03, 0x00, 0x00, 0x00, 0x6f, 0x75, 0x74, 0x00, 
0x0e, 0x00, 0x00, 0x00, 0x61, 0x74, 0x65, 0x6e, 0x3a, 0x3a, 0x5f, 0x73, 0x6f, 0x66, 0x74, 0x6d, 0x61, 0x78, 0x00, 0x00, 0x38, 0xf1, 0xff, 0xff, 0x10, 0x00, 0x00, 0x00, 0x04, 0x00, 0x00, 0x00, 
0x03, 0x00, 0x00, 0x00, 0x6f, 0x75, 0x74, 0x00, 0x0b, 0x00, 0x00, 0x00, 0x61, 0x74, 0x65, 0x6e, 0x3a, 0x3a, 0x61, 0x64, 0x64, 0x6d, 0x6d, 0x00, 0x5c, 0xf1, 0xff, 0xff, 0x10, 0x00, 0x00, 0x00, 
0x04, 0x00, 0x00, 0x00, 0x03, 0x00, 0x00, 0x00, 0x6f, 0x75, 0x74, 0x00, 0x12, 0x00, 0x00, 0x00, 0x61, 0x74, 0x65, 0x6e, 0x3a, 0x3a, 0x70, 0x65, 0x72, 0x6d, 0x75, 0x74, 0x65, 0x5f, 0x63, 0x6f, 
0x70, 0x79, 0x00, 0x00, 0x88, 0xf1, 0xff, 0xff, 0x14, 0x00, 0x00, 0x00, 0x04, 0x00, 0x00, 0x00, 0x07, 0x00, 0x00, 0x00, 0x64, 0x65, 0x66, 0x61, 0x75, 0x6c, 0x74, 0x00, 0x18, 0x00, 0x00, 0x00, 
0x65, 0x78, 0x65, 0x63, 0x75, 0x74, 0x6f, 0x72, 0x63, 0x68, 0x5f, 0x70, 0x72, 0x69, 0x6d, 0x3a, 0x3a, 0x65, 0x74, 0x5f, 0x76, 0x69, 0x65, 0x77, 0x00, 0x00, 0x00, 0x00, 0xc0, 0xf1, 0xff, 0xff, 
0x18, 0x00, 0x00, 0x00, 0x04, 0x00, 0x00, 0x00, 0x08, 0x00, 0x00, 0x00, 0x64, 0x69, 0x6d, 0x73, 0x5f, 0x6f, 0x75, 0x74, 0x00, 0x00, 0x00, 0x00, 0x12, 0x00, 0x00, 0x00, 0x61, 0x74, 0x65, 0x6e, 
0x3a, 0x3a, 0x73, 0x71, 0x75, 0x65, 0x65, 0x7a, 0x65, 0x5f, 0x63, 0x6f, 0x70, 0x79, 0x00, 0x00, 0xf4, 0xf1, 0xff, 0xff, 0x10, 0x00, 0x00, 0x00, 0x04, 0x00, 0x00, 0x00, 0x03, 0x00, 0x00, 0x00, 
0x6f, 0x75, 0x74, 0x00, 0x1d, 0x00, 0x00, 0x00, 0x61, 0x74, 0x65, 0x6e, 0x3a, 0x3a, 0x6d, 0x61, 0x78, 0x5f, 0x70, 0x6f, 0x6f, 0x6c, 0x32, 0x64, 0x5f, 0x77, 0x69, 0x74, 0x68, 0x5f, 0x69, 0x6e, 
0x64, 0x69, 0x63, 0x65, 0x73, 0x00, 0x00, 0x00, 0x2c, 0xf2, 0xff, 0xff, 0x10, 0x00, 0x00, 0x00, 0x04, 0x00, 0x00, 0x00, 0x03, 0x00, 0x00, 0x00, 0x6f, 0x75, 0x74, 0x00, 0x14, 0x00, 0x00, 0x00, 
0x61, 0x74, 0x65, 0x6e, 0x3a, 0x3a, 0x75, 0x6e, 0x73, 0x71, 0x75, 0x65, 0x65, 0x7a, 0x65, 0x5f, 0x63, 0x6f, 0x70, 0x79, 0x00, 0x00, 0x00, 0x00, 0x5c, 0xf2, 0xff, 0xff, 0x10, 0x00, 0x00, 0x00, 
0x04, 0x00, 0x00, 0x00, 0x03, 0x00, 0x00, 0x00, 0x6f, 0x75, 0x74, 0x00, 0x0a, 0x00, 0x00, 0x00, 0x61, 0x74, 0x65, 0x6e, 0x3a, 0x3a, 0x72, 0x65, 0x6c, 0x75, 0x00, 0x00, 0x80, 0xf2, 0xff, 0xff, 
0x10, 0x00, 0x00, 0x00, 0x04, 0x00, 0x00, 0x00, 0x03, 0x00, 0x00, 0x00, 0x6f, 0x75, 0x74, 0x00, 0x11, 0x00, 0x00, 0x00, 0x61, 0x74, 0x65, 0x6e, 0x3a, 0x3a, 0x63, 0x6f, 0x6e, 0x76, 0x6f, 0x6c, 
0x75, 0x74, 0x69, 0x6f, 0x6e, 0x00, 0x00, 0x00, 0x01, 0x00, 0x00, 0x00, 0x10, 0x00, 0x00, 0x00, 0x00, 0x00, 0x0a, 0x00, 0x10, 0x00, 0x04, 0x00, 0x08, 0x00, 0x0c, 0x00, 0x0a, 0x00, 0x00, 0x00, 
0x98, 0x02, 0x00, 0x00, 0x90, 0x02, 0x00, 0x00, 0x04, 0x00, 0x00, 0x00, 0x0c, 0x00, 0x00, 0x00, 0x38, 0x02, 0x00, 0x00, 0x0c, 0x02, 0x00, 0x00, 0xdc, 0x01, 0x00, 0x00, 0x98, 0x01, 0x00, 0x00, 
0x68, 0x01, 0x00, 0x00, 0x3c, 0x01, 0x00, 0x00, 0x0c, 0x01, 0x00, 0x00, 0xd0, 0x00, 0x00, 0x00, 0xa4, 0x00, 0x00, 0x00, 0x74, 0x00, 0x00, 0x00, 0x38, 0x00, 0x00, 0x00, 0x04, 0x00, 0x00, 0x00, 
0x54, 0xf3, 0xff, 0xff, 0x00, 0x00, 0x00, 0x01, 0x04, 0x00, 0x00, 0x00, 0x10, 0xf3, 0xff, 0xff, 0x08, 0x00, 0x00, 0x00, 0x04, 0x00, 0x00, 0x00, 0x05, 0x00, 0x00, 0x00, 0x38, 0x00, 0x00, 0x00, 
0x3c, 0x00, 0x00, 0x00, 0x3d, 0x00, 0x00, 0x00, 0x3b, 0x00, 0x00, 0x00, 0x3b, 0x00, 0x00, 0x00, 0x84, 0xf3, 0xff, 0xff, 0x00, 0x00, 0x00, 0x01, 0x04, 0x00, 0x00, 0x00, 0x40, 0xf3, 0xff, 0xff, 
0x07, 0x00, 0x00, 0x00, 0x04, 0x00, 0x00, 0x00, 0x07, 0x00, 0x00, 0x00, 0x05, 0x00, 0x00, 0x00, 0x33, 0x00, 0x00, 0x00, 0x34, 0x00, 0x00, 0x00, 0x39, 0x00, 0x00, 0x00, 0x3a, 0x00, 0x00, 0x00, 
0x38, 0x00, 0x00, 0x00, 0x38, 0x00, 0x00, 0x00, 0xbc, 0xf3, 0xff, 0xff, 0x00, 0x00, 0x00, 0x01, 0x04, 0x00, 0x00, 0x00, 0x78, 0xf3, 0xff, 0xff, 0x06, 0x00, 0x00, 0x00, 0x04, 0x00, 0x00, 0x00, 
0x04, 0x00, 0x00, 0x00, 0x04, 0x00, 0x00, 0x00, 0x37, 0x00, 0x00, 0x00, 0x34, 0x00, 0x00, 0x00, 0x34, 0x00, 0x00, 0x00, 0xe8, 0xf3, 0xff, 0xff, 0x00, 0x00, 0x00, 0x01, 0x04, 0x00, 0x00, 0x00, 
0xa4, 0xf3, 0xff, 0xff, 0x01, 0x00, 0x00, 0x00, 0x04, 0x00, 0x00, 0x00, 0x03, 0x00, 0x00, 0x00, 0x30, 0x00, 0x00, 0x00, 0x33, 0x00, 0x00, 0x00, 0x33, 0x00, 0x00, 0x00, 0x10, 0xf4, 0xff, 0xff, 
0x00, 0x00, 0x00, 0x01, 0x04, 0x00, 0x00, 0x00, 0xcc, 0xf3, 0xff, 0xff, 0x07, 0x00, 0x00, 0x00, 0x04, 0x00, 0x00, 0x00, 0x07, 0x00, 0x00, 0x00, 0x03, 0x00, 0x00, 0x00, 0x2b, 0x00, 0x00, 0x00, 
0x2c, 0x00, 0x00, 0x00, 0x31, 0x00, 0x00, 0x00, 0x32, 0x00, 0x00, 0x00, 0x30, 0x00, 0x00, 0x00, 0x30, 0x00, 0x00, 0x00, 0x48, 0xf4, 0xff, 0xff, 0x00, 0x00, 0x00, 0x01, 0x04, 0x00, 0x00, 0x00, 
0x04, 0xf4, 0xff, 0xff, 0x06, 0x00, 0x00, 0x00, 0x04, 0x00, 0x00, 0x00, 0x04, 0x00, 0x00, 0x00, 0x02, 0x00, 0x00, 0x00, 0x2f, 0x00, 0x00, 0x00, 0x2c, 0x00, 0x00, 0x00, 0x2c, 0x00, 0x00, 0x00, 
0x74, 0xf4, 0xff, 0xff, 0x00, 0x00, 0x00, 0x01, 0x04, 0x00, 0x00, 0x00, 0x30, 0xf4, 0xff, 0xff, 0x05, 0x00, 0x00, 0x00, 0x04, 0x00, 0x00, 0x00, 0x03, 0x00, 0x00, 0x00, 0x25, 0x00, 0x00, 0x00, 
0x2a, 0x00, 0x00, 0x00, 0x2b, 0x00, 0x00, 0x00, 0x9c, 0xf4, 0xff, 0xff, 0x00, 0x00, 0x00, 0x01, 0x04, 0x00, 0x00, 0x00, 0x58, 0xf4, 0xff, 0xff, 0x04, 0x00, 0x00, 0x00, 0x04, 0x00, 0x00, 0x00, 
0x04, 0x00, 0x00, 0x00, 0x15, 0x00, 0x00, 0x00, 0x27, 0x00, 0x00, 0x00, 0x25, 0x00, 0x00, 0x00, 0x25, 0x00, 0x00, 0x00, 0xc8, 0xf4, 0xff, 0xff, 0x00, 0x00, 0x00, 0x01, 0x04, 0x00, 0x00, 0x00, 
0x84, 0xf4, 0xff, 0xff, 0x03, 0x00, 0x00, 0x00, 0x04, 0x00, 0x00, 0x00, 0x09, 0x00, 0x00, 0x00, 0x13, 0x00, 0x00, 0x00, 0x19, 0x00, 0x00, 0x00, 0x1c, 0x00, 0x00, 0x00, 0x1f, 0x00, 0x00, 0x00, 
0x22, 0x00, 0x00, 0x00, 0x23, 0x00, 0x00, 0x00, 0x15, 0x00, 0x00, 0x00, 0x16, 0x00, 0x00, 0x00, 0x24, 0x00, 0x00, 0x00, 0x08, 0xf5, 0xff, 0xff, 0x00, 0x00, 0x00, 0x01, 0x04, 0x00, 0x00, 0x00, 
0xc4, 0xf4, 0xff, 0xff, 0x02, 0x00, 0x00, 0x00, 0x04, 0x00, 0x00, 0x00, 0x04, 0x00, 0x00, 0x00, 0x12, 0x00, 0x00, 0x00, 0x14, 0x00, 0x00, 0x00, 0x13, 0x00, 0x00, 0x00, 0x13, 0x00, 0x00, 0x00, 
0x34, 0xf5, 0xff, 0xff, 0x00, 0x00, 0x00, 0x01, 0x04, 0x00, 0x00, 0x00, 0xf0, 0xf4, 0xff, 0xff, 0x01, 0x00, 0x00, 0x00, 0x04, 0x00, 0x00, 0x00, 0x03, 0x00, 0x00, 0x00, 0x07, 0x00, 0x00, 0x00, 
0x12, 0x00, 0x00, 0x00, 0x12, 0x00, 0x00, 0x00, 0x5c, 0xf5, 0xff, 0xff, 0x00, 0x00, 0x00, 0x01, 0x0c, 0x00, 0x00, 0x00, 0x08, 0x00, 0x08, 0x00, 0x00, 0x00, 0x04, 0x00, 0x08, 0x00, 0x00, 0x00, 
0x04, 0x00, 0x00, 0x00, 0x0b, 0x00, 0x00, 0x00, 0x06, 0x00, 0x00, 0x00, 0x00, 0x00, 0x00, 0x00, 0x01, 0x00, 0x00, 0x00, 0x09, 0x00, 0x00, 0x00, 0x0b, 0x00, 0x00, 0x00, 0x0d, 0x00, 0x00, 0x00, 
0x0e, 0x00, 0x00, 0x00, 0x10, 0x00, 0x00, 0x00, 0x11, 0x00, 0x00, 0x00, 0x07, 0x00, 0x00, 0x00, 0x07, 0x00, 0x00, 0x00, 0x00, 0x00, 0x00, 0x00, 0x00, 0x00, 0x00, 0x00, 0x01, 0x00, 0x00, 0x00, 
0x3b, 0x00, 0x00, 0x00, 0x01, 0x00, 0x00, 0x00, 0x06, 0x00, 0x00, 0x00, 0x3e, 0x00, 0x00, 0x00, 0x44, 0x0a, 0x00, 0x00, 0x08, 0x0a, 0x00, 0x00, 0xd0, 0x09, 0x00, 0x00, 0x9c, 0x09, 0x00, 0x00, 
0x64, 0x09, 0x00, 0x00, 0x30, 0x09, 0x00, 0x00, 0xd0, 0x08, 0x00, 0x00, 0x6c, 0x08, 0x00, 0x00, 0x48, 0x08, 0x00, 0x00, 0x24, 0x08, 0x00, 0x00, 0x0c, 0x08, 0x00, 0x00, 0xe4, 0x07, 0x00, 0x00, 
0xc8, 0x07, 0x00, 0x00, 0xa4, 0x07, 0x00, 0x00, 0x90, 0x07, 0x00, 0x00, 0x7c, 0x07, 0x00, 0x00, 0x58, 0x07, 0x00, 0x00, 0x3c, 0x07, 0x00, 0x00, 0xf8, 0x06, 0x00, 0x00, 0xac, 0x06, 0x00, 0x00, 
0x90, 0x06, 0x00, 0x00, 0x48, 0x06, 0x00, 0x00, 0xe8, 0x05, 0x00, 0x00, 0xcc, 0x05, 0x00, 0x00, 0xb0, 0x05, 0x00, 0x00, 0x84, 0x05, 0x00, 0x00, 0x68, 0x05, 0x00, 0x00, 0x4c, 0x05, 0x00, 0x00, 
0x20, 0x05, 0x00, 0x00, 0x0c, 0x05, 0x00, 0x00, 0xf8, 0x04, 0x00, 0x00, 0xcc, 0x04, 0x00, 0x00, 0xb0, 0x04, 0x00, 0x00, 0x94, 0x04, 0x00, 0x00, 0x68, 0x04, 0x00, 0x00, 0x54, 0x04, 0x00, 0x00, 
0x30, 0x04, 0x00, 0x00, 0xe8, 0x03, 0x00, 0x00, 0xc0, 0x03, 0x00, 0x00, 0x9c, 0x03, 0x00, 0x00, 0x80, 0x03, 0x00, 0x00, 0x64, 0x03, 0x00, 0x00, 0x38, 0x03, 0x00, 0x00, 0xf4, 0x02, 0x00, 0x00, 
0xb4, 0x02, 0x00, 0x00, 0x94, 0x02, 0x00, 0x00, 0x80, 0x02, 0x00, 0x00, 0x54, 0x02, 0x00, 0x00, 0x10, 0x02, 0x00, 0x00, 0xf4, 0x01, 0x00, 0x00, 0xd8, 0x01, 0x00, 0x00, 0x94, 0x01, 0x00, 0x00, 
0x50, 0x01, 0x00, 0x00, 0x34, 0x01, 0x00, 0x00, 0x20, 0x01, 0x00, 0x00, 0xf4, 0x00, 0x00, 0x00, 0xb0, 0x00, 0x00, 0x00, 0x94, 0x00, 0x00, 0x00, 0x78, 0x00, 0x00, 0x00, 0x34, 0x00, 0x00, 0x00, 
0x18, 0x00, 0x00, 0x00, 0x04, 0x00, 0x00, 0x00, 0xbc, 0xf6, 0xff, 0xff, 0x00, 0x00, 0x00, 0x03, 0x04, 0x00, 0x00, 0x00, 0xc4, 0xf8, 0xff, 0xff, 0xcc, 0xf6, 0xff, 0xff, 0x00, 0x00, 0x00, 0x02, 
0x04, 0x00, 0x00, 0x00, 0x9e, 0xf8, 0xff, 0xff, 0x01, 0x00, 0x00, 0x00, 0x00, 0x00, 0x00, 0x00, 0xe4, 0xf6, 0xff, 0xff, 0x00, 0x00, 0x00, 0x05, 0x04, 0x00, 0x00, 0x00, 0x96, 0xf8, 0xff, 0xff, 
0x00, 0x00, 0x06, 0x01, 0x20, 0x00, 0x00, 0x00, 0x14, 0x00, 0x00, 0x00, 0x04, 0x00, 0x00, 0x00, 0xb4, 0xf6, 0xff, 0xff, 0x01, 0x00, 0x00, 0x00, 0x00, 0x15, 0x00, 0x00, 0x02, 0x00, 0x00, 0x00, 
0x00, 0x01, 0x00, 0x00, 0x02, 0x00, 0x00, 0x00, 0x01, 0x00, 0x00, 0x00, 0x02, 0x00, 0x00, 0x00, 0x24, 0xf7, 0xff, 0xff, 0x00, 0x00, 0x00, 0x02, 0x04, 0x00, 0x00, 0x00, 0xf6, 0xf8, 0xff, 0xff, 
0x01, 0x00, 0x00, 0x00, 0x00, 0x00, 0x00, 0x00, 0x3c, 0xf7, 0xff, 0xff, 0x00, 0x00, 0x00, 0x02, 0x04, 0x00, 0x00, 0x00, 0x0e, 0xf9, 0xff, 0xff, 0x01, 0x00, 0x00, 0x00, 0x00, 0x00, 0x00, 0x00, 
0x54, 0xf7, 0xff, 0xff, 0x00, 0x00, 0x00, 0x05, 0x04, 0x00, 0x00, 0x00, 0x06, 0xf9, 0xff, 0xff, 0x00, 0x00, 0x06, 0x01, 0x20, 0x00, 0x00, 0x00, 0x14, 0x00, 0x00, 0x00, 0x04, 0x00, 0x00, 0x00, 
0x24, 0xf7, 0xff, 0xff, 0x01, 0x00, 0x00, 0x00, 0x80, 0x15, 0x00, 0x00, 0x02, 0x00, 0x00, 0x00, 0x00, 0x01, 0x00, 0x00, 0x02, 0x00, 0x00, 0x00, 0x01, 0x00, 0x00, 0x00, 0x02, 0x00, 0x00, 0x00, 
0x94, 0xf7, 0xff, 0xff, 0x00, 0x00, 0x00, 0x07, 0x04, 0x00, 0x00, 0x00, 0xbe, 0xf8, 0xff, 0xff, 0x04, 0x00, 0x00, 0x00, 0x02, 0x00, 0x00, 0x00, 0x35, 0x00, 0x00, 0x00, 0x00, 0x00, 0x00, 0x00, 
0x36, 0x00, 0x00, 0x00, 0x00, 0x00, 0x00, 0x00, 0xbc, 0xf7, 0xff, 0xff, 0x00, 0x00, 0x00, 0x02, 0x04, 0x00, 0x00, 0x00, 0xc4, 0xf9, 0xff, 0xff, 0xcc, 0xf7, 0xff, 0xff, 0x00, 0x00, 0x00, 0x02, 
0x04, 0x00, 0x00, 0x00, 0x9e, 0xf9, 0xff, 0xff, 0x01, 0x00, 0x00, 0x00, 0x00, 0x00, 0x00, 0x00, 0xe4, 0xf7, 0xff, 0xff, 0x00, 0x00, 0x00, 0x05, 0x04, 0x00, 0x00, 0x00, 0x96, 0xf9, 0xff, 0xff, 
0x00, 0x00, 0x06, 0x01, 0x20, 0x00, 0x00, 0x00, 0x14, 0x00, 0x00, 0x00, 0x04, 0x00, 0x00, 0x00, 0xb4, 0xf7, 0xff, 0xff, 0x01, 0x00, 0x00, 0x00, 0x00, 0x15, 0x00, 0x00, 0x02, 0x00, 0x00, 0x00, 
0x00, 0x01, 0x00, 0x00, 0x02, 0x00, 0x00, 0x00, 0x10, 0x00, 0x00, 0x00, 0x02, 0x00, 0x00, 0x00, 0x24, 0xf8, 0xff, 0xff, 0x00, 0x00, 0x00, 0x05, 0x04, 0x00, 0x00, 0x00, 0xd6, 0xf9, 0xff, 0xff, 
0x00, 0x00, 0x06, 0x01, 0x20, 0x00, 0x00, 0x00, 0x14, 0x00, 0x00, 0x00, 0x04, 0x00, 0x00, 0x00, 0xf4, 0xf7, 0xff, 0xff, 0x01, 0x00, 0x00, 0x00, 0x00, 0x13, 0x00, 0x00, 0x02, 0x00, 0x00, 0x00, 
0x00, 0x01, 0x00, 0x00, 0x02, 0x00, 0x00, 0x00, 0x01, 0x00, 0x00, 0x00, 0x10, 0x00, 0x00, 0x00, 0x64, 0xf8, 0xff, 0xff, 0x00, 0x00, 0x00, 0x02, 0x04, 0x00, 0x00, 0x00, 0x36, 0xfa, 0xff, 0xff, 
0x01, 0x00, 0x00, 0x00, 0x00, 0x00, 0x00, 0x00, 0x7c, 0xf8, 0xff, 0xff, 0x00, 0x00, 0x00, 0x02, 0x04, 0x00, 0x00, 0x00, 0x4e, 0xfa, 0xff, 0xff, 0x01, 0x00, 0x00, 0x00, 0x00, 0x00, 0x00, 0x00, 
0x94, 0xf8, 0xff, 0xff, 0x00, 0x00, 0x00, 0x05, 0x04, 0x00, 0x00, 0x00, 0x46, 0xfa, 0xff, 0xff, 0x00, 0x00, 0x06, 0x01, 0x20, 0x00, 0x00, 0x00, 0x14, 0x00, 0x00, 0x00, 0x04, 0x00, 0x00, 0x00, 
0x64, 0xf8, 0xff, 0xff, 0x01, 0x00, 0x00, 0x00, 0x00, 0x15, 0x00, 0x00, 0x02, 0x00, 0x00, 0x00, 0x00, 0x01, 0x00, 0x00, 0x02, 0x00, 0x00, 0x00, 0x01, 0x00, 0x00, 0x00, 0x10, 0x00, 0x00, 0x00, 
0xd4, 0xf8, 0xff, 0xff, 0x00, 0x00, 0x00, 0x07, 0x04, 0x00, 0x00, 0x00, 0xfe, 0xf9, 0xff, 0xff, 0x04, 0x00, 0x00, 0x00, 0x02, 0x00, 0x00, 0x00, 0x2d, 0x00, 0x00, 0x00, 0x00, 0x00, 0x00, 0x00, 
0x2e, 0x00, 0x00, 0x00, 0x00, 0x00, 0x00, 0x00, 0xfc, 0xf8, 0xff, 0xff, 0x00, 0x00, 0x00, 0x02, 0x04, 0x00, 0x00, 0x00, 0x04, 0xfb, 0xff, 0xff, 0x0c, 0xf9, 0xff, 0xff, 0x00, 0x00, 0x00, 0x02, 
0x04, 0x00, 0x00, 0x00, 0xee, 0xfe, 0xff, 0xff, 0x01, 0x00, 0x00, 0x00, 0x00, 0x00, 0x00, 0x00, 0x00, 0x00, 0x00, 0x00, 0x28, 0xf9, 0xff, 0xff, 0x00, 0x00, 0x00, 0x05, 0x04, 0x00, 0x00, 0x00, 
0xda, 0xfa, 0xff, 0xff, 0x00, 0x00, 0x06, 0x01, 0x1c, 0x00, 0x00, 0x00, 0x10, 0x00, 0x00, 0x00, 0x04, 0x00, 0x00, 0x00, 0x66, 0xfa, 0xff, 0xff, 0x01, 0x00, 0x00, 0x00, 0x02, 0x00, 0x00, 0x00, 
0x00, 0x01, 0x00, 0x00, 0x02, 0x00, 0x00, 0x00, 0x40, 0x00, 0x00, 0x00, 0x10, 0x00, 0x00, 0x00, 0x64, 0xf9, 0xff, 0xff, 0x00, 0x00, 0x00, 0x05, 0x04, 0x00, 0x00, 0x00, 0x16, 0xfb, 0xff, 0xff, 
0x00, 0x00, 0x06, 0x01, 0x20, 0x00, 0x00, 0x00, 0x14, 0x00, 0x00, 0x00, 0x04, 0x00, 0x00, 0x00, 0x34, 0xf9, 0xff, 0xff, 0x01, 0x00, 0x00, 0x00, 0x00, 0x13, 0x00, 0x00, 0x02, 0x00, 0x00, 0x00, 
0x00, 0x01, 0x00, 0x00, 0x02, 0x00, 0x00, 0x00, 0x01, 0x00, 0x00, 0x00, 0x40, 0x00, 0x00, 0x00, 0xa4, 0xf9, 0xff, 0xff, 0x00, 0x00, 0x00, 0x07, 0x04, 0x00, 0x00, 0x00, 0xce, 0xfa, 0xff, 0xff, 
0x04, 0x00, 0x00, 0x00, 0x02, 0x00, 0x00, 0x00, 0x28, 0x00, 0x00, 0x00, 0x00, 0x00, 0x00, 0x00, 0x29, 0x00, 0x00, 0x00, 0x00, 0x00, 0x00, 0x00, 0xcc, 0xf9, 0xff, 0xff, 0x00, 0x00, 0x00, 0x02, 
0x04, 0x00, 0x00, 0x00, 0x9e, 0xfb, 0xff, 0xff, 0x40, 0x00, 0x00, 0x00, 0x00, 0x00, 0x00, 0x00, 0xe4, 0xf9, 0xff, 0xff, 0x00, 0x00, 0x00, 0x02, 0x04, 0x00, 0x00, 0x00, 0xb6, 0xfb, 0xff, 0xff, 
0x01, 0x00, 0x00, 0x00, 0x00, 0x00, 0x00, 0x00, 0xfc, 0xf9, 0xff, 0xff, 0x00, 0x00, 0x00, 0x07, 0x04, 0x00, 0x00, 0x00, 0x26, 0xfb, 0xff, 0xff, 0x04, 0x00, 0x00, 0x00, 0x01, 0x00, 0x00, 0x00, 
0x26, 0x00, 0x00, 0x00, 0x00, 0x00, 0x00, 0x00, 0x78, 0xfb, 0xff, 0xff, 0x00, 0x00, 0x00, 0x02, 0x0c, 0x00, 0x00, 0x00, 0x00, 0x00, 0x06, 0x00, 0x10, 0x00, 0x04, 0x00, 0x06, 0x00, 0x00, 0x00, 
0xfe, 0xff, 0xff, 0xff, 0xff, 0xff, 0xff, 0xff, 0x00, 0x00, 0x00, 0x00, 0x40, 0xfa, 0xff, 0xff, 0x00, 0x00, 0x00, 0x05, 0x04, 0x00, 0x00, 0x00, 0xf2, 0xfb, 0xff, 0xff, 0x00, 0x00, 0x06, 0x01, 
0x20, 0x00, 0x00, 0x00, 0x14, 0x00, 0x00, 0x00, 0x04, 0x00, 0x00, 0x00, 0x10, 0xfa, 0xff, 0xff, 0x01, 0x00, 0x00, 0x00, 0x00, 0x13, 0x00, 0x00, 0x03, 0x00, 0x00, 0x00, 0x00, 0x01, 0x02, 0x00, 
0x03, 0x00, 0x00, 0x00, 0x01, 0x00, 0x00, 0x00, 0x02, 0x00, 0x00, 0x00, 0x20, 0x00, 0x00, 0x00, 0x84, 0xfa, 0xff, 0xff, 0x00, 0x00, 0x00, 0x0a, 0x04, 0x00, 0x00, 0x00, 0xae, 0xfb, 0xff, 0xff, 
0x04, 0x00, 0x00, 0x00, 0x02, 0x00, 0x00, 0x00, 0x15, 0x00, 0x00, 0x00, 0x16, 0x00, 0x00, 0x00, 0xa4, 0xfa, 0xff, 0xff, 0x00, 0x00, 0x00, 0x03, 0x04, 0x00, 0x00, 0x00, 0xac, 0xfc, 0xff, 0xff, 
0xb4, 0xfa, 0xff, 0xff, 0x00, 0x00, 0x00, 0x07, 0x04, 0x00, 0x00, 0x00, 0xde, 0xfb, 0xff, 0xff, 0x04, 0x00, 0x00, 0x00, 0x02, 0x00, 0x00, 0x00, 0x20, 0x00, 0x00, 0x00, 0x00, 0x00, 0x00, 0x00, 
0x21, 0x00, 0x00, 0x00, 0x00, 0x00, 0x00, 0x00, 0xdc, 0xfa, 0xff, 0xff, 0x00, 0x00, 0x00, 0x02, 0x04, 0x00, 0x00, 0x00, 0xae, 0xfc, 0xff, 0xff, 0x01, 0x00, 0x00, 0x00, 0x00, 0x00, 0x00, 0x00, 
0xf4, 0xfa, 0xff, 0xff, 0x00, 0x00, 0x00, 0x02, 0x04, 0x00, 0x00, 0x00, 0xc6, 0xfc, 0xff, 0xff, 0x01, 0x00, 0x00, 0x00, 0x00, 0x00, 0x00, 0x00, 0x0c, 0xfb, 0xff, 0xff, 0x00, 0x00, 0x00, 0x07, 
0x04, 0x00, 0x00, 0x00, 0x36, 0xfc, 0xff, 0xff, 0x04, 0x00, 0x00, 0x00, 0x02, 0x00, 0x00, 0x00, 0x1d, 0x00, 0x00, 0x00, 0x00, 0x00, 0x00, 0x00, 0x1e, 0x00, 0x00, 0x00, 0x00, 0x00, 0x00, 0x00, 
0x34, 0xfb, 0xff, 0xff, 0x00, 0x00, 0x00, 0x02, 0x04, 0x00, 0x00, 0x00, 0x3c, 0xfd, 0xff, 0xff, 0x44, 0xfb, 0xff, 0xff, 0x00, 0x00, 0x00, 0x02, 0x04, 0x00, 0x00, 0x00, 0x4c, 0xfd, 0xff, 0xff, 
0x54, 0xfb, 0xff, 0xff, 0x00, 0x00, 0x00, 0x07, 0x04, 0x00, 0x00, 0x00, 0x7e, 0xfc, 0xff, 0xff, 0x04, 0x00, 0x00, 0x00, 0x02, 0x00, 0x00, 0x00, 0x1a, 0x00, 0x00, 0x00, 0x00, 0x00, 0x00, 0x00, 
0x1b, 0x00, 0x00, 0x00, 0x00, 0x00, 0x00, 0x00, 0x7c, 0xfb, 0xff, 0xff, 0x00, 0x00, 0x00, 0x02, 0x04, 0x00, 0x00, 0x00, 0x4e, 0xfd, 0xff, 0xff, 0x03, 0x00, 0x00, 0x00, 0x00, 0x00, 0x00, 0x00, 
0x94, 0xfb, 0xff, 0xff, 0x00, 0x00, 0x00, 0x02, 0x04, 0x00, 0x00, 0x00, 0x66, 0xfd, 0xff, 0xff, 0x01, 0x00, 0x00, 0x00, 0x00, 0x00, 0x00, 0x00, 0xac, 0xfb, 0xff, 0xff, 0x00, 0x00, 0x00, 0x07, 
0x04, 0x00, 0x00, 0x00, 0xd6, 0xfc, 0xff, 0xff, 0x04, 0x00, 0x00, 0x00, 0x02, 0x00, 0x00, 0x00, 0x17, 0x00, 0x00, 0x00, 0x00, 0x00, 0x00, 0x00, 0x18, 0x00, 0x00, 0x00, 0x00, 0x00, 0x00, 0x00, 
0xd4, 0xfb, 0xff, 0xff, 0x00, 0x00, 0x00, 0x02, 0x04, 0x00, 0x00, 0x00, 0xa6, 0xfd, 0xff, 0xff, 0x03, 0x00, 0x00, 0x00, 0x00, 0x00, 0x00, 0x00, 0xec, 0xfb, 0xff, 0xff, 0x00, 0x00, 0x00, 0x02, 
0x04, 0x00, 0x00, 0x00, 0xbe, 0xfd, 0xff, 0xff, 0x01, 0x00, 0x00, 0x00, 0x00, 0x00, 0x00, 0x00, 0x60, 0xfd, 0xff, 0xff, 0x00, 0x00, 0x00, 0x05, 0x18, 0x00, 0x00, 0x00, 0x00, 0x00, 0x12, 0x00, 
0x14, 0x00, 0x07, 0x00, 0x00, 0x00, 0x08, 0x00, 0x0c, 0x00, 0x00, 0x00, 0x00, 0x00, 0x10, 0x00, 0x12, 0x00, 0x00, 0x00, 0x00, 0x00, 0x00, 0x04, 0x20, 0x00, 0x00, 0x00, 0x14, 0x00, 0x00, 0x00, 
0x04, 0x00, 0x00, 0x00, 0xe8, 0xfb, 0xff, 0xff, 0x01, 0x00, 0x00, 0x00, 0x00, 0x13, 0x00, 0x00, 0x04, 0x00, 0x00, 0x00, 0x00, 0x01, 0x02, 0x03, 0x04, 0x00, 0x00, 0x00, 0x01, 0x00, 0x00, 0x00, 
0x02, 0x00, 0x00, 0x00, 0x01, 0x00, 0x00, 0x00, 0x20, 0x00, 0x00, 0x00, 0x60, 0xfc, 0xff, 0xff, 0x00, 0x00, 0x00, 0x05, 0x04, 0x00, 0x00, 0x00, 0x12, 0xfe, 0xff, 0xff, 0x00, 0x00, 0x06, 0x01, 
0x1c, 0x00, 0x00, 0x00, 0x10, 0x00, 0x00, 0x00, 0x04, 0x00, 0x00, 0x00, 0x9e, 0xfd, 0xff, 0xff, 0x01, 0x00, 0x00, 0x00, 0x04, 0x00, 0x00, 0x00, 0x00, 0x01, 0x02, 0x03, 0x04, 0x00, 0x00, 0x00, 
0x01, 0x00, 0x00, 0x00, 0x02, 0x00, 0x00, 0x00, 0x01, 0x00, 0x00, 0x00, 0x20, 0x00, 0x00, 0x00, 0xa4, 0xfc, 0xff, 0xff, 0x00, 0x00, 0x00, 0x02, 0x04, 0x00, 0x00, 0x00, 0x76, 0xfe, 0xff, 0xff, 
0xfe, 0xff, 0xff, 0xff, 0xff, 0xff, 0xff, 0xff, 0xbc, 0xfc, 0xff, 0xff, 0x00, 0x00, 0x00, 0x05, 0x04, 0x00, 0x00, 0x00, 0x6e, 0xfe, 0xff, 0xff, 0x00, 0x00, 0x06, 0x01, 0x20, 0x00, 0x00, 0x00, 
0x14, 0x00, 0x00, 0x00, 0x04, 0x00, 0x00, 0x00, 0x8c, 0xfc, 0xff, 0xff, 0x01, 0x00, 0x00, 0x00, 0x00, 0x10, 0x00, 0x00, 0x04, 0x00, 0x00, 0x00, 0x00, 0x01, 0x02, 0x03, 0x04, 0x00, 0x00, 0x00, 
0x01, 0x00, 0x00, 0x00, 0x02, 0x00, 0x00, 0x00, 0x01, 0x00, 0x00, 0x00, 0x60, 0x00, 0x00, 0x00, 0x04, 0xfd, 0xff, 0xff, 0x00, 0x00, 0x00, 0x05, 0x04, 0x00, 0x00, 0x00, 0xb6, 0xfe, 0xff, 0xff, 
0x00, 0x00, 0x06, 0x01, 0x1c, 0x00, 0x00, 0x00, 0x10, 0x00, 0x00, 0x00, 0x04, 0x00, 0x00, 0x00, 0x42, 0xfe, 0xff, 0xff, 0x01, 0x00, 0x00, 0x00, 0x03, 0x00, 0x00, 0x00, 0x00, 0x01, 0x02, 0x00, 
0x03, 0x00, 0x00, 0x00, 0x01, 0x00, 0x00, 0x00, 0x02, 0x00, 0x00, 0x00, 0x60, 0x00, 0x00, 0x00, 0x44, 0xfd, 0xff, 0xff, 0x00, 0x00, 0x00, 0x02, 0x04, 0x00, 0x00, 0x00, 0x16, 0xff, 0xff, 0xff, 
0x01, 0x00, 0x00, 0x00, 0x00, 0x00, 0x00, 0x00, 0x5c, 0xfd, 0xff, 0xff, 0x00, 0x00, 0x00, 0x07, 0x04, 0x00, 0x00, 0x00, 0x86, 0xfe, 0xff, 0xff, 0x04, 0x00, 0x00, 0x00, 0x01, 0x00, 0x00, 0x00, 
0x0f, 0x00, 0x00, 0x00, 0x00, 0x00, 0x00, 0x00, 0x7c, 0xfd, 0xff, 0xff, 0x00, 0x00, 0x00, 0x02, 0x04, 0x00, 0x00, 0x00, 0x84, 0xff, 0xff, 0xff, 0x8c, 0xfd, 0xff, 0xff, 0x00, 0x00, 0x00, 0x03, 
0x04, 0x00, 0x00, 0x00, 0x94, 0xff, 0xff, 0xff, 0x9c, 0xfd, 0xff, 0xff, 0x00, 0x00, 0x00, 0x07, 0x04, 0x00, 0x00, 0x00, 0xc6, 0xfe, 0xff, 0xff, 0x04, 0x00, 0x00, 0x00, 0x01, 0x00, 0x00, 0x00, 
0x0c, 0x00, 0x00, 0x00, 0x00, 0x00, 0x00, 0x00, 0xbc, 0xfd, 0xff, 0xff, 0x00, 0x00, 0x00, 0x02, 0x04, 0x00, 0x00, 0x00, 0x8e, 0xff, 0xff, 0xff, 0x01, 0x00, 0x00, 0x00, 0x00, 0x00, 0x00, 0x00, 
0xd4, 0xfd, 0xff, 0xff, 0x00, 0x00, 0x00, 0x07, 0x04, 0x00, 0x00, 0x00, 0xfe, 0xfe, 0xff, 0xff, 0x04, 0x00, 0x00, 0x00, 0x01, 0x00, 0x00, 0x00, 0x0a, 0x00, 0x00, 0x00, 0x00, 0x00, 0x00, 0x00, 
0x00, 0x00, 0x00, 0x00, 0xf8, 0xfd, 0xff, 0xff, 0x00, 0x00, 0x00, 0x02, 0x08, 0x00, 0x00, 0x00, 0x04, 0x00, 0x04, 0x00, 0x04, 0x00, 0x00, 0x00, 0x0c, 0xfe, 0xff, 0xff, 0x00, 0x00, 0x00, 0x07, 
0x04, 0x00, 0x00, 0x00, 0x36, 0xff, 0xff, 0xff, 0x04, 0x00, 0x00, 0x00, 0x01, 0x00, 0x00, 0x00, 0x08, 0x00, 0x00, 0x00, 0x00, 0x00, 0x00, 0x00, 0x88, 0xff, 0xff, 0xff, 0x00, 0x00, 0x00, 0x02, 
0x0c, 0x00, 0x00, 0x00, 0x00, 0x00, 0x06, 0x00, 0x0c, 0x00, 0x04, 0x00, 0x06, 0x00, 0x00, 0x00, 0x01, 0x00, 0x00, 0x00, 0x00, 0x00, 0x00, 0x00, 0xa8, 0xff, 0xff, 0xff, 0x00, 0x00, 0x00, 0x05, 
0x18, 0x00, 0x00, 0x00, 0x00, 0x00, 0x12, 0x00, 0x14, 0x00, 0x06, 0x00, 0x00, 0x00, 0x08, 0x00, 0x0c, 0x00, 0x07, 0x00, 0x00, 0x00, 0x10, 0x00, 0x12, 0x00, 0x00, 0x00, 0x00, 0x00, 0x06, 0x01, 
0x20, 0x00, 0x00, 0x00, 0x14, 0x00, 0x00, 0x00, 0x04, 0x00, 0x00, 0x00, 0x30, 0xfe, 0xff, 0xff, 0x01, 0x00, 0x00, 0x00, 0x00, 0x10, 0x00, 0x00, 0x03, 0x00, 0x00, 0x00, 0x00, 0x01, 0x02, 0x00, 
0x03, 0x00, 0x00, 0x00, 0x01, 0x00, 0x00, 0x00, 0x02, 0x00, 0x00, 0x00, 0x60, 0x00, 0x00, 0x00, 0x08, 0x00, 0x0e, 0x00, 0x07, 0x00, 0x08, 0x00, 0x08, 0x00, 0x00, 0x00, 0x00, 0x00, 0x00, 0x05, 
0x18, 0x00, 0x00, 0x00, 0x00, 0x00, 0x12, 0x00, 0x16, 0x00, 0x07, 0x00, 0x00, 0x00, 0x08, 0x00, 0x0c, 0x00, 0x00, 0x00, 0x00, 0x00, 0x10, 0x00, 0x12, 0x00, 0x00, 0x00, 0x00, 0x00, 0x00, 0x06, 
0x24, 0x00, 0x00, 0x00, 0x18, 0x00, 0x00, 0x00, 0x0c, 0x00, 0x00, 0x00, 0x00, 0x00, 0x06, 0x00, 0x08, 0x00, 0x04, 0x00, 0x06, 0x00, 0x00, 0x00, 0x01, 0x00, 0x00, 0x00, 0x03, 0x00, 0x00, 0x00, 
0x00, 0x01, 0x02, 0x00, 0x03, 0x00, 0x00, 0x00, 0x01, 0x00, 0x00, 0x00, 0x01, 0x00, 0x00, 0x00, 0x64, 0x00, 0x00, 0x00, 0x08, 0xff, 0xff, 0xff, 0x00, 0x00, 0x00, 0x05, 0x04, 0x00, 0x00, 0x00, 
0x00, 0xff, 0xff, 0xff, 0x00, 0x00, 0x06, 0x01, 0x14, 0x00, 0x00, 0x00, 0x08, 0x00, 0x00, 0x00, 0x06, 0x00, 0x00, 0x00, 0x01, 0x00, 0x00, 0x00, 0x00, 0x00, 0x00, 0x00, 0x01, 0x00, 0x00, 0x00, 
0x02, 0x00, 0x00, 0x00, 0x38, 0xff, 0xff, 0xff, 0x00, 0x00, 0x00, 0x05, 0x04, 0x00, 0x00, 0x00, 0x30, 0xff, 0xff, 0xff, 0x00, 0x00, 0x06, 0x01, 0x14, 0x00, 0x00, 0x00, 0x08, 0x00, 0x00, 0x00, 
0x05, 0x00, 0x00, 0x00, 0x02, 0x00, 0x00, 0x00, 0x00, 0x01, 0x00, 0x00, 0x02, 0x00, 0x00, 0x00, 0x02, 0x00, 0x00, 0x00, 0x10, 0x00, 0x00, 0x00, 0x6c, 0xff, 0xff, 0xff, 0x00, 0x00, 0x00, 0x05, 
0x04, 0x00, 0x00, 0x00, 0x64, 0xff, 0xff, 0xff, 0x00, 0x00, 0x06, 0x01, 0x14, 0x00, 0x00, 0x00, 0x08, 0x00, 0x00, 0x00, 0x04, 0x00, 0x00, 0x00, 0x01, 0x00, 0x00, 0x00, 0x00, 0x00, 0x00, 0x00, 
0x01, 0x00, 0x00, 0x00, 0x10, 0x00, 0x00, 0x00, 0x9c, 0xff, 0xff, 0xff, 0x00, 0x00, 0x00, 0x05, 0x04, 0x00, 0x00, 0x00, 0x94, 0xff, 0xff, 0xff, 0x00, 0x00, 0x06, 0x01, 0x14, 0x00, 0x00, 0x00, 
0x08, 0x00, 0x00, 0x00, 0x03, 0x00, 0x00, 0x00, 0x02, 0x00, 0x00, 0x00, 0x00, 0x01, 0x00, 0x00, 0x02, 0x00, 0x00, 0x00, 0x10, 0x00, 0x00, 0x00, 0x40, 0x00, 0x00, 0x00, 0xd0, 0xff, 0xff, 0xff, 
0x00, 0x00, 0x00, 0x05, 0x04, 0x00, 0x00, 0x00, 0xc8, 0xff, 0xff, 0xff, 0x00, 0x00, 0x06, 0x01, 0x14, 0x00, 0x00, 0x00, 0x08, 0x00, 0x00, 0x00, 0x02, 0x00, 0x00, 0x00, 0x01, 0x00, 0x00, 0x00, 
0x00, 0x00, 0x00, 0x00, 0x01, 0x00, 0x00, 0x00, 0x02, 0x00, 0x00, 0x00, 0x08, 0x00, 0x0c, 0x00, 0x07, 0x00, 0x08, 0x00, 0x08, 0x00, 0x00, 0x00, 0x00, 0x00, 0x00, 0x05, 0x14, 0x00, 0x00, 0x00, 
0x10, 0x00, 0x14, 0x00, 0x06, 0x00, 0x00, 0x00, 0x08, 0x00, 0x0c, 0x00, 0x07, 0x00, 0x10, 0x00, 0x10, 0x00, 0x00, 0x00, 0x00, 0x00, 0x06, 0x01, 0x14, 0x00, 0x00, 0x00, 0x08, 0x00, 0x00, 0x00, 
0x01, 0x00, 0x00, 0x00, 0x03, 0x00, 0x00, 0x00, 0x00, 0x01, 0x02, 0x00, 0x03, 0x00, 0x00, 0x00, 0x02, 0x00, 0x00, 0x00, 0x01, 0x00, 0x00, 0x00, 0x05, 0x00, 0x00, 0x00, 0x08, 0x00, 0x0c, 0x00, 
0x04, 0x00, 0x08, 0x00, 0x08, 0x00, 0x00, 0x00, 0x48, 0x00, 0x00, 0x00, 0x04, 0x00, 0x00, 0x00, 0x39, 0x00, 0x00, 0x00, 0x5b, 0x31, 0x2c, 0x20, 0x7b, 0x22, 0x74, 0x79, 0x70, 0x65, 0x22, 0x3a, 
0x20, 0x6e, 0x75, 0x6c, 0x6c, 0x2c, 0x20, 0x22, 0x63, 0x6f, 0x6e, 0x74, 0x65, 0x78, 0x74, 0x22, 0x3a, 0x20, 0x6e, 0x75, 0x6c, 0x6c, 0x2c, 0x20, 0x22, 0x63, 0x68, 0x69, 0x6c, 0x64, 0x72, 0x65, 
0x6e, 0x5f, 0x73, 0x70, 0x65, 0x63, 0x22, 0x3a, 0x20, 0x5b, 0x5d, 0x7d, 0x5d, 0x00, 0x00, 0x00, 0xfe, 0x00, 0x00, 0x00, 0x5b, 0x31, 0x2c, 0x20, 0x7b, 0x22, 0x74, 0x79, 0x70, 0x65, 0x22, 0x3a, 
0x20, 0x22, 0x62, 0x75, 0x69, 0x6c, 0x74, 0x69, 0x6e, 0x73, 0x2e, 0x74, 0x75, 0x70, 0x6c, 0x65, 0x22, 0x2c, 0x20, 0x22, 0x63, 0x6f, 0x6e, 0x74, 0x65, 0x78, 0x74, 0x22, 0x3a, 0x20, 0x22, 0x6e, 
0x75, 0x6c, 0x6c, 0x22, 0x2c, 0x20, 0x22, 0x63, 0x68, 0x69, 0x6c, 0x64, 0x72, 0x65, 0x6e, 0x5f, 0x73, 0x70, 0x65, 0x63, 0x22, 0x3a, 0x20, 0x5b, 0x7b, 0x22, 0x74, 0x79, 0x70, 0x65, 0x22, 0x3a, 
0x20, 0x22, 0x62, 0x75, 0x69, 0x6c, 0x74, 0x69, 0x6e, 0x73, 0x2e, 0x74, 0x75, 0x70, 0x6c, 0x65, 0x22, 0x2c, 0x20, 0x22, 0x63, 0x6f, 0x6e, 0x74, 0x65, 0x78, 0x74, 0x22, 0x3a, 0x20, 0x22, 0x6e, 
0x75, 0x6c, 0x6c, 0x22, 0x2c, 0x20, 0x22, 0x63, 0x68, 0x69, 0x6c, 0x64, 0x72, 0x65, 0x6e, 0x5f, 0x73, 0x70, 0x65, 0x63, 0x22, 0x3a, 0x20, 0x5b, 0x7b, 0x22, 0x74, 0x79, 0x70, 0x65, 0x22, 0x3a, 
0x20, 0x6e, 0x75, 0x6c, 0x6c, 0x2c, 0x20, 0x22, 0x63, 0x6f, 0x6e, 0x74, 0x65, 0x78, 0x74, 0x22, 0x3a, 0x20, 0x6e, 0x75, 0x6c, 0x6c, 0x2c, 0x20, 0x22, 0x63, 0x68, 0x69, 0x6c, 0x64, 0x72, 0x65, 
0x6e, 0x5f, 0x73, 0x70, 0x65, 0x63, 0x22, 0x3a, 0x20, 0x5b, 0x5d, 0x7d, 0x5d, 0x7d, 0x2c, 0x20, 0x7b, 0x22, 0x74, 0x79, 0x70, 0x65, 0x22, 0x3a, 0x20, 0x22, 0x62, 0x75, 0x69, 0x6c, 0x74, 0x69, 
0x6e, 0x73, 0x2e, 0x64, 0x69, 0x63, 0x74, 0x22, 0x2c, 0x20, 0x22, 0x63, 0x6f, 0x6e, 0x74, 0x65, 0x78, 0x74, 0x22, 0x3a, 0x20, 0x22, 0x5b, 0x5d, 0x22, 0x2c, 0x20, 0x22, 0x63, 0x68, 0x69, 0x6c, 
0x64, 0x72, 0x65, 0x6e, 0x5f, 0x73, 0x70, 0x65, 0x63, 0x22, 0x3a, 0x20, 0x5b, 0x5d, 0x7d, 0x5d, 0x7d, 0x5d, 0x00, 0x00, 0x07, 0x00, 0x00, 0x00, 0x66, 0x6f, 0x72, 0x77, 0x61, 0x72, 0x64, 0x00, 
0x00, 0x00, 0x00, 0x00, 0x00, 0x00, 0x00, 0x00, 0x00, 0x00, 0x00, 0x00, 0x00, 0x00, 0x00, 0x00, 0x00, 0x00, 0x00, 0x00, 0x00, 0x00, 0x00, 0x00, 0x00, 0x00, 0x00, 0x00, 0x00, 0x00, 0x00, 0x00, 
0x00, 0x00, 0x00, 0x00, 0x00, 0x00, 0x00, 0x00, 0x00, 0x00, 0x00, 0x00, 0x00, 0x00, 0x00, 0x00, 0x00, 0x00, 0x00, 0x00, 0x00, 0x00, 0x00, 0x00, 0x00, 0x00, 0x00, 0x00, 0x00, 0x00, 0x00, 0x00, 
0x00, 0x00, 0x00, 0x00, 0x00, 0x00, 0x00, 0x00, 0x00, 0x00, 0x00, 0x00, 0x00, 0x00, 0x00, 0x00, 0x00, 0x00, 0x00, 0x00, 0x00, 0x00, 0x00, 0x00, 0x00, 0x00, 0x00, 0x00, 0x00, 0x00, 0x00, 0x00, 
0xf2, 0x40, 0xd1, 0xbd, 0x68, 0x84, 0x9a, 0xbe, 0x77, 0x9b, 0x66, 0xbe, 0xcc, 0xc6, 0x48, 0x3e, 0x04, 0xb4, 0xb0, 0x3e, 0xb1, 0xd5, 0x7d, 0xbe, 0x05, 0xe7, 0xd6, 0x3d, 0xd0, 0xf7, 0xdd, 0x3e, 
0x40, 0x95, 0xb1, 0x3e, 0x65, 0xe2, 0x38, 0xbe, 0x00, 0x00, 0x00, 0x00, 0x00, 0x00, 0x00, 0x00, 0xfc, 0x66, 0x12, 0xbd, 0xeb, 0x1b, 0xca, 0xbd, 0x00, 0x00, 0x00, 0x00, 0x00, 0x00, 0x00, 0x00, 
0xf9, 0xe2, 0x9c, 0x3c, 0x94, 0xc9, 0x8d, 0x3d, 0x54, 0x75, 0x79, 0xbc, 0xc8, 0x34, 0x80, 0x3d, 0x1d, 0x4c, 0x63, 0x3d, 0x07, 0xa3, 0xe8, 0x3d, 0x2b, 0x1b, 0x0e, 0x3d, 0x5f, 0x6b, 0x81, 0xbb, 
0x84, 0xf7, 0x85, 0x3d, 0x44, 0xa4, 0x27, 0x3d, 0xf8, 0x3f, 0x0c, 0xbd, 0x34, 0xc4, 0x35, 0xbd, 0x7b, 0x84, 0xd0, 0xbd, 0xe6, 0x90, 0xe8, 0xbc, 0xb2, 0xf0, 0x8c, 0x3d, 0xb4, 0xee, 0xb6, 0xbd, 
0x45, 0x26, 0xfb, 0xbd, 0xa8, 0x46, 0x98, 0x3d, 0x44, 0x96, 0xd6, 0x3b, 0x0f, 0x53, 0xb9, 0xbc, 0x42, 0x83, 0xb8, 0xbd, 0x47, 0x0c, 0xc3, 0xbd, 0x99, 0x0d, 0x92, 0x3d, 0xa5, 0x16, 0x91, 0x3d, 
0x45, 0x56, 0x19, 0x3c, 0x53, 0xa9, 0x91, 0x3d, 0x3a, 0xe1, 0xfe, 0xbd, 0xab, 0x9d, 0x96, 0x3b, 0x57, 0x49, 0x83, 0xbd, 0x5e, 0x57, 0x97, 0x3d, 0x9d, 0x87, 0xfa, 0x3d, 0xa0, 0x39, 0x56, 0xbd, 
0x09, 0xf4, 0xf4, 0x3c, 0x4c, 0xed, 0x1a, 0xbd, 0x7b, 0xe8, 0xf7, 0x3d, 0x9c, 0x56, 0x70, 0xbd, 0xc3, 0xde, 0x8a, 0xbd, 0xd1, 0x8a, 0xe3, 0xba, 0x59, 0x91, 0x7f, 0x3c, 0x5c, 0xc3, 0x33, 0xbc, 
0xf1, 0x2a, 0xa8, 0x3d, 0xa4, 0xa6, 0x71, 0x3d, 0xd3, 0x2f, 0xcb, 0xbc, 0xd9, 0x4b, 0xe5, 0x3c, 0xa8, 0x9b, 0xd5, 0x3d, 0x37, 0x28, 0x1c, 0xbd, 0xb0, 0xd6, 0x9e, 0x3d, 0xd1, 0xba, 0x0a, 0xbd, 
0x95, 0x06, 0xe0, 0x3d, 0x91, 0x36, 0xab, 0x3d, 0x0a, 0x23, 0x27, 0x3c, 0xb2, 0xd8, 0x17, 0xbd, 0x31, 0x3a, 0xf5, 0x3b, 0x77, 0x3a, 0x2c, 0xbd, 0xb0, 0x7e, 0xc0, 0xbc, 0xa9, 0x0d, 0x4f, 0xba, 
0x6e, 0x35, 0x72, 0x3d, 0x13, 0x7f, 0xcf, 0x3d, 0xbb, 0x6f, 0xc2, 0xbd, 0xd9, 0xa4, 0x76, 0xbd, 0xc3, 0x03, 0x88, 0x3d, 0x2f, 0x7e, 0x3a, 0x3d, 0xab, 0x2a, 0x3b, 0xbc, 0xe0, 0xa0, 0xb8, 0xbd, 
0x38, 0xdc, 0xde, 0xbd, 0x3e, 0x08, 0x8a, 0xbc, 0xf1, 0xad, 0xe5, 0x3b, 0xb0, 0xa2, 0xfe, 0x3d, 0x5b, 0xf0, 0x90, 0x3c, 0x41, 0xfb, 0xbd, 0x3d, 0x37, 0x0d, 0x06, 0x3d, 0x9c, 0x01, 0x25, 0xbd, 
0x74, 0x90, 0xc3, 0xbd, 0x88, 0xa2, 0x0f, 0x3d, 0x2a, 0x33, 0x3c, 0xbd, 0x28, 0x2f, 0x06, 0xbd, 0x0b, 0xe2, 0xa3, 0x3c, 0x37, 0x06, 0xe3, 0xbc, 0xc4, 0x49, 0xde, 0xbd, 0x5d, 0x7a, 0xc0, 0xbd, 
0x5c, 0xec, 0xc9, 0xbd, 0x1c, 0xc4, 0xee, 0xbd, 0x87, 0xe6, 0x5f, 0x3d, 0xf9, 0x17, 0xfa, 0xbd, 0x00, 0x10, 0x9d, 0x3a, 0x73, 0x36, 0xa3, 0x3d, 0x8e, 0xf9, 0x83, 0x3d, 0x90, 0x61, 0xc9, 0x3c, 
0x32, 0xaa, 0xe1, 0x3d, 0x3c, 0x40, 0x8b, 0xbd, 0x15, 0x33, 0xe3, 0xbc, 0x7f, 0x46, 0xb1, 0x3d, 0x8c, 0xad, 0xa2, 0x3d, 0x08, 0x6c, 0x19, 0xbd, 0x84, 0x00, 0x06, 0x3d, 0x20, 0xb0, 0x2d, 0xbd, 
0x09, 0x36, 0x0f, 0xbd, 0xfd, 0x21, 0xa2, 0x3d, 0xc1, 0x3a, 0x5d, 0xbd, 0xf0, 0x21, 0xfe, 0xbc, 0xc0, 0x5e, 0x03, 0xbc, 0x83, 0xab, 0x9e, 0x3d, 0x14, 0xfe, 0x83, 0xbd, 0x54, 0x9b, 0xe4, 0x3d, 
0x84, 0x14, 0x63, 0x3d, 0xde, 0x30, 0xb7, 0xbd, 0xf8, 0xe9, 0xb5, 0xbd, 0xeb, 0x8d, 0xb8, 0x3d, 0x5e, 0x30, 0xf0, 0xbd, 0x40, 0xb2, 0x5e, 0x3d, 0x89, 0x97, 0xa1, 0x3d, 0x77, 0xda, 0xae, 0x3d, 
0x4c, 0x5e, 0xe3, 0xbd, 0xa4, 0x82, 0xdb, 0x3a, 0xc8, 0x6f, 0xe2, 0xbb, 0x75, 0x1f, 0x11, 0xbd, 0x2f, 0xc8, 0x85, 0x3c, 0x94, 0x0f, 0x8f, 0x3d, 0x55, 0x24, 0x65, 0x3d, 0x63, 0x13, 0xf3, 0x3b, 
0x3a, 0xd2, 0xe8, 0xbd, 0x5b, 0x96, 0x05, 0x3d, 0xe0, 0xda, 0xc3, 0xbb, 0x42, 0xd9, 0xd4, 0x3d, 0x2a, 0x95, 0xe0, 0xbd, 0xf0, 0x64, 0xdc, 0xbd, 0xee, 0x4d, 0x14, 0xbd, 0x9a, 0x64, 0x82, 0x3d, 
0xb3, 0x7d, 0x8d, 0x3c, 0xee, 0x0c, 0x70, 0x3c, 0x22, 0xe0, 0x55, 0xbd, 0xad, 0xea, 0xfc, 0xbd, 0x36, 0xf5, 0xac, 0x3d, 0x6c, 0x6a, 0xcc, 0xbd, 0x65, 0x80, 0xcd, 0x3d, 0x13, 0x30, 0x9b, 0x3d, 
0x3d, 0xf8, 0x7b, 0xbd, 0xd1, 0x63, 0x61, 0xbd, 0x3f, 0x0c, 0xbd, 0x3d, 0x63, 0x67, 0x68, 0xbd, 0xeb, 0xca, 0xf8, 0x3b, 0x23, 0xa7, 0xd5, 0xb9, 0xbf, 0xfc, 0xc9, 0x3d, 0x0a, 0x65, 0x3e, 0xbd, 
0x1e, 0xfd, 0xa6, 0x3d, 0x97, 0xf2, 0x8e, 0x3c, 0x2d, 0x00, 0x47, 0x3d, 0xa9, 0x3d, 0x1c, 0x3d, 0xe4, 0x08, 0x9e, 0xbd, 0x98, 0x26, 0x57, 0x3d, 0xb3, 0xd3, 0x8a, 0x3d, 0xf7, 0x29, 0xbe, 0xbd, 
0x6b, 0xa2, 0x3c, 0x3d, 0x9d, 0x03, 0xb0, 0xbd, 0x9d, 0x5f, 0xac, 0xbc, 0x45, 0xc6, 0x77, 0x3d, 0x9b, 0x85, 0x83, 0xbd, 0x5b, 0x0c, 0x8f, 0xbd, 0x36, 0x67, 0xcb, 0x3d, 0x01, 0x9a, 0xed, 0xbc, 
0x98, 0xb9, 0xb1, 0xbd, 0x67, 0x95, 0xf3, 0xbd, 0x1e, 0xcd, 0x7d, 0x3d, 0xba, 0xbf, 0x4e, 0xbc, 0x0d, 0xd5, 0xee, 0x3c, 0x09, 0x59, 0x57, 0xbc, 0x62, 0xa0, 0xf9, 0x3a, 0x5c, 0x55, 0x02, 0xbd, 
0x78, 0xb3, 0x40, 0x3d, 0xcb, 0x0d, 0xf4, 0x3d, 0x47, 0x30, 0xc0, 0x3d, 0x1e, 0x55, 0x04, 0x3d, 0x68, 0x55, 0x4c, 0x3d, 0xd3, 0x57, 0xde, 0xbd, 0x42, 0x79, 0x3c, 0xbd, 0x29, 0x01, 0xfa, 0x3d, 
0xde, 0xd0, 0xef, 0xbd, 0x6b, 0x66, 0xbf, 0x3d, 0x9c, 0xb4, 0xa2, 0x3c, 0x42, 0xbe, 0x99, 0xbd, 0x73, 0xed, 0xbc, 0xbd, 0xab, 0x8c, 0x7a, 0x3d, 0x2c, 0x6d, 0xf7, 0x3d, 0xff, 0xb3, 0xf6, 0x3b, 
0xc4, 0x3b, 0x11, 0xbc, 0x26, 0x18, 0xda, 0xbc, 0x97, 0x65, 0x76, 0xbd, 0xb1, 0xa9, 0xad, 0x3d, 0x83, 0x5f, 0xb5, 0xbc, 0xf4, 0x24, 0xf4, 0x3d, 0xf8, 0xdd, 0x98, 0x3d, 0xa6, 0xff, 0xb1, 0xbd, 
0xd1, 0xdc, 0x6b, 0xbd, 0xd8, 0x3e, 0xca, 0x3c, 0x71, 0x6f, 0xdb, 0x3d, 0xa4, 0x3e, 0x41, 0x3d, 0xed, 0x16, 0xec, 0x3d, 0x95, 0xe6, 0x98, 0xbc, 0x44, 0xf4, 0x9a, 0x3d, 0x38, 0x12, 0x8f, 0x3d, 
0xf8, 0xce, 0xf8, 0xbc, 0x11, 0xa1, 0x07, 0x3d, 0xba, 0x8e, 0x52, 0xbc, 0x40, 0xbb, 0xa5, 0xba, 0x25, 0x6a, 0x73, 0x3d, 0x7f, 0xc5, 0xde, 0x3d, 0x2e, 0x89, 0x06, 0x3d, 0xb5, 0x6d, 0xf3, 0x3c, 
0x84, 0xc6, 0x73, 0xbd, 0xc2, 0x62, 0xed, 0xbd, 0x8b, 0xc3, 0xe4, 0x3d, 0x95, 0x2b, 0xde, 0xbd, 0x7c, 0x1d, 0x44, 0xbc, 0x8d, 0xfb, 0x73, 0xbd, 0xe2, 0xa7, 0xb3, 0xbd, 0xf3, 0x55, 0xa9, 0xbd, 
0x1a, 0x1c, 0x30, 0xbd, 0xaf, 0x01, 0xf2, 0xbd, 0x0d, 0x7b, 0x49, 0x3d, 0x90, 0xbc, 0x9e, 0xbc, 0xca, 0xfa, 0x80, 0x3b, 0xf3, 0x06, 0xa2, 0xbd, 0xd7, 0x5a, 0x5b, 0x3c, 0x31, 0x01, 0x87, 0xbd, 
0x5d, 0x65, 0xaa, 0x3d, 0x62, 0x84, 0xae, 0x3d, 0x0b, 0xc8, 0x7d, 0xbd, 0x06, 0x1f, 0xa2, 0xbd, 0x4e, 0x72, 0xd8, 0x3d, 0x1a, 0xc2, 0xd1, 0x3c, 0xd5, 0x8b, 0x45, 0xbd, 0x15, 0x50, 0x27, 0x3d, 
0x0a, 0x8f, 0xce, 0x3d, 0x0e, 0x85, 0xaf, 0xbc, 0x61, 0x6c, 0x47, 0x3c, 0xac, 0x3a, 0xd5, 0x3a, 0xf7, 0x3f, 0x01, 0xbe, 0x0e, 0x5a, 0x61, 0x3d, 0x0f, 0x64, 0x01, 0xbc, 0xc0, 0xc7, 0xbe, 0xbc, 
0xf2, 0xba, 0xe4, 0xbd, 0xeb, 0x96, 0xcc, 0x3d, 0x0d, 0x05, 0xb9, 0x3d, 0x68, 0xbd, 0xea, 0xbc, 0x15, 0x02, 0x5b, 0xbd, 0x94, 0x3c, 0x0e, 0xbd, 0x96, 0x67, 0x52, 0x3d, 0x80, 0x2a, 0x5b, 0x3d, 
0x7a, 0x2c, 0xa9, 0x3d, 0xc5, 0x3b, 0xd2, 0x3d, 0x9b, 0x2c, 0xe8, 0xbd, 0x90, 0xfe, 0x96, 0x3d, 0xa0, 0x01, 0x23, 0xbd, 0x0a, 0xdb, 0x2e, 0x3d, 0x40, 0xb0, 0x88, 0x3d, 0xe2, 0xdf, 0xb9, 0xbd, 
0x00, 0x1a, 0xd7, 0x3d, 0x2c, 0xd1, 0xfd, 0x3d, 0x1e, 0xfd, 0x10, 0x3d, 0xa7, 0x33, 0xb7, 0xbd, 0xe9, 0xca, 0x9b, 0xbd, 0xe1, 0x52, 0x30, 0xbd, 0xc6, 0xa4, 0xca, 0x3d, 0xdc, 0x37, 0xee, 0xbd, 
0xa8, 0x79, 0x99, 0x3d, 0x19, 0x82, 0xe9, 0xbc, 0x25, 0xfa, 0x3f, 0x3d, 0x5f, 0x81, 0xd7, 0x3d, 0x18, 0x25, 0x73, 0xbd, 0x6f, 0x1f, 0x0e, 0x3b, 0x01, 0x72, 0xb7, 0x3d, 0xbf, 0x75, 0xa4, 0x3b, 
0x26, 0xdd, 0xfb, 0x3d, 0xe9, 0xde, 0xd6, 0xbd, 0xc0, 0x18, 0xdb, 0x3d, 0xb9, 0x70, 0x4c, 0x3d, 0x2c, 0x37, 0x29, 0xbd, 0x52, 0xf2, 0x9f, 0xbd, 0xfc, 0x48, 0xe2, 0x3d, 0xb2, 0xab, 0xe1, 0xbd, 
0xab, 0xc3, 0x35, 0x3d, 0xf9, 0xfd, 0x08, 0xbd, 0xe9, 0xbe, 0xaf, 0x3d, 0xe6, 0x20, 0x85, 0xbd, 0xde, 0x03, 0xe3, 0x3d, 0xd1, 0xde, 0xc2, 0x3c, 0xed, 0x0b, 0xcb, 0xbc, 0x23, 0x57, 0x72, 0x3d, 
0x01, 0x71, 0x78, 0xbd, 0xcf, 0x4d, 0xfd, 0xbd, 0xe0, 0x6c, 0x03, 0x3d, 0x69, 0x21, 0x12, 0xbc, 0x19, 0x73, 0xdf, 0xbd, 0x23, 0x61, 0x93, 0xbd, 0xd6, 0xf4, 0x9a, 0xbd, 0x10, 0xdf, 0xc4, 0x3c, 
0xfb, 0x78, 0x92, 0x3d, 0x0f, 0xb7, 0xe0, 0xbd, 0x39, 0x97, 0x3b, 0xbc, 0x2c, 0xf8, 0x8a, 0x3d, 0xdb, 0x00, 0x51, 0xbd, 0x5a, 0xc9, 0x00, 0x3e, 0x67, 0x39, 0x84, 0xbb, 0x4d, 0x85, 0x50, 0x3d, 
0xd1, 0x32, 0xab, 0x3d, 0xa6, 0x81, 0xae, 0x3d, 0x63, 0x07, 0xc6, 0xbd, 0xbe, 0x16, 0xd6, 0xbc, 0x4b, 0xc7, 0xb0, 0xbd, 0xe5, 0x27, 0xb1, 0x3d, 0x87, 0xe4, 0xa3, 0xbd, 0x4d, 0x5a, 0xe0, 0xbd, 
0xfc, 0xe1, 0x24, 0xbd, 0x3b, 0xf4, 0xb1, 0xbd, 0x3f, 0x6c, 0xb3, 0x3d, 0x75, 0x7b, 0x9b, 0xbd, 0xd8, 0xae, 0x47, 0xbd, 0x92, 0x12, 0xa0, 0xbc, 0x41, 0x33, 0xa4, 0xbd, 0x12, 0xe2, 0x60, 0x3d, 
0x54, 0xec, 0xaf, 0x3d, 0xeb, 0xe4, 0xb1, 0x3d, 0x83, 0x1d, 0x74, 0x3c, 0xa2, 0x96, 0x84, 0x3d, 0x1e, 0x6c, 0x22, 0x3d, 0xc9, 0xff, 0x4b, 0xbd, 0x50, 0x07, 0x49, 0x3d, 0x8c, 0xd0, 0x99, 0xbd, 
0x5d, 0x03, 0xf5, 0xbd, 0x25, 0x9e, 0x91, 0x3d, 0x74, 0xab, 0x98, 0x3d, 0xb9, 0x16, 0xd8, 0x3d, 0xe3, 0x69, 0x8f, 0xbd, 0x2f, 0xb3, 0x6e, 0x3d, 0xa8, 0x9d, 0x2c, 0x3d, 0xf1, 0x8a, 0x00, 0x3c, 
0x26, 0x11, 0xc9, 0xbd, 0x0c, 0x4d, 0xc1, 0xbd, 0x2c, 0x6b, 0x80, 0x3c, 0x15, 0xf4, 0x97, 0x3d, 0x39, 0x54, 0x95, 0x3d, 0x36, 0x80, 0xe6, 0x3d, 0xb3, 0xe7, 0x11, 0xbd, 0x59, 0x36, 0x35, 0x3d, 
0xa0, 0x9a, 0xb3, 0x3d, 0x78, 0xa1, 0xac, 0xbd, 0xbb, 0x1e, 0x60, 0xbd, 0x3c, 0x69, 0xe4, 0xbd, 0xd3, 0xcb, 0xa5, 0xbd, 0xee, 0xb4, 0x81, 0x3c, 0xf9, 0x65, 0x00, 0x3d, 0x6e, 0x17, 0x94, 0x3d, 
0xab, 0xc9, 0x75, 0xbd, 0xe1, 0x57, 0xdf, 0x3d, 0xaa, 0xd9, 0x84, 0xbd, 0x37, 0xcd, 0x75, 0xbb, 0xbb, 0x2a, 0x8e, 0xbd, 0x9b, 0xb3, 0xe7, 0x3d, 0xf0, 0x1a, 0x80, 0x3c, 0xdb, 0x48, 0x74, 0x3d, 
0x11, 0x5e, 0x61, 0x3d, 0x7c, 0xb7, 0x9f, 0x3d, 0xbd, 0x8c, 0xe2, 0x3d, 0xd2, 0xb0, 0x20, 0xbd, 0x9f, 0x8d, 0x93, 0x3d, 0x94, 0x8b, 0x69, 0x3c, 0x92, 0xf4, 0xdb, 0xbd, 0xf3, 0xf0, 0xc7, 0xbd, 
0xdf, 0xac, 0x80, 0xbd, 0x20, 0xe5, 0x8a, 0xbd, 0x90, 0x82, 0x1a, 0x3d, 0xae, 0x51, 0xb0, 0xbd, 0xe7, 0x32, 0x70, 0x3d, 0x4e, 0xd1, 0xcd, 0x3d, 0xdd, 0x1c, 0xb3, 0xbd, 0x9c, 0xcd, 0xa0, 0xbd, 
0x28, 0x85, 0x51, 0x3d, 0xee, 0x49, 0x01, 0x3e, 0x9b, 0x71, 0xab, 0x3d, 0x29, 0xd0, 0xa4, 0x3d, 0x71, 0x97, 0xf3, 0xbc, 0xe8, 0xab, 0xa7, 0xbd, 0x29, 0x40, 0xc1, 0xbd, 0x68, 0xa9, 0xc9, 0x3d, 
0xb9, 0x6b, 0x4e, 0x3d, 0xb2, 0x7e, 0x11, 0x3c, 0x85, 0xb2, 0x84, 0x3d, 0x32, 0xa9, 0xde, 0x3d, 0x28, 0xe8, 0x03, 0x3e, 0x4e, 0xdf, 0x9f, 0xbd, 0xc7, 0x59, 0xba, 0xbd, 0xc2, 0x96, 0xf2, 0xbd, 
0x25, 0x6a, 0xa7, 0xbd, 0x80, 0xd8, 0xb5, 0xbd, 0xe9, 0xc4, 0xc0, 0xbc, 0x50, 0x91, 0x0a, 0xbd, 0x1f, 0x89, 0x5f, 0xbd, 0xd5, 0x56, 0x64, 0xbd, 0x30, 0x42, 0x1a, 0x3c, 0x7b, 0xbf, 0xdf, 0xbd, 
0x1b, 0x6b, 0x32, 0xbd, 0x68, 0xe4, 0x10, 0xbd, 0xcc, 0xc4, 0x09, 0x3d, 0x85, 0x6f, 0x50, 0xbd, 0x49, 0x7a, 0x1e, 0xbc, 0xb1, 0xa9, 0x39, 0xbd, 0xb5, 0x00, 0xe4, 0xbd, 0xee, 0xa7, 0x03, 0x3e, 
0x24, 0x5e, 0x98, 0x3d, 0x7b, 0x8b, 0x3c, 0xbd, 0xa1, 0xee, 0x6b, 0x3d, 0x7c, 0x6d, 0x83, 0x3d, 0x6b, 0xd5, 0xe0, 0x3d, 0xff, 0x27, 0x03, 0x3d, 0x3f, 0xf6, 0x6b, 0x3d, 0x14, 0xc8, 0x1b, 0x3d, 
0x12, 0x6c, 0x03, 0x3b, 0x1d, 0x9c, 0xf2, 0x3c, 0x79, 0x09, 0x98, 0x3d, 0x3e, 0x61, 0xba, 0x3d, 0x0b, 0x78, 0x89, 0xbb, 0x64, 0x05, 0x50, 0x3c, 0x4f, 0xfe, 0x9e, 0xbd, 0x6b, 0x80, 0x9e, 0x3d, 
0x25, 0xd6, 0x0e, 0x3d, 0x8d, 0xd1, 0xb6, 0x3d, 0x42, 0x9e, 0x4b, 0xbd, 0x83, 0x58, 0xf1, 0xbd, 0x67, 0x28, 0xd7, 0xbc, 0xf1, 0x6e, 0xd0, 0x3d, 0x72, 0xe2, 0xb3, 0x3d, 0xbc, 0x22, 0x8f, 0x3d, 
0x25, 0xa6, 0xc2, 0x3b, 0x7f, 0x74, 0x89, 0x3d, 0x5f, 0xa9, 0xd7, 0xbb, 0x28, 0x83, 0xd0, 0x3c, 0x9a, 0x49, 0x83, 0xbd, 0x8b, 0x0d, 0x67, 0x3d, 0x16, 0x04, 0x0b, 0x3d, 0x39, 0xae, 0xef, 0xbc, 
0xd1, 0x8a, 0x27, 0xbb, 0x01, 0x19, 0xb3, 0xbd, 0xa3, 0x73, 0x10, 0xbd, 0x4c, 0x17, 0xaf, 0x3d, 0x17, 0xf5, 0x68, 0x3d, 0xfa, 0xe6, 0x56, 0x3d, 0x82, 0xd4, 0x01, 0x3e, 0x8d, 0xe2, 0xb0, 0x3d, 
0xd6, 0xb2, 0xcf, 0x3d, 0x75, 0x96, 0x82, 0x3d, 0xe5, 0xef, 0xa9, 0x3a, 0xe4, 0xe0, 0xe1, 0x3d, 0x45, 0x56, 0x4b, 0x3d, 0x2b, 0x53, 0x8c, 0xbd, 0x76, 0x6d, 0xd2, 0x39, 0xe0, 0xaf, 0xc8, 0xbd, 
0xb5, 0xf2, 0xb9, 0xbd, 0x9b, 0x23, 0x87, 0xbd, 0x12, 0xde, 0xe1, 0x3d, 0x84, 0xb5, 0xdc, 0x3d, 0x5b, 0xba, 0x98, 0x3d, 0xda, 0x9f, 0xd1, 0xbd, 0x52, 0x83, 0xcf, 0xbc, 0xd4, 0x35, 0x80, 0x3d, 
0xb6, 0xe7, 0x80, 0x3d, 0xae, 0x6b, 0xa9, 0xbd, 0xff, 0x5f, 0x68, 0xbd, 0x23, 0x2e, 0x71, 0x3d, 0x32, 0xe8, 0xbc, 0xbd, 0x77, 0xe6, 0x2d, 0x3c, 0x29, 0x2f, 0x00, 0xbe, 0x9d, 0xf2, 0x9c, 0x3d, 
0xdc, 0x91, 0x9e, 0x3d, 0x4a, 0x09, 0x40, 0xbc, 0xdb, 0xec, 0x8c, 0x3d, 0xa0, 0x27, 0xa7, 0xbd, 0xb8, 0x96, 0xe6, 0x3d, 0xc7, 0x67, 0xef, 0x3d, 0xd0, 0xf4, 0xf0, 0x3c, 0xcf, 0x92, 0x28, 0xbd, 
0x84, 0xb6, 0x7d, 0x3d, 0x2e, 0x75, 0x01, 0xbd, 0x92, 0x7b, 0x05, 0xbc, 0x93, 0xce, 0x97, 0xbd, 0xd5, 0x70, 0xef, 0xbd, 0xb2, 0x57, 0x99, 0xbd, 0xdb, 0x22, 0xb0, 0xbd, 0xa8, 0x29, 0xff, 0xbd, 
0xfa, 0xf3, 0x8c, 0x3c, 0x26, 0x19, 0xa2, 0x3c, 0xf3, 0xb2, 0xdc, 0xbd, 0x91, 0x98, 0x8c, 0xbd, 0x20, 0xec, 0x49, 0x3d, 0x87, 0x2d, 0xa9, 0xbd, 0xea, 0x37, 0xc3, 0x3c, 0xc7, 0x07, 0x98, 0x3d, 
0x25, 0x41, 0xa3, 0x3c, 0x8a, 0x05, 0xec, 0x3c, 0xd6, 0x6a, 0xcd, 0xbc, 0xe1, 0x45, 0x14, 0x3d, 0x79, 0x3f, 0x96, 0x3d, 0x46, 0xac, 0xbb, 0x3d, 0x90, 0xef, 0xc5, 0xbc, 0x01, 0x70, 0xac, 0x3d, 
0xda, 0xfe, 0x95, 0xbd, 0x60, 0x1a, 0xea, 0x3d, 0x03, 0x88, 0x88, 0xbc, 0x50, 0x3b, 0x93, 0xbd, 0xf8, 0x84, 0x4e, 0xbd, 0x4c, 0xa8, 0x1f, 0x3d, 0x8a, 0xe8, 0xac, 0xbd, 0xab, 0x30, 0xa5, 0xbb, 
0x2b, 0x5d, 0xb3, 0xbd, 0xf0, 0xfe, 0xdc, 0x3d, 0xdc, 0x29, 0x41, 0xbd, 0x3a, 0x26, 0xcd, 0xbc, 0x94, 0x0c, 0xe5, 0xbc, 0x9b, 0x27, 0x86, 0xbd, 0x32, 0xdb, 0xcd, 0xbd, 0x46, 0x06, 0x82, 0xbd, 
0x93, 0xaa, 0x15, 0x3d, 0xab, 0x06, 0xc1, 0x3d, 0x0f, 0xad, 0xe7, 0x3d, 0x4c, 0x01, 0x34, 0x3c, 0xa6, 0x6f, 0x9e, 0xbc, 0xbd, 0xe9, 0xa4, 0xbb, 0xcd, 0x98, 0xa2, 0x3c, 0x46, 0x91, 0xc0, 0xbd, 
0xaf, 0x15, 0x44, 0x3d, 0x70, 0x3d, 0x53, 0xbd, 0x83, 0x70, 0xc4, 0x3c, 0x2a, 0x10, 0x03, 0xbd, 0x1e, 0x0c, 0xdf, 0xbc, 0x75, 0x0c, 0x45, 0x3d, 0x69, 0x77, 0x32, 0xbd, 0x86, 0xa1, 0x81, 0x3d, 
0x25, 0x65, 0x47, 0xbc, 0x7e, 0x72, 0x34, 0x3d, 0x5b, 0x06, 0x93, 0x3d, 0x4b, 0xc6, 0xd1, 0xbc, 0xf3, 0xad, 0xa2, 0x3d, 0x9b, 0x8b, 0x96, 0xbd, 0xa9, 0x56, 0xe5, 0x3d, 0x0b, 0x1c, 0xfc, 0xbb, 
0x0a, 0xe6, 0xfa, 0xbd, 0x5f, 0x38, 0xb7, 0x3d, 0x79, 0xd9, 0x1e, 0xbd, 0xd7, 0x44, 0x54, 0x3d, 0xb8, 0xeb, 0x8b, 0x3c, 0x13, 0x95, 0xf8, 0xbd, 0x20, 0x73, 0x01, 0x3b, 0x47, 0x8b, 0x0f, 0xbd, 
0xef, 0xc7, 0xf5, 0xbd, 0x3d, 0x49, 0xa3, 0x3d, 0x4c, 0x71, 0xc4, 0x3d, 0xbc, 0xc3, 0x15, 0x3d, 0x57, 0x9f, 0xb2, 0xbd, 0x41, 0x3a, 0x88, 0xbd, 0x8b, 0xdd, 0x97, 0xbd, 0xf3, 0x35, 0xf6, 0x3d, 
0x55, 0x5c, 0x0f, 0xbd, 0x6e, 0xda, 0x49, 0x3d, 0x2e, 0xd3, 0x12, 0xbd, 0x77, 0x7d, 0x4d, 0xbd, 0x7c, 0x0a, 0xac, 0x3d, 0xed, 0xe4, 0x9b, 0xbd, 0x47, 0x4e, 0xd8, 0xbd, 0xa1, 0xcc, 0xe8, 0xbd, 
0xf7, 0x47, 0xae, 0x3b, 0x94, 0x61, 0xd3, 0xbd, 0x23, 0x16, 0x66, 0xbd, 0x2c, 0x54, 0xe5, 0x3d, 0x29, 0x01, 0xad, 0x3c, 0x63, 0x88, 0xf2, 0x3d, 0xf1, 0x54, 0xda, 0x3c, 0xf1, 0xc7, 0xee, 0x3d, 
0x88, 0x84, 0x3a, 0xbd, 0x6d, 0x4e, 0xf5, 0x3d, 0x08, 0xce, 0xb1, 0xbd, 0x17, 0x84, 0x9c, 0x3d, 0xea, 0x70, 0x53, 0xbd, 0xcc, 0xb9, 0xea, 0xbc, 0x02, 0xd4, 0xa2, 0xbd, 0x72, 0x41, 0xd3, 0x3d, 
0x8a, 0xb2, 0x54, 0x3d, 0xa6, 0x2e, 0xea, 0xbd, 0xb6, 0xe8, 0x6e, 0x3c, 0x88, 0xac, 0xab, 0x3d, 0xfb, 0x96, 0x8d, 0xbd, 0xab, 0x13, 0xbe, 0xbd, 0x42, 0xf6, 0x4b, 0x3d, 0xf4, 0xfb, 0xb4, 0x3c, 
0x3a, 0x80, 0x4f, 0x3d, 0x19, 0x9e, 0x40, 0x3d, 0x7f, 0xae, 0xec, 0x3d, 0x51, 0xce, 0x8e, 0x3d, 0x5d, 0x54, 0x06, 0x3e, 0xd6, 0xf2, 0x79, 0xbd, 0x29, 0xdd, 0xcf, 0x3d, 0x67, 0xd7, 0x05, 0xbd, 
0xcc, 0x2b, 0x98, 0x3d, 0x24, 0x7b, 0xd8, 0x3d, 0x3a, 0x58, 0x5f, 0x3d, 0x68, 0xfa, 0x82, 0xbd, 0x1b, 0x31, 0xce, 0xbd, 0xf1, 0x61, 0x17, 0xbd, 0x44, 0xcf, 0xa8, 0x3d, 0x63, 0xfc, 0xfb, 0x3d, 
0xc5, 0x8d, 0xbf, 0x3d, 0xb7, 0x74, 0x3f, 0xbd, 0x96, 0x01, 0xf2, 0x3d, 0x8f, 0x6e, 0x78, 0x3d, 0x14, 0x95, 0xde, 0x3d, 0x28, 0x80, 0x98, 0x3d, 0x7e, 0x69, 0x83, 0x3d, 0x82, 0x5f, 0xd9, 0x3c, 
0x69, 0x80, 0x4c, 0xbd, 0xe2, 0xb6, 0x07, 0xbd, 0x75, 0x32, 0x98, 0xbd, 0x0e, 0xb3, 0x8b, 0xbb, 0x82, 0x10, 0x77, 0x3d, 0xa2, 0x32, 0xea, 0xbd, 0x3b, 0x02, 0x58, 0x3d, 0x20, 0xa7, 0xa1, 0x3d, 
0xd6, 0xdc, 0xd2, 0xbc, 0x26, 0x99, 0xb8, 0xbc, 0xf6, 0xdc, 0x0d, 0x3c, 0x14, 0xaf, 0x9c, 0x3c, 0x46, 0x0b, 0x7c, 0x3d, 0x64, 0x5f, 0x55, 0x3d, 0xca, 0x57, 0x49, 0x3b, 0x1b, 0xeb, 0xba, 0xbd, 
0x43, 0xad, 0x61, 0xbd, 0xff, 0xfd, 0xcb, 0x3d, 0xb5, 0xa3, 0xa5, 0xbd, 0x41, 0xf2, 0x6a, 0xbd, 0x34, 0x99, 0x01, 0x3d, 0x75, 0x1f, 0x36, 0xbd, 0xeb, 0x2f, 0xd4, 0x3d, 0xed, 0xcb, 0xf3, 0xbd, 
0x00, 0xda, 0xe8, 0xbd, 0xf0, 0x07, 0xe5, 0x3c, 0xd4, 0x64, 0xc2, 0xbd, 0x42, 0xc0, 0x9e, 0x3c, 0x74, 0x53, 0xd1, 0xbd, 0x23, 0x69, 0x98, 0xbd, 0x06, 0xb4, 0xcb, 0xbd, 0x70, 0x18, 0xf4, 0xbd, 
0x01, 0xb4, 0xc6, 0xbd, 0xe9, 0x48, 0x13, 0x3b, 0xa7, 0x5c, 0x35, 0x3d, 0x0c, 0x51, 0xfc, 0x3d, 0x36, 0xf2, 0xa3, 0xbd, 0x55, 0x94, 0x6c, 0x3d, 0x37, 0x27, 0xd0, 0xbd, 0x07, 0xdd, 0x2a, 0x3d, 
0xe0, 0x82, 0x83, 0x3d, 0x65, 0x3c, 0x6c, 0xbc, 0xda, 0xcc, 0x0d, 0xbb, 0xb3, 0x79, 0x22, 0x3d, 0xd2, 0x51, 0xb0, 0x3d, 0x80, 0x1f, 0x95, 0xba, 0x85, 0x40, 0x90, 0xbd, 0x46, 0xf3, 0x68, 0xbd, 
0xf1, 0x75, 0xce, 0x3c, 0x96, 0x84, 0xf5, 0xbd, 0x53, 0xf5, 0x1c, 0xbd, 0xf8, 0xf9, 0x1e, 0x3d, 0x9c, 0xe3, 0xf4, 0x3d, 0xf9, 0x44, 0x5d, 0x3d, 0x72, 0xb5, 0x0d, 0xbd, 0xba, 0x8f, 0xe5, 0xbd, 
0xd2, 0xd7, 0xda, 0x3d, 0x5b, 0x04, 0xfc, 0xbd, 0xef, 0xab, 0x4b, 0xbd, 0xbe, 0xac, 0x8d, 0xbd, 0xb6, 0x96, 0x1d, 0x3d, 0xe5, 0xfa, 0x32, 0xbd, 0x27, 0x70, 0x1c, 0xbd, 0xd0, 0x5b, 0xf2, 0xbd, 
0x68, 0xaa, 0xfe, 0x3c, 0x90, 0xd1, 0x2b, 0x3c, 0xb4, 0x6b, 0xd8, 0x3d, 0xbe, 0x84, 0x06, 0x3d, 0x47, 0xab, 0xba, 0xbd, 0x90, 0xdd, 0xf1, 0xbc, 0x6b, 0xd7, 0xe5, 0x3c, 0x4a, 0x6e, 0x83, 0x3d, 
0x50, 0xa2, 0x25, 0xbd, 0x74, 0xdd, 0x99, 0xbd, 0x81, 0x1b, 0xb9, 0x3c, 0xec, 0x57, 0xa5, 0x3d, 0x33, 0x39, 0xee, 0xbc, 0x22, 0x1d, 0xc8, 0xbc, 0x27, 0x34, 0xf7, 0xbd, 0xb1, 0x5f, 0x42, 0xbc, 
0x05, 0x18, 0xde, 0xbc, 0x48, 0xb4, 0x85, 0x3d, 0xcf, 0xfd, 0xec, 0xbc, 0xae, 0xe4, 0x92, 0x3d, 0x5b, 0x97, 0xd3, 0xbb, 0xec, 0x2a, 0x15, 0xbc, 0xbf, 0x5b, 0x96, 0x3d, 0xe8, 0xb0, 0xc0, 0x3c, 
0x2e, 0x1b, 0x44, 0xbc, 0xfe, 0x4f, 0xae, 0x3d, 0x94, 0xd2, 0xc5, 0x3d, 0x2f, 0xc8, 0xd5, 0xbd, 0x8b, 0x1b, 0xf2, 0xbd, 0x12, 0x40, 0xa5, 0xbd, 0x7a, 0x99, 0xb4, 0xbd, 0x9d, 0x5e, 0xcc, 0xbd, 
0x52, 0x78, 0x07, 0x3d, 0xb1, 0xde, 0xbb, 0x3d, 0x0d, 0x00, 0xef, 0x3c, 0x85, 0xa0, 0xb5, 0x3c, 0xe2, 0x21, 0x02, 0xbd, 0xb1, 0x8c, 0x20, 0xbd, 0xb0, 0x43, 0xbb, 0xbd, 0x9f, 0x73, 0x91, 0xbd, 
0x01, 0x33, 0x9e, 0x3d, 0x72, 0x2b, 0x82, 0xbd, 0x77, 0xe7, 0xf2, 0x3c, 0x0b, 0x22, 0x90, 0x3c, 0x1f, 0x1e, 0x37, 0xbd, 0x6e, 0xbf, 0xe8, 0x3d, 0x34, 0x71, 0xe7, 0xbd, 0xa7, 0x90, 0xf7, 0x3d, 
0x12, 0x7d, 0x0a, 0x3b, 0x59, 0xa0, 0xf2, 0xbc, 0x4f, 0xc3, 0xcf, 0x3d, 0x20, 0xe4, 0xbc, 0xbd, 0xc4, 0xa9, 0x9a, 0x3c, 0x73, 0x28, 0xe9, 0xbd, 0x4a, 0x60, 0x34, 0xbc, 0x54, 0x34, 0xa2, 0x3d, 
0x89, 0x53, 0x9c, 0xbc, 0x78, 0xed, 0x8c, 0xbc, 0xdb, 0xfe, 0xd4, 0xbc, 0x22, 0x43, 0xb1, 0x3d, 0xf7, 0x0b, 0xdb, 0xbc, 0x17, 0xe4, 0x24, 0xbc, 0xe7, 0x3c, 0xe2, 0x3d, 0x34, 0x32, 0xc4, 0xbc, 
0x34, 0x4f, 0x83, 0xbd, 0x97, 0xc1, 0x58, 0xbd, 0x57, 0x3b, 0x6f, 0xbd, 0x27, 0xbd, 0xd0, 0xbd, 0x2e, 0x3b, 0xd9, 0x3d, 0xcf, 0x08, 0xf0, 0x37, 0x4a, 0x65, 0x0a, 0xbc, 0x4b, 0x0a, 0xf2, 0x3d, 
0x92, 0xd5, 0x8e, 0xbd, 0x64, 0xd5, 0xd6, 0x3d, 0x89, 0xf4, 0x21, 0x3d, 0x22, 0xe7, 0x90, 0xbd, 0xcf, 0xa4, 0x9f, 0xbd, 0x48, 0xc1, 0xba, 0x3c, 0x4f, 0xc2, 0x20, 0x3d, 0x36, 0x2b, 0x24, 0xbd, 
0x11, 0xa5, 0x7e, 0xb9, 0xfc, 0xdf, 0xfe, 0x3c, 0xac, 0x9d, 0x97, 0xbd, 0x65, 0x3a, 0xd6, 0xbd, 0x5a, 0x2c, 0x04, 0xbc, 0x36, 0x5f, 0x1e, 0x3d, 0xb4, 0x29, 0xfb, 0xbd, 0xf7, 0x6b, 0x42, 0x3d, 
0x0b, 0xd5, 0x42, 0x3d, 0xfc, 0x58, 0x7e, 0x3d, 0xc6, 0xd0, 0xe7, 0x3d, 0x7e, 0x8c, 0x71, 0xbd, 0x8f, 0x30, 0x86, 0xbd, 0x4e, 0x36, 0xdf, 0x3d, 0x9f, 0x34, 0xd4, 0x3d, 0x60, 0xe3, 0xea, 0xbd, 
0x01, 0x10, 0xec, 0xbd, 0xdb, 0xf3, 0x53, 0xbd, 0xf7, 0xd7, 0xe2, 0x3d, 0x6e, 0x2a, 0xc2, 0x3d, 0xb3, 0x64, 0x54, 0xbd, 0x46, 0x04, 0xcb, 0x3d, 0x37, 0x82, 0x59, 0x3d, 0x92, 0x16, 0xcb, 0xbd, 
0x27, 0x32, 0xef, 0x3d, 0x92, 0xbb, 0x81, 0xbd, 0x64, 0x42, 0xf5, 0xbc, 0x64, 0xa8, 0x0b, 0x3d, 0x48, 0x20, 0xf3, 0x3d, 0x89, 0x38, 0x51, 0xbd, 0xbe, 0x38, 0xe3, 0x3d, 0xd7, 0x92, 0xcc, 0xbb, 
0x81, 0xc2, 0xc1, 0x3c, 0xa6, 0x97, 0x9e, 0x3d, 0x72, 0x48, 0xb8, 0x3d, 0xf0, 0x25, 0xd8, 0xbc, 0xbb, 0x3c, 0xa0, 0x3d, 0x17, 0x38, 0x82, 0xbd, 0x52, 0x29, 0xc9, 0xbd, 0xe5, 0xa9, 0xdf, 0xbd, 
0xda, 0xea, 0xfb, 0xbd, 0x41, 0xad, 0x28, 0xbc, 0x15, 0x34, 0xe9, 0xbc, 0xd2, 0x90, 0xab, 0x3d, 0xe2, 0xfb, 0xbd, 0x3b, 0xfd, 0x03, 0x81, 0x3d, 0x33, 0x64, 0xc9, 0x3d, 0xef, 0xe1, 0xf5, 0x3d, 
0x02, 0xa4, 0x3b, 0x3c, 0xdd, 0x33, 0x23, 0x3d, 0x6f, 0x6d, 0x4b, 0xbd, 0x53, 0xdc, 0xb5, 0xbd, 0xf7, 0xa4, 0xab, 0xbd, 0xbc, 0xa7, 0x5f, 0xbc, 0xec, 0x3e, 0xf1, 0xbd, 0x77, 0x13, 0xb7, 0xbd, 
0x5e, 0xdc, 0x20, 0xbd, 0x24, 0x91, 0xd5, 0x3b, 0x42, 0xf1, 0x78, 0x3d, 0xc5, 0xe1, 0x86, 0x3c, 0x6c, 0x54, 0x71, 0xbc, 0xf5, 0xf9, 0x4e, 0xbd, 0x5d, 0xe3, 0xda, 0xbd, 0xf3, 0x53, 0xe3, 0x3d, 
0xdf, 0xd1, 0x2b, 0xbd, 0x02, 0xc3, 0xb4, 0xbd, 0x6b, 0xf9, 0xf9, 0xbb, 0xa5, 0x97, 0x9e, 0xbd, 0x8b, 0xa1, 0x23, 0x3d, 0xa0, 0x2b, 0xc3, 0xbd, 0x8c, 0x96, 0xa7, 0x3d, 0x8d, 0xe9, 0x7c, 0x3d, 
0x4f, 0xc0, 0xcc, 0xbd, 0x98, 0xdb, 0xbf, 0x3c, 0x5a, 0xa8, 0xda, 0x3d, 0xbe, 0x18, 0xa7, 0x3d, 0x4c, 0x89, 0x94, 0xbd, 0x06, 0x47, 0xd3, 0xbd, 0x73, 0x57, 0x9b, 0xbc, 0x1a, 0x6f, 0xe3, 0x3d, 
0x31, 0x2c, 0x85, 0xbd, 0x79, 0xa0, 0xb3, 0x3d, 0xd7, 0xc4, 0xa3, 0xbd, 0x9e, 0x1c, 0xbf, 0x3c, 0xd6, 0xca, 0xbb, 0x3d, 0x04, 0x23, 0x90, 0x3d, 0x96, 0xa1, 0xab, 0x3d, 0xc7, 0xde, 0x03, 0xbd, 
0xea, 0xe5, 0xe3, 0xbc, 0xf7, 0x17, 0xcf, 0xbd, 0x2b, 0x8d, 0x45, 0x3c, 0x4c, 0x93, 0xcf, 0x3d, 0x0c, 0xb8, 0x50, 0x3d, 0x53, 0xff, 0xb5, 0x3d, 0xdf, 0x5f, 0xb1, 0xbd, 0xd5, 0xcb, 0x66, 0xbd, 
0x56, 0xd9, 0x8a, 0x3c, 0x3f, 0x5b, 0x42, 0xbd, 0xe0, 0xe8, 0xc7, 0x3d, 0x3b, 0x95, 0x3b, 0x3d, 0xad, 0xab, 0x8f, 0xbc, 0xba, 0x7a, 0x48, 0xbc, 0xa1, 0xa5, 0xef, 0xbd, 0x29, 0xed, 0x99, 0xbc, 
0xba, 0x8c, 0x4b, 0xbc, 0x6c, 0x22, 0x8a, 0x3d, 0x00, 0xf6, 0xcf, 0xbc, 0x89, 0xeb, 0x85, 0x3d, 0x7a, 0x1d, 0x9c, 0x3d, 0xff, 0x47, 0x47, 0xbd, 0x24, 0xa6, 0xc3, 0x3d, 0x2c, 0x67, 0x9e, 0x3d, 
0x7d, 0x0a, 0xc7, 0x3d, 0x5e, 0xba, 0x1c, 0xbd, 0x2a, 0xcf, 0xd7, 0xbc, 0x6f, 0x2d, 0xaa, 0x3d, 0xb3, 0x0e, 0xff, 0x3c, 0xad, 0x0a, 0x02, 0x3d, 0x1c, 0xb3, 0x05, 0xbd, 0x9f, 0x97, 0xde, 0xbd, 
0x5a, 0xe9, 0x2d, 0xbd, 0xcb, 0xd0, 0xc7, 0x3d, 0x89, 0xc6, 0xa6, 0x3d, 0xea, 0x66, 0x1c, 0xbd, 0x07, 0x0a, 0x9f, 0xbd, 0x6f, 0x8d, 0xbc, 0xbd, 0xbe, 0x76, 0x08, 0xbd, 0x69, 0xe9, 0x6d, 0x3d, 
0x35, 0x7a, 0x78, 0xbd, 0xd1, 0xe3, 0xa4, 0x3d, 0x15, 0xbd, 0x81, 0x3b, 0x2f, 0x14, 0x61, 0x3d, 0x63, 0xa5, 0x44, 0xbd, 0x67, 0x7c, 0xd7, 0xbd, 0xf7, 0x3f, 0x2b, 0xbd, 0xa8, 0x63, 0xaf, 0xbd, 
0x5b, 0x6e, 0xd0, 0xbd, 0x45, 0xb7, 0x95, 0xbd, 0xfa, 0x90, 0x28, 0xbd, 0x21, 0x0f, 0xdd, 0x3c, 0xd2, 0x67, 0xc9, 0x3d, 0x14, 0x6f, 0xa4, 0xbd, 0x93, 0xb2, 0x9e, 0x3d, 0x9e, 0xc2, 0x81, 0xbd, 
0x63, 0x3c, 0xe2, 0x3d, 0xe8, 0x45, 0x80, 0x3d, 0x0b, 0x32, 0xc6, 0xbd, 0xc0, 0x1a, 0xa2, 0x3c, 0x50, 0xf3, 0xd9, 0x3d, 0xef, 0x78, 0x97, 0xbc, 0x9e, 0x96, 0x87, 0xbd, 0x11, 0x70, 0x89, 0x3d, 
0xdb, 0x42, 0x84, 0xbd, 0x1e, 0x7a, 0xdc, 0x3c, 0xbe, 0xdc, 0x9b, 0xbd, 0xb8, 0x60, 0xcb, 0x3d, 0x4c, 0xe3, 0xa0, 0x3c, 0xe6, 0x48, 0x88, 0x3d, 0x0e, 0x59, 0xdd, 0xbd, 0x3a, 0x30, 0x10, 0xbd, 
0x58, 0x54, 0xa6, 0xbd, 0x7b, 0x3e, 0x80, 0xbd, 0xea, 0xd4, 0x28, 0x3d, 0x1d, 0x4e, 0xb0, 0xbd, 0x86, 0xf1, 0xa8, 0x3d, 0x68, 0x09, 0xd2, 0xbc, 0xe7, 0x9f, 0x86, 0xbd, 0x9b, 0x28, 0xb7, 0x3d, 
0x32, 0xf7, 0xfb, 0xbd, 0xdb, 0x46, 0xe5, 0x3d, 0x48, 0xe3, 0xfd, 0x3c, 0x4e, 0x71, 0x1b, 0xbd, 0xb8, 0xa8, 0xcf, 0xbb, 0x90, 0xb6, 0xe5, 0xbd, 0x80, 0x79, 0xc0, 0x3c, 0xdf, 0xbc, 0xab, 0xbd, 
0xa8, 0x5c, 0x67, 0xbc, 0xb8, 0x71, 0xd3, 0x3d, 0x25, 0xe4, 0xa3, 0xbc, 0xe5, 0x8a, 0x0f, 0x3d, 0x5d, 0x29, 0xf3, 0xbd, 0x60, 0xb4, 0xe4, 0xbd, 0x1e, 0xbe, 0xd2, 0xba, 0xb5, 0x99, 0xb9, 0xbd, 
0x3b, 0x77, 0xcc, 0xbd, 0xd6, 0xd5, 0xb3, 0x3d, 0xfb, 0xca, 0xfc, 0xbd, 0x86, 0x81, 0x52, 0x3a, 0x90, 0xb8, 0xdd, 0x3d, 0x78, 0x89, 0x94, 0xbc, 0x36, 0xe6, 0xbc, 0x3d, 0x58, 0x94, 0x84, 0x3d, 
0xd6, 0x70, 0xfe, 0xbd, 0x37, 0x20, 0xd7, 0xbd, 0x73, 0x10, 0x88, 0x3c, 0x52, 0x9a, 0xa5, 0x3d, 0x14, 0xee, 0xec, 0xbd, 0x9e, 0xad, 0x06, 0xbd, 0xc8, 0xea, 0x86, 0x3a, 0x75, 0xd9, 0x78, 0x3d, 
0xac, 0x16, 0xbe, 0x3d, 0xa6, 0x2f, 0x1c, 0xbd, 0x1a, 0x81, 0x31, 0x3b, 0x9a, 0x4a, 0xbb, 0xbd, 0x83, 0x11, 0xe1, 0x3d, 0x54, 0xaf, 0x6a, 0x3d, 0x13, 0x08, 0xc1, 0xb9, 0x40, 0xf8, 0x57, 0x3d, 
0xbf, 0x0e, 0x4a, 0x3d, 0x42, 0x10, 0xb9, 0x3c, 0x8c, 0x25, 0xca, 0xbd, 0x62, 0xa9, 0x33, 0xbc, 0x7e, 0xcc, 0xb7, 0x3d, 0x83, 0x94, 0x07, 0xbc, 0x98, 0xfd, 0x7a, 0xbd, 0x52, 0x2d, 0xea, 0x3d, 
0x51, 0x3f, 0xfb, 0xbd, 0x91, 0x57, 0x85, 0x3d, 0x19, 0xb9, 0xba, 0xbc, 0xde, 0xc5, 0x0b, 0xbd, 0x10, 0xc7, 0xb2, 0x3d, 0xec, 0x79, 0x46, 0x3d, 0x1e, 0x58, 0xde, 0x3d, 0x65, 0xfc, 0xcf, 0xbd, 
0x85, 0x25, 0xa7, 0xbd, 0x05, 0x50, 0x00, 0x3e, 0x2e, 0xc6, 0x99, 0x3c, 0x7c, 0xbc, 0x5f, 0xbd, 0x1b, 0xfc, 0x8e, 0x3d, 0x87, 0x71, 0x92, 0xbd, 0x58, 0xea, 0xca, 0xbd, 0xe2, 0x52, 0xc1, 0x3d, 
0xba, 0x23, 0x7e, 0xbc, 0x41, 0xab, 0x5b, 0xbc, 0x4f, 0x75, 0xd0, 0x3c, 0xef, 0x5d, 0xa3, 0x3d, 0x19, 0x47, 0x6b, 0xbd, 0x2a, 0x3e, 0xbe, 0xbd, 0xa8, 0xe4, 0xcc, 0x3d, 0xbc, 0x7e, 0xc7, 0x3d, 
0xee, 0x7e, 0xb5, 0xbd, 0x3b, 0xe5, 0x8e, 0xbc, 0x44, 0x40, 0xd7, 0xbd, 0xb0, 0x34, 0xab, 0x3d, 0xe6, 0xdc, 0xb8, 0x3d, 0x54, 0x71, 0x85, 0x3d, 0xd2, 0x15, 0xce, 0x3d, 0x86, 0x4d, 0x9b, 0x3d, 
0xa4, 0xe6, 0xab, 0xbd, 0x31, 0x64, 0xc9, 0x3c, 0xf2, 0x7c, 0xec, 0x3c, 0x11, 0xcd, 0xb3, 0xbd, 0x01, 0x61, 0xe2, 0xbc, 0x32, 0xaf, 0x71, 0xbc, 0x6f, 0x26, 0x94, 0x3d, 0x4a, 0x99, 0x3a, 0xbd, 
0x49, 0xc6, 0xf9, 0xbc, 0xc1, 0xd2, 0xe5, 0xbd, 0x03, 0xc1, 0xc4, 0xbc, 0xe2, 0x41, 0xa4, 0x3d, 0xf1, 0x77, 0x95, 0xbd, 0xb2, 0xd5, 0x5b, 0x3d, 0x53, 0xce, 0x99, 0xbc, 0xa3, 0x7c, 0x9c, 0xbd, 
0xc4, 0xc4, 0x06, 0x3d, 0xba, 0xfd, 0x2b, 0x3c, 0x0d, 0x90, 0x64, 0x3c, 0xe6, 0x12, 0x88, 0xbd, 0xb7, 0xcf, 0x33, 0x3d, 0x68, 0x76, 0x68, 0x3c, 0x56, 0x7d, 0x60, 0xbc, 0x53, 0x88, 0x3f, 0xbd, 
0x6b, 0xa5, 0x2a, 0xbd, 0x12, 0xb3, 0x52, 0xbd, 0x17, 0xe6, 0x85, 0x3d, 0x51, 0xdb, 0xe1, 0x3d, 0x55, 0xe4, 0xa9, 0x3d, 0x7c, 0xfe, 0x6c, 0xbd, 0xa9, 0x4c, 0xb4, 0x3c, 0x11, 0x70, 0x0b, 0x3d, 
0xd5, 0x8c, 0x08, 0x3e, 0x92, 0x80, 0x32, 0x3e, 0x3d, 0xb9, 0x07, 0x3d, 0x66, 0xf0, 0x5b, 0xbe, 0x0e, 0x74, 0x43, 0x3e, 0x38, 0x23, 0x04, 0x3e, 0x48, 0x6c, 0x64, 0x3e, 0xbd, 0x0f, 0x36, 0xbe, 
0x34, 0x40, 0x68, 0x3e, 0x21, 0xa6, 0x32, 0x3e, 0x60, 0xbf, 0x60, 0x3e, 0x70, 0xc7, 0xc9, 0xbd, 0xb7, 0x88, 0xfc, 0xbd, 0x60, 0x05, 0x5d, 0xbe, 0xcb, 0x9a, 0x21, 0xbe, 0x91, 0xa5, 0x52, 0x3e, 
0x3a, 0x0b, 0x26, 0x3e, 0x66, 0xa7, 0x12, 0xbd, 0x99, 0x19, 0x00, 0xbe, 0xc0, 0x0e, 0x06, 0x3e, 0xa4, 0xdb, 0x15, 0x3d, 0xc9, 0x54, 0xbc, 0xbd, 0x3e, 0x2c, 0x64, 0xbe, 0x1f, 0x30, 0x45, 0x3e, 
0xde, 0xdf, 0x27, 0x3e, 0x2d, 0x18, 0x20, 0xbe, 0x04, 0x42, 0x04, 0x3e, 0x2f, 0xa7, 0x74, 0xbe, 0xa0, 0xe4, 0x25, 0xbe, 0xac, 0xc6, 0x54, 0x3e, 0xea, 0x96, 0x30, 0x3d, 0x87, 0xd0, 0x09, 0x3e, 
0xa3, 0xee, 0x77, 0xbd, 0x8b, 0x65, 0x63, 0xbe, };
