__attribute__((section("network_model_sec"), aligned(16))) char model_pte[] = {
0x3c, 0x00, 0x00, 0x00, 0x45, 0x54, 0x31, 0x32, 0x65, 0x68, 0x30, 0x30, 0x18, 0x00, 0x00, 0x00, 0xa0, 0x11, 0x00, 0x00, 0x00, 0x00, 0x00, 0x00, 0x00, 0x12, 0x00, 0x00, 0x00, 0x00, 0x00, 0x00, 
0x00, 0x00, 0x00, 0x00, 0x00, 0x00, 0x00, 0x00, 0x00, 0x00, 0x00, 0x00, 0x10, 0x00, 0x18, 0x00, 0x00, 0x00, 0x04, 0x00, 0x08, 0x00, 0x0c, 0x00, 0x10, 0x00, 0x14, 0x00, 0x10, 0x00, 0x00, 0x00, 
0x84, 0x00, 0x00, 0x00, 0x7c, 0x00, 0x00, 0x00, 0x74, 0x00, 0x00, 0x00, 0x50, 0x00, 0x00, 0x00, 0x04, 0x00, 0x00, 0x00, 0x00, 0xfb, 0xff, 0xff, 0x04, 0x00, 0x00, 0x00, 0x07, 0x00, 0x00, 0x00, 
0x00, 0x00, 0x00, 0x00, 0x00, 0x00, 0x00, 0x00, 0x00, 0x00, 0x00, 0x00, 0x00, 0x00, 0x00, 0x00, 0x50, 0x00, 0x00, 0x00, 0x00, 0x00, 0x00, 0x00, 0x60, 0x00, 0x00, 0x00, 0x00, 0x00, 0x00, 0x00, 
0x60, 0x40, 0x00, 0x00, 0x00, 0x00, 0x00, 0x00, 0xe0, 0x40, 0x00, 0x00, 0x00, 0x00, 0x00, 0x00, 0xe0, 0x41, 0x00, 0x00, 0x00, 0x00, 0x00, 0x00, 0x00, 0x00, 0x00, 0x00, 0x01, 0x00, 0x00, 0x00, 
0x0c, 0x00, 0x00, 0x00, 0x08, 0x00, 0x10, 0x00, 0x00, 0x00, 0x04, 0x00, 0x08, 0x00, 0x00, 0x00, 0xe8, 0x41, 0x00, 0x00, 0x00, 0x00, 0x00, 0x00, 0x00, 0x00, 0x00, 0x00, 0x00, 0x00, 0x00, 0x00, 
0x00, 0x00, 0x00, 0x00, 0x01, 0x00, 0x00, 0x00, 0x1c, 0x00, 0x00, 0x00, 0x00, 0x00, 0x16, 0x00, 0x28, 0x00, 0x04, 0x00, 0x08, 0x00, 0x0c, 0x00, 0x10, 0x00, 0x14, 0x00, 0x18, 0x00, 0x1c, 0x00, 
0x20, 0x00, 0x24, 0x00, 0x16, 0x00, 0x00, 0x00, 0xac, 0x10, 0x00, 0x00, 0x58, 0x0f, 0x00, 0x00, 0xbc, 0x04, 0x00, 0x00, 0xb0, 0x04, 0x00, 0x00, 0xa4, 0x04, 0x00, 0x00, 0xec, 0x01, 0x00, 0x00, 
0x24, 0x00, 0x00, 0x00, 0x1c, 0x00, 0x00, 0x00, 0x04, 0x00, 0x00, 0x00, 0x02, 0x00, 0x00, 0x00, 0x00, 0x00, 0x00, 0x00, 0x00, 0x00, 0x00, 0x00, 0x10, 0x4b, 0x00, 0x00, 0x00, 0x00, 0x00, 0x00, 
0x00, 0x00, 0x00, 0x00, 0x09, 0x00, 0x00, 0x00, 0x94, 0x01, 0x00, 0x00, 0x6c, 0x01, 0x00, 0x00, 0x38, 0x01, 0x00, 0x00, 0xfc, 0x00, 0x00, 0x00, 0xc4, 0x00, 0x00, 0x00, 0x88, 0x00, 0x00, 0x00, 
0x58, 0x00, 0x00, 0x00, 0x30, 0x00, 0x00, 0x00, 0x04, 0x00, 0x00, 0x00, 0x10, 0xf1, 0xff, 0xff, 0x10, 0x00, 0x00, 0x00, 0x04, 0x00, 0x00, 0x00, 0x03, 0x00, 0x00, 0x00, 0x6f, 0x75, 0x74, 0x00, 
0x0e, 0x00, 0x00, 0x00, 0x61, 0x74, 0x65, 0x6e, 0x3a, 0x3a, 0x5f, 0x73, 0x6f, 0x66, 0x74, 0x6d, 0x61, 0x78, 0x00, 0x00, 0x38, 0xf1, 0xff, 0xff, 0x10, 0x00, 0x00, 0x00, 0x04, 0x00, 0x00, 0x00, 
0x03, 0x00, 0x00, 0x00, 0x6f, 0x75, 0x74, 0x00, 0x0b, 0x00, 0x00, 0x00, 0x61, 0x74, 0x65, 0x6e, 0x3a, 0x3a, 0x61, 0x64, 0x64, 0x6d, 0x6d, 0x00, 0x5c, 0xf1, 0xff, 0xff, 0x10, 0x00, 0x00, 0x00, 
0x04, 0x00, 0x00, 0x00, 0x03, 0x00, 0x00, 0x00, 0x6f, 0x75, 0x74, 0x00, 0x12, 0x00, 0x00, 0x00, 0x61, 0x74, 0x65, 0x6e, 0x3a, 0x3a, 0x70, 0x65, 0x72, 0x6d, 0x75, 0x74, 0x65, 0x5f, 0x63, 0x6f, 
0x70, 0x79, 0x00, 0x00, 0x88, 0xf1, 0xff, 0xff, 0x14, 0x00, 0x00, 0x00, 0x04, 0x00, 0x00, 0x00, 0x07, 0x00, 0x00, 0x00, 0x64, 0x65, 0x66, 0x61, 0x75, 0x6c, 0x74, 0x00, 0x18, 0x00, 0x00, 0x00, 
0x65, 0x78, 0x65, 0x63, 0x75, 0x74, 0x6f, 0x72, 0x63, 0x68, 0x5f, 0x70, 0x72, 0x69, 0x6d, 0x3a, 0x3a, 0x65, 0x74, 0x5f, 0x76, 0x69, 0x65, 0x77, 0x00, 0x00, 0x00, 0x00, 0xc0, 0xf1, 0xff, 0xff, 
0x18, 0x00, 0x00, 0x00, 0x04, 0x00, 0x00, 0x00, 0x08, 0x00, 0x00, 0x00, 0x64, 0x69, 0x6d, 0x73, 0x5f, 0x6f, 0x75, 0x74, 0x00, 0x00, 0x00, 0x00, 0x12, 0x00, 0x00, 0x00, 0x61, 0x74, 0x65, 0x6e, 
0x3a, 0x3a, 0x73, 0x71, 0x75, 0x65, 0x65, 0x7a, 0x65, 0x5f, 0x63, 0x6f, 0x70, 0x79, 0x00, 0x00, 0xf4, 0xf1, 0xff, 0xff, 0x10, 0x00, 0x00, 0x00, 0x04, 0x00, 0x00, 0x00, 0x03, 0x00, 0x00, 0x00, 
0x6f, 0x75, 0x74, 0x00, 0x1d, 0x00, 0x00, 0x00, 0x61, 0x74, 0x65, 0x6e, 0x3a, 0x3a, 0x6d, 0x61, 0x78, 0x5f, 0x70, 0x6f, 0x6f, 0x6c, 0x32, 0x64, 0x5f, 0x77, 0x69, 0x74, 0x68, 0x5f, 0x69, 0x6e, 
0x64, 0x69, 0x63, 0x65, 0x73, 0x00, 0x00, 0x00, 0x2c, 0xf2, 0xff, 0xff, 0x10, 0x00, 0x00, 0x00, 0x04, 0x00, 0x00, 0x00, 0x03, 0x00, 0x00, 0x00, 0x6f, 0x75, 0x74, 0x00, 0x14, 0x00, 0x00, 0x00, 
0x61, 0x74, 0x65, 0x6e, 0x3a, 0x3a, 0x75, 0x6e, 0x73, 0x71, 0x75, 0x65, 0x65, 0x7a, 0x65, 0x5f, 0x63, 0x6f, 0x70, 0x79, 0x00, 0x00, 0x00, 0x00, 0x5c, 0xf2, 0xff, 0xff, 0x10, 0x00, 0x00, 0x00, 
0x04, 0x00, 0x00, 0x00, 0x03, 0x00, 0x00, 0x00, 0x6f, 0x75, 0x74, 0x00, 0x0a, 0x00, 0x00, 0x00, 0x61, 0x74, 0x65, 0x6e, 0x3a, 0x3a, 0x72, 0x65, 0x6c, 0x75, 0x00, 0x00, 0x80, 0xf2, 0xff, 0xff, 
0x10, 0x00, 0x00, 0x00, 0x04, 0x00, 0x00, 0x00, 0x03, 0x00, 0x00, 0x00, 0x6f, 0x75, 0x74, 0x00, 0x11, 0x00, 0x00, 0x00, 0x61, 0x74, 0x65, 0x6e, 0x3a, 0x3a, 0x63, 0x6f, 0x6e, 0x76, 0x6f, 0x6c, 
0x75, 0x74, 0x69, 0x6f, 0x6e, 0x00, 0x00, 0x00, 0x01, 0x00, 0x00, 0x00, 0x10, 0x00, 0x00, 0x00, 0x00, 0x00, 0x0a, 0x00, 0x10, 0x00, 0x04, 0x00, 0x08, 0x00, 0x0c, 0x00, 0x0a, 0x00, 0x00, 0x00, 
0x98, 0x02, 0x00, 0x00, 0x90, 0x02, 0x00, 0x00, 0x04, 0x00, 0x00, 0x00, 0x0c, 0x00, 0x00, 0x00, 0x38, 0x02, 0x00, 0x00, 0x0c, 0x02, 0x00, 0x00, 0xdc, 0x01, 0x00, 0x00, 0x98, 0x01, 0x00, 0x00, 
0x68, 0x01, 0x00, 0x00, 0x3c, 0x01, 0x00, 0x00, 0x0c, 0x01, 0x00, 0x00, 0xd0, 0x00, 0x00, 0x00, 0xa4, 0x00, 0x00, 0x00, 0x74, 0x00, 0x00, 0x00, 0x38, 0x00, 0x00, 0x00, 0x04, 0x00, 0x00, 0x00, 
0x54, 0xf3, 0xff, 0xff, 0x00, 0x00, 0x00, 0x01, 0x04, 0x00, 0x00, 0x00, 0x10, 0xf3, 0xff, 0xff, 0x08, 0x00, 0x00, 0x00, 0x04, 0x00, 0x00, 0x00, 0x05, 0x00, 0x00, 0x00, 0x38, 0x00, 0x00, 0x00, 
0x3c, 0x00, 0x00, 0x00, 0x3d, 0x00, 0x00, 0x00, 0x3b, 0x00, 0x00, 0x00, 0x3b, 0x00, 0x00, 0x00, 0x84, 0xf3, 0xff, 0xff, 0x00, 0x00, 0x00, 0x01, 0x04, 0x00, 0x00, 0x00, 0x40, 0xf3, 0xff, 0xff, 
0x07, 0x00, 0x00, 0x00, 0x04, 0x00, 0x00, 0x00, 0x07, 0x00, 0x00, 0x00, 0x05, 0x00, 0x00, 0x00, 0x33, 0x00, 0x00, 0x00, 0x34, 0x00, 0x00, 0x00, 0x39, 0x00, 0x00, 0x00, 0x3a, 0x00, 0x00, 0x00, 
0x38, 0x00, 0x00, 0x00, 0x38, 0x00, 0x00, 0x00, 0xbc, 0xf3, 0xff, 0xff, 0x00, 0x00, 0x00, 0x01, 0x04, 0x00, 0x00, 0x00, 0x78, 0xf3, 0xff, 0xff, 0x06, 0x00, 0x00, 0x00, 0x04, 0x00, 0x00, 0x00, 
0x04, 0x00, 0x00, 0x00, 0x04, 0x00, 0x00, 0x00, 0x37, 0x00, 0x00, 0x00, 0x34, 0x00, 0x00, 0x00, 0x34, 0x00, 0x00, 0x00, 0xe8, 0xf3, 0xff, 0xff, 0x00, 0x00, 0x00, 0x01, 0x04, 0x00, 0x00, 0x00, 
0xa4, 0xf3, 0xff, 0xff, 0x01, 0x00, 0x00, 0x00, 0x04, 0x00, 0x00, 0x00, 0x03, 0x00, 0x00, 0x00, 0x30, 0x00, 0x00, 0x00, 0x33, 0x00, 0x00, 0x00, 0x33, 0x00, 0x00, 0x00, 0x10, 0xf4, 0xff, 0xff, 
0x00, 0x00, 0x00, 0x01, 0x04, 0x00, 0x00, 0x00, 0xcc, 0xf3, 0xff, 0xff, 0x07, 0x00, 0x00, 0x00, 0x04, 0x00, 0x00, 0x00, 0x07, 0x00, 0x00, 0x00, 0x03, 0x00, 0x00, 0x00, 0x2b, 0x00, 0x00, 0x00, 
0x2c, 0x00, 0x00, 0x00, 0x31, 0x00, 0x00, 0x00, 0x32, 0x00, 0x00, 0x00, 0x30, 0x00, 0x00, 0x00, 0x30, 0x00, 0x00, 0x00, 0x48, 0xf4, 0xff, 0xff, 0x00, 0x00, 0x00, 0x01, 0x04, 0x00, 0x00, 0x00, 
0x04, 0xf4, 0xff, 0xff, 0x06, 0x00, 0x00, 0x00, 0x04, 0x00, 0x00, 0x00, 0x04, 0x00, 0x00, 0x00, 0x02, 0x00, 0x00, 0x00, 0x2f, 0x00, 0x00, 0x00, 0x2c, 0x00, 0x00, 0x00, 0x2c, 0x00, 0x00, 0x00, 
0x74, 0xf4, 0xff, 0xff, 0x00, 0x00, 0x00, 0x01, 0x04, 0x00, 0x00, 0x00, 0x30, 0xf4, 0xff, 0xff, 0x05, 0x00, 0x00, 0x00, 0x04, 0x00, 0x00, 0x00, 0x03, 0x00, 0x00, 0x00, 0x25, 0x00, 0x00, 0x00, 
0x2a, 0x00, 0x00, 0x00, 0x2b, 0x00, 0x00, 0x00, 0x9c, 0xf4, 0xff, 0xff, 0x00, 0x00, 0x00, 0x01, 0x04, 0x00, 0x00, 0x00, 0x58, 0xf4, 0xff, 0xff, 0x04, 0x00, 0x00, 0x00, 0x04, 0x00, 0x00, 0x00, 
0x04, 0x00, 0x00, 0x00, 0x15, 0x00, 0x00, 0x00, 0x27, 0x00, 0x00, 0x00, 0x25, 0x00, 0x00, 0x00, 0x25, 0x00, 0x00, 0x00, 0xc8, 0xf4, 0xff, 0xff, 0x00, 0x00, 0x00, 0x01, 0x04, 0x00, 0x00, 0x00, 
0x84, 0xf4, 0xff, 0xff, 0x03, 0x00, 0x00, 0x00, 0x04, 0x00, 0x00, 0x00, 0x09, 0x00, 0x00, 0x00, 0x13, 0x00, 0x00, 0x00, 0x19, 0x00, 0x00, 0x00, 0x1c, 0x00, 0x00, 0x00, 0x1f, 0x00, 0x00, 0x00, 
0x22, 0x00, 0x00, 0x00, 0x23, 0x00, 0x00, 0x00, 0x15, 0x00, 0x00, 0x00, 0x16, 0x00, 0x00, 0x00, 0x24, 0x00, 0x00, 0x00, 0x08, 0xf5, 0xff, 0xff, 0x00, 0x00, 0x00, 0x01, 0x04, 0x00, 0x00, 0x00, 
0xc4, 0xf4, 0xff, 0xff, 0x02, 0x00, 0x00, 0x00, 0x04, 0x00, 0x00, 0x00, 0x04, 0x00, 0x00, 0x00, 0x12, 0x00, 0x00, 0x00, 0x14, 0x00, 0x00, 0x00, 0x13, 0x00, 0x00, 0x00, 0x13, 0x00, 0x00, 0x00, 
0x34, 0xf5, 0xff, 0xff, 0x00, 0x00, 0x00, 0x01, 0x04, 0x00, 0x00, 0x00, 0xf0, 0xf4, 0xff, 0xff, 0x01, 0x00, 0x00, 0x00, 0x04, 0x00, 0x00, 0x00, 0x03, 0x00, 0x00, 0x00, 0x07, 0x00, 0x00, 0x00, 
0x12, 0x00, 0x00, 0x00, 0x12, 0x00, 0x00, 0x00, 0x5c, 0xf5, 0xff, 0xff, 0x00, 0x00, 0x00, 0x01, 0x0c, 0x00, 0x00, 0x00, 0x08, 0x00, 0x08, 0x00, 0x00, 0x00, 0x04, 0x00, 0x08, 0x00, 0x00, 0x00, 
0x04, 0x00, 0x00, 0x00, 0x0b, 0x00, 0x00, 0x00, 0x06, 0x00, 0x00, 0x00, 0x00, 0x00, 0x00, 0x00, 0x01, 0x00, 0x00, 0x00, 0x09, 0x00, 0x00, 0x00, 0x0b, 0x00, 0x00, 0x00, 0x0d, 0x00, 0x00, 0x00, 
0x0e, 0x00, 0x00, 0x00, 0x10, 0x00, 0x00, 0x00, 0x11, 0x00, 0x00, 0x00, 0x07, 0x00, 0x00, 0x00, 0x07, 0x00, 0x00, 0x00, 0x00, 0x00, 0x00, 0x00, 0x00, 0x00, 0x00, 0x00, 0x01, 0x00, 0x00, 0x00, 
0x3b, 0x00, 0x00, 0x00, 0x01, 0x00, 0x00, 0x00, 0x06, 0x00, 0x00, 0x00, 0x3e, 0x00, 0x00, 0x00, 0x44, 0x0a, 0x00, 0x00, 0x08, 0x0a, 0x00, 0x00, 0xd0, 0x09, 0x00, 0x00, 0x9c, 0x09, 0x00, 0x00, 
0x64, 0x09, 0x00, 0x00, 0x30, 0x09, 0x00, 0x00, 0xd0, 0x08, 0x00, 0x00, 0x6c, 0x08, 0x00, 0x00, 0x48, 0x08, 0x00, 0x00, 0x24, 0x08, 0x00, 0x00, 0x0c, 0x08, 0x00, 0x00, 0xe4, 0x07, 0x00, 0x00, 
0xc8, 0x07, 0x00, 0x00, 0xa4, 0x07, 0x00, 0x00, 0x90, 0x07, 0x00, 0x00, 0x7c, 0x07, 0x00, 0x00, 0x58, 0x07, 0x00, 0x00, 0x3c, 0x07, 0x00, 0x00, 0xf8, 0x06, 0x00, 0x00, 0xac, 0x06, 0x00, 0x00, 
0x90, 0x06, 0x00, 0x00, 0x48, 0x06, 0x00, 0x00, 0xe8, 0x05, 0x00, 0x00, 0xcc, 0x05, 0x00, 0x00, 0xb0, 0x05, 0x00, 0x00, 0x84, 0x05, 0x00, 0x00, 0x68, 0x05, 0x00, 0x00, 0x4c, 0x05, 0x00, 0x00, 
0x20, 0x05, 0x00, 0x00, 0x0c, 0x05, 0x00, 0x00, 0xf8, 0x04, 0x00, 0x00, 0xcc, 0x04, 0x00, 0x00, 0xb0, 0x04, 0x00, 0x00, 0x94, 0x04, 0x00, 0x00, 0x68, 0x04, 0x00, 0x00, 0x54, 0x04, 0x00, 0x00, 
0x30, 0x04, 0x00, 0x00, 0xe8, 0x03, 0x00, 0x00, 0xc0, 0x03, 0x00, 0x00, 0x9c, 0x03, 0x00, 0x00, 0x80, 0x03, 0x00, 0x00, 0x64, 0x03, 0x00, 0x00, 0x38, 0x03, 0x00, 0x00, 0xf4, 0x02, 0x00, 0x00, 
0xb4, 0x02, 0x00, 0x00, 0x94, 0x02, 0x00, 0x00, 0x80, 0x02, 0x00, 0x00, 0x54, 0x02, 0x00, 0x00, 0x10, 0x02, 0x00, 0x00, 0xf4, 0x01, 0x00, 0x00, 0xd8, 0x01, 0x00, 0x00, 0x94, 0x01, 0x00, 0x00, 
0x50, 0x01, 0x00, 0x00, 0x34, 0x01, 0x00, 0x00, 0x20, 0x01, 0x00, 0x00, 0xf4, 0x00, 0x00, 0x00, 0xb0, 0x00, 0x00, 0x00, 0x94, 0x00, 0x00, 0x00, 0x78, 0x00, 0x00, 0x00, 0x34, 0x00, 0x00, 0x00, 
0x18, 0x00, 0x00, 0x00, 0x04, 0x00, 0x00, 0x00, 0xbc, 0xf6, 0xff, 0xff, 0x00, 0x00, 0x00, 0x03, 0x04, 0x00, 0x00, 0x00, 0xc4, 0xf8, 0xff, 0xff, 0xcc, 0xf6, 0xff, 0xff, 0x00, 0x00, 0x00, 0x02, 
0x04, 0x00, 0x00, 0x00, 0x9e, 0xf8, 0xff, 0xff, 0x01, 0x00, 0x00, 0x00, 0x00, 0x00, 0x00, 0x00, 0xe4, 0xf6, 0xff, 0xff, 0x00, 0x00, 0x00, 0x05, 0x04, 0x00, 0x00, 0x00, 0x96, 0xf8, 0xff, 0xff, 
0x00, 0x00, 0x06, 0x01, 0x20, 0x00, 0x00, 0x00, 0x14, 0x00, 0x00, 0x00, 0x04, 0x00, 0x00, 0x00, 0xb4, 0xf6, 0xff, 0xff, 0x01, 0x00, 0x00, 0x00, 0x00, 0x4a, 0x00, 0x00, 0x02, 0x00, 0x00, 0x00, 
0x00, 0x01, 0x00, 0x00, 0x02, 0x00, 0x00, 0x00, 0x01, 0x00, 0x00, 0x00, 0x02, 0x00, 0x00, 0x00, 0x24, 0xf7, 0xff, 0xff, 0x00, 0x00, 0x00, 0x02, 0x04, 0x00, 0x00, 0x00, 0xf6, 0xf8, 0xff, 0xff, 
0x01, 0x00, 0x00, 0x00, 0x00, 0x00, 0x00, 0x00, 0x3c, 0xf7, 0xff, 0xff, 0x00, 0x00, 0x00, 0x02, 0x04, 0x00, 0x00, 0x00, 0x0e, 0xf9, 0xff, 0xff, 0x01, 0x00, 0x00, 0x00, 0x00, 0x00, 0x00, 0x00, 
0x54, 0xf7, 0xff, 0xff, 0x00, 0x00, 0x00, 0x05, 0x04, 0x00, 0x00, 0x00, 0x06, 0xf9, 0xff, 0xff, 0x00, 0x00, 0x06, 0x01, 0x20, 0x00, 0x00, 0x00, 0x14, 0x00, 0x00, 0x00, 0x04, 0x00, 0x00, 0x00, 
0x24, 0xf7, 0xff, 0xff, 0x01, 0x00, 0x00, 0x00, 0x00, 0x4b, 0x00, 0x00, 0x02, 0x00, 0x00, 0x00, 0x00, 0x01, 0x00, 0x00, 0x02, 0x00, 0x00, 0x00, 0x01, 0x00, 0x00, 0x00, 0x02, 0x00, 0x00, 0x00, 
0x94, 0xf7, 0xff, 0xff, 0x00, 0x00, 0x00, 0x07, 0x04, 0x00, 0x00, 0x00, 0xbe, 0xf8, 0xff, 0xff, 0x04, 0x00, 0x00, 0x00, 0x02, 0x00, 0x00, 0x00, 0x35, 0x00, 0x00, 0x00, 0x00, 0x00, 0x00, 0x00, 
0x36, 0x00, 0x00, 0x00, 0x00, 0x00, 0x00, 0x00, 0xbc, 0xf7, 0xff, 0xff, 0x00, 0x00, 0x00, 0x02, 0x04, 0x00, 0x00, 0x00, 0xc4, 0xf9, 0xff, 0xff, 0xcc, 0xf7, 0xff, 0xff, 0x00, 0x00, 0x00, 0x02, 
0x04, 0x00, 0x00, 0x00, 0x9e, 0xf9, 0xff, 0xff, 0x01, 0x00, 0x00, 0x00, 0x00, 0x00, 0x00, 0x00, 0xe4, 0xf7, 0xff, 0xff, 0x00, 0x00, 0x00, 0x05, 0x04, 0x00, 0x00, 0x00, 0x96, 0xf9, 0xff, 0xff, 
0x00, 0x00, 0x06, 0x01, 0x20, 0x00, 0x00, 0x00, 0x14, 0x00, 0x00, 0x00, 0x04, 0x00, 0x00, 0x00, 0xb4, 0xf7, 0xff, 0xff, 0x01, 0x00, 0x00, 0x00, 0x00, 0x4a, 0x00, 0x00, 0x02, 0x00, 0x00, 0x00, 
0x00, 0x01, 0x00, 0x00, 0x02, 0x00, 0x00, 0x00, 0x20, 0x00, 0x00, 0x00, 0x02, 0x00, 0x00, 0x00, 0x24, 0xf8, 0xff, 0xff, 0x00, 0x00, 0x00, 0x05, 0x04, 0x00, 0x00, 0x00, 0xd6, 0xf9, 0xff, 0xff, 
0x00, 0x00, 0x06, 0x01, 0x20, 0x00, 0x00, 0x00, 0x14, 0x00, 0x00, 0x00, 0x04, 0x00, 0x00, 0x00, 0xf4, 0xf7, 0xff, 0xff, 0x01, 0x00, 0x00, 0x00, 0x00, 0x46, 0x00, 0x00, 0x02, 0x00, 0x00, 0x00, 
0x00, 0x01, 0x00, 0x00, 0x02, 0x00, 0x00, 0x00, 0x01, 0x00, 0x00, 0x00, 0x20, 0x00, 0x00, 0x00, 0x64, 0xf8, 0xff, 0xff, 0x00, 0x00, 0x00, 0x02, 0x04, 0x00, 0x00, 0x00, 0x36, 0xfa, 0xff, 0xff, 
0x01, 0x00, 0x00, 0x00, 0x00, 0x00, 0x00, 0x00, 0x7c, 0xf8, 0xff, 0xff, 0x00, 0x00, 0x00, 0x02, 0x04, 0x00, 0x00, 0x00, 0x4e, 0xfa, 0xff, 0xff, 0x01, 0x00, 0x00, 0x00, 0x00, 0x00, 0x00, 0x00, 
0x94, 0xf8, 0xff, 0xff, 0x00, 0x00, 0x00, 0x05, 0x04, 0x00, 0x00, 0x00, 0x46, 0xfa, 0xff, 0xff, 0x00, 0x00, 0x06, 0x01, 0x20, 0x00, 0x00, 0x00, 0x14, 0x00, 0x00, 0x00, 0x04, 0x00, 0x00, 0x00, 
0x64, 0xf8, 0xff, 0xff, 0x01, 0x00, 0x00, 0x00, 0x00, 0x4a, 0x00, 0x00, 0x02, 0x00, 0x00, 0x00, 0x00, 0x01, 0x00, 0x00, 0x02, 0x00, 0x00, 0x00, 0x01, 0x00, 0x00, 0x00, 0x20, 0x00, 0x00, 0x00, 
0xd4, 0xf8, 0xff, 0xff, 0x00, 0x00, 0x00, 0x07, 0x04, 0x00, 0x00, 0x00, 0xfe, 0xf9, 0xff, 0xff, 0x04, 0x00, 0x00, 0x00, 0x02, 0x00, 0x00, 0x00, 0x2d, 0x00, 0x00, 0x00, 0x00, 0x00, 0x00, 0x00, 
0x2e, 0x00, 0x00, 0x00, 0x00, 0x00, 0x00, 0x00, 0xfc, 0xf8, 0xff, 0xff, 0x00, 0x00, 0x00, 0x02, 0x04, 0x00, 0x00, 0x00, 0x04, 0xfb, 0xff, 0xff, 0x0c, 0xf9, 0xff, 0xff, 0x00, 0x00, 0x00, 0x02, 
0x04, 0x00, 0x00, 0x00, 0xee, 0xfe, 0xff, 0xff, 0x01, 0x00, 0x00, 0x00, 0x00, 0x00, 0x00, 0x00, 0x00, 0x00, 0x00, 0x00, 0x28, 0xf9, 0xff, 0xff, 0x00, 0x00, 0x00, 0x05, 0x04, 0x00, 0x00, 0x00, 
0xda, 0xfa, 0xff, 0xff, 0x00, 0x00, 0x06, 0x01, 0x1c, 0x00, 0x00, 0x00, 0x10, 0x00, 0x00, 0x00, 0x04, 0x00, 0x00, 0x00, 0x66, 0xfa, 0xff, 0xff, 0x01, 0x00, 0x00, 0x00, 0x02, 0x00, 0x00, 0x00, 
0x00, 0x01, 0x00, 0x00, 0x02, 0x00, 0x00, 0x00, 0x80, 0x00, 0x00, 0x00, 0x20, 0x00, 0x00, 0x00, 0x64, 0xf9, 0xff, 0xff, 0x00, 0x00, 0x00, 0x05, 0x04, 0x00, 0x00, 0x00, 0x16, 0xfb, 0xff, 0xff, 
0x00, 0x00, 0x06, 0x01, 0x20, 0x00, 0x00, 0x00, 0x14, 0x00, 0x00, 0x00, 0x04, 0x00, 0x00, 0x00, 0x34, 0xf9, 0xff, 0xff, 0x01, 0x00, 0x00, 0x00, 0x00, 0x46, 0x00, 0x00, 0x02, 0x00, 0x00, 0x00, 
0x00, 0x01, 0x00, 0x00, 0x02, 0x00, 0x00, 0x00, 0x01, 0x00, 0x00, 0x00, 0x80, 0x00, 0x00, 0x00, 0xa4, 0xf9, 0xff, 0xff, 0x00, 0x00, 0x00, 0x07, 0x04, 0x00, 0x00, 0x00, 0xce, 0xfa, 0xff, 0xff, 
0x04, 0x00, 0x00, 0x00, 0x02, 0x00, 0x00, 0x00, 0x28, 0x00, 0x00, 0x00, 0x00, 0x00, 0x00, 0x00, 0x29, 0x00, 0x00, 0x00, 0x00, 0x00, 0x00, 0x00, 0xcc, 0xf9, 0xff, 0xff, 0x00, 0x00, 0x00, 0x02, 
0x04, 0x00, 0x00, 0x00, 0x9e, 0xfb, 0xff, 0xff, 0x80, 0x00, 0x00, 0x00, 0x00, 0x00, 0x00, 0x00, 0xe4, 0xf9, 0xff, 0xff, 0x00, 0x00, 0x00, 0x02, 0x04, 0x00, 0x00, 0x00, 0xb6, 0xfb, 0xff, 0xff, 
0x01, 0x00, 0x00, 0x00, 0x00, 0x00, 0x00, 0x00, 0xfc, 0xf9, 0xff, 0xff, 0x00, 0x00, 0x00, 0x07, 0x04, 0x00, 0x00, 0x00, 0x26, 0xfb, 0xff, 0xff, 0x04, 0x00, 0x00, 0x00, 0x01, 0x00, 0x00, 0x00, 
0x26, 0x00, 0x00, 0x00, 0x00, 0x00, 0x00, 0x00, 0x78, 0xfb, 0xff, 0xff, 0x00, 0x00, 0x00, 0x02, 0x0c, 0x00, 0x00, 0x00, 0x00, 0x00, 0x06, 0x00, 0x10, 0x00, 0x04, 0x00, 0x06, 0x00, 0x00, 0x00, 
0xfe, 0xff, 0xff, 0xff, 0xff, 0xff, 0xff, 0xff, 0x00, 0x00, 0x00, 0x00, 0x40, 0xfa, 0xff, 0xff, 0x00, 0x00, 0x00, 0x05, 0x04, 0x00, 0x00, 0x00, 0xf2, 0xfb, 0xff, 0xff, 0x00, 0x00, 0x06, 0x01, 
0x20, 0x00, 0x00, 0x00, 0x14, 0x00, 0x00, 0x00, 0x04, 0x00, 0x00, 0x00, 0x10, 0xfa, 0xff, 0xff, 0x01, 0x00, 0x00, 0x00, 0x00, 0x46, 0x00, 0x00, 0x03, 0x00, 0x00, 0x00, 0x00, 0x01, 0x02, 0x00, 
0x03, 0x00, 0x00, 0x00, 0x01, 0x00, 0x00, 0x00, 0x04, 0x00, 0x00, 0x00, 0x20, 0x00, 0x00, 0x00, 0x84, 0xfa, 0xff, 0xff, 0x00, 0x00, 0x00, 0x0a, 0x04, 0x00, 0x00, 0x00, 0xae, 0xfb, 0xff, 0xff, 
0x04, 0x00, 0x00, 0x00, 0x02, 0x00, 0x00, 0x00, 0x15, 0x00, 0x00, 0x00, 0x16, 0x00, 0x00, 0x00, 0xa4, 0xfa, 0xff, 0xff, 0x00, 0x00, 0x00, 0x03, 0x04, 0x00, 0x00, 0x00, 0xac, 0xfc, 0xff, 0xff, 
0xb4, 0xfa, 0xff, 0xff, 0x00, 0x00, 0x00, 0x07, 0x04, 0x00, 0x00, 0x00, 0xde, 0xfb, 0xff, 0xff, 0x04, 0x00, 0x00, 0x00, 0x02, 0x00, 0x00, 0x00, 0x20, 0x00, 0x00, 0x00, 0x00, 0x00, 0x00, 0x00, 
0x21, 0x00, 0x00, 0x00, 0x00, 0x00, 0x00, 0x00, 0xdc, 0xfa, 0xff, 0xff, 0x00, 0x00, 0x00, 0x02, 0x04, 0x00, 0x00, 0x00, 0xae, 0xfc, 0xff, 0xff, 0x01, 0x00, 0x00, 0x00, 0x00, 0x00, 0x00, 0x00, 
0xf4, 0xfa, 0xff, 0xff, 0x00, 0x00, 0x00, 0x02, 0x04, 0x00, 0x00, 0x00, 0xc6, 0xfc, 0xff, 0xff, 0x01, 0x00, 0x00, 0x00, 0x00, 0x00, 0x00, 0x00, 0x0c, 0xfb, 0xff, 0xff, 0x00, 0x00, 0x00, 0x07, 
0x04, 0x00, 0x00, 0x00, 0x36, 0xfc, 0xff, 0xff, 0x04, 0x00, 0x00, 0x00, 0x02, 0x00, 0x00, 0x00, 0x1d, 0x00, 0x00, 0x00, 0x00, 0x00, 0x00, 0x00, 0x1e, 0x00, 0x00, 0x00, 0x00, 0x00, 0x00, 0x00, 
0x34, 0xfb, 0xff, 0xff, 0x00, 0x00, 0x00, 0x02, 0x04, 0x00, 0x00, 0x00, 0x3c, 0xfd, 0xff, 0xff, 0x44, 0xfb, 0xff, 0xff, 0x00, 0x00, 0x00, 0x02, 0x04, 0x00, 0x00, 0x00, 0x4c, 0xfd, 0xff, 0xff, 
0x54, 0xfb, 0xff, 0xff, 0x00, 0x00, 0x00, 0x07, 0x04, 0x00, 0x00, 0x00, 0x7e, 0xfc, 0xff, 0xff, 0x04, 0x00, 0x00, 0x00, 0x02, 0x00, 0x00, 0x00, 0x1a, 0x00, 0x00, 0x00, 0x00, 0x00, 0x00, 0x00, 
0x1b, 0x00, 0x00, 0x00, 0x00, 0x00, 0x00, 0x00, 0x7c, 0xfb, 0xff, 0xff, 0x00, 0x00, 0x00, 0x02, 0x04, 0x00, 0x00, 0x00, 0x4e, 0xfd, 0xff, 0xff, 0x03, 0x00, 0x00, 0x00, 0x00, 0x00, 0x00, 0x00, 
0x94, 0xfb, 0xff, 0xff, 0x00, 0x00, 0x00, 0x02, 0x04, 0x00, 0x00, 0x00, 0x66, 0xfd, 0xff, 0xff, 0x01, 0x00, 0x00, 0x00, 0x00, 0x00, 0x00, 0x00, 0xac, 0xfb, 0xff, 0xff, 0x00, 0x00, 0x00, 0x07, 
0x04, 0x00, 0x00, 0x00, 0xd6, 0xfc, 0xff, 0xff, 0x04, 0x00, 0x00, 0x00, 0x02, 0x00, 0x00, 0x00, 0x17, 0x00, 0x00, 0x00, 0x00, 0x00, 0x00, 0x00, 0x18, 0x00, 0x00, 0x00, 0x00, 0x00, 0x00, 0x00, 
0xd4, 0xfb, 0xff, 0xff, 0x00, 0x00, 0x00, 0x02, 0x04, 0x00, 0x00, 0x00, 0xa6, 0xfd, 0xff, 0xff, 0x03, 0x00, 0x00, 0x00, 0x00, 0x00, 0x00, 0x00, 0xec, 0xfb, 0xff, 0xff, 0x00, 0x00, 0x00, 0x02, 
0x04, 0x00, 0x00, 0x00, 0xbe, 0xfd, 0xff, 0xff, 0x01, 0x00, 0x00, 0x00, 0x00, 0x00, 0x00, 0x00, 0x60, 0xfd, 0xff, 0xff, 0x00, 0x00, 0x00, 0x05, 0x18, 0x00, 0x00, 0x00, 0x00, 0x00, 0x12, 0x00, 
0x14, 0x00, 0x07, 0x00, 0x00, 0x00, 0x08, 0x00, 0x0c, 0x00, 0x00, 0x00, 0x00, 0x00, 0x10, 0x00, 0x12, 0x00, 0x00, 0x00, 0x00, 0x00, 0x00, 0x04, 0x20, 0x00, 0x00, 0x00, 0x14, 0x00, 0x00, 0x00, 
0x04, 0x00, 0x00, 0x00, 0xe8, 0xfb, 0xff, 0xff, 0x01, 0x00, 0x00, 0x00, 0x00, 0x46, 0x00, 0x00, 0x04, 0x00, 0x00, 0x00, 0x00, 0x01, 0x02, 0x03, 0x04, 0x00, 0x00, 0x00, 0x01, 0x00, 0x00, 0x00, 
0x04, 0x00, 0x00, 0x00, 0x01, 0x00, 0x00, 0x00, 0x20, 0x00, 0x00, 0x00, 0x60, 0xfc, 0xff, 0xff, 0x00, 0x00, 0x00, 0x05, 0x04, 0x00, 0x00, 0x00, 0x12, 0xfe, 0xff, 0xff, 0x00, 0x00, 0x06, 0x01, 
0x1c, 0x00, 0x00, 0x00, 0x10, 0x00, 0x00, 0x00, 0x04, 0x00, 0x00, 0x00, 0x9e, 0xfd, 0xff, 0xff, 0x01, 0x00, 0x00, 0x00, 0x04, 0x00, 0x00, 0x00, 0x00, 0x01, 0x02, 0x03, 0x04, 0x00, 0x00, 0x00, 
0x01, 0x00, 0x00, 0x00, 0x04, 0x00, 0x00, 0x00, 0x01, 0x00, 0x00, 0x00, 0x20, 0x00, 0x00, 0x00, 0xa4, 0xfc, 0xff, 0xff, 0x00, 0x00, 0x00, 0x02, 0x04, 0x00, 0x00, 0x00, 0x76, 0xfe, 0xff, 0xff, 
0xfe, 0xff, 0xff, 0xff, 0xff, 0xff, 0xff, 0xff, 0xbc, 0xfc, 0xff, 0xff, 0x00, 0x00, 0x00, 0x05, 0x04, 0x00, 0x00, 0x00, 0x6e, 0xfe, 0xff, 0xff, 0x00, 0x00, 0x06, 0x01, 0x20, 0x00, 0x00, 0x00, 
0x14, 0x00, 0x00, 0x00, 0x04, 0x00, 0x00, 0x00, 0x8c, 0xfc, 0xff, 0xff, 0x01, 0x00, 0x00, 0x00, 0x00, 0x40, 0x00, 0x00, 0x04, 0x00, 0x00, 0x00, 0x00, 0x01, 0x02, 0x03, 0x04, 0x00, 0x00, 0x00, 
0x01, 0x00, 0x00, 0x00, 0x04, 0x00, 0x00, 0x00, 0x01, 0x00, 0x00, 0x00, 0x60, 0x00, 0x00, 0x00, 0x04, 0xfd, 0xff, 0xff, 0x00, 0x00, 0x00, 0x05, 0x04, 0x00, 0x00, 0x00, 0xb6, 0xfe, 0xff, 0xff, 
0x00, 0x00, 0x06, 0x01, 0x1c, 0x00, 0x00, 0x00, 0x10, 0x00, 0x00, 0x00, 0x04, 0x00, 0x00, 0x00, 0x42, 0xfe, 0xff, 0xff, 0x01, 0x00, 0x00, 0x00, 0x03, 0x00, 0x00, 0x00, 0x00, 0x01, 0x02, 0x00, 
0x03, 0x00, 0x00, 0x00, 0x01, 0x00, 0x00, 0x00, 0x04, 0x00, 0x00, 0x00, 0x60, 0x00, 0x00, 0x00, 0x44, 0xfd, 0xff, 0xff, 0x00, 0x00, 0x00, 0x02, 0x04, 0x00, 0x00, 0x00, 0x16, 0xff, 0xff, 0xff, 
0x01, 0x00, 0x00, 0x00, 0x00, 0x00, 0x00, 0x00, 0x5c, 0xfd, 0xff, 0xff, 0x00, 0x00, 0x00, 0x07, 0x04, 0x00, 0x00, 0x00, 0x86, 0xfe, 0xff, 0xff, 0x04, 0x00, 0x00, 0x00, 0x01, 0x00, 0x00, 0x00, 
0x0f, 0x00, 0x00, 0x00, 0x00, 0x00, 0x00, 0x00, 0x7c, 0xfd, 0xff, 0xff, 0x00, 0x00, 0x00, 0x02, 0x04, 0x00, 0x00, 0x00, 0x84, 0xff, 0xff, 0xff, 0x8c, 0xfd, 0xff, 0xff, 0x00, 0x00, 0x00, 0x03, 
0x04, 0x00, 0x00, 0x00, 0x94, 0xff, 0xff, 0xff, 0x9c, 0xfd, 0xff, 0xff, 0x00, 0x00, 0x00, 0x07, 0x04, 0x00, 0x00, 0x00, 0xc6, 0xfe, 0xff, 0xff, 0x04, 0x00, 0x00, 0x00, 0x01, 0x00, 0x00, 0x00, 
0x0c, 0x00, 0x00, 0x00, 0x00, 0x00, 0x00, 0x00, 0xbc, 0xfd, 0xff, 0xff, 0x00, 0x00, 0x00, 0x02, 0x04, 0x00, 0x00, 0x00, 0x8e, 0xff, 0xff, 0xff, 0x01, 0x00, 0x00, 0x00, 0x00, 0x00, 0x00, 0x00, 
0xd4, 0xfd, 0xff, 0xff, 0x00, 0x00, 0x00, 0x07, 0x04, 0x00, 0x00, 0x00, 0xfe, 0xfe, 0xff, 0xff, 0x04, 0x00, 0x00, 0x00, 0x01, 0x00, 0x00, 0x00, 0x0a, 0x00, 0x00, 0x00, 0x00, 0x00, 0x00, 0x00, 
0x00, 0x00, 0x00, 0x00, 0xf8, 0xfd, 0xff, 0xff, 0x00, 0x00, 0x00, 0x02, 0x08, 0x00, 0x00, 0x00, 0x04, 0x00, 0x04, 0x00, 0x04, 0x00, 0x00, 0x00, 0x0c, 0xfe, 0xff, 0xff, 0x00, 0x00, 0x00, 0x07, 
0x04, 0x00, 0x00, 0x00, 0x36, 0xff, 0xff, 0xff, 0x04, 0x00, 0x00, 0x00, 0x01, 0x00, 0x00, 0x00, 0x08, 0x00, 0x00, 0x00, 0x00, 0x00, 0x00, 0x00, 0x88, 0xff, 0xff, 0xff, 0x00, 0x00, 0x00, 0x02, 
0x0c, 0x00, 0x00, 0x00, 0x00, 0x00, 0x06, 0x00, 0x0c, 0x00, 0x04, 0x00, 0x06, 0x00, 0x00, 0x00, 0x01, 0x00, 0x00, 0x00, 0x00, 0x00, 0x00, 0x00, 0xa8, 0xff, 0xff, 0xff, 0x00, 0x00, 0x00, 0x05, 
0x18, 0x00, 0x00, 0x00, 0x00, 0x00, 0x12, 0x00, 0x14, 0x00, 0x06, 0x00, 0x00, 0x00, 0x08, 0x00, 0x0c, 0x00, 0x07, 0x00, 0x00, 0x00, 0x10, 0x00, 0x12, 0x00, 0x00, 0x00, 0x00, 0x00, 0x06, 0x01, 
0x20, 0x00, 0x00, 0x00, 0x14, 0x00, 0x00, 0x00, 0x04, 0x00, 0x00, 0x00, 0x30, 0xfe, 0xff, 0xff, 0x01, 0x00, 0x00, 0x00, 0x00, 0x40, 0x00, 0x00, 0x03, 0x00, 0x00, 0x00, 0x00, 0x01, 0x02, 0x00, 
0x03, 0x00, 0x00, 0x00, 0x01, 0x00, 0x00, 0x00, 0x04, 0x00, 0x00, 0x00, 0x60, 0x00, 0x00, 0x00, 0x08, 0x00, 0x0e, 0x00, 0x07, 0x00, 0x08, 0x00, 0x08, 0x00, 0x00, 0x00, 0x00, 0x00, 0x00, 0x05, 
0x18, 0x00, 0x00, 0x00, 0x00, 0x00, 0x12, 0x00, 0x16, 0x00, 0x07, 0x00, 0x00, 0x00, 0x08, 0x00, 0x0c, 0x00, 0x00, 0x00, 0x00, 0x00, 0x10, 0x00, 0x12, 0x00, 0x00, 0x00, 0x00, 0x00, 0x00, 0x06, 
0x24, 0x00, 0x00, 0x00, 0x18, 0x00, 0x00, 0x00, 0x0c, 0x00, 0x00, 0x00, 0x00, 0x00, 0x06, 0x00, 0x08, 0x00, 0x04, 0x00, 0x06, 0x00, 0x00, 0x00, 0x01, 0x00, 0x00, 0x00, 0x03, 0x00, 0x00, 0x00, 
0x00, 0x01, 0x02, 0x00, 0x03, 0x00, 0x00, 0x00, 0x01, 0x00, 0x00, 0x00, 0x01, 0x00, 0x00, 0x00, 0x64, 0x00, 0x00, 0x00, 0x08, 0xff, 0xff, 0xff, 0x00, 0x00, 0x00, 0x05, 0x04, 0x00, 0x00, 0x00, 
0x00, 0xff, 0xff, 0xff, 0x00, 0x00, 0x06, 0x01, 0x14, 0x00, 0x00, 0x00, 0x08, 0x00, 0x00, 0x00, 0x06, 0x00, 0x00, 0x00, 0x01, 0x00, 0x00, 0x00, 0x00, 0x00, 0x00, 0x00, 0x01, 0x00, 0x00, 0x00, 
0x02, 0x00, 0x00, 0x00, 0x38, 0xff, 0xff, 0xff, 0x00, 0x00, 0x00, 0x05, 0x04, 0x00, 0x00, 0x00, 0x30, 0xff, 0xff, 0xff, 0x00, 0x00, 0x06, 0x01, 0x14, 0x00, 0x00, 0x00, 0x08, 0x00, 0x00, 0x00, 
0x05, 0x00, 0x00, 0x00, 0x02, 0x00, 0x00, 0x00, 0x00, 0x01, 0x00, 0x00, 0x02, 0x00, 0x00, 0x00, 0x02, 0x00, 0x00, 0x00, 0x20, 0x00, 0x00, 0x00, 0x6c, 0xff, 0xff, 0xff, 0x00, 0x00, 0x00, 0x05, 
0x04, 0x00, 0x00, 0x00, 0x64, 0xff, 0xff, 0xff, 0x00, 0x00, 0x06, 0x01, 0x14, 0x00, 0x00, 0x00, 0x08, 0x00, 0x00, 0x00, 0x04, 0x00, 0x00, 0x00, 0x01, 0x00, 0x00, 0x00, 0x00, 0x00, 0x00, 0x00, 
0x01, 0x00, 0x00, 0x00, 0x20, 0x00, 0x00, 0x00, 0x9c, 0xff, 0xff, 0xff, 0x00, 0x00, 0x00, 0x05, 0x04, 0x00, 0x00, 0x00, 0x94, 0xff, 0xff, 0xff, 0x00, 0x00, 0x06, 0x01, 0x14, 0x00, 0x00, 0x00, 
0x08, 0x00, 0x00, 0x00, 0x03, 0x00, 0x00, 0x00, 0x02, 0x00, 0x00, 0x00, 0x00, 0x01, 0x00, 0x00, 0x02, 0x00, 0x00, 0x00, 0x20, 0x00, 0x00, 0x00, 0x80, 0x00, 0x00, 0x00, 0xd0, 0xff, 0xff, 0xff, 
0x00, 0x00, 0x00, 0x05, 0x04, 0x00, 0x00, 0x00, 0xc8, 0xff, 0xff, 0xff, 0x00, 0x00, 0x06, 0x01, 0x14, 0x00, 0x00, 0x00, 0x08, 0x00, 0x00, 0x00, 0x02, 0x00, 0x00, 0x00, 0x01, 0x00, 0x00, 0x00, 
0x00, 0x00, 0x00, 0x00, 0x01, 0x00, 0x00, 0x00, 0x04, 0x00, 0x00, 0x00, 0x08, 0x00, 0x0c, 0x00, 0x07, 0x00, 0x08, 0x00, 0x08, 0x00, 0x00, 0x00, 0x00, 0x00, 0x00, 0x05, 0x14, 0x00, 0x00, 0x00, 
0x10, 0x00, 0x14, 0x00, 0x06, 0x00, 0x00, 0x00, 0x08, 0x00, 0x0c, 0x00, 0x07, 0x00, 0x10, 0x00, 0x10, 0x00, 0x00, 0x00, 0x00, 0x00, 0x06, 0x01, 0x14, 0x00, 0x00, 0x00, 0x08, 0x00, 0x00, 0x00, 
0x01, 0x00, 0x00, 0x00, 0x03, 0x00, 0x00, 0x00, 0x00, 0x01, 0x02, 0x00, 0x03, 0x00, 0x00, 0x00, 0x04, 0x00, 0x00, 0x00, 0x01, 0x00, 0x00, 0x00, 0x05, 0x00, 0x00, 0x00, 0x08, 0x00, 0x0c, 0x00, 
0x04, 0x00, 0x08, 0x00, 0x08, 0x00, 0x00, 0x00, 0x48, 0x00, 0x00, 0x00, 0x04, 0x00, 0x00, 0x00, 0x39, 0x00, 0x00, 0x00, 0x5b, 0x31, 0x2c, 0x20, 0x7b, 0x22, 0x74, 0x79, 0x70, 0x65, 0x22, 0x3a, 
0x20, 0x6e, 0x75, 0x6c, 0x6c, 0x2c, 0x20, 0x22, 0x63, 0x6f, 0x6e, 0x74, 0x65, 0x78, 0x74, 0x22, 0x3a, 0x20, 0x6e, 0x75, 0x6c, 0x6c, 0x2c, 0x20, 0x22, 0x63, 0x68, 0x69, 0x6c, 0x64, 0x72, 0x65, 
0x6e, 0x5f, 0x73, 0x70, 0x65, 0x63, 0x22, 0x3a, 0x20, 0x5b, 0x5d, 0x7d, 0x5d, 0x00, 0x00, 0x00, 0xfe, 0x00, 0x00, 0x00, 0x5b, 0x31, 0x2c, 0x20, 0x7b, 0x22, 0x74, 0x79, 0x70, 0x65, 0x22, 0x3a, 
0x20, 0x22, 0x62, 0x75, 0x69, 0x6c, 0x74, 0x69, 0x6e, 0x73, 0x2e, 0x74, 0x75, 0x70, 0x6c, 0x65, 0x22, 0x2c, 0x20, 0x22, 0x63, 0x6f, 0x6e, 0x74, 0x65, 0x78, 0x74, 0x22, 0x3a, 0x20, 0x22, 0x6e, 
0x75, 0x6c, 0x6c, 0x22, 0x2c, 0x20, 0x22, 0x63, 0x68, 0x69, 0x6c, 0x64, 0x72, 0x65, 0x6e, 0x5f, 0x73, 0x70, 0x65, 0x63, 0x22, 0x3a, 0x20, 0x5b, 0x7b, 0x22, 0x74, 0x79, 0x70, 0x65, 0x22, 0x3a, 
0x20, 0x22, 0x62, 0x75, 0x69, 0x6c, 0x74, 0x69, 0x6e, 0x73, 0x2e, 0x74, 0x75, 0x70, 0x6c, 0x65, 0x22, 0x2c, 0x20, 0x22, 0x63, 0x6f, 0x6e, 0x74, 0x65, 0x78, 0x74, 0x22, 0x3a, 0x20, 0x22, 0x6e, 
0x75, 0x6c, 0x6c, 0x22, 0x2c, 0x20, 0x22, 0x63, 0x68, 0x69, 0x6c, 0x64, 0x72, 0x65, 0x6e, 0x5f, 0x73, 0x70, 0x65, 0x63, 0x22, 0x3a, 0x20, 0x5b, 0x7b, 0x22, 0x74, 0x79, 0x70, 0x65, 0x22, 0x3a, 
0x20, 0x6e, 0x75, 0x6c, 0x6c, 0x2c, 0x20, 0x22, 0x63, 0x6f, 0x6e, 0x74, 0x65, 0x78, 0x74, 0x22, 0x3a, 0x20, 0x6e, 0x75, 0x6c, 0x6c, 0x2c, 0x20, 0x22, 0x63, 0x68, 0x69, 0x6c, 0x64, 0x72, 0x65, 
0x6e, 0x5f, 0x73, 0x70, 0x65, 0x63, 0x22, 0x3a, 0x20, 0x5b, 0x5d, 0x7d, 0x5d, 0x7d, 0x2c, 0x20, 0x7b, 0x22, 0x74, 0x79, 0x70, 0x65, 0x22, 0x3a, 0x20, 0x22, 0x62, 0x75, 0x69, 0x6c, 0x74, 0x69, 
0x6e, 0x73, 0x2e, 0x64, 0x69, 0x63, 0x74, 0x22, 0x2c, 0x20, 0x22, 0x63, 0x6f, 0x6e, 0x74, 0x65, 0x78, 0x74, 0x22, 0x3a, 0x20, 0x22, 0x5b, 0x5d, 0x22, 0x2c, 0x20, 0x22, 0x63, 0x68, 0x69, 0x6c, 
0x64, 0x72, 0x65, 0x6e, 0x5f, 0x73, 0x70, 0x65, 0x63, 0x22, 0x3a, 0x20, 0x5b, 0x5d, 0x7d, 0x5d, 0x7d, 0x5d, 0x00, 0x00, 0x07, 0x00, 0x00, 0x00, 0x66, 0x6f, 0x72, 0x77, 0x61, 0x72, 0x64, 0x00, 
0x00, 0x00, 0x00, 0x00, 0x00, 0x00, 0x00, 0x00, 0x00, 0x00, 0x00, 0x00, 0x00, 0x00, 0x00, 0x00, 0x00, 0x00, 0x00, 0x00, 0x00, 0x00, 0x00, 0x00, 0x00, 0x00, 0x00, 0x00, 0x00, 0x00, 0x00, 0x00, 
0x00, 0x00, 0x00, 0x00, 0x00, 0x00, 0x00, 0x00, 0x00, 0x00, 0x00, 0x00, 0x00, 0x00, 0x00, 0x00, 0x00, 0x00, 0x00, 0x00, 0x00, 0x00, 0x00, 0x00, 0x00, 0x00, 0x00, 0x00, 0x00, 0x00, 0x00, 0x00, 
0x00, 0x00, 0x00, 0x00, 0x00, 0x00, 0x00, 0x00, 0x00, 0x00, 0x00, 0x00, 0x00, 0x00, 0x00, 0x00, 0x00, 0x00, 0x00, 0x00, 0x00, 0x00, 0x00, 0x00, 0x00, 0x00, 0x00, 0x00, 0x00, 0x00, 0x00, 0x00, 
0xc7, 0xab, 0xa1, 0xbc, 0x66, 0x88, 0xe8, 0x3e, 0x7f, 0xf1, 0xae, 0x3e, 0xe4, 0xfe, 0x9e, 0xbb, 0x36, 0xb9, 0xde, 0x3e, 0x68, 0x42, 0x9d, 0xbd, 0xdf, 0xc5, 0x44, 0xbd, 0xff, 0x1c, 0x66, 0xbd, 
0x3d, 0x11, 0x71, 0xbd, 0xcf, 0x30, 0xa7, 0xbb, 0x05, 0x75, 0xb1, 0xbe, 0x87, 0xca, 0xae, 0x3c, 0x74, 0xbb, 0x8b, 0xbe, 0xa8, 0x88, 0xd7, 0x3e, 0x81, 0x95, 0xd0, 0xbe, 0x67, 0x06, 0xb5, 0xbe, 
0x08, 0x0b, 0xce, 0x3d, 0x39, 0x5d, 0xe6, 0x3d, 0x05, 0xa9, 0x6e, 0x3e, 0x5e, 0xa5, 0x1b, 0xbd, 0x70, 0xb0, 0x82, 0x3e, 0xea, 0x62, 0x83, 0xbe, 0x87, 0x5a, 0x6b, 0xbe, 0xad, 0x18, 0xe3, 0xbd, 
0xb1, 0x86, 0xb3, 0x3d, 0xd7, 0x5c, 0xef, 0xbc, 0x2b, 0x03, 0x9b, 0xbd, 0x9c, 0x4f, 0xf7, 0xbc, 0x9b, 0x7e, 0x57, 0xbd, 0xf1, 0xdf, 0x96, 0xbd, 0xfa, 0x9b, 0x14, 0x3d, 0x09, 0x43, 0x36, 0xbd, 
0x3b, 0x82, 0x17, 0xbd, 0xb6, 0x94, 0x90, 0x3c, 0x94, 0x84, 0x68, 0xbc, 0x7c, 0x11, 0x0b, 0x3d, 0xa5, 0x82, 0x91, 0x3d, 0xde, 0x63, 0x80, 0x3c, 0xa5, 0xe3, 0x99, 0x3d, 0xee, 0xa3, 0x34, 0x3d, 
0x15, 0x0b, 0x06, 0xb9, 0x0c, 0x60, 0xf3, 0x3c, 0xb0, 0xcd, 0x9d, 0x3c, 0xf4, 0x19, 0xe0, 0xbc, 0x3d, 0x6c, 0x5c, 0xbd, 0x3a, 0xd4, 0x67, 0xbd, 0x67, 0xc3, 0xf4, 0x3c, 0xd7, 0x61, 0xdd, 0xbc, 
0x3d, 0x6e, 0x1b, 0x3d, 0x9b, 0x6b, 0x3e, 0x3d, 0xef, 0x60, 0x87, 0xbd, 0xa8, 0x56, 0x42, 0xbd, 0x8b, 0xce, 0x87, 0xbd, 0xba, 0x29, 0x15, 0x3d, 0x61, 0x40, 0x9c, 0xbd, 0xbc, 0x85, 0x52, 0x3d, 
0xe2, 0x5e, 0x82, 0xbd, 0x52, 0xfb, 0x8d, 0xbb, 0x9d, 0x62, 0x43, 0xba, 0x5a, 0xb2, 0x80, 0x3d, 0x8f, 0x32, 0x13, 0x3c, 0x9f, 0xe4, 0xb3, 0x3d, 0xd0, 0xe4, 0x2d, 0x3d, 0x91, 0x96, 0xb2, 0x3d, 
0x6b, 0xf8, 0x2c, 0xbd, 0xb4, 0x13, 0x9c, 0xbd, 0x66, 0x8d, 0x1a, 0x3d, 0x48, 0xa8, 0x61, 0xbc, 0xdf, 0xc8, 0x31, 0x3d, 0xd6, 0x51, 0xa0, 0x3d, 0x07, 0xb8, 0x1f, 0xbd, 0xce, 0xe9, 0x21, 0xbd, 
0x4f, 0x48, 0x29, 0xbd, 0x2a, 0x6e, 0x6a, 0xbd, 0x37, 0x31, 0x86, 0x3d, 0x2f, 0x03, 0xaf, 0xbd, 0x72, 0x4d, 0xe4, 0xbc, 0x61, 0xd2, 0x8d, 0x3d, 0x5b, 0xda, 0x99, 0xbd, 0xd7, 0xee, 0xa2, 0x3d, 
0x33, 0x8e, 0xa2, 0xbd, 0x9c, 0x6b, 0x07, 0xbd, 0xfc, 0x06, 0x2a, 0x3d, 0xa2, 0xd9, 0x18, 0x3d, 0x03, 0x57, 0xa4, 0xbd, 0x97, 0x59, 0xaa, 0xbd, 0xe0, 0xd3, 0xa9, 0xbc, 0xfa, 0xff, 0x86, 0xbc, 
0x25, 0x17, 0x91, 0xba, 0x26, 0x97, 0xbf, 0x3c, 0x82, 0xd8, 0xf9, 0x3c, 0x1d, 0x92, 0x3c, 0xbd, 0x1a, 0xbf, 0x5c, 0xbc, 0x9b, 0xdf, 0xaf, 0xbd, 0x9a, 0x09, 0x1b, 0x3d, 0x8f, 0x70, 0xd7, 0xbc, 
0x0e, 0x87, 0x34, 0xbd, 0xd1, 0x51, 0x2e, 0xbc, 0xf0, 0x86, 0x54, 0x3d, 0xdf, 0x43, 0x1a, 0xbd, 0xc2, 0x47, 0xb3, 0xbd, 0xe2, 0x46, 0x5f, 0x3d, 0x7c, 0xbd, 0xa7, 0x3d, 0x22, 0x0e, 0x84, 0x3c, 
0x24, 0x2e, 0x1f, 0xbd, 0x33, 0x4c, 0x9c, 0x3d, 0x05, 0x00, 0xcc, 0x3c, 0x26, 0x0b, 0x86, 0xbd, 0x34, 0x7b, 0x71, 0xbd, 0x44, 0xbd, 0x44, 0x3d, 0x31, 0xde, 0x1f, 0x3d, 0x6c, 0x7e, 0xa9, 0xbd, 
0x0d, 0xe1, 0x81, 0x3c, 0x43, 0xc5, 0x1c, 0x3d, 0xa8, 0x9f, 0xb7, 0x3b, 0xf7, 0xda, 0x3d, 0x3d, 0x1c, 0x61, 0x7f, 0x3c, 0x9e, 0x3c, 0x26, 0x3c, 0x36, 0x82, 0xf3, 0xbc, 0x97, 0xe3, 0xb1, 0xbc, 
0x14, 0x51, 0x7d, 0xbd, 0xcb, 0x65, 0x45, 0x3d, 0xdb, 0x3f, 0xb1, 0xbd, 0xaf, 0x9f, 0xec, 0xbc, 0xd2, 0x9c, 0xb4, 0xbc, 0x9d, 0x13, 0x99, 0x3d, 0xdf, 0xf1, 0x87, 0xbd, 0x41, 0x6c, 0xa5, 0xbd, 
0xfb, 0x68, 0x47, 0x3d, 0x25, 0xf8, 0x92, 0xbd, 0x53, 0xd8, 0xab, 0x3d, 0x9f, 0xb1, 0x05, 0x3d, 0x58, 0xde, 0x13, 0x3d, 0xfa, 0x04, 0x34, 0xbd, 0x3f, 0x93, 0xc7, 0x3b, 0x16, 0xdb, 0x77, 0x3d, 
0x5e, 0xd3, 0x41, 0xbd, 0x5d, 0x80, 0x55, 0x3b, 0x5f, 0x2f, 0x95, 0x3d, 0x94, 0x02, 0x98, 0x3c, 0x43, 0x12, 0x40, 0x3d, 0x41, 0xfc, 0x66, 0xbc, 0xc5, 0xda, 0xdd, 0x3b, 0x98, 0x3b, 0x85, 0x3a, 
0x85, 0xf1, 0xd0, 0xbc, 0x4d, 0x90, 0x9d, 0xbd, 0xff, 0x71, 0x9d, 0x3d, 0x21, 0x8a, 0x9c, 0x3d, 0xc4, 0xf0, 0x1b, 0x3c, 0xf4, 0xfd, 0x98, 0xbd, 0x3c, 0xeb, 0xe5, 0x3c, 0x91, 0x02, 0x44, 0xbd, 
0xc6, 0x52, 0x89, 0x3d, 0xc6, 0x8f, 0x37, 0xbd, 0x04, 0xb9, 0xb2, 0xbd, 0x9b, 0xae, 0xb4, 0x3d, 0xb6, 0xac, 0xa2, 0xbd, 0xea, 0x52, 0xcd, 0x3c, 0xd9, 0x30, 0x50, 0xbc, 0x0b, 0x58, 0x87, 0xbd, 
0x98, 0x69, 0xae, 0xbd, 0x1f, 0x23, 0x96, 0xbc, 0x0a, 0x32, 0xb3, 0xbc, 0x94, 0x26, 0x12, 0x3d, 0x23, 0x69, 0x5f, 0xbc, 0x32, 0x9b, 0xcd, 0xbc, 0x10, 0xd5, 0x26, 0xbd, 0x8a, 0x57, 0x65, 0x3d, 
0xe7, 0xb5, 0x5d, 0xbd, 0x07, 0xd7, 0x70, 0x3c, 0x92, 0xbf, 0x63, 0xbd, 0x1a, 0x0c, 0x9a, 0x3d, 0xb8, 0xb1, 0x9d, 0x3c, 0xef, 0x89, 0x43, 0x3d, 0x9c, 0xc7, 0x92, 0xbc, 0x39, 0x7a, 0x19, 0xbd, 
0xea, 0xec, 0x31, 0xbd, 0xa0, 0xb8, 0x5c, 0x3d, 0xa3, 0xd5, 0x39, 0xbd, 0xb2, 0x30, 0x5e, 0xbd, 0x5d, 0x9b, 0x0b, 0xbd, 0xdd, 0x85, 0xb0, 0x3d, 0xbd, 0x84, 0x91, 0xbd, 0x4f, 0x7d, 0x6a, 0xbd, 
0x7a, 0x4a, 0x40, 0x3b, 0x15, 0xdb, 0xb4, 0xbd, 0x61, 0x00, 0xb4, 0xbd, 0x10, 0xf1, 0x45, 0x3d, 0x56, 0x21, 0x7e, 0x3d, 0x1c, 0x7c, 0xa7, 0xbd, 0xb0, 0x47, 0x98, 0xbd, 0x73, 0x4f, 0x9e, 0x3d, 
0x89, 0x0d, 0x95, 0x3c, 0x0c, 0xcd, 0x05, 0x3d, 0x87, 0xda, 0xb7, 0xbb, 0x13, 0x8b, 0xa5, 0xbd, 0x1b, 0xf9, 0x4f, 0xbd, 0x91, 0x56, 0xb7, 0x3a, 0xfa, 0xb4, 0x74, 0x3d, 0x4d, 0x62, 0xa7, 0x3d, 
0xa7, 0xef, 0x89, 0xbc, 0xb3, 0xbc, 0x3f, 0x3c, 0x28, 0xcb, 0xac, 0xbd, 0x41, 0xe8, 0x6f, 0x3d, 0xb0, 0x71, 0xbe, 0xbc, 0xf4, 0xaf, 0x8c, 0x3b, 0xe1, 0x43, 0x80, 0xbd, 0x27, 0xa3, 0x8d, 0x3c, 
0x4e, 0xf1, 0xde, 0x3c, 0x64, 0x71, 0xd0, 0xbc, 0xc9, 0x9d, 0xab, 0xbd, 0xea, 0x2d, 0x55, 0x3d, 0x45, 0x73, 0x7a, 0x3d, 0x3e, 0x5d, 0x69, 0xbc, 0xa2, 0x29, 0x17, 0xbd, 0xd2, 0xbf, 0xe4, 0x3c, 
0x03, 0x2c, 0xa0, 0xbd, 0x6c, 0x28, 0x3c, 0xbc, 0x61, 0x58, 0x43, 0x3d, 0x58, 0xde, 0xa0, 0xbd, 0x0c, 0x5c, 0x2a, 0xbc, 0xf9, 0x0b, 0xe8, 0xbc, 0xbf, 0xa6, 0x95, 0xbd, 0x5d, 0xc9, 0xbf, 0xbc, 
0xdf, 0xd2, 0xa4, 0x3d, 0x11, 0x89, 0x0b, 0xbd, 0xa8, 0x21, 0x9d, 0x3d, 0x5a, 0x65, 0x0a, 0xbd, 0xb5, 0x68, 0xa9, 0x3d, 0x8f, 0x4b, 0x7b, 0xbc, 0x7b, 0xce, 0x8e, 0x3c, 0xe2, 0x30, 0xfc, 0xbb, 
0x69, 0x58, 0xb4, 0xbd, 0x8d, 0x43, 0x50, 0xbd, 0xd1, 0x92, 0x71, 0x3d, 0xbb, 0x35, 0x37, 0xbc, 0xef, 0xd6, 0x60, 0x3c, 0x23, 0xea, 0xa5, 0x3b, 0xec, 0x6e, 0x32, 0xbc, 0xac, 0xd1, 0xc7, 0x3c, 
0x52, 0xa1, 0x20, 0xbd, 0xc1, 0x6d, 0x57, 0xbd, 0x37, 0xd6, 0x3c, 0xbd, 0x09, 0x93, 0xfc, 0x3c, 0x02, 0x1e, 0x8b, 0xbd, 0x79, 0xb4, 0xb4, 0x3d, 0xee, 0x89, 0x09, 0x3d, 0xef, 0xea, 0x29, 0xbd, 
0x74, 0xd7, 0x8e, 0x3d, 0xcd, 0xe2, 0xa5, 0x3d, 0xbd, 0xa4, 0xa2, 0x3d, 0xab, 0x21, 0x06, 0xbd, 0xcf, 0x00, 0x61, 0xbd, 0x92, 0xf6, 0x88, 0x3d, 0x66, 0x1c, 0x7c, 0x3d, 0xb7, 0xda, 0xca, 0x3c, 
0xf3, 0xce, 0x1a, 0x3c, 0x73, 0xa5, 0x9c, 0xbd, 0x0d, 0x71, 0xa8, 0xbb, 0x23, 0x60, 0x88, 0xbd, 0xe2, 0xbb, 0x19, 0xbd, 0xcc, 0xd2, 0xf6, 0x3c, 0xe3, 0xa2, 0x87, 0x3d, 0x92, 0x10, 0x9a, 0x3d, 
0x04, 0x50, 0x1b, 0xbd, 0x53, 0x78, 0x77, 0x3d, 0x40, 0xc9, 0xa5, 0xbd, 0x5b, 0xe8, 0xde, 0x3c, 0xfc, 0x17, 0x1a, 0xbc, 0xbb, 0x39, 0x2e, 0xbd, 0x9e, 0x9b, 0x40, 0x3d, 0xc9, 0xa6, 0x6c, 0x3b, 
0x13, 0x8a, 0x26, 0x3c, 0xf1, 0xec, 0x88, 0xbc, 0x1d, 0x4d, 0xc7, 0xbb, 0x9b, 0x80, 0x74, 0xbd, 0x0e, 0x12, 0x4e, 0xbb, 0x51, 0x9d, 0xc0, 0x3c, 0x60, 0x03, 0x64, 0x3d, 0x89, 0x8c, 0x29, 0x3d, 
0xfd, 0x43, 0x15, 0x3d, 0x46, 0x3a, 0x67, 0xbd, 0x5c, 0x0b, 0x5a, 0x3d, 0xb6, 0x53, 0xc3, 0xbc, 0x9e, 0x7d, 0x9e, 0x3c, 0x59, 0xd6, 0x86, 0xbd, 0x1d, 0x6d, 0x5d, 0x3d, 0xfc, 0x56, 0x03, 0x3d, 
0xa4, 0x51, 0x3d, 0xbd, 0x56, 0x96, 0x01, 0xbd, 0x17, 0x7b, 0x8b, 0xbc, 0xaa, 0x75, 0x43, 0x3d, 0x4f, 0x98, 0x94, 0x3d, 0x81, 0x08, 0x82, 0x3d, 0x84, 0x29, 0x7e, 0x3c, 0xe0, 0x65, 0xe3, 0xbc, 
0x14, 0xec, 0x7d, 0x3d, 0x2b, 0x1c, 0x11, 0x3c, 0x01, 0xe8, 0x5b, 0x3d, 0x22, 0x92, 0xda, 0xba, 0xc5, 0xf7, 0x97, 0x3d, 0x4b, 0xdd, 0xa6, 0xbd, 0xbb, 0x0c, 0xa0, 0x3c, 0xb4, 0xf7, 0xf4, 0xbb, 
0xa3, 0x07, 0x95, 0xbd, 0x7f, 0xc1, 0xec, 0x3b, 0x54, 0xa2, 0x82, 0xbc, 0xb5, 0xc0, 0xe6, 0x3b, 0x85, 0x2e, 0xc0, 0x3c, 0x92, 0x98, 0x03, 0x3d, 0x22, 0xc3, 0xf3, 0xbc, 0xf4, 0x91, 0x2a, 0x3d, 
0xa3, 0x1c, 0xaf, 0x3d, 0xf5, 0x57, 0x9a, 0x3d, 0xbb, 0x02, 0xcc, 0xbb, 0x6d, 0xdb, 0x87, 0xbd, 0x4c, 0xcc, 0x3a, 0x3c, 0xce, 0x47, 0x8e, 0xbd, 0x14, 0x34, 0xa8, 0xbd, 0x39, 0xee, 0xa3, 0xbd, 
0x34, 0x25, 0x7e, 0x3d, 0x6d, 0x37, 0xa7, 0x3d, 0x11, 0x07, 0x8b, 0xbd, 0xe8, 0x63, 0xa5, 0xbd, 0x26, 0xf4, 0x07, 0xbc, 0xcd, 0x1a, 0x07, 0xbc, 0x53, 0x34, 0xa3, 0xbd, 0x2a, 0x69, 0x2e, 0xbd, 
0xdc, 0xda, 0x1a, 0x3d, 0xc2, 0x12, 0x46, 0x3d, 0xe3, 0x5a, 0x44, 0x3d, 0x9c, 0x89, 0xb3, 0x3c, 0x7e, 0x84, 0x7d, 0x3d, 0x78, 0x87, 0x7a, 0xbb, 0x5a, 0x67, 0x34, 0xbd, 0xa0, 0xda, 0xa5, 0xbc, 
0x32, 0x9a, 0x56, 0xbd, 0x36, 0xa1, 0xf6, 0x3a, 0x67, 0x38, 0x78, 0x3d, 0x38, 0x14, 0x85, 0x3c, 0xe8, 0x0a, 0xb7, 0xba, 0x59, 0x94, 0xc0, 0xbc, 0xa1, 0x76, 0x53, 0xbc, 0x42, 0xa8, 0xee, 0xbc, 
0x4f, 0x2c, 0x93, 0xbd, 0x2d, 0xd2, 0xae, 0x3c, 0x24, 0x4b, 0xc2, 0xbc, 0x1d, 0xc5, 0x58, 0xbd, 0xcc, 0x3f, 0xaa, 0xbd, 0x53, 0x89, 0x10, 0xbd, 0x99, 0x8c, 0x97, 0xbd, 0x40, 0xe6, 0xaa, 0x3d, 
0x8b, 0x8b, 0x82, 0x3d, 0xdf, 0xfa, 0x5a, 0xbd, 0x17, 0xce, 0xa0, 0x3d, 0xd8, 0x43, 0xda, 0x3b, 0xdd, 0xca, 0xd8, 0xbb, 0x89, 0x84, 0x98, 0xbd, 0x6e, 0x75, 0x5b, 0xbc, 0x14, 0x37, 0x59, 0x3d, 
0xc3, 0x0e, 0x0b, 0xbc, 0x9a, 0x05, 0x0c, 0x3c, 0x8e, 0x24, 0x11, 0x3c, 0x65, 0xf1, 0x3d, 0x3d, 0x6f, 0x8f, 0x64, 0x3d, 0x19, 0xab, 0x22, 0x3d, 0x85, 0xd8, 0x3d, 0xbc, 0xd4, 0x2e, 0xaa, 0x3d, 
0x77, 0x6e, 0x31, 0xbd, 0xd5, 0xe0, 0x50, 0xbc, 0xee, 0x3d, 0x15, 0xbd, 0x6e, 0xdf, 0x26, 0xbd, 0xad, 0x58, 0xab, 0xbd, 0x46, 0xd9, 0x8c, 0x3c, 0xd4, 0x1a, 0x85, 0x3d, 0x45, 0xb8, 0x99, 0xbd, 
0xa6, 0x29, 0x9b, 0x3c, 0x2a, 0x10, 0x26, 0xbd, 0xb5, 0x08, 0x66, 0x3d, 0xb1, 0x51, 0x8d, 0x3b, 0x6a, 0x17, 0x96, 0xbd, 0x50, 0x27, 0x6c, 0xbd, 0xa0, 0xc2, 0x5b, 0xbd, 0x1d, 0x84, 0xaf, 0x3d, 
0x31, 0x70, 0x2b, 0x3d, 0xd2, 0xf6, 0x89, 0xbd, 0x7e, 0x24, 0x00, 0x3d, 0xee, 0x1a, 0xb5, 0x3c, 0xd1, 0xa4, 0xd3, 0xbc, 0x4e, 0xf9, 0xdb, 0x3b, 0xee, 0x7a, 0x7c, 0x3d, 0xe3, 0x0d, 0x85, 0x3d, 
0x7e, 0x0b, 0x77, 0xbc, 0xb1, 0xf6, 0x5e, 0x3d, 0xc5, 0x98, 0x94, 0xbc, 0xcd, 0xfa, 0x6e, 0xbd, 0xf6, 0xdb, 0x67, 0xbd, 0xe0, 0x45, 0xab, 0x3d, 0x47, 0xcf, 0xa7, 0x3d, 0x2f, 0xb1, 0x41, 0x3c, 
0xeb, 0x6a, 0xa6, 0x3b, 0x40, 0xee, 0xa8, 0x3d, 0xa4, 0x1d, 0xb1, 0x3c, 0x4b, 0x40, 0xd0, 0xba, 0xb7, 0xc5, 0x8d, 0xbd, 0x53, 0x23, 0x85, 0x3c, 0x35, 0xe3, 0x16, 0x3d, 0x7b, 0xca, 0xa2, 0x3d, 
0xe9, 0x81, 0x86, 0x3c, 0x82, 0x29, 0xc0, 0x3b, 0x42, 0xa6, 0x07, 0xbd, 0x8a, 0x96, 0x52, 0xbd, 0xd4, 0x61, 0x5a, 0x3d, 0x56, 0xbc, 0x1d, 0x3d, 0xdb, 0x74, 0xa2, 0xbd, 0xeb, 0xfb, 0xa9, 0xbd, 
0x77, 0x91, 0xa6, 0xbd, 0x08, 0xad, 0xb3, 0x3b, 0x57, 0x72, 0x9f, 0xbd, 0xe0, 0xbd, 0xa1, 0x3c, 0x36, 0x18, 0x3f, 0xbc, 0x5b, 0x61, 0x79, 0x3c, 0x25, 0x83, 0x5d, 0xbd, 0xa7, 0x62, 0xb3, 0x3d, 
0x98, 0x93, 0x98, 0xbd, 0x75, 0x9f, 0x99, 0x3d, 0x48, 0xc2, 0x5a, 0x3c, 0x71, 0xbc, 0xe8, 0xbc, 0x16, 0x36, 0x47, 0x3c, 0x58, 0x9b, 0x61, 0x3d, 0x12, 0xe2, 0x29, 0xbb, 0xe1, 0x99, 0x16, 0xbd, 
0xc1, 0x10, 0x56, 0x3d, 0x7a, 0x72, 0x91, 0x3d, 0x39, 0x21, 0x1e, 0xbd, 0xad, 0x75, 0x35, 0x3d, 0xe0, 0xe5, 0x11, 0x3d, 0x65, 0xb0, 0x71, 0x3d, 0x5d, 0x24, 0x81, 0x3d, 0x71, 0x0e, 0x80, 0xbd, 
0x88, 0x68, 0x02, 0xbd, 0xf5, 0x95, 0x96, 0x3b, 0xce, 0xe3, 0x12, 0x3c, 0x70, 0xe9, 0x82, 0x3d, 0x96, 0x20, 0x47, 0x3d, 0x2f, 0x11, 0xf1, 0xbc, 0x3a, 0xe6, 0xa5, 0x3c, 0xa4, 0x95, 0xb1, 0xbc, 
0x74, 0x98, 0xa2, 0x3d, 0x38, 0x66, 0x09, 0x3d, 0x36, 0x22, 0x23, 0xbc, 0xd0, 0x3d, 0xff, 0x3c, 0x09, 0x3e, 0x98, 0xbd, 0xc4, 0x1e, 0x83, 0x3d, 0xee, 0x32, 0xa2, 0x3d, 0x59, 0x9e, 0x87, 0x3d, 
0xbe, 0x59, 0x51, 0xba, 0xc1, 0x13, 0x2f, 0xbd, 0xcd, 0x1f, 0x0a, 0xbc, 0x13, 0x88, 0xe7, 0xbc, 0x54, 0x48, 0x8a, 0x3c, 0x25, 0xd1, 0x3a, 0xbd, 0x2b, 0xfc, 0xc2, 0xbb, 0x2f, 0xff, 0x5c, 0xbd, 
0x5b, 0x7c, 0xbf, 0x3c, 0xe2, 0x40, 0x8b, 0xbd, 0x41, 0x8c, 0xb0, 0x3d, 0xaf, 0xed, 0xfb, 0x3c, 0x7c, 0x60, 0x7f, 0x3d, 0x4c, 0x9f, 0x76, 0xbd, 0x9c, 0xd8, 0xe9, 0x3c, 0x69, 0x34, 0x25, 0x3d, 
0x1a, 0xbd, 0x95, 0xbd, 0x67, 0xbc, 0xb3, 0xbd, 0xa9, 0xe3, 0x0c, 0x3c, 0xc5, 0xb2, 0x45, 0xbd, 0x20, 0x53, 0xa5, 0xbd, 0x9a, 0xe2, 0x1a, 0xbd, 0xf1, 0x95, 0x7e, 0x3d, 0x66, 0xfd, 0x94, 0xbd, 
0xc4, 0x8c, 0xea, 0x3c, 0x75, 0xb6, 0xa9, 0xbd, 0x31, 0xe1, 0xb9, 0xbc, 0x94, 0x5e, 0xfc, 0x3c, 0xbd, 0x1b, 0x49, 0xbb, 0x7e, 0x57, 0xff, 0xbc, 0x41, 0xaf, 0x1b, 0x3d, 0x47, 0xee, 0xf7, 0xbc, 
0x73, 0x5b, 0x15, 0xbd, 0x07, 0xba, 0x8c, 0xbd, 0xd8, 0x22, 0xbe, 0xbb, 0x86, 0xf4, 0xba, 0x3a, 0x3d, 0x7d, 0x2a, 0x3d, 0xb4, 0x33, 0x84, 0xbd, 0xe6, 0x0a, 0x49, 0x3d, 0xf8, 0x09, 0xb4, 0xbc, 
0xc6, 0xb1, 0x3d, 0xbd, 0x33, 0x8c, 0x9f, 0xbd, 0xcc, 0x97, 0x8d, 0xbb, 0xb0, 0x32, 0x2b, 0xbd, 0xc7, 0x82, 0xa7, 0xbd, 0xd3, 0xaa, 0xa9, 0x3d, 0xdb, 0x18, 0x4b, 0xba, 0x11, 0x19, 0x7d, 0xbd, 
0x0f, 0x5a, 0x6d, 0x3d, 0xf1, 0x84, 0x62, 0xbb, 0x5f, 0x90, 0x9b, 0x3d, 0x69, 0xe6, 0xc1, 0xbc, 0x50, 0x36, 0x18, 0x3c, 0x12, 0xe3, 0xab, 0x3d, 0x5e, 0xfe, 0x3c, 0xba, 0xb2, 0x7b, 0x94, 0x3d, 
0xa7, 0xe7, 0xa0, 0x3d, 0xcc, 0x41, 0x50, 0xbd, 0xa8, 0x22, 0x9e, 0x3b, 0xd2, 0xf5, 0xac, 0xbd, 0xd2, 0x38, 0x05, 0xbc, 0x1b, 0xab, 0x95, 0xbd, 0x27, 0xff, 0x0b, 0xbd, 0x97, 0x02, 0x86, 0x3c, 
0xba, 0x06, 0x8a, 0x3d, 0x08, 0x36, 0xac, 0xbd, 0xef, 0xf8, 0x44, 0xbd, 0x92, 0xb0, 0x9c, 0xbd, 0x2c, 0xf2, 0x85, 0xbb, 0x8c, 0x9f, 0xab, 0x3c, 0x8c, 0xba, 0x56, 0xbd, 0xa9, 0xd6, 0xb3, 0x3a, 
0xa7, 0xf0, 0x87, 0x3d, 0x6a, 0xe7, 0xae, 0x3d, 0x1f, 0x5a, 0x16, 0x3d, 0xf0, 0x4c, 0x4d, 0x3d, 0x42, 0x3f, 0x21, 0xbd, 0xe0, 0x92, 0x4b, 0x3c, 0xc3, 0xee, 0x63, 0xbc, 0xe5, 0x68, 0x3b, 0xbd, 
0x41, 0x5c, 0xef, 0x3c, 0x88, 0x6d, 0x6f, 0x3d, 0x29, 0x43, 0x20, 0xbb, 0x7c, 0x5d, 0xf2, 0xbb, 0xdf, 0xce, 0x37, 0x3d, 0xe5, 0xc8, 0xdd, 0xbc, 0x4c, 0xd1, 0xb6, 0x3d, 0xfe, 0xeb, 0x21, 0xbd, 
0x07, 0x70, 0x8d, 0xbd, 0x27, 0xee, 0x91, 0x3d, 0xc9, 0xf5, 0xb9, 0x3c, 0xcf, 0x67, 0xf4, 0xbc, 0xef, 0xec, 0x08, 0x3d, 0x9b, 0x7a, 0xfc, 0xbc, 0xc9, 0x52, 0xdf, 0x3c, 0x03, 0x8a, 0x47, 0x3d, 
0x37, 0xc9, 0x95, 0x3d, 0x9b, 0x44, 0x46, 0x3d, 0xdf, 0x86, 0xa3, 0x3d, 0x96, 0xbb, 0x13, 0x3d, 0xce, 0x3b, 0x98, 0xbd, 0xd2, 0x39, 0x16, 0xbd, 0xbd, 0x15, 0xa6, 0x3d, 0xa3, 0x69, 0xb0, 0xbc, 
0x5a, 0x89, 0x95, 0x3b, 0xe0, 0xca, 0x65, 0x3c, 0xe6, 0xe0, 0x1e, 0x3d, 0x7b, 0x02, 0x1c, 0xbc, 0x85, 0x26, 0xac, 0x3d, 0x22, 0xc2, 0x80, 0xbd, 0x81, 0xc5, 0x33, 0xbd, 0x00, 0x93, 0x81, 0x3d, 
0xb9, 0x4d, 0xec, 0xbc, 0xd0, 0x16, 0xa0, 0xbd, 0x54, 0xbb, 0xd0, 0xbc, 0x41, 0x97, 0xf8, 0x3a, 0x88, 0x9a, 0x5c, 0x3d, 0xec, 0xa0, 0x65, 0xbc, 0x3a, 0x4a, 0xee, 0xbc, 0xc0, 0x05, 0x92, 0x3d, 
0x3f, 0x21, 0x48, 0xbd, 0x6b, 0xbd, 0x8f, 0xbc, 0x5b, 0x33, 0x91, 0x3d, 0x18, 0xe4, 0xaa, 0x3d, 0xc9, 0xe8, 0x1f, 0x3d, 0x9c, 0xd7, 0x86, 0xbd, 0x4d, 0x74, 0x0c, 0xbc, 0x20, 0x45, 0xd1, 0x3c, 
0x0e, 0x6d, 0x4f, 0x3d, 0x48, 0x14, 0xae, 0x3d, 0x5a, 0xc0, 0xbf, 0x3c, 0x33, 0xd5, 0x2b, 0xbd, 0x4c, 0xcd, 0x9f, 0x3d, 0xdf, 0x8b, 0x1c, 0xbd, 0x9a, 0x54, 0x3d, 0x3d, 0x26, 0x8d, 0x88, 0xbb, 
0x7c, 0x0d, 0xa3, 0x3c, 0x5c, 0x0d, 0x86, 0x3d, 0x50, 0xa1, 0xa1, 0xbd, 0x7f, 0xd7, 0x0c, 0xbd, 0x4d, 0x8c, 0xf3, 0xbc, 0x6f, 0xf6, 0xab, 0xbd, 0x67, 0x3f, 0x66, 0x3b, 0x07, 0x8d, 0x2a, 0xbd, 
0x63, 0x4b, 0x24, 0x3c, 0x9b, 0x10, 0xf0, 0x3a, 0xe1, 0x5f, 0x6c, 0x3d, 0xb8, 0xa5, 0x05, 0xba, 0x92, 0x03, 0x62, 0x3d, 0x28, 0x6e, 0x4d, 0xbd, 0x5e, 0x61, 0xaa, 0x3c, 0x06, 0xef, 0xa1, 0xbd, 
0x1c, 0x50, 0x65, 0xbc, 0xa2, 0xc9, 0xc4, 0x3b, 0x9b, 0x70, 0x89, 0xbc, 0x61, 0x0e, 0x9b, 0x3c, 0x3e, 0x66, 0x4b, 0xbd, 0xe6, 0xd0, 0xad, 0x3d, 0xb8, 0x69, 0x95, 0x3d, 0xcb, 0xc5, 0x08, 0x3d, 
0x66, 0xae, 0x92, 0xbd, 0xc9, 0x85, 0x3e, 0xbd, 0x7c, 0x39, 0xae, 0x3d, 0xf2, 0x70, 0x00, 0xbd, 0xe4, 0xa5, 0x76, 0xbd, 0x2e, 0x9d, 0x91, 0x3c, 0x77, 0x3a, 0x20, 0xbd, 0xf1, 0xd7, 0xa8, 0x3d, 
0xee, 0x41, 0x56, 0xbd, 0xf0, 0x19, 0x8d, 0x3c, 0x7b, 0xea, 0x48, 0x3d, 0x6c, 0x50, 0x33, 0xbd, 0x3d, 0x14, 0x6c, 0x3d, 0x82, 0x4e, 0x8d, 0xbc, 0x08, 0xcd, 0xc7, 0x3c, 0x65, 0x1f, 0x48, 0xbb, 
0x94, 0xae, 0xc0, 0xbb, 0x91, 0xc8, 0xce, 0x3c, 0x3a, 0x06, 0x5b, 0x3d, 0xe0, 0xc9, 0xa1, 0xbd, 0xc2, 0x9e, 0x1b, 0xbd, 0x7d, 0x78, 0x02, 0xbd, 0xe2, 0x1f, 0xad, 0x3d, 0x6b, 0xc3, 0x12, 0x3b, 
0xaa, 0x4a, 0xea, 0x3c, 0xc4, 0xc1, 0xf0, 0x3c, 0x1e, 0xb1, 0x2a, 0xbd, 0xae, 0x02, 0x5b, 0xbc, 0xb5, 0xb3, 0x56, 0xbd, 0xd5, 0x3f, 0xae, 0x3b, 0x7c, 0x6f, 0xaf, 0xbd, 0x17, 0x75, 0x8e, 0x3d, 
0xc2, 0xe6, 0x1f, 0x3c, 0xe9, 0x02, 0x02, 0x3d, 0x36, 0x65, 0x92, 0xbd, 0x02, 0x79, 0x10, 0x3d, 0x57, 0x7b, 0x8f, 0x3d, 0x1f, 0x8a, 0x9b, 0xbd, 0x1a, 0xa9, 0x17, 0xbd, 0x53, 0x2f, 0x9b, 0xbc, 
0x78, 0x7a, 0x2f, 0x3d, 0x95, 0x2c, 0x51, 0xbd, 0x29, 0x33, 0xd8, 0xb9, 0x7b, 0xdb, 0x6c, 0x3d, 0x87, 0x2d, 0x97, 0x3d, 0xf4, 0xe6, 0x95, 0x3d, 0xf1, 0x39, 0x17, 0xbd, 0xd9, 0xea, 0x50, 0x3d, 
0xd1, 0x05, 0x06, 0xbd, 0x15, 0x25, 0x4c, 0x3c, 0x48, 0x00, 0x64, 0x3d, 0x1f, 0x61, 0xaf, 0x3d, 0x4e, 0xb7, 0x5e, 0xbd, 0x5e, 0xf9, 0xc8, 0x3c, 0x53, 0xe4, 0x96, 0x3c, 0x86, 0xad, 0x04, 0x3d, 
0xb8, 0x2f, 0x58, 0xbc, 0x05, 0xee, 0x68, 0xbd, 0x88, 0x1e, 0x63, 0x3c, 0x30, 0xa7, 0x6c, 0x3d, 0x00, 0x87, 0xa0, 0x3d, 0x0b, 0x7b, 0x6e, 0xbd, 0x5e, 0x00, 0x19, 0x3d, 0xbc, 0x2a, 0x8b, 0xbd, 
0x16, 0x7a, 0x7f, 0x3c, 0x77, 0xe8, 0x91, 0x3d, 0xba, 0x27, 0x20, 0x3d, 0xdd, 0x46, 0x71, 0xbd, 0x14, 0x17, 0x44, 0x3c, 0x9a, 0x03, 0x4b, 0xbd, 0xa7, 0x57, 0xa9, 0x3d, 0xe7, 0x43, 0xb2, 0x3d, 
0xbe, 0xd5, 0x8d, 0xbd, 0x02, 0x84, 0x84, 0x3d, 0xf1, 0xdc, 0x67, 0x3d, 0x30, 0x3c, 0xe9, 0xbc, 0x1e, 0x23, 0x1e, 0x3c, 0x12, 0xab, 0x27, 0x3c, 0x8b, 0xea, 0x30, 0x3d, 0x61, 0x84, 0x24, 0xbd, 
0x07, 0x0d, 0xaa, 0x3c, 0x47, 0x56, 0x1e, 0x3c, 0x11, 0x23, 0x98, 0x3c, 0x95, 0xdf, 0xb1, 0xbd, 0x55, 0x6b, 0x05, 0xbc, 0x8f, 0x28, 0x85, 0x3b, 0x10, 0x07, 0x52, 0x3d, 0x48, 0x4e, 0xaf, 0x3d, 
0xea, 0x1e, 0x26, 0x3d, 0x63, 0x30, 0x34, 0xbd, 0x7f, 0x7e, 0xae, 0x3c, 0x81, 0x60, 0x1f, 0xbd, 0xb9, 0xa1, 0x14, 0x3d, 0x2d, 0x82, 0xac, 0x3c, 0x9a, 0x20, 0x96, 0x3c, 0x97, 0xfa, 0xae, 0xbd, 
0x99, 0x57, 0xda, 0x3c, 0xb9, 0x17, 0x3f, 0x3d, 0x44, 0xe9, 0xb3, 0x3d, 0x54, 0xdb, 0x43, 0x3d, 0xc9, 0x21, 0x87, 0xbc, 0x53, 0xe4, 0x7d, 0x3d, 0x9d, 0x70, 0x8e, 0xbd, 0x89, 0xca, 0x43, 0xbd, 
0xd2, 0x54, 0x4a, 0x3d, 0x2e, 0xaf, 0x5c, 0xbc, 0x24, 0xa6, 0xd4, 0xbc, 0xbb, 0x7a, 0xa1, 0xbd, 0x1d, 0xbd, 0x96, 0xbb, 0xed, 0x54, 0x0c, 0xbd, 0x20, 0xc3, 0x42, 0xbd, 0x87, 0x8c, 0x26, 0x3d, 
0x26, 0xa6, 0xa6, 0x3d, 0xa7, 0x95, 0xfd, 0x3c, 0x6e, 0x63, 0x43, 0xbd, 0x66, 0x74, 0x10, 0xbc, 0x37, 0x5c, 0x8c, 0x3c, 0x63, 0x21, 0x47, 0xbd, 0x8a, 0x37, 0x82, 0x3c, 0x6d, 0x06, 0x16, 0xbd, 
0x6c, 0xd7, 0x1d, 0xbd, 0x66, 0x83, 0x84, 0xbd, 0x49, 0x3c, 0x63, 0xbd, 0x84, 0xf2, 0x23, 0x3d, 0x25, 0xda, 0xa1, 0xba, 0x5a, 0x21, 0x25, 0xbd, 0x4d, 0x08, 0x97, 0xbd, 0x60, 0x50, 0xed, 0x3c, 
0xc7, 0x76, 0x8b, 0xbd, 0x32, 0x80, 0x96, 0x3d, 0x61, 0x4c, 0x63, 0x3c, 0xb4, 0x4a, 0x15, 0xbd, 0x4b, 0x4d, 0x89, 0x3d, 0x44, 0xb8, 0x60, 0x3d, 0x76, 0x9a, 0x87, 0x3d, 0x3f, 0xa7, 0x91, 0xbc, 
0x97, 0xd6, 0x28, 0x3d, 0xdd, 0x3c, 0xa2, 0x3d, 0x5e, 0xc2, 0xd3, 0x3c, 0x13, 0x91, 0x9e, 0xbd, 0x99, 0x56, 0xad, 0xba, 0xbe, 0x33, 0x97, 0xbd, 0xfc, 0x6a, 0x43, 0x3d, 0x8c, 0x84, 0x73, 0xbd, 
0x56, 0x18, 0xbd, 0xbc, 0x24, 0x3e, 0xc0, 0x3c, 0xab, 0xbb, 0xb3, 0xbd, 0x3c, 0x55, 0x5e, 0x3d, 0xbe, 0x79, 0x56, 0x3d, 0x16, 0xfd, 0x3f, 0xbc, 0x80, 0xff, 0x8c, 0x3d, 0x6b, 0x9e, 0xad, 0x3c, 
0x66, 0xfe, 0xa0, 0x3d, 0xd5, 0x9b, 0xa4, 0xbd, 0x97, 0xbc, 0x8c, 0xbd, 0xc8, 0x66, 0xd8, 0xbc, 0x69, 0x3a, 0xab, 0xbd, 0xb1, 0x93, 0x9f, 0xbd, 0x84, 0x91, 0x2f, 0xbc, 0xf8, 0xcd, 0x8a, 0xbd, 
0xf3, 0x89, 0x36, 0x3d, 0x1c, 0x05, 0xe3, 0xbc, 0xbb, 0x6e, 0x7d, 0x3d, 0x54, 0xc4, 0xf3, 0xbc, 0xed, 0xdd, 0xb4, 0x3d, 0x95, 0x69, 0xb5, 0xbc, 0x9d, 0x85, 0x48, 0xba, 0xea, 0xb4, 0x90, 0xbd, 
0xcc, 0xe6, 0x8d, 0x3d, 0xd8, 0xf2, 0x66, 0xbd, 0x0c, 0x78, 0xcd, 0x3c, 0x57, 0x63, 0xab, 0xbd, 0xd4, 0xee, 0x3a, 0x3c, 0x73, 0x17, 0x2b, 0x3d, 0x3a, 0x35, 0xc1, 0xbc, 0xdd, 0x1c, 0x10, 0xbd, 
0x82, 0x15, 0x16, 0x3d, 0x52, 0x6f, 0x7f, 0xbd, 0x73, 0x4d, 0x3b, 0x3d, 0x5b, 0x86, 0x5c, 0xbc, 0x12, 0x4e, 0x72, 0x3b, 0xfc, 0x38, 0x91, 0x3b, 0x85, 0x0c, 0x2c, 0x3d, 0xfc, 0x65, 0x87, 0xbd, 
0xe3, 0x7c, 0xa3, 0xbd, 0x07, 0xe1, 0x36, 0xbc, 0x3e, 0x09, 0x99, 0xbd, 0x7b, 0xe1, 0x3f, 0xbd, 0x4c, 0x23, 0x42, 0xbd, 0x20, 0x6e, 0x9c, 0x3d, 0xf3, 0x8e, 0x9d, 0x3d, 0x12, 0xb3, 0x78, 0xbd, 
0xee, 0xa9, 0x7d, 0x3d, 0x57, 0xd6, 0xcc, 0xbc, 0x3c, 0xc0, 0xa0, 0xbd, 0xa9, 0x04, 0xd6, 0x3c, 0xd8, 0xdc, 0xb2, 0xbb, 0xd6, 0xaf, 0x23, 0xbd, 0x49, 0xe6, 0x85, 0x3d, 0x23, 0x72, 0x83, 0x3d, 
0xed, 0xc9, 0x3d, 0xbc, 0x4d, 0x13, 0xaa, 0xbd, 0x04, 0x14, 0x8b, 0xbd, 0xde, 0x6f, 0x02, 0x3d, 0x72, 0xcd, 0x68, 0x3d, 0x70, 0x78, 0x3c, 0x3d, 0x37, 0xe9, 0xcf, 0x3b, 0xd4, 0x4e, 0x6c, 0xbc, 
0x04, 0x9d, 0x64, 0xbc, 0x2e, 0xe5, 0x4c, 0x3b, 0xa2, 0x6d, 0x85, 0x3c, 0xbd, 0xbe, 0x57, 0xbc, 0xa6, 0xe5, 0x60, 0x3d, 0x4c, 0x27, 0x2b, 0x3c, 0x5e, 0x73, 0x33, 0x3d, 0x88, 0x96, 0x5a, 0x3d, 
0x08, 0xb3, 0x70, 0xbd, 0xea, 0x68, 0x5b, 0x3d, 0x4c, 0x91, 0x68, 0x3d, 0xcd, 0x93, 0x8f, 0x3d, 0x53, 0xc5, 0x89, 0xbd, 0x3f, 0x2a, 0x3e, 0x3d, 0x1b, 0x72, 0xad, 0xbc, 0xa4, 0xd8, 0x4a, 0x3d, 
0x66, 0xf7, 0x24, 0x3d, 0xf3, 0x11, 0x79, 0x3d, 0xc2, 0x47, 0x1a, 0x3c, 0x19, 0xde, 0x92, 0xbd, 0xcf, 0x0e, 0xa0, 0x3d, 0x90, 0x6e, 0x4c, 0x3b, 0xd8, 0x39, 0x0c, 0xbd, 0x7f, 0x55, 0x95, 0x3d, 
0x9d, 0x52, 0x3d, 0xbd, 0x18, 0xd9, 0x93, 0xbd, 0xc4, 0xda, 0x34, 0x3d, 0x5a, 0xc0, 0x84, 0xbd, 0x71, 0x46, 0xa5, 0xbd, 0x93, 0xee, 0x45, 0x3d, 0xa3, 0x34, 0x81, 0xbd, 0x91, 0x69, 0xb1, 0x3d, 
0xed, 0xe9, 0x0a, 0x3b, 0x99, 0xa5, 0x33, 0xbd, 0xd8, 0x39, 0x5b, 0x3d, 0xa8, 0x19, 0x0f, 0xbd, 0x74, 0x3e, 0x3c, 0x3d, 0xff, 0x35, 0xa6, 0x3d, 0x13, 0x7f, 0x14, 0x3c, 0xc9, 0x91, 0x4f, 0xbd, 
0x26, 0xf9, 0xf2, 0x3c, 0x00, 0x7a, 0x65, 0x3d, 0x7d, 0x0f, 0x07, 0xbc, 0x35, 0xa9, 0xb7, 0xbc, 0x19, 0x44, 0xa4, 0xbd, 0xf9, 0x62, 0xa3, 0x3d, 0x25, 0x03, 0x9e, 0xbd, 0x28, 0x98, 0x5d, 0x3d, 
0x86, 0xfe, 0x61, 0xbc, 0x75, 0x6d, 0x91, 0x3c, 0xf8, 0x96, 0x98, 0x3d, 0x07, 0x0d, 0x8e, 0x3d, 0x0d, 0xce, 0x62, 0xbd, 0x7f, 0xbd, 0x13, 0xbd, 0x88, 0x20, 0xd6, 0xbc, 0x7b, 0x35, 0xa5, 0xbd, 
0xed, 0xd3, 0xee, 0xbc, 0x2f, 0xfe, 0xa3, 0x3b, 0x6b, 0x88, 0x0b, 0x3d, 0x2e, 0x48, 0x61, 0x3d, 0xef, 0xab, 0x93, 0xbd, 0x63, 0xd5, 0x4a, 0x3c, 0x9c, 0x46, 0xaa, 0xbd, 0xec, 0xe2, 0x68, 0x3d, 
0x14, 0x18, 0xae, 0x3d, 0x1b, 0x42, 0x5a, 0xbd, 0x9b, 0x41, 0xa1, 0x3d, 0x24, 0x29, 0x90, 0x3b, 0xae, 0x6f, 0x07, 0x3d, 0x14, 0xe7, 0xa3, 0xbd, 0xbd, 0x38, 0xb3, 0xbd, 0xc8, 0x30, 0x21, 0xbd, 
0x37, 0xb9, 0x35, 0xbd, 0xdd, 0x3d, 0xcd, 0xbc, 0xf4, 0x84, 0x6d, 0x3d, 0xae, 0x36, 0x39, 0x3d, 0x6d, 0x10, 0x10, 0xbd, 0x27, 0x19, 0x26, 0x3a, 0x89, 0x0c, 0x79, 0xbd, 0xdb, 0x30, 0x26, 0x3d, 
0xae, 0x7a, 0x01, 0x3d, 0x37, 0x24, 0x6e, 0xbd, 0xa1, 0xc3, 0x33, 0xbc, 0xcc, 0x7e, 0x99, 0xbd, 0xb8, 0xb5, 0x69, 0xbc, 0xb4, 0x36, 0xcc, 0x3b, 0xef, 0x3c, 0x98, 0xbd, 0xd9, 0x19, 0x3c, 0x3d, 
0xb7, 0xf4, 0x58, 0xbd, 0xb6, 0x79, 0xa9, 0x3d, 0xa2, 0x15, 0x22, 0xbd, 0x3d, 0xf5, 0x2b, 0xbd, 0xc8, 0xb2, 0xc8, 0xbb, 0x25, 0x20, 0x0c, 0x3d, 0x32, 0xde, 0x1a, 0x3d, 0x37, 0x05, 0xfb, 0x3c, 
0xad, 0xc6, 0xb9, 0xbb, 0x95, 0x58, 0x58, 0x3c, 0x13, 0xed, 0x9a, 0x3d, 0x4f, 0xd5, 0xa7, 0xbd, 0xc5, 0x79, 0x90, 0x3d, 0xab, 0x3a, 0x54, 0x3d, 0xf7, 0xce, 0x58, 0xbd, 0xa5, 0x58, 0xac, 0xbd, 
0xa6, 0x0d, 0xbc, 0xba, 0x54, 0x39, 0x90, 0xbd, 0x4d, 0xa4, 0x72, 0x3d, 0x73, 0xd1, 0x86, 0x3d, 0x86, 0x07, 0x08, 0xbd, 0xc8, 0x37, 0x0d, 0x3d, 0x95, 0xcb, 0x2d, 0xbd, 0x49, 0x38, 0x82, 0x3d, 
0x08, 0x21, 0x34, 0xbd, 0xbd, 0x10, 0x97, 0x3d, 0x39, 0x7b, 0x45, 0x3b, 0x4d, 0xac, 0xf2, 0xb9, 0x7d, 0xfd, 0x71, 0xbc, 0x82, 0x40, 0x17, 0x3c, 0x0a, 0x5f, 0x87, 0xbc, 0x77, 0x98, 0xaf, 0xbc, 
0x94, 0xbc, 0x89, 0x3c, 0xfb, 0xcc, 0xbf, 0xbb, 0x51, 0xaa, 0x86, 0xbd, 0x59, 0x31, 0x8b, 0x3d, 0xc8, 0x80, 0x7c, 0x3c, 0x4a, 0xf6, 0xb2, 0xbd, 0x0e, 0x32, 0x19, 0xbc, 0xfd, 0x76, 0x79, 0x3d, 
0xcd, 0x84, 0x93, 0xbd, 0x9a, 0x36, 0x99, 0x3c, 0x9f, 0xc5, 0x4b, 0xbd, 0xae, 0xcc, 0x36, 0x3b, 0x94, 0x64, 0x7e, 0xbd, 0x4e, 0x9b, 0x36, 0xbd, 0x8e, 0xba, 0xd0, 0x3c, 0x17, 0x60, 0x97, 0x3d, 
0x4d, 0x2f, 0x91, 0x3b, 0x15, 0xdb, 0x95, 0x3c, 0x9e, 0x63, 0x02, 0xbd, 0x02, 0x80, 0xb1, 0xbc, 0x09, 0x46, 0x24, 0xbd, 0x8a, 0xc2, 0x79, 0x3b, 0x98, 0xb1, 0x7f, 0x3d, 0xa7, 0xbd, 0xac, 0x3d, 
0xfd, 0xba, 0x17, 0xbd, 0x50, 0xb4, 0xaa, 0xbd, 0x05, 0x62, 0xd0, 0xbc, 0xe9, 0x40, 0xb3, 0x3d, 0x86, 0xf1, 0x2a, 0xbd, 0xdf, 0x8c, 0x9b, 0x3c, 0xa9, 0x8e, 0xa8, 0x3d, 0x24, 0x0c, 0x6e, 0x3d, 
0xca, 0x77, 0x72, 0xbd, 0xfb, 0x54, 0x3a, 0x3c, 0x7b, 0x51, 0x81, 0xbd, 0x15, 0x26, 0x70, 0x3d, 0x3b, 0x0a, 0x65, 0x3d, 0x22, 0x32, 0x90, 0x3d, 0x56, 0x63, 0x30, 0xbd, 0x27, 0xc6, 0x9a, 0xbc, 
0xfa, 0x90, 0x72, 0xbd, 0x67, 0x4a, 0x82, 0xbd, 0x26, 0x88, 0x10, 0x3d, 0x23, 0x69, 0xbd, 0xbc, 0xaa, 0xad, 0x9f, 0x3d, 0x71, 0x3a, 0xa9, 0xbd, 0x9e, 0x01, 0xce, 0x3a, 0xf2, 0x63, 0x68, 0xbc, 
0x4e, 0x7a, 0x51, 0x3d, 0x29, 0xa5, 0x87, 0xbd, 0xe8, 0x65, 0x21, 0xbd, 0x67, 0x36, 0x0e, 0x3d, 0x7d, 0x84, 0x34, 0x3d, 0xc3, 0x73, 0xb2, 0xbd, 0x09, 0xee, 0x76, 0x3c, 0x07, 0x19, 0xae, 0x3c, 
0x06, 0x86, 0x3b, 0xbb, 0xe8, 0x93, 0xc3, 0xbc, 0x2c, 0x08, 0xc6, 0x3b, 0x39, 0xf5, 0x9c, 0x3d, 0xdb, 0x40, 0x26, 0xbd, 0x34, 0xc7, 0x24, 0xbd, 0x71, 0x03, 0x6c, 0xbd, 0xde, 0x2b, 0x57, 0xbc, 
0x47, 0xfc, 0x81, 0xbd, 0x1e, 0xfd, 0x39, 0x3a, 0xbc, 0xc2, 0x8a, 0x3d, 0x55, 0x3e, 0xa5, 0xbd, 0xc1, 0xbf, 0xad, 0x3d, 0x84, 0xc1, 0x38, 0xbd, 0x53, 0x64, 0x16, 0xbd, 0xcc, 0xc4, 0x3b, 0xbd, 
0x16, 0xc5, 0x7d, 0xbd, 0xa4, 0xc6, 0x1d, 0xbc, 0x3a, 0x7a, 0x9d, 0xbd, 0x2a, 0xa9, 0x01, 0x3d, 0x80, 0x20, 0x85, 0x3d, 0x89, 0x0c, 0x11, 0x3d, 0x75, 0x4e, 0x4d, 0x3d, 0x15, 0xce, 0x25, 0x3d, 
0x70, 0xc8, 0x8f, 0x3d, 0xde, 0x47, 0x51, 0xbd, 0x13, 0xac, 0x9f, 0xbd, 0xfa, 0x09, 0xa0, 0x3c, 0x10, 0xab, 0x66, 0x3d, 0x8b, 0x62, 0xdf, 0xbc, 0x9e, 0xc1, 0xa9, 0xbc, 0xbe, 0x08, 0x74, 0xbc, 
0x00, 0x9d, 0x36, 0xbc, 0xec, 0x32, 0xa0, 0x3b, 0xf1, 0xe1, 0x13, 0xbd, 0xb3, 0xe3, 0x4b, 0xbd, 0xc6, 0xaf, 0x7c, 0x3d, 0x36, 0xf1, 0x04, 0xbc, 0x11, 0x8a, 0x54, 0xbd, 0x8d, 0xf5, 0x91, 0xbc, 
0x8b, 0xd0, 0x30, 0x3d, 0x43, 0x83, 0x11, 0xbc, 0x5c, 0x9b, 0xee, 0xbc, 0xd7, 0x9b, 0x09, 0xbd, 0x6a, 0x90, 0x31, 0x3d, 0x50, 0x79, 0x6b, 0x3d, 0x2e, 0x8b, 0xd1, 0x3c, 0x53, 0x1c, 0x54, 0xbd, 
0xc2, 0x5b, 0x94, 0xbd, 0x44, 0x72, 0x3f, 0xbd, 0x61, 0x01, 0xcb, 0xbc, 0x05, 0x5f, 0xc7, 0xbc, 0xbf, 0x33, 0xa5, 0xbd, 0x36, 0xc1, 0x45, 0x3d, 0xcb, 0xfe, 0x1b, 0x3d, 0xa8, 0xd5, 0x15, 0x3d, 
0xc7, 0xd2, 0x72, 0x3d, 0x07, 0xa8, 0x97, 0xbd, 0xa5, 0x5b, 0x2f, 0xbc, 0x77, 0x02, 0xa8, 0x3d, 0x8c, 0x10, 0x8c, 0x3d, 0xd0, 0xe6, 0x92, 0x3d, 0xcb, 0xa4, 0x19, 0xbc, 0x87, 0xd8, 0x2c, 0x3d, 
0xe0, 0xa7, 0xbd, 0x3d, 0xd1, 0x49, 0xe7, 0xbc, 0x6e, 0x65, 0x1a, 0xbd, 0x05, 0x71, 0x96, 0xbd, 0xc3, 0xbc, 0x57, 0xbc, 0x5a, 0xed, 0x99, 0xbc, 0x04, 0xea, 0xa4, 0xbd, 0x73, 0x2e, 0x8f, 0x3d, 
0x03, 0x82, 0x9b, 0xbd, 0x01, 0x30, 0xbb, 0x3d, 0x30, 0x28, 0x93, 0x3d, 0x40, 0x9a, 0x9f, 0x3d, 0xcb, 0x48, 0x77, 0x3d, 0x39, 0x2a, 0x59, 0xbc, 0x5d, 0x95, 0x3b, 0xbd, 0x26, 0x07, 0x9c, 0xbd, 
0xaf, 0xd9, 0x9f, 0xbd, 0x71, 0x1e, 0xf9, 0xbc, 0xb5, 0x70, 0xd0, 0xbc, 0xad, 0xb0, 0x2d, 0x3d, 0xac, 0x88, 0x87, 0xbc, 0x20, 0x21, 0x6b, 0xbd, 0xd6, 0xd7, 0x38, 0x3c, 0x62, 0x64, 0x8c, 0x3c, 
0x3a, 0x72, 0xfb, 0xbc, 0xbc, 0xbd, 0x16, 0x3d, 0x9e, 0x30, 0x88, 0x3d, 0x67, 0xc6, 0x45, 0xbd, 0xf7, 0x4f, 0x8d, 0xbd, 0x8a, 0xce, 0x3e, 0x3c, 0x91, 0xac, 0x0a, 0xbd, 0x9a, 0x02, 0x71, 0xbb, 
0x84, 0xdc, 0x70, 0x3d, 0x33, 0xd7, 0x68, 0xbc, 0xea, 0x88, 0x89, 0x3c, 0xaa, 0x7b, 0x57, 0xbd, 0x87, 0x59, 0xa6, 0x3d, 0x1b, 0xc3, 0xdd, 0xbc, 0x7e, 0x11, 0x99, 0xbc, 0x90, 0x9e, 0x34, 0x3d, 
0x4e, 0x6f, 0x9a, 0xbd, 0x93, 0xb9, 0x2a, 0x3d, 0x36, 0x6a, 0x50, 0x3b, 0x5f, 0xd5, 0x87, 0xbd, 0xee, 0xb8, 0x87, 0x3c, 0x31, 0x37, 0x54, 0xbd, 0x32, 0xca, 0xf4, 0x3c, 0x5f, 0xec, 0x4a, 0xbd, 
0xe4, 0x7a, 0xb2, 0x3d, 0xe4, 0xfa, 0xc7, 0xbc, 0xc8, 0x08, 0xb4, 0x3d, 0x26, 0x03, 0x88, 0x3d, 0x54, 0x47, 0x81, 0xbc, 0xd0, 0xf1, 0x8a, 0x3c, 0xac, 0x58, 0x9a, 0x3d, 0x1a, 0x7c, 0x97, 0x3c, 
0x25, 0x4b, 0x2e, 0x3d, 0x32, 0x73, 0x48, 0xbd, 0x29, 0x4f, 0x94, 0xbc, 0x6f, 0xab, 0x53, 0x3d, 0xa6, 0x71, 0x7d, 0x3d, 0xee, 0xd4, 0x71, 0x3d, 0xa9, 0xbc, 0xb6, 0x3d, 0xec, 0x90, 0x01, 0xbd, 
0x6f, 0x61, 0x8e, 0x3d, 0x7b, 0x90, 0x88, 0xbd, 0x95, 0xdb, 0x9e, 0xbd, 0xe9, 0xd4, 0x15, 0xbc, 0xa9, 0xe5, 0x77, 0x3d, 0x97, 0x1c, 0x7f, 0xbd, 0xfe, 0xcb, 0x0e, 0x3d, 0x8d, 0x42, 0x94, 0x3d, 
0x44, 0x76, 0xe6, 0xbc, 0x1e, 0x83, 0xac, 0xbb, 0xc2, 0x49, 0x8e, 0xbd, 0x4e, 0xcf, 0x93, 0x3b, 0xef, 0x1c, 0x25, 0x3b, 0xe9, 0x30, 0x08, 0xbd, 0xf8, 0x70, 0xb0, 0x3d, 0x96, 0xa5, 0x87, 0xbd, 
0x07, 0xe5, 0xb9, 0x3c, 0x56, 0xe0, 0x63, 0x3d, 0x9b, 0x52, 0x9e, 0xbd, 0xef, 0x77, 0x9e, 0x3d, 0x8e, 0x64, 0xbc, 0x3b, 0x30, 0x02, 0x9e, 0xbd, 0x55, 0x50, 0x9f, 0xbc, 0x0b, 0xe6, 0x57, 0x3a, 
0xca, 0xce, 0x0e, 0xbd, 0x28, 0x55, 0x11, 0xbd, 0x12, 0xe7, 0xb6, 0x3d, 0x8d, 0xc2, 0x75, 0x3d, 0xb5, 0x4f, 0xa5, 0x3d, 0xfe, 0x83, 0x30, 0xbd, 0x50, 0xdd, 0xbe, 0xbb, 0x92, 0x6c, 0x70, 0x3d, 
0x80, 0x4f, 0x5b, 0xbc, 0x00, 0x33, 0x0e, 0xbd, 0x0c, 0xc8, 0x5a, 0x3d, 0xad, 0x03, 0x97, 0xbc, 0x50, 0x17, 0x60, 0x3d, 0x23, 0x45, 0x5f, 0x3d, 0xee, 0x22, 0xb7, 0x3d, 0xcd, 0x5c, 0x21, 0x3d, 
0xdf, 0xb0, 0xbf, 0xba, 0xc3, 0xb0, 0x67, 0xbc, 0x0c, 0xaa, 0x50, 0xbb, 0x09, 0x17, 0x31, 0x3c, 0x4b, 0x87, 0x9c, 0x3d, 0xf6, 0x8f, 0x59, 0xbb, 0x17, 0xc2, 0x1a, 0xbd, 0xaf, 0xcc, 0x91, 0x3d, 
0x97, 0xf3, 0x39, 0xbd, 0x28, 0xa0, 0x9a, 0xbd, 0x6a, 0x26, 0x99, 0xbd, 0xa2, 0x63, 0x52, 0x3d, 0x6c, 0x59, 0x53, 0x3c, 0xdf, 0x39, 0xa5, 0xbd, 0xa9, 0x17, 0x2f, 0x3d, 0x6c, 0xa6, 0xeb, 0xbc, 
0x6a, 0x9d, 0x96, 0x3d, 0xb4, 0xd2, 0xb4, 0x3c, 0xdf, 0x8f, 0x06, 0x3d, 0x0c, 0xb1, 0xd7, 0x3c, 0xf2, 0x48, 0xc2, 0xbb, 0xd0, 0xa6, 0x7c, 0xbd, 0x3a, 0x42, 0xb3, 0x3d, 0x79, 0x72, 0x8e, 0x3d, 
0xd3, 0x22, 0xab, 0x3d, 0x75, 0xb5, 0x50, 0xbd, 0x68, 0xbe, 0x6c, 0xbc, 0x4b, 0x50, 0x1b, 0x3d, 0x88, 0xbf, 0x9d, 0x3d, 0xff, 0x80, 0x81, 0x3d, 0x80, 0x76, 0xb5, 0xbd, 0xd8, 0x4c, 0x9f, 0xbd, 
0x4f, 0x47, 0x4e, 0x3d, 0xcf, 0x74, 0x92, 0x3d, 0x4f, 0x8e, 0x26, 0x3d, 0x17, 0xd8, 0x8b, 0xbc, 0xbd, 0x7e, 0x7b, 0x3d, 0xe4, 0x3e, 0xa3, 0xbd, 0xb7, 0x65, 0xc5, 0xbc, 0x84, 0x4e, 0xb2, 0xbd, 
0xe3, 0xf9, 0x4c, 0x3d, 0x06, 0xf0, 0x4f, 0xbd, 0xf0, 0x4c, 0x94, 0x3d, 0x2b, 0xd7, 0x3e, 0xbd, 0xdd, 0x8d, 0x5d, 0xbd, 0x8b, 0x0d, 0x70, 0x3d, 0xa1, 0x04, 0xe4, 0x3b, 0xf6, 0xb9, 0x54, 0xbc, 
0x52, 0xc8, 0x6e, 0xbb, 0x71, 0x16, 0xe1, 0x3c, 0x7f, 0x2d, 0xa1, 0xbd, 0x6e, 0x65, 0x49, 0xbd, 0xec, 0x4f, 0x40, 0xbd, 0x99, 0xb2, 0x81, 0xbc, 0xd9, 0x76, 0x42, 0x3d, 0xb5, 0xa8, 0x4f, 0xbd, 
0xf9, 0xed, 0x9a, 0x3d, 0x6b, 0x3f, 0x09, 0x3d, 0x93, 0x0f, 0x3a, 0x3d, 0x76, 0x85, 0xed, 0x3c, 0x88, 0x78, 0xbf, 0x3c, 0x56, 0xa0, 0x6e, 0xbd, 0x4d, 0xc4, 0x3f, 0xbb, 0xb9, 0x64, 0x9a, 0xbd, 
0x96, 0x25, 0xca, 0x3c, 0xd1, 0xc4, 0x48, 0x3d, 0x31, 0x4e, 0x95, 0xbc, 0x39, 0xa7, 0x17, 0x3d, 0xa8, 0xf8, 0x66, 0x3d, 0xcd, 0xe9, 0xc7, 0xbc, 0xb0, 0x61, 0x9d, 0xbd, 0x67, 0x85, 0x2a, 0x3d, 
0xcb, 0xb1, 0x8b, 0xbd, 0x9e, 0x18, 0x6c, 0xbd, 0x70, 0xfd, 0xa6, 0x3d, 0xe1, 0x49, 0x8a, 0x3d, 0x61, 0x9b, 0x82, 0x3c, 0xe8, 0xe7, 0x3b, 0xbd, 0xd6, 0x3c, 0x3b, 0xbd, 0xea, 0x7c, 0x91, 0xbd, 
0x1d, 0xad, 0x47, 0x3d, 0x10, 0xf3, 0xa8, 0xbc, 0xaf, 0x84, 0x60, 0x3d, 0x8e, 0x56, 0x7d, 0xbd, 0x98, 0x30, 0x5a, 0xbc, 0xbd, 0xd9, 0xaa, 0xbc, 0xde, 0x41, 0xfc, 0x3b, 0x3a, 0x31, 0x77, 0x3d, 
0x03, 0x79, 0xa6, 0xbd, 0xa0, 0x3a, 0x9e, 0xbd, 0xe8, 0x2a, 0xdc, 0x3c, 0x9c, 0x17, 0xa6, 0x3c, 0xe9, 0x63, 0x8f, 0xbd, 0xfd, 0xd8, 0xb1, 0xbd, 0x6e, 0x32, 0xa5, 0x3d, 0x37, 0xbb, 0x8e, 0x3b, 
0x8c, 0x8a, 0xaf, 0xbd, 0x7d, 0xaf, 0x96, 0xbd, 0x7e, 0xad, 0x5e, 0x3d, 0xf0, 0xd7, 0x2c, 0xbd, 0xfb, 0xaf, 0xb0, 0x3c, 0xb8, 0x0f, 0x4d, 0xbd, 0xd4, 0x70, 0x7a, 0xbd, 0xa9, 0x7e, 0x1a, 0x3d, 
0xcb, 0xe5, 0x98, 0xbd, 0x16, 0x41, 0x4e, 0xbd, 0xc5, 0x39, 0x36, 0x3d, 0xe2, 0x16, 0x8f, 0x3d, 0x50, 0x1b, 0xc2, 0x3c, 0x9c, 0xd8, 0x25, 0xbd, 0x3e, 0xa7, 0x94, 0xbc, 0xeb, 0x50, 0x48, 0x3d, 
0x01, 0x55, 0xab, 0x3d, 0xfd, 0x9f, 0x78, 0xbd, 0x19, 0xe1, 0x8d, 0x3d, 0xd0, 0x6e, 0x94, 0xbc, 0x32, 0xdb, 0xe5, 0xbc, 0xf4, 0x24, 0x87, 0xbd, 0xee, 0xcd, 0xa1, 0xbd, 0x29, 0xa4, 0xd7, 0xbc, 
0xb4, 0xe4, 0x14, 0x3c, 0xa3, 0xcd, 0x5e, 0xbd, 0xfd, 0xcf, 0x3d, 0x3d, 0x23, 0xb1, 0x5d, 0xbd, 0xeb, 0xf5, 0xa0, 0x3d, 0x38, 0xc4, 0x73, 0xbc, 0x14, 0xaa, 0x85, 0xbd, 0x5b, 0x54, 0x5b, 0xbd, 
0x79, 0x2f, 0x9b, 0x3d, 0x1f, 0x17, 0x78, 0xbc, 0x42, 0x59, 0xb1, 0x3d, 0xda, 0x34, 0x33, 0xbb, 0xc7, 0x82, 0x8d, 0x3d, 0x77, 0x01, 0x96, 0xbc, 0x0c, 0x6b, 0x4e, 0xbc, 0x8e, 0xa8, 0x9a, 0x3d, 
0x10, 0x4e, 0x56, 0xbd, 0xec, 0xb1, 0x8f, 0xbd, 0xc8, 0x3b, 0x16, 0x3d, 0x75, 0x53, 0x94, 0xbd, 0x78, 0x40, 0x74, 0x3d, 0x9c, 0x8b, 0x7a, 0x3d, 0x30, 0x84, 0x52, 0xbd, 0xcc, 0xb1, 0x32, 0xbd, 
0x47, 0x45, 0xb1, 0x3d, 0x57, 0x08, 0x09, 0xbd, 0x65, 0x98, 0x30, 0xbd, 0x16, 0x33, 0x95, 0xbd, 0x90, 0x08, 0x1e, 0xbd, 0x94, 0x12, 0x9f, 0xbd, 0x90, 0xf2, 0x8a, 0x3b, 0x96, 0x9e, 0xbe, 0x3b, 
0xda, 0x15, 0x07, 0xbc, 0x78, 0x4b, 0x99, 0xbd, 0x77, 0x83, 0x85, 0x3c, 0xed, 0xc5, 0x85, 0xbd, 0xed, 0x67, 0x69, 0xbd, 0xbf, 0xe8, 0x07, 0x3d, 0xad, 0xc2, 0x11, 0x3d, 0x09, 0xbd, 0x0c, 0xbd, 
0x9b, 0xbf, 0x3b, 0xbd, 0x21, 0x25, 0x96, 0x3d, 0xb1, 0x09, 0x04, 0x3c, 0x1f, 0xee, 0xb2, 0x3d, 0x07, 0x4b, 0x40, 0xbd, 0x50, 0x6a, 0xa1, 0xbd, 0x7b, 0xc3, 0x9e, 0x3c, 0xb7, 0xa8, 0x41, 0x3c, 
0xff, 0x32, 0x98, 0xba, 0xc9, 0x97, 0xdb, 0x3b, 0x32, 0xbb, 0xb7, 0x3c, 0x9b, 0xf6, 0x41, 0xbd, 0x91, 0x81, 0xb4, 0x3d, 0x3d, 0x0a, 0x2f, 0x3d, 0xef, 0xa9, 0x9a, 0x3d, 0x97, 0x19, 0x35, 0x3c, 
0x3b, 0x7c, 0x3b, 0x3d, 0x3e, 0x02, 0xb3, 0x3d, 0x39, 0x37, 0x54, 0xbd, 0xfa, 0x88, 0xd3, 0x3c, 0x28, 0xd1, 0x51, 0xbd, 0x23, 0xaa, 0x8c, 0x3d, 0xbc, 0xaf, 0x9b, 0xbd, 0x7c, 0x94, 0x7a, 0xbd, 
0xd9, 0x53, 0x5d, 0x3d, 0x4b, 0xaa, 0x4c, 0xbd, 0x70, 0xcf, 0x24, 0x3d, 0xd1, 0x9e, 0x21, 0xbd, 0x2c, 0x07, 0x2a, 0x3d, 0x10, 0x85, 0x5c, 0xbc, 0x0c, 0x5c, 0x2a, 0xbd, 0x16, 0x8e, 0x00, 0xbd, 
0x80, 0xd1, 0x07, 0x3b, 0xcc, 0x6d, 0x14, 0xbd, 0x2e, 0x92, 0xfb, 0xbc, 0x2e, 0xe1, 0x07, 0x3d, 0x5c, 0x8a, 0x4c, 0xbd, 0xa2, 0x97, 0xc5, 0xbc, 0x45, 0x9c, 0x42, 0x3c, 0x99, 0xad, 0xac, 0x3d, 
0xb3, 0xdc, 0xb4, 0xbd, 0xc8, 0xfb, 0xcd, 0x39, 0x0b, 0x96, 0x1d, 0xbd, 0x4d, 0xcd, 0x42, 0xbd, 0x8d, 0x9a, 0xb4, 0xbd, 0x3b, 0x36, 0xb3, 0x3d, 0xc8, 0xb0, 0x86, 0xbd, 0x4f, 0xaa, 0xcd, 0xbc, 
0xd4, 0xeb, 0x81, 0x3a, 0xaa, 0x25, 0x39, 0x3d, 0x9c, 0xaf, 0x97, 0x3d, 0x78, 0xcd, 0x74, 0xbd, 0x62, 0x8a, 0xdd, 0x3c, 0x17, 0x5e, 0x2a, 0x3d, 0xe4, 0x98, 0x8f, 0xbd, 0xc9, 0x55, 0xae, 0xbd, 
0x6d, 0x8a, 0x2d, 0xbd, 0x1a, 0x9c, 0x9c, 0x3d, 0xdb, 0xc4, 0x1f, 0xbd, 0x54, 0x71, 0xa8, 0xbd, 0x16, 0x54, 0x4d, 0x3d, 0x1c, 0x1c, 0x8f, 0x3d, 0x45, 0xf0, 0x51, 0x3c, 0xcd, 0xd3, 0x46, 0xbc, 
0x2d, 0xc3, 0x52, 0xbd, 0x2e, 0xf0, 0x95, 0x3d, 0x87, 0xde, 0x8d, 0xbc, 0x10, 0x56, 0x3c, 0xbd, 0x5f, 0x21, 0x5a, 0x3c, 0x90, 0x2d, 0x72, 0x3d, 0xc4, 0xa2, 0x53, 0xbd, 0x6a, 0x33, 0xcf, 0x3c, 
0x38, 0x12, 0x22, 0xbd, 0x27, 0x33, 0xa7, 0xbd, 0x4c, 0x8e, 0x9d, 0xbd, 0x1b, 0x5e, 0x8a, 0x3d, 0x24, 0x56, 0x92, 0xbc, 0x19, 0x51, 0x7e, 0xbd, 0xca, 0x62, 0x2c, 0x3d, 0xba, 0x9f, 0xc0, 0xbc, 
0xce, 0x4b, 0x17, 0xbd, 0xa2, 0xee, 0xa1, 0x3d, 0x07, 0x3f, 0x01, 0xbd, 0xf7, 0xfd, 0xa7, 0x3d, 0xca, 0xd7, 0x94, 0xbd, 0x1c, 0x9d, 0x59, 0xbd, 0x63, 0xc9, 0x73, 0x3d, 0xc0, 0xa3, 0x74, 0x3d, 
0x8c, 0x77, 0xa9, 0x3d, 0xd0, 0xcd, 0x3f, 0x3d, 0x6d, 0xa2, 0x82, 0x3d, 0x07, 0xca, 0x8b, 0xbd, 0xf8, 0xdb, 0x87, 0xbd, 0x4b, 0x7e, 0xa7, 0xbd, 0xd9, 0x29, 0x2b, 0xbd, 0x86, 0x24, 0xba, 0xbc, 
0xe0, 0x2d, 0xa6, 0x3d, 0x5b, 0xbb, 0x29, 0xbb, 0x64, 0x81, 0xb7, 0xbc, 0x19, 0x81, 0x9f, 0x3c, 0xbb, 0x1a, 0x5c, 0xbc, 0xf7, 0xfa, 0x92, 0x3c, 0x17, 0x43, 0x67, 0xbc, 0x6a, 0x78, 0xd5, 0xbc, 
0xde, 0x4f, 0xa9, 0xbd, 0x56, 0x7f, 0x63, 0xbd, 0xa0, 0x34, 0x81, 0x3d, 0x96, 0xd3, 0x62, 0xbd, 0xe7, 0x6b, 0x61, 0xbd, 0x2c, 0x71, 0x99, 0xbb, 0xd4, 0xe8, 0x69, 0xbd, 0xe9, 0xfc, 0x85, 0xbd, 
0xd2, 0x8e, 0xa6, 0x3d, 0x93, 0xf8, 0x94, 0x3d, 0xce, 0x91, 0x9b, 0x3d, 0x22, 0x89, 0x78, 0xbb, 0x25, 0x32, 0x69, 0x3c, 0x8a, 0x94, 0x4b, 0xbd, 0x7b, 0x0e, 0xa9, 0x3d, 0x84, 0x70, 0x1a, 0x3d, 
0x65, 0x6c, 0x88, 0x3c, 0xc7, 0xfe, 0x85, 0x3d, 0xc4, 0x94, 0x9b, 0xbd, 0xe8, 0x3f, 0x9d, 0x3d, 0x84, 0x98, 0x37, 0x3d, 0xa1, 0x86, 0x3d, 0x3d, 0x1e, 0xb7, 0x49, 0xbd, 0x1c, 0xb4, 0x2a, 0x3d, 
0x4b, 0x17, 0x27, 0xbd, 0x1c, 0x41, 0x66, 0xbd, 0xeb, 0xf2, 0x0f, 0x3d, 0xda, 0x5a, 0xe4, 0x3c, 0x77, 0x78, 0x0f, 0xbd, 0x5b, 0x1a, 0x79, 0xbd, 0xf5, 0xde, 0xe5, 0xbc, 0x3f, 0x81, 0xc3, 0x3c, 
0xc0, 0x47, 0x51, 0x3d, 0xd6, 0x92, 0x9c, 0x3d, 0x9b, 0x5e, 0x10, 0xbd, 0xbc, 0xc6, 0xfe, 0xbb, 0xfc, 0x22, 0x8e, 0x3d, 0x8e, 0xcc, 0x41, 0x3d, 0xe7, 0x7a, 0xb7, 0x3c, 0xd1, 0x54, 0x77, 0x3b, 
0xed, 0xd5, 0xb4, 0x3d, 0xf8, 0xaa, 0x86, 0xbc, 0xfb, 0xa1, 0x7f, 0xbc, 0x6d, 0xe2, 0x93, 0xbd, 0x44, 0xff, 0x31, 0x3d, 0x21, 0x80, 0x05, 0xbd, 0xf6, 0xc3, 0x97, 0x3d, 0xb7, 0x3f, 0x6e, 0x3c, 
0x0c, 0x1a, 0x75, 0x3d, 0x8d, 0xd2, 0xc8, 0x3b, 0x2e, 0x53, 0x5d, 0x3c, 0x8a, 0x0d, 0x47, 0xbd, 0x6e, 0x1b, 0x40, 0x3d, 0x73, 0x3b, 0x01, 0xbd, 0x4c, 0x31, 0x81, 0x3d, 0x7d, 0xce, 0x86, 0x3d, 
0x14, 0x0b, 0xad, 0xbd, 0xc5, 0x5f, 0x28, 0x3c, 0x42, 0xe0, 0x88, 0x3d, 0x0a, 0x82, 0xb2, 0x3d, 0x01, 0x38, 0x11, 0xbd, 0xa5, 0x3e, 0x6e, 0xbd, 0x2c, 0x42, 0x7c, 0x3d, 0x3b, 0xd8, 0x46, 0x3d, 
0xbb, 0xdc, 0xb3, 0x3c, 0x42, 0xb5, 0x35, 0xbc, 0x76, 0x2f, 0xb5, 0xbd, 0x2e, 0x4f, 0xd2, 0x3c, 0xd8, 0x26, 0x48, 0x3d, 0x36, 0x88, 0x8e, 0xbd, 0x79, 0xd7, 0x19, 0xbd, 0x34, 0xcc, 0xf7, 0x3b, 
0xc5, 0x4b, 0x1b, 0x3d, 0x8a, 0x77, 0x73, 0x3c, 0x3a, 0x5d, 0x91, 0xbd, 0xf8, 0x56, 0x00, 0xbc, 0xf7, 0xe7, 0xa0, 0xbd, 0x1e, 0x4e, 0xae, 0x3d, 0x45, 0x01, 0x6c, 0x3a, 0xdc, 0x62, 0x0f, 0x3d, 
0xd3, 0xbe, 0x5b, 0xbc, 0xae, 0xa3, 0x79, 0xbd, 0xaa, 0x09, 0xd1, 0xbb, 0xca, 0xd2, 0xa6, 0x3d, 0x47, 0x79, 0x69, 0xbd, 0xf8, 0xec, 0x61, 0x3c, 0x6a, 0xa2, 0x92, 0xbc, 0x54, 0x25, 0x2c, 0xbd, 
0x6b, 0xf3, 0x35, 0xbd, 0x36, 0xf8, 0xaa, 0x3d, 0x5d, 0x4d, 0xc7, 0xbc, 0xb1, 0xbf, 0x84, 0x3b, 0x06, 0x6c, 0x99, 0x3c, 0x62, 0xa9, 0xb4, 0xbb, 0xe3, 0x97, 0xa2, 0xbd, 0xf4, 0x81, 0xa4, 0x3d, 
0x2b, 0x03, 0x77, 0xbd, 0x70, 0xfb, 0xce, 0xbc, 0x6c, 0xfd, 0xbe, 0x3c, 0x01, 0x3f, 0x66, 0x3c, 0x64, 0x34, 0x72, 0x3d, 0x99, 0xc1, 0x9a, 0x3c, 0xb4, 0xd4, 0x30, 0xbc, 0x3c, 0x3c, 0xce, 0x3b, 
0x6f, 0x25, 0x96, 0xbd, 0x20, 0xc3, 0x04, 0x3d, 0x3a, 0x80, 0xb9, 0x3c, 0x1f, 0x64, 0x79, 0xbd, 0x88, 0xa5, 0x47, 0xbd, 0x34, 0x38, 0x95, 0xbd, 0x0d, 0xfc, 0x9d, 0xbb, 0x3a, 0xb5, 0xa8, 0x3c, 
0x43, 0xd1, 0xa4, 0x3d, 0xff, 0x21, 0x87, 0xbc, 0x8f, 0x18, 0x3a, 0x3d, 0x11, 0xca, 0x8b, 0x3c, 0x0b, 0x85, 0x4e, 0x3d, 0xdd, 0xf2, 0xc1, 0xbc, 0x12, 0x03, 0x1b, 0xbd, 0x93, 0x71, 0x1a, 0x3d, 
0x69, 0x5e, 0x29, 0xbd, 0xcb, 0xe2, 0x92, 0x3d, 0xcd, 0x65, 0x38, 0x3c, 0x39, 0xb5, 0x97, 0xbd, 0x40, 0x88, 0xb3, 0xbd, 0xf0, 0x94, 0x3f, 0xbd, 0xe7, 0x05, 0x84, 0x3d, 0x31, 0x6d, 0xae, 0x3c, 
0xee, 0x52, 0xc6, 0xbc, 0x32, 0x66, 0x86, 0xbd, 0x4c, 0x56, 0x60, 0x3b, 0x40, 0x9e, 0x9b, 0xbd, 0x18, 0xcc, 0xb3, 0xbd, 0x43, 0x39, 0x93, 0x39, 0x30, 0x35, 0x6e, 0xbc, 0xd9, 0x9c, 0x0d, 0xbc, 
0xc7, 0x85, 0x11, 0x3d, 0x68, 0x33, 0x85, 0x3d, 0x8a, 0x01, 0x5f, 0xbd, 0x9c, 0xfb, 0xfc, 0xbc, 0xce, 0x28, 0xd0, 0xbb, 0xa0, 0x05, 0x37, 0x3c, 0xd3, 0x59, 0x4e, 0x3d, 0xc4, 0x0d, 0x41, 0x3d, 
0x86, 0x7d, 0x81, 0xbc, 0xd7, 0x26, 0x84, 0xbb, 0x78, 0xa2, 0x47, 0xbd, 0x37, 0x00, 0x1c, 0xbd, 0xab, 0x1f, 0x11, 0xbd, 0x98, 0x01, 0x42, 0xbb, 0x44, 0xa0, 0x7f, 0x3c, 0x4d, 0x61, 0x60, 0xbc, 
0xcf, 0xd6, 0x67, 0xbd, 0xae, 0xb9, 0xd4, 0x3c, 0x08, 0x8e, 0xd5, 0xbb, 0x73, 0xd0, 0x51, 0x3d, 0xa4, 0x67, 0x9d, 0x3d, 0x4a, 0x7b, 0x8e, 0x3c, 0x56, 0xc3, 0x8d, 0x3d, 0xe0, 0x8d, 0x2f, 0x3d, 
0x28, 0x59, 0x0c, 0x3c, 0xca, 0x09, 0xa7, 0x3d, 0x17, 0xbd, 0x86, 0x3d, 0x73, 0x49, 0x44, 0x3d, 0x61, 0x2b, 0x60, 0x3d, 0xea, 0x3b, 0x66, 0xbd, 0xc4, 0x9a, 0xa1, 0x3d, 0x3c, 0x4a, 0x2f, 0x3b, 
0x73, 0x4e, 0xde, 0xbc, 0xd5, 0xee, 0x12, 0x3d, 0x8e, 0x7b, 0x39, 0xbd, 0x10, 0x12, 0x70, 0x3d, 0xc1, 0x6e, 0x97, 0x3c, 0x94, 0xd8, 0x23, 0xbd, 0xd3, 0x02, 0x7d, 0x3d, 0xbe, 0xad, 0x43, 0x3c, 
0xea, 0xed, 0x4b, 0xbd, 0xa0, 0x90, 0x88, 0xbd, 0x60, 0xc5, 0x32, 0xbd, 0x0e, 0x31, 0x92, 0x3d, 0xef, 0x9b, 0x0a, 0x3d, 0x64, 0x97, 0xa1, 0x3d, 0x34, 0x92, 0x6a, 0x3c, 0xdc, 0x76, 0x46, 0xbd, 
0xf9, 0x09, 0xe2, 0xbc, 0xfc, 0x59, 0x0e, 0x3d, 0xf4, 0x34, 0xd5, 0xbc, 0x86, 0x22, 0x24, 0x3d, 0xe8, 0x97, 0x50, 0x3d, 0x89, 0x05, 0x80, 0xbd, 0x66, 0xb6, 0x88, 0xbd, 0x25, 0x9a, 0x7b, 0x3d, 
0x38, 0xb7, 0x5e, 0xbd, 0xd9, 0xf4, 0x0c, 0xbd, 0x21, 0xb2, 0x8e, 0x3d, 0xee, 0xfb, 0xf4, 0xbb, 0x27, 0x2e, 0x8d, 0xbc, 0x3f, 0x5d, 0x9a, 0x3d, 0xcb, 0x37, 0x62, 0x3d, 0x01, 0x67, 0xa5, 0xbd, 
0x25, 0x2b, 0x83, 0x39, 0x44, 0xdc, 0x20, 0xbd, 0x4f, 0x90, 0xac, 0x3d, 0xee, 0xdf, 0x5d, 0x3c, 0xa3, 0x03, 0x8f, 0x3d, 0xab, 0x2c, 0x1f, 0xbc, 0x3f, 0x1a, 0xb5, 0x3c, 0x10, 0x4c, 0x29, 0x3c, 
0x9c, 0x28, 0xfc, 0xbc, 0x7c, 0x8e, 0xb2, 0x3d, 0x7b, 0x8e, 0x71, 0x3d, 0xb3, 0xb4, 0x8b, 0x3d, 0x8f, 0xfb, 0x40, 0x3d, 0xde, 0x71, 0xd4, 0x38, 0xcc, 0x57, 0x4a, 0xb8, 0x82, 0x2f, 0x19, 0x3d, 
0x97, 0x37, 0xdf, 0x3c, 0xd7, 0x4d, 0x88, 0xbd, 0x5d, 0xb8, 0x2b, 0xbd, 0x29, 0x4f, 0x06, 0xbd, 0xa5, 0x10, 0xaf, 0xbd, 0x2b, 0x2a, 0x1f, 0xbd, 0xc1, 0xce, 0x94, 0xba, 0x0b, 0xaf, 0x12, 0x3d, 
0x65, 0xd8, 0x25, 0xbd, 0x9f, 0xa7, 0x7c, 0x3d, 0x85, 0xc1, 0x93, 0xbd, 0xf1, 0x44, 0x26, 0x3d, 0xe9, 0x56, 0x0f, 0x3d, 0x67, 0x0f, 0x92, 0x3d, 0xa9, 0xb8, 0x0c, 0x3d, 0x37, 0xfe, 0x40, 0xbd, 
0x7c, 0x7f, 0x8d, 0xbd, 0x98, 0x35, 0x02, 0x3d, 0x18, 0xd7, 0x0c, 0xbd, 0x0e, 0x36, 0x49, 0xbd, 0xf2, 0x58, 0x48, 0x3d, 0xb4, 0x2b, 0x89, 0x3c, 0x47, 0x9d, 0xa1, 0x3d, 0xf7, 0x1f, 0xb5, 0x3b, 
0x82, 0xda, 0xdc, 0x3c, 0xeb, 0x32, 0x83, 0x3d, 0xb6, 0x86, 0x75, 0x3d, 0x63, 0x43, 0xa5, 0xbd, 0xf6, 0x22, 0xa3, 0xbc, 0x76, 0x4d, 0x91, 0xbd, 0x9f, 0x6a, 0x9c, 0xbd, 0x9f, 0x9d, 0x4d, 0xbd, 
0xc0, 0xd7, 0x97, 0xbd, 0x82, 0x9c, 0x89, 0x3d, 0x7a, 0x1d, 0x24, 0xbd, 0x79, 0xf6, 0x36, 0x3d, 0x0c, 0xa5, 0x97, 0x3d, 0x96, 0x7a, 0x35, 0x3d, 0x26, 0xa4, 0x4b, 0xbd, 0x24, 0x21, 0x79, 0xbd, 
0x75, 0x86, 0x3a, 0x3d, 0x68, 0x26, 0x98, 0x3d, 0x57, 0xdc, 0x20, 0xbd, 0x7f, 0x4d, 0x8c, 0xbd, 0xe8, 0x36, 0xa8, 0xbc, 0x92, 0x41, 0x42, 0xbd, 0x16, 0xa2, 0x63, 0x3c, 0x7b, 0xac, 0x9d, 0x3d, 
0x05, 0x75, 0x91, 0xbd, 0xaf, 0x89, 0xaa, 0x3d, 0x1d, 0xcd, 0x27, 0xbd, 0xdd, 0x8e, 0xb9, 0x3c, 0x15, 0x1b, 0x15, 0xbc, 0x4d, 0x6a, 0xa0, 0x3c, 0xb2, 0x0f, 0x5b, 0x3d, 0xfc, 0x92, 0xa0, 0x3c, 
0xfd, 0x21, 0x28, 0xbd, 0xf1, 0x08, 0xbd, 0x3d, 0xdd, 0x8d, 0x0c, 0xbd, 0x1d, 0x53, 0xa9, 0x3c, 0xc8, 0xd9, 0xa3, 0x3d, 0xc9, 0x2c, 0x60, 0x3c, 0xc1, 0x4c, 0x21, 0xbd, 0x78, 0x36, 0x19, 0xbd, 
0x7a, 0x61, 0x34, 0xbd, 0x28, 0x70, 0x8d, 0x3d, 0x86, 0xf2, 0x48, 0x3d, 0x85, 0xc4, 0x1e, 0x3d, 0xc4, 0x56, 0x80, 0x3c, 0x25, 0xde, 0xb8, 0x3d, 0x6b, 0xff, 0x32, 0x3d, 0xd0, 0x09, 0xf0, 0x3c, 
0x9e, 0x74, 0x95, 0x3c, 0xea, 0x86, 0x99, 0x3d, 0x97, 0xfb, 0x1f, 0x3d, 0xe8, 0xf5, 0xee, 0xbc, 0xc6, 0x03, 0x9d, 0xbd, 0xd5, 0x5c, 0x6b, 0xbc, 0x72, 0x00, 0x7d, 0xbd, 0x04, 0x46, 0x84, 0xbb, 
0x66, 0x69, 0x98, 0x3c, 0xe6, 0x5a, 0x81, 0xbd, 0xde, 0x75, 0x3d, 0x39, 0xd1, 0x9a, 0x19, 0xbd, 0x27, 0x9d, 0x7f, 0xbd, 0xc8, 0x81, 0x9e, 0x3d, 0x81, 0xad, 0x0b, 0xbb, 0x85, 0x2d, 0x1c, 0xbd, 
0x48, 0xe3, 0x93, 0xbd, 0x7f, 0xa3, 0xf8, 0xbc, 0x63, 0xaf, 0x9a, 0xbc, 0xee, 0x0c, 0x6f, 0xbd, 0x9c, 0x7e, 0x99, 0x3d, 0x1a, 0x20, 0x8f, 0xbd, 0x41, 0xcd, 0xc3, 0xbc, 0xf1, 0x34, 0xa7, 0x3d, 
0xc4, 0x84, 0x34, 0xbd, 0x6e, 0x95, 0xa2, 0x3d, 0xd4, 0xd1, 0x34, 0xbd, 0x3e, 0x55, 0x01, 0x3d, 0xb1, 0x99, 0x34, 0x3c, 0x5b, 0x6a, 0x93, 0x3c, 0x40, 0x64, 0xa9, 0xbd, 0x78, 0x2b, 0x83, 0x3d, 
0x9d, 0x43, 0x7a, 0xbd, 0x7a, 0xdd, 0x35, 0x3c, 0x1a, 0xed, 0x39, 0xbd, 0x46, 0x40, 0x85, 0x3c, 0xe2, 0x95, 0x97, 0x3c, 0x11, 0x90, 0xd4, 0xbc, 0x1b, 0x0f, 0x8c, 0x3d, 0xce, 0x51, 0x84, 0x3c, 
0x77, 0x5a, 0x74, 0xbd, 0xaf, 0x89, 0x8f, 0x3d, 0x49, 0xe8, 0xf0, 0xbb, 0xd4, 0xcc, 0x6f, 0x3d, 0x6a, 0x1f, 0xa6, 0xbd, 0xb0, 0x42, 0x54, 0x3d, 0x8b, 0xcd, 0x9d, 0x3c, 0x19, 0x60, 0x2c, 0xbb, 
0xc6, 0x7e, 0xd9, 0x3c, 0x89, 0x4e, 0x90, 0xbd, 0x35, 0xdf, 0xc1, 0xbc, 0x74, 0xe5, 0x5d, 0x3d, 0x97, 0xbb, 0xea, 0x3c, 0x7e, 0xfa, 0xd7, 0x3c, 0x14, 0xfc, 0xf8, 0xbc, 0xd6, 0xa1, 0x5a, 0xbd, 
0x07, 0xd8, 0x11, 0xbc, 0xb6, 0xeb, 0x83, 0x3c, 0x86, 0xa7, 0x6d, 0x3b, 0x96, 0x5b, 0x6d, 0x3c, 0xbf, 0x23, 0x94, 0xbc, 0x84, 0x35, 0xab, 0x3d, 0x57, 0x99, 0x89, 0x3d, 0x15, 0xc0, 0x65, 0x3c, 
0xca, 0x77, 0x04, 0x3b, 0x20, 0xaa, 0x18, 0x3c, 0x7a, 0xac, 0xca, 0xbc, 0xb8, 0x24, 0x99, 0xbd, 0x87, 0x1f, 0xb8, 0xbc, 0x96, 0x22, 0xa5, 0xbc, 0xb9, 0x3a, 0x2b, 0x3d, 0xe8, 0x2d, 0xad, 0x3d, 
0x57, 0x7f, 0x98, 0x3d, 0x6a, 0xec, 0x81, 0x3d, 0xb2, 0x66, 0x96, 0xbc, 0xbe, 0xaf, 0x4b, 0x3d, 0x05, 0xf8, 0x7f, 0x3c, 0xfc, 0x6a, 0x98, 0xbd, 0xeb, 0x29, 0x98, 0xbb, 0x84, 0x63, 0x40, 0xbd, 
0xf6, 0x6a, 0xc0, 0xbc, 0x45, 0xaf, 0x58, 0xbd, 0x02, 0x33, 0xcd, 0x3c, 0xdf, 0xb8, 0x8f, 0xbd, 0x73, 0x46, 0x57, 0xbd, 0x72, 0x7a, 0x33, 0xbd, 0xd5, 0xac, 0xae, 0xbd, 0x4f, 0x0f, 0x7c, 0xbd, 
0xd0, 0x94, 0x35, 0x3d, 0x41, 0xeb, 0xa5, 0x3d, 0xc5, 0x57, 0x92, 0x3d, 0x31, 0xbe, 0x1f, 0x3d, 0x0b, 0x00, 0x4b, 0x3d, 0x78, 0x85, 0x84, 0x3d, 0x1b, 0x9b, 0x78, 0xbd, 0x7b, 0x91, 0xa4, 0x3d, 
0xee, 0x2c, 0xa6, 0x3d, 0x48, 0xfd, 0xa1, 0xbd, 0x4d, 0x50, 0xe8, 0x3c, 0x43, 0x56, 0xa5, 0xbd, 0xa9, 0x0f, 0x5c, 0xbd, 0x79, 0xdd, 0x90, 0x3d, 0x52, 0xe7, 0x0b, 0xbd, 0xb3, 0x8f, 0x81, 0x3b, 
0xe8, 0xdd, 0x7e, 0xbd, 0x85, 0x2c, 0x0e, 0xbd, 0x58, 0x02, 0x98, 0x3c, 0x5f, 0xdc, 0x98, 0x3d, 0xec, 0xcf, 0x85, 0xbd, 0x55, 0x14, 0xae, 0xbd, 0x2e, 0x79, 0x4c, 0xbd, 0x50, 0xfd, 0x15, 0xbd, 
0x31, 0xb2, 0x83, 0xbd, 0xcc, 0x76, 0x91, 0x3d, 0x01, 0x23, 0x53, 0xbd, 0xc1, 0xf9, 0x9d, 0xbd, 0x1e, 0x0c, 0xa1, 0x3d, 0xdf, 0x19, 0x58, 0xbd, 0x40, 0xd6, 0x78, 0x3c, 0xe3, 0x66, 0x8d, 0xbd, 
0xb9, 0xa5, 0x9e, 0x3d, 0x2e, 0x97, 0xcb, 0x3a, 0x1d, 0x60, 0x84, 0xbd, 0x71, 0xbc, 0x68, 0x3d, 0x5c, 0xbc, 0x9c, 0x3c, 0xbf, 0xf3, 0xe4, 0x3c, 0xb3, 0x2f, 0x85, 0x3d, 0xd4, 0x0b, 0xc4, 0xbc, 
0x29, 0x24, 0x7f, 0x3c, 0xf5, 0xd9, 0x63, 0xbd, 0x9d, 0x86, 0xb3, 0x3d, 0xac, 0x06, 0xab, 0xbd, 0xe1, 0x51, 0x20, 0xbd, 0xee, 0x84, 0x1d, 0x3c, 0x87, 0xb5, 0x1c, 0xbd, 0xdc, 0x8f, 0x9c, 0x3d, 
0x45, 0x10, 0x25, 0x3d, 0x73, 0xfb, 0x3c, 0xbc, 0x51, 0x5e, 0x3c, 0xbd, 0x34, 0x83, 0x0f, 0x3d, 0x8c, 0xc4, 0xb0, 0xbd, 0xcd, 0x7d, 0x26, 0xbd, 0xcd, 0xc6, 0x9d, 0x3d, 0x33, 0xb9, 0x6b, 0x3a, 
0xab, 0xc6, 0x86, 0x3d, 0x07, 0xb3, 0x64, 0x3d, 0x26, 0xf4, 0x88, 0xbd, 0x32, 0x52, 0x88, 0xbc, 0xf9, 0x42, 0x2d, 0x3d, 0x38, 0x9d, 0xa1, 0xbd, 0x05, 0x3b, 0x70, 0x3d, 0x22, 0xe0, 0x82, 0x3c, 
0x4f, 0x94, 0x47, 0xbd, 0x71, 0xca, 0x76, 0xbd, 0xfe, 0xcc, 0x59, 0xbd, 0x5e, 0xf4, 0x81, 0x3d, 0x4b, 0xd7, 0xab, 0x3d, 0xe1, 0x63, 0xaa, 0xbd, 0xb4, 0xe9, 0x87, 0x3d, 0x7c, 0x10, 0xa7, 0xbd, 
0x50, 0xf7, 0x58, 0xbd, 0xe3, 0x3f, 0xb2, 0x3c, 0xb4, 0x96, 0x5a, 0x3d, 0x34, 0xae, 0x55, 0x3c, 0xa2, 0x5a, 0x50, 0x3d, 0x1e, 0x26, 0xfa, 0xbc, 0x43, 0xb5, 0x34, 0xbd, 0x7c, 0x94, 0x09, 0x3d, 
0x26, 0x6b, 0x72, 0x3d, 0xd5, 0x81, 0xed, 0x3c, 0x06, 0x84, 0x8b, 0xbd, 0x95, 0x0d, 0x5e, 0x3d, 0xbe, 0x30, 0xc3, 0x3b, 0x62, 0xf7, 0x7e, 0x3d, 0xce, 0xa8, 0xac, 0x3d, 0x6e, 0x11, 0x31, 0xbc, 
0x48, 0x2d, 0x98, 0xbd, 0xee, 0x41, 0xa5, 0x3d, 0x72, 0xd5, 0x2d, 0xbd, 0x0f, 0x15, 0x11, 0xbd, 0x5e, 0x7c, 0x95, 0x3d, 0x9d, 0xb1, 0x62, 0xbd, 0x2b, 0x9c, 0x7e, 0xbc, 0x19, 0xab, 0xe3, 0x3c, 
0x64, 0x54, 0x19, 0x3d, 0xce, 0x77, 0xaf, 0xbd, 0x32, 0xf2, 0x47, 0xbd, 0x0c, 0x6f, 0x42, 0xbd, 0x8c, 0x09, 0x7f, 0xbd, 0xd1, 0x55, 0x92, 0x3d, 0xa4, 0xbf, 0x12, 0x3d, 0xf2, 0x45, 0x81, 0x3d, 
0xd5, 0x11, 0x2b, 0xbd, 0xac, 0xe5, 0xad, 0x3c, 0xb3, 0x53, 0xac, 0xbc, 0x0e, 0x48, 0x11, 0xbd, 0x99, 0x38, 0x03, 0xbd, 0x9d, 0x43, 0x7a, 0xbd, 0xf8, 0x69, 0x9e, 0x3d, 0xd0, 0xc3, 0x91, 0x3d, 
0xc0, 0x62, 0x83, 0x3d, 0x17, 0x4c, 0x10, 0x3d, 0x24, 0x19, 0x9b, 0xbd, 0xf5, 0xa2, 0x84, 0x3d, 0x3a, 0x74, 0x36, 0x3d, 0x31, 0x6b, 0x70, 0xbb, 0x6d, 0x06, 0x07, 0x3d, 0x4d, 0x96, 0x07, 0xbb, 
0xc4, 0x20, 0x00, 0xbd, 0xd9, 0xef, 0x33, 0xbc, 0x08, 0x74, 0x94, 0xbd, 0x69, 0xe7, 0x9b, 0xbd, 0x70, 0xad, 0x7b, 0xbd, 0x93, 0xa3, 0x65, 0xbc, 0xa3, 0x01, 0x74, 0x3d, 0x75, 0x48, 0x30, 0xbd, 
0x1d, 0x8e, 0x75, 0xbd, 0x54, 0xa4, 0x58, 0x3d, 0x21, 0x54, 0x82, 0xbd, 0x9b, 0xbb, 0x83, 0x3c, 0x3b, 0xd1, 0x1b, 0xbd, 0xf5, 0x2a, 0x25, 0xbc, 0xbb, 0xf2, 0x19, 0x3c, 0xa6, 0xec, 0x17, 0xbd, 
0xd9, 0x5d, 0x37, 0x3d, 0x86, 0x91, 0x45, 0xbd, 0xc2, 0xc3, 0x4c, 0xbd, 0x47, 0x21, 0x83, 0x3d, 0x7f, 0x04, 0x0d, 0x3d, 0xfc, 0x9e, 0xac, 0x3c, 0x7f, 0xe6, 0x4d, 0xbd, 0x8e, 0x0e, 0xa3, 0xbd, 
0xeb, 0xdf, 0xa8, 0xbc, 0xb3, 0x44, 0x92, 0xbd, 0xc3, 0x58, 0x2b, 0x3d, 0xfb, 0x27, 0x2c, 0x3c, 0x96, 0xd8, 0x33, 0x3d, 0x58, 0xf4, 0x6a, 0xbc, 0x45, 0x0a, 0x90, 0xbd, 0xb7, 0x78, 0x8e, 0x3d, 
0xcb, 0x5b, 0xa5, 0x3d, 0xb1, 0xc3, 0x2c, 0xbc, 0xd4, 0x20, 0x4c, 0x3d, 0x25, 0xba, 0xfa, 0x3c, 0x0f, 0x12, 0x90, 0x3d, 0x55, 0x44, 0x2d, 0xbd, 0x6b, 0x82, 0x60, 0x3c, 0x1f, 0xc8, 0x63, 0x3d, 
0x5e, 0xd9, 0xae, 0xbd, 0x00, 0x48, 0xde, 0xbc, 0x55, 0x73, 0xf7, 0x3c, 0xc3, 0xca, 0x3f, 0x3d, 0x6f, 0xd4, 0xe5, 0xba, 0xa6, 0xa6, 0x31, 0xbd, 0xb3, 0xbf, 0xba, 0xbc, 0x07, 0x0c, 0xb0, 0xbd, 
0xca, 0x98, 0x10, 0xbd, 0x18, 0xfc, 0xb0, 0xbd, 0x16, 0x9d, 0x66, 0xbd, 0xa2, 0x75, 0xff, 0xbc, 0xe3, 0x49, 0x4b, 0xbb, 0xd4, 0x24, 0x2e, 0x3c, 0x4c, 0xc1, 0xfa, 0xbc, 0xc8, 0xbc, 0x7b, 0xbd, 
0x56, 0xd8, 0x1d, 0x3d, 0x59, 0xd4, 0x93, 0xbd, 0xdb, 0x89, 0x9c, 0xbd, 0x13, 0x7f, 0x58, 0xbd, 0xda, 0x8b, 0x07, 0xbb, 0x70, 0x32, 0xd0, 0x3c, 0x97, 0x63, 0x12, 0xbc, 0x50, 0xea, 0x29, 0xbd, 
0x5b, 0xc9, 0x4f, 0x3d, 0x4d, 0x93, 0xce, 0x3c, 0xb4, 0x3b, 0x12, 0xbd, 0x70, 0x6d, 0xa4, 0xbd, 0x93, 0x28, 0x7e, 0x3d, 0xef, 0x10, 0x79, 0x3d, 0x3c, 0x7b, 0x98, 0x3d, 0x92, 0x22, 0xb3, 0xbc, 
0x0d, 0x40, 0x6f, 0xbd, 0x50, 0xb5, 0x49, 0x3d, 0x40, 0xd6, 0x2b, 0x3d, 0x27, 0x6a, 0x6b, 0xbd, 0xe6, 0x65, 0xfb, 0x3c, 0xb1, 0xfa, 0x72, 0x3d, 0x91, 0x90, 0x4f, 0x3d, 0x2a, 0x7f, 0xfd, 0x3c, 
0x14, 0xfc, 0x50, 0xbd, 0x16, 0xc6, 0x82, 0x3d, 0x66, 0xf3, 0x4f, 0xbd, 0x80, 0xf5, 0x00, 0xbd, 0xc0, 0x76, 0xae, 0x3d, 0xb4, 0xe1, 0x21, 0xbd, 0xcf, 0x43, 0xbb, 0xbc, 0x63, 0x5a, 0xa6, 0x3c, 
0x33, 0x3b, 0xce, 0x3b, 0x53, 0x28, 0x40, 0x3d, 0x1e, 0x48, 0xb1, 0x3c, 0xb0, 0x1f, 0xcd, 0xbc, 0xa0, 0x4c, 0x9a, 0xbc, 0x01, 0x0e, 0xca, 0x3c, 0xeb, 0x1e, 0x22, 0xbd, 0x12, 0x7b, 0x03, 0xbc, 
0x2e, 0x31, 0x33, 0x3d, 0xd3, 0x0a, 0x08, 0xbd, 0x8a, 0xb5, 0x24, 0x3d, 0xe8, 0x49, 0x93, 0x3d, 0xf6, 0xa7, 0xab, 0x3d, 0x90, 0x84, 0x56, 0x3d, 0xb9, 0x06, 0x2b, 0x3d, 0x0f, 0x9c, 0xea, 0xbc, 
0x01, 0x48, 0x94, 0xbd, 0xb7, 0x4b, 0xba, 0x3b, 0x71, 0x0c, 0x17, 0x3d, 0x84, 0xb1, 0x98, 0xbd, 0xac, 0x7a, 0x1c, 0x3d, 0x1c, 0x95, 0x8c, 0xbd, 0x48, 0x13, 0xa4, 0x3d, 0x85, 0x60, 0x02, 0x3d, 
0x39, 0x67, 0x8f, 0xbd, 0x0c, 0x36, 0xab, 0x3d, 0x80, 0x72, 0x5c, 0xbd, 0xe4, 0xef, 0x4f, 0xbd, 0xc8, 0x04, 0x77, 0x3d, 0x6e, 0x41, 0xa1, 0xbd, 0xa0, 0xca, 0xc5, 0xbb, 0xb5, 0x24, 0x8e, 0xbd, 
0xb2, 0x3e, 0x70, 0x3d, 0xd8, 0xe0, 0xa5, 0xbc, 0x9c, 0x5a, 0x97, 0x3d, 0xc9, 0x2f, 0x63, 0xbd, 0x72, 0x2b, 0xf0, 0x3c, 0x69, 0xc9, 0x9e, 0xbd, 0x10, 0x59, 0x9f, 0xbc, 0x07, 0x64, 0x96, 0xbd, 
0x58, 0xd9, 0xf9, 0x3c, 0x71, 0x12, 0x42, 0x3c, 0xa3, 0x56, 0x8e, 0x3d, 0x2c, 0x75, 0xeb, 0xbc, 0x9a, 0x59, 0x25, 0x3d, 0x03, 0x20, 0xb0, 0x3d, 0x30, 0x45, 0x6e, 0xbd, 0xb9, 0xab, 0x9a, 0x3d, 
0xe4, 0x7f, 0xf6, 0xbb, 0x8c, 0xa8, 0x92, 0x3b, 0x2b, 0x3e, 0x8c, 0xbd, 0x96, 0x1d, 0x42, 0xbd, 0x4c, 0x66, 0xd7, 0x3b, 0x9a, 0x32, 0x8d, 0x3d, 0xc7, 0x82, 0x37, 0xbd, 0xbc, 0xb7, 0x2a, 0xbd, 
0x46, 0xa6, 0x7d, 0xbc, 0x09, 0xd1, 0x8c, 0xbc, 0xce, 0xd4, 0x65, 0xbd, 0xa8, 0x8d, 0xc7, 0x3c, 0x47, 0x62, 0x26, 0x3c, 0xeb, 0x9c, 0x90, 0x3d, 0xcf, 0x44, 0xac, 0xbd, 0x59, 0x0a, 0x9d, 0x3c, 
0xda, 0xd1, 0x26, 0xbd, 0x13, 0xb2, 0x54, 0x3d, 0xef, 0x5f, 0xc3, 0x3c, 0x33, 0x99, 0xa8, 0x3d, 0x71, 0x36, 0x9f, 0xbd, 0x51, 0x04, 0x23, 0xb9, 0x8d, 0x5a, 0x41, 0xbd, 0x41, 0x49, 0x9e, 0x3d, 
0xfd, 0x4a, 0x3c, 0xbd, 0x21, 0x58, 0x93, 0xbd, 0x29, 0x58, 0x53, 0x3c, 0x41, 0x26, 0x07, 0x3d, 0x49, 0xcb, 0x8e, 0xbd, 0xde, 0xd8, 0x1b, 0xbd, 0xda, 0xa3, 0xa4, 0x3d, 0x87, 0x6b, 0xf8, 0x3c, 
0x21, 0x49, 0x1a, 0xbd, 0x1a, 0x5f, 0x58, 0xbd, 0xd8, 0x60, 0x1f, 0x3c, 0x48, 0xd8, 0x9c, 0x3d, 0xf7, 0x5b, 0x52, 0x3d, 0x5c, 0xea, 0x98, 0x3c, 0xba, 0x73, 0xba, 0xba, 0xec, 0x90, 0x41, 0xbd, 
0x71, 0xaf, 0xc3, 0x3b, 0x26, 0xe7, 0xaa, 0xbd, 0x2c, 0xff, 0x3e, 0xbd, 0xd4, 0x17, 0x93, 0xbd, 0x07, 0x94, 0x0f, 0x3b, 0x2b, 0xba, 0x59, 0xbd, 0x80, 0xce, 0xbf, 0xba, 0xe4, 0x67, 0x3d, 0xbd, 
0xcc, 0x5e, 0x28, 0x3d, 0xed, 0xcc, 0x5d, 0xbd, 0x60, 0x69, 0x27, 0xbd, 0xfc, 0x38, 0x86, 0xbd, 0x80, 0x55, 0x83, 0x3d, 0x1e, 0x13, 0x3f, 0xbd, 0xbd, 0xcb, 0xa2, 0xbd, 0xd0, 0x33, 0x96, 0x3d, 
0x6a, 0xef, 0xad, 0x3d, 0x9f, 0x90, 0x94, 0xbb, 0x35, 0x39, 0x6f, 0x3d, 0xe6, 0x4c, 0xe3, 0x3c, 0x24, 0xd7, 0x83, 0xbd, 0xd8, 0x0b, 0x8b, 0x3c, 0x60, 0x9b, 0x0d, 0xbd, 0xe7, 0x7b, 0xae, 0xbd, 
0x79, 0x80, 0x76, 0xbd, 0x05, 0x41, 0x2f, 0x3d, 0x48, 0x52, 0xbf, 0x3b, 0x03, 0xb4, 0x0b, 0x3d, 0x31, 0xdb, 0x8d, 0xbd, 0x97, 0x3d, 0x47, 0x3d, 0xa5, 0x7e, 0xde, 0xbc, 0xf9, 0x47, 0x54, 0x3d, 
0x4b, 0x3e, 0xba, 0x3c, 0xc7, 0x91, 0x1a, 0x3d, 0x50, 0xc2, 0x81, 0x3d, 0x6e, 0x20, 0x14, 0x3d, 0xb6, 0x55, 0x9b, 0xbd, 0xda, 0xea, 0x0c, 0x3d, 0x7e, 0x5b, 0xb1, 0xbd, 0x1b, 0x1e, 0x78, 0xbc, 
0xa9, 0xd2, 0xbd, 0xbc, 0x8d, 0x8b, 0x53, 0xbd, 0x35, 0xc8, 0x6e, 0xbd, 0x43, 0x2c, 0xa2, 0x3d, 0x19, 0x7f, 0x8f, 0x3d, 0x8d, 0x94, 0x1a, 0xbc, 0x9a, 0x3a, 0xdc, 0xbc, 0x4f, 0x00, 0x45, 0xbd, 
0x13, 0x4f, 0x9b, 0x3d, 0x6a, 0x4f, 0xac, 0xbc, 0xf3, 0x31, 0x4e, 0x3d, 0x1f, 0xd6, 0xf1, 0xbc, 0xc2, 0x10, 0xb5, 0xbc, 0x6e, 0x00, 0x46, 0xbd, 0xa0, 0x47, 0x47, 0xbd, 0x52, 0x1c, 0x3b, 0xbd, 
0x0a, 0x43, 0xa6, 0x37, 0x84, 0xb7, 0x09, 0xbd, 0x68, 0xfb, 0xe7, 0xbc, 0xe3, 0x60, 0x30, 0xbd, 0x53, 0x60, 0xb6, 0xbd, 0x0f, 0xe2, 0x32, 0xbc, 0x07, 0xfd, 0x8a, 0xbd, 0x4b, 0x88, 0x05, 0x3d, 
0x36, 0x2d, 0x0e, 0x3d, 0x8c, 0x62, 0x86, 0xbd, 0x48, 0x5e, 0x8c, 0xbd, 0x5a, 0x36, 0x95, 0xbd, 0xe9, 0x23, 0xe9, 0x3c, 0x15, 0xa9, 0x95, 0xbd, 0xcf, 0x0e, 0xe6, 0x3c, 0xfc, 0x44, 0xfb, 0xbb, 
0x76, 0x1c, 0x98, 0x3d, 0xb2, 0x17, 0x42, 0xbc, 0x2d, 0xd8, 0x56, 0x3d, 0xdd, 0xb2, 0xa2, 0x3d, 0xbf, 0x0e, 0x61, 0x3d, 0xa5, 0x34, 0xf7, 0x3c, 0xc4, 0x91, 0x8f, 0x3d, 0x39, 0x09, 0xb1, 0xbc, 
0xc4, 0xf9, 0x9d, 0x3c, 0x58, 0x93, 0xa0, 0x3d, 0x79, 0x6b, 0xa7, 0xbd, 0xa2, 0x30, 0x23, 0x3d, 0xcb, 0x1c, 0x1c, 0x3d, 0x16, 0x3b, 0xc0, 0x3b, 0x69, 0xd9, 0xf0, 0xbc, 0x2f, 0xc0, 0x8c, 0xbd, 
0x5f, 0x40, 0x48, 0x3d, 0xd9, 0x9d, 0x83, 0x3d, 0x5e, 0x36, 0xa7, 0x3d, 0x85, 0x7b, 0x5b, 0xbc, 0xe5, 0x9d, 0x8e, 0x3d, 0x81, 0xf6, 0x3e, 0xbc, 0xfd, 0xb1, 0x9d, 0x3c, 0xd8, 0x61, 0xe9, 0x3c, 
0x0c, 0x3f, 0x8c, 0xbd, 0xe4, 0x0b, 0x4a, 0xbd, 0xd0, 0x1f, 0x68, 0x3c, 0x5c, 0x50, 0x9b, 0xbd, 0xf5, 0xf1, 0xcd, 0x3c, 0xb4, 0x0a, 0x01, 0xbd, 0xfa, 0x91, 0xa6, 0xbd, 0x0a, 0x6b, 0x34, 0xbd, 
0x5a, 0x7f, 0x5f, 0x3d, 0x72, 0xad, 0xad, 0x3d, 0xf3, 0x7e, 0x41, 0x3d, 0x28, 0x12, 0x9b, 0x3c, 0x2f, 0x18, 0x5c, 0xbd, 0x62, 0x74, 0x62, 0xbd, 0xa5, 0xc0, 0x49, 0xbd, 0x25, 0xb3, 0xd0, 0xbc, 
0x50, 0x30, 0x93, 0x3c, 0xa5, 0xea, 0xc2, 0xbb, 0x0e, 0xdb, 0xe0, 0x3c, 0x58, 0x8c, 0x1a, 0xbc, 0x4e, 0xd1, 0xa9, 0x3d, 0xa6, 0xbd, 0xa2, 0xbc, 0x70, 0xcc, 0xfc, 0x3a, 0x32, 0x6a, 0x9c, 0x3d, 
0xd9, 0xea, 0x94, 0x3d, 0xf7, 0xd3, 0xab, 0x3d, 0x00, 0xed, 0x4a, 0xbd, 0xdb, 0xe2, 0x28, 0xbd, 0xe0, 0x0f, 0xec, 0x3c, 0x70, 0x78, 0x14, 0xbd, 0x66, 0x6d, 0xaa, 0x3d, 0x44, 0x7e, 0x79, 0xbd, 
0xdd, 0x20, 0x21, 0xbd, 0x1d, 0x93, 0xe1, 0x3c, 0x4b, 0x7e, 0x66, 0xbd, 0x3e, 0xc8, 0xb0, 0xbd, 0x06, 0xba, 0x88, 0xbc, 0x16, 0x21, 0x0e, 0xbd, 0xec, 0xf5, 0xd6, 0x3c, 0x1d, 0x2f, 0x81, 0xbd, 
0x21, 0x37, 0x6a, 0xbd, 0xa6, 0x00, 0x40, 0xbd, 0xae, 0xbe, 0x8d, 0x3d, 0x8b, 0xdb, 0x2f, 0x3c, 0x12, 0x09, 0x8e, 0x3d, 0x8d, 0x1e, 0x84, 0x3d, 0xb7, 0x6a, 0x46, 0x3d, 0xed, 0x1f, 0x36, 0xbd, 
0x5b, 0xd1, 0xcd, 0x3b, 0x36, 0x01, 0x95, 0x3d, 0xc5, 0xc2, 0x5c, 0xbd, 0x95, 0x15, 0x21, 0xbc, 0x07, 0x43, 0x40, 0xbd, 0xbb, 0xe4, 0x73, 0x3c, 0x9c, 0x7a, 0x6f, 0x3d, 0xbb, 0x99, 0xac, 0xbc, 
0xe5, 0x2c, 0x2c, 0x3d, 0x7e, 0x9d, 0xa5, 0xbd, 0x72, 0xef, 0xe3, 0xbc, 0x85, 0x94, 0x80, 0x3d, 0xf1, 0x85, 0xa7, 0x3d, 0x17, 0x0a, 0xa8, 0x3d, 0xdd, 0xad, 0x9f, 0x3d, 0x90, 0x6a, 0x11, 0x3c, 
0x81, 0x71, 0x23, 0x3d, 0xdf, 0x80, 0xb0, 0xbc, 0x25, 0x04, 0x99, 0x3d, 0xcc, 0x0d, 0x85, 0x3d, 0x35, 0xa6, 0x5e, 0x3d, 0xe6, 0x74, 0x6e, 0x3d, 0x2b, 0x0e, 0xba, 0x3c, 0x4e, 0xde, 0x9c, 0xbc, 
0xcc, 0x0b, 0x7c, 0xbb, 0x07, 0x83, 0x44, 0xbd, 0x09, 0x25, 0x58, 0xbd, 0x5e, 0x7b, 0x81, 0xbd, 0xce, 0xd1, 0x4d, 0x3d, 0x23, 0xb7, 0x8f, 0xbd, 0xb5, 0x64, 0x58, 0xbd, 0x6a, 0x88, 0x57, 0xbd, 
0xca, 0xfb, 0x99, 0x3d, 0xd6, 0x5d, 0x7f, 0xbd, 0xde, 0x6f, 0x5f, 0x3d, 0x44, 0xb6, 0x65, 0xbd, 0x60, 0xa6, 0x2f, 0xbd, 0xca, 0x6c, 0xb1, 0x3d, 0xb4, 0x14, 0xe5, 0xbc, 0x9e, 0xa5, 0xe5, 0xbb, 
0x93, 0x3f, 0x94, 0x3d, 0xca, 0xf0, 0x8f, 0x3d, 0x47, 0x89, 0x65, 0x3d, 0x52, 0x2e, 0xb3, 0xbd, 0x8c, 0x85, 0xa4, 0xbd, 0x74, 0x27, 0xa2, 0xbb, 0x57, 0xe5, 0xa5, 0x3d, 0xb9, 0xf5, 0xc3, 0xbc, 
0x03, 0x95, 0x65, 0xbd, 0xe0, 0x98, 0x9b, 0x3d, 0xf6, 0xf4, 0x9b, 0x3c, 0x38, 0x90, 0x11, 0xbd, 0xa6, 0x58, 0x10, 0x3d, 0x7b, 0xe4, 0xb5, 0x3c, 0x39, 0x8e, 0x2d, 0x3d, 0xc3, 0xd3, 0xd1, 0x3c, 
0x58, 0x43, 0x1b, 0x3d, 0x66, 0x08, 0xff, 0xbb, 0x24, 0x24, 0x5f, 0x3d, 0x9c, 0xfb, 0x90, 0x3d, 0xd4, 0xbd, 0x31, 0xbd, 0xe6, 0xb4, 0x01, 0x3d, 0x08, 0x38, 0x3e, 0xbd, 0xdc, 0x8e, 0xa7, 0x3a, 
0x3c, 0xb8, 0x9b, 0x3c, 0x80, 0xa2, 0xf4, 0xbc, 0x5c, 0x6e, 0xdc, 0xbb, 0x1d, 0x50, 0x0e, 0x3d, 0x60, 0x00, 0x01, 0xbd, 0xf9, 0xb9, 0x49, 0x3c, 0xec, 0x1f, 0x3c, 0x3c, 0xcb, 0x00, 0x14, 0xbd, 
0x6b, 0x4a, 0x7d, 0x3d, 0x78, 0xaf, 0x7e, 0xbd, 0xc6, 0xe2, 0x59, 0x3d, 0x2c, 0x17, 0xab, 0x3d, 0x3c, 0xc0, 0x06, 0xbd, 0xf3, 0x9b, 0xc5, 0xbc, 0x7f, 0x81, 0x32, 0x3d, 0x5b, 0x69, 0x9a, 0xbd, 
0x2b, 0xc2, 0xa1, 0x3d, 0xb5, 0x57, 0x04, 0xbd, 0xe6, 0x59, 0x86, 0x3d, 0xed, 0x54, 0x6f, 0xbb, 0xaa, 0xd9, 0xb6, 0xbb, 0x37, 0x5d, 0xd5, 0x3c, 0x75, 0x51, 0xb1, 0xbd, 0x2f, 0x51, 0x3f, 0x3d, 
0xfb, 0x78, 0xa5, 0x3d, 0x6a, 0xe5, 0x94, 0xbc, 0x2d, 0x81, 0x38, 0x3d, 0x2f, 0x16, 0x69, 0x3d, 0x8c, 0x1b, 0x46, 0xbd, 0x26, 0xe6, 0x09, 0x3d, 0x70, 0x6c, 0x14, 0xbd, 0x24, 0x24, 0xa4, 0x3d, 
0x12, 0x4d, 0x31, 0x3d, 0x98, 0xb3, 0x02, 0x3d, 0x9a, 0x1a, 0x62, 0x3d, 0xac, 0x1a, 0xa3, 0x3c, 0x31, 0x12, 0x5d, 0x3d, 0x5a, 0x61, 0x9a, 0xbd, 0xe2, 0x52, 0x31, 0x3d, 0xac, 0xde, 0xfc, 0xbc, 
0xa9, 0xfa, 0xa1, 0x3d, 0x01, 0x73, 0x0f, 0x3c, 0x5e, 0x34, 0x9b, 0x3d, 0xd2, 0x01, 0x47, 0xbd, 0x00, 0x37, 0x98, 0xbd, 0xec, 0x81, 0xfa, 0xba, 0xec, 0x71, 0x36, 0xbd, 0xa0, 0xba, 0x3b, 0x3d, 
0x40, 0xa1, 0x7e, 0xbd, 0x4d, 0xdd, 0x97, 0x3d, 0x53, 0xb9, 0x55, 0x3d, 0x19, 0xa9, 0xf2, 0x3a, 0x13, 0x84, 0x87, 0x3d, 0x7b, 0x6c, 0x12, 0xbd, 0x97, 0xfe, 0xc1, 0x3c, 0xbb, 0xa9, 0xa7, 0x3d, 
0xac, 0x4b, 0x92, 0x3d, 0xfd, 0xd7, 0x39, 0x3d, 0xd6, 0x55, 0x50, 0x3c, 0x66, 0x76, 0x30, 0xbc, 0x40, 0x82, 0x6a, 0xbb, 0xf9, 0xdf, 0x29, 0xbd, 0x50, 0x88, 0x9c, 0xbc, 0xc2, 0xf4, 0x4a, 0x3d, 
0x92, 0x83, 0xcd, 0xba, 0x01, 0x15, 0x11, 0x3c, 0xef, 0x49, 0x92, 0x3d, 0xe1, 0xb3, 0x98, 0x3d, 0x4f, 0xdc, 0x0b, 0xbd, 0x34, 0x7e, 0x25, 0xbd, 0xba, 0xfe, 0x15, 0xbc, 0x21, 0xe2, 0xaa, 0x3d, 
0x3b, 0x08, 0xb1, 0xbd, 0x2d, 0x21, 0xff, 0xbc, 0xea, 0xa8, 0x87, 0x3d, 0x05, 0xe3, 0x3d, 0xbd, 0xf8, 0x10, 0x6e, 0xbd, 0x7c, 0x8c, 0x28, 0xbd, 0xdd, 0x20, 0x6e, 0xbd, 0x50, 0x24, 0x6c, 0xbd, 
0xe7, 0xfa, 0x70, 0xbd, 0xcc, 0x03, 0x35, 0xbb, 0x6a, 0x8a, 0xe3, 0x3c, 0xec, 0xea, 0x63, 0xbd, 0xc8, 0x20, 0x1a, 0xbd, 0x7f, 0x02, 0x28, 0x3d, 0x6d, 0x0c, 0x6f, 0x3d, 0xc7, 0xff, 0x57, 0xbd, 
0xf0, 0xb7, 0x22, 0x3c, 0x23, 0x15, 0xf8, 0x3c, 0x99, 0xde, 0x03, 0xbd, 0x0d, 0x9f, 0xe4, 0x3c, 0x24, 0xff, 0x04, 0xbd, 0x01, 0xd7, 0xc6, 0xbb, 0x36, 0xae, 0x4d, 0x3d, 0x40, 0xdc, 0x80, 0xbc, 
0x48, 0x0d, 0xd7, 0x3b, 0x70, 0x59, 0xb5, 0xbd, 0x96, 0x66, 0x9b, 0xbd, 0x36, 0xa9, 0x66, 0x3d, 0x71, 0xbd, 0x8d, 0x3d, 0x8d, 0x2c, 0xfd, 0x3c, 0x3b, 0x37, 0x92, 0x3d, 0x62, 0x56, 0x43, 0x3c, 
0x48, 0x77, 0x48, 0x3d, 0x1e, 0x3a, 0x0f, 0x3d, 0x55, 0x72, 0x11, 0x3d, 0xa7, 0x0f, 0x42, 0x3d, 0x83, 0x7c, 0x29, 0x3c, 0xa8, 0xe4, 0x36, 0x3d, 0xff, 0xbd, 0xff, 0x3c, 0xec, 0x95, 0xc0, 0x3c, 
0xfd, 0xb6, 0x71, 0x3d, 0xc7, 0xd7, 0x16, 0xbd, 0x50, 0xe6, 0xe3, 0xbc, 0x10, 0x76, 0x91, 0x3d, 0xde, 0x30, 0x13, 0x3d, 0xce, 0xb8, 0xaf, 0xbd, 0x6e, 0x48, 0x19, 0xbd, 0xc2, 0x31, 0x93, 0x3d, 
0xcc, 0x05, 0x8a, 0x3b, 0xc0, 0xe4, 0xa4, 0xbd, 0x71, 0xef, 0x90, 0x3d, 0x6f, 0xbc, 0x22, 0xbd, 0x52, 0x81, 0xc3, 0x3c, 0x89, 0xc7, 0x1f, 0x3c, 0x0a, 0xba, 0x5e, 0x3d, 0x47, 0xd5, 0x35, 0xbd, 
0x1b, 0x6e, 0x39, 0x3b, 0xfc, 0x86, 0x89, 0xbc, 0xf7, 0x56, 0x52, 0x3d, 0xc6, 0x93, 0x8b, 0x3d, 0x3d, 0x88, 0x7d, 0xbd, 0x7d, 0xbc, 0x0e, 0x3d, 0xff, 0x68, 0x65, 0x3a, 0x53, 0xeb, 0x26, 0xbd, 
0xa8, 0x65, 0xaf, 0x3c, 0x12, 0xb6, 0xa9, 0xbd, 0x48, 0x4d, 0x8e, 0x3d, 0x95, 0x90, 0x0c, 0xbd, 0xa9, 0xb5, 0x7c, 0xbc, 0xfe, 0x8e, 0x83, 0x3d, 0x39, 0xdf, 0x78, 0x3d, 0xca, 0xda, 0x80, 0xbd, 
0x42, 0xca, 0x88, 0x3d, 0x33, 0xf2, 0xb0, 0x3d, 0x29, 0x75, 0x45, 0x3d, 0x55, 0x67, 0x46, 0xbd, 0x13, 0xb4, 0x09, 0xbd, 0xdd, 0x08, 0xa2, 0x3d, 0x7c, 0xeb, 0x38, 0xbc, 0x28, 0xa2, 0xa2, 0x3c, 
0x88, 0x60, 0xa0, 0xbb, 0x0a, 0x9a, 0xe8, 0x3c, 0x54, 0xff, 0x5a, 0x3d, 0x0f, 0xf4, 0x29, 0x3c, 0xf0, 0x63, 0x86, 0x3d, 0xcb, 0x1b, 0xa0, 0x3d, 0x5c, 0xc0, 0xb0, 0x3d, 0x7e, 0xc0, 0x6b, 0xbd, 
0x08, 0x2d, 0x4d, 0xbb, 0x20, 0xb2, 0x32, 0xbd, 0x86, 0x5c, 0x58, 0x3d, 0x10, 0x85, 0x12, 0x3d, 0x7b, 0x02, 0xa0, 0x3d, 0x5c, 0x60, 0x87, 0x3d, 0x47, 0x9b, 0x68, 0x3c, 0x76, 0xd1, 0x28, 0x3d, 
0x08, 0x41, 0x0a, 0x3c, 0xb2, 0x13, 0xf2, 0xbc, 0xf4, 0xa5, 0x2f, 0x3d, 0xf8, 0x92, 0x45, 0x3d, 0x8e, 0xd1, 0x63, 0x3d, 0x65, 0xf1, 0xfb, 0xbc, 0xeb, 0xd0, 0x00, 0x3d, 0x5f, 0xdb, 0x90, 0x3c, 
0x15, 0x58, 0x25, 0x3c, 0xfe, 0xd4, 0x72, 0x3d, 0xfc, 0x47, 0xf1, 0x3b, 0xb3, 0xcf, 0x07, 0xbd, 0xab, 0x83, 0xa0, 0x3d, 0x7d, 0x07, 0x5b, 0xbd, 0x3d, 0xbf, 0x83, 0xbd, 0x78, 0xf5, 0xd4, 0x3c, 
0x84, 0x71, 0x97, 0x3b, 0x4d, 0xdc, 0x5c, 0x3c, 0x24, 0x62, 0x38, 0xbd, 0x83, 0xb4, 0x28, 0x3d, 0xa5, 0x45, 0x89, 0x3d, 0xbe, 0x18, 0xdc, 0xba, 0x77, 0x6a, 0x88, 0x3d, 0x68, 0xda, 0x8d, 0x3d, 
0xb5, 0x8d, 0x87, 0x3d, 0xeb, 0x45, 0x2c, 0x3d, 0x6a, 0x7a, 0xb7, 0x3c, 0xd6, 0x91, 0x53, 0x3d, 0x48, 0x6d, 0x9f, 0xbd, 0x07, 0xb6, 0x54, 0xbd, 0x41, 0xef, 0x53, 0xbd, 0x90, 0xcf, 0xb8, 0xbc, 
0x20, 0x2a, 0xb2, 0x3d, 0xe0, 0x85, 0x92, 0xbd, 0x5e, 0x82, 0x80, 0xbd, 0x43, 0xbe, 0x82, 0xbd, 0x87, 0x65, 0x93, 0x3d, 0xc4, 0x73, 0x24, 0x3d, 0x09, 0x6a, 0xc9, 0x3c, 0x25, 0x67, 0xf9, 0xbc, 
0xae, 0x39, 0xb0, 0xbd, 0x38, 0x1d, 0xa4, 0x3d, 0xbd, 0xab, 0xac, 0x3d, 0xbd, 0x49, 0x4c, 0x3d, 0x62, 0xf6, 0xa4, 0x3c, 0x43, 0xda, 0x4a, 0x3d, 0xdb, 0x67, 0x5a, 0xbd, 0xeb, 0xad, 0x3c, 0x3c, 
0x62, 0x64, 0x94, 0xbc, 0x10, 0x75, 0x45, 0xbc, 0x2a, 0x1c, 0x36, 0xbd, 0x7d, 0x98, 0x9a, 0x3d, 0x86, 0x6e, 0x6a, 0xbd, 0xaa, 0xa8, 0x6e, 0xbd, 0x97, 0xc6, 0x6f, 0x3c, 0x8c, 0x21, 0xcc, 0x3b, 
0x62, 0x03, 0x54, 0x3c, 0x11, 0x7c, 0x81, 0xbd, 0x89, 0x6d, 0x90, 0x3b, 0x1a, 0x28, 0x11, 0x3d, 0xfd, 0x73, 0x39, 0xbd, 0x16, 0x80, 0x8b, 0xbd, 0x5c, 0xff, 0xb4, 0x3d, 0x81, 0x51, 0x04, 0xbd, 
0x50, 0xe6, 0xaa, 0xbc, 0xce, 0x1b, 0x2a, 0xbd, 0x67, 0xd3, 0xac, 0xbc, 0xa3, 0xdd, 0x01, 0xbc, 0xad, 0x31, 0x5d, 0x3d, 0xe9, 0x7a, 0x95, 0x3d, 0xab, 0xb7, 0x91, 0x3d, 0x80, 0x64, 0x80, 0xbc, 
0xad, 0x60, 0xad, 0x3d, 0x77, 0xd1, 0x88, 0x3d, 0x39, 0xe3, 0x4d, 0x3d, 0xa7, 0x00, 0x1f, 0xbd, 0x81, 0x21, 0x86, 0xbd, 0x76, 0xe0, 0xff, 0x3c, 0x35, 0x7a, 0x24, 0x3d, 0x69, 0xc8, 0x9f, 0xbc, 
0x94, 0x62, 0x32, 0xbc, 0x3a, 0xe8, 0x81, 0xbd, 0x8d, 0xa9, 0x6d, 0xbc, 0xb1, 0x8b, 0x96, 0xbc, 0x33, 0xe6, 0x21, 0x3b, 0xbd, 0xb9, 0x9f, 0x3d, 0xcb, 0x8c, 0x83, 0xbc, 0x1e, 0xab, 0x3b, 0xbd, 
0x79, 0xd6, 0x7e, 0x3d, 0xc4, 0x6c, 0x01, 0xbd, 0xc0, 0x69, 0x9f, 0xbc, 0xd6, 0x09, 0x93, 0x3d, 0xdc, 0xbf, 0xee, 0xbc, 0x1c, 0x4d, 0x08, 0xbd, 0x60, 0xb1, 0x1b, 0x3c, 0xe5, 0xda, 0x19, 0xbd, 
0xfa, 0xb7, 0x73, 0x3c, 0xa2, 0x36, 0x87, 0x3c, 0x41, 0x01, 0xa2, 0xbd, 0x4b, 0xaf, 0xc9, 0x3c, 0x21, 0x84, 0x5a, 0x3d, 0x15, 0x56, 0x21, 0xbd, 0xf6, 0xf6, 0x90, 0x3d, 0xb6, 0x38, 0x38, 0xbd, 
0x2e, 0x07, 0x6c, 0x3c, 0x46, 0xb3, 0x32, 0xbd, 0xea, 0x03, 0x99, 0xbd, 0xc7, 0x33, 0x46, 0x3d, 0xa1, 0x34, 0xaf, 0xbd, 0xb5, 0x7a, 0x00, 0xbc, 0x22, 0xa3, 0x6e, 0xbd, 0x80, 0x11, 0x6e, 0xbd, 
0x59, 0xf3, 0x59, 0x3d, 0x72, 0x56, 0xef, 0xbb, 0x4f, 0xe8, 0x27, 0x3d, 0xc2, 0x51, 0xb7, 0x3d, 0x7b, 0x16, 0x95, 0xbd, 0xf1, 0x9d, 0x71, 0xbc, 0x74, 0xc4, 0x82, 0xbd, 0x35, 0x11, 0x02, 0x3c, 
0x55, 0xdd, 0x7b, 0xbd, 0x4a, 0xff, 0xb5, 0x3c, 0x9e, 0x7e, 0x8e, 0x3d, 0x20, 0x81, 0x0f, 0xbd, 0x55, 0xaf, 0xa5, 0xbd, 0x0c, 0xcb, 0x6b, 0x3d, 0xb4, 0x3f, 0x9f, 0x3d, 0xc1, 0xda, 0x93, 0xbd, 
0x98, 0x0f, 0xa2, 0x3d, 0x9e, 0x6b, 0x0b, 0xbc, 0xf7, 0x06, 0x83, 0x3d, 0x8a, 0x26, 0x49, 0xbb, 0x19, 0xec, 0x7e, 0xbd, 0x35, 0xb0, 0x8a, 0x3d, 0xc4, 0xfb, 0x5d, 0x3d, 0x98, 0x84, 0x20, 0x3d, 
0xce, 0xa7, 0x9b, 0xbd, 0xfb, 0x43, 0x0b, 0x3d, 0x03, 0x39, 0x92, 0xbd, 0x28, 0x24, 0x30, 0x3d, 0xd0, 0x6c, 0x12, 0xbd, 0xaa, 0xbf, 0xa1, 0x3c, 0xfc, 0x44, 0x18, 0xbc, 0x27, 0x6d, 0x2a, 0xbd, 
0xfb, 0x9c, 0xc5, 0xbc, 0xce, 0xad, 0x0f, 0x3d, 0x47, 0x16, 0x96, 0xbd, 0xa8, 0xe9, 0x93, 0xbb, 0x38, 0xb3, 0x00, 0xbd, 0xca, 0x3e, 0x8a, 0x3d, 0xcb, 0x6f, 0x30, 0x3d, 0x7a, 0x17, 0xea, 0xbc, 
0x75, 0x59, 0xe6, 0x3c, 0xf7, 0xae, 0x1e, 0xbd, 0xaa, 0x4c, 0x6e, 0x3d, 0xdc, 0xcf, 0x50, 0x3d, 0x27, 0x9d, 0x86, 0x3d, 0x98, 0x15, 0x25, 0x3d, 0x77, 0x55, 0x0c, 0xbd, 0x2a, 0x22, 0x93, 0xbb, 
0x48, 0xa9, 0x68, 0x3c, 0xb3, 0xd4, 0x41, 0x3d, 0xa4, 0x4b, 0x52, 0xbd, 0xfb, 0x32, 0xb3, 0xbd, 0x4c, 0x40, 0x0c, 0xbd, 0xbd, 0x90, 0x4e, 0xbd, 0x92, 0x80, 0x70, 0x3d, 0xd3, 0x2b, 0x27, 0x3c, 
0x01, 0x9d, 0xa1, 0xbd, 0x3f, 0x6d, 0x12, 0xbd, 0xc0, 0xa0, 0xac, 0x3c, 0x79, 0x43, 0x07, 0xbd, 0xe0, 0xec, 0x7f, 0xbd, 0x25, 0x1e, 0x4f, 0xbc, 0x7a, 0x80, 0xfe, 0xbb, 0xee, 0x62, 0x03, 0xbd, 
0x46, 0xd2, 0xc6, 0x3c, 0x2a, 0xb4, 0xb0, 0x3d, 0x9c, 0x21, 0x86, 0x3d, 0x78, 0xef, 0x11, 0x3d, 0xcb, 0x1a, 0x83, 0xbb, 0x22, 0xe9, 0x46, 0xbd, 0xa5, 0x19, 0xa5, 0x3d, 0x21, 0xc6, 0x6a, 0x3d, 
0x4d, 0xf2, 0xda, 0x3c, 0x72, 0xf7, 0x6f, 0xbc, 0x64, 0x95, 0x15, 0x3b, 0xeb, 0xcf, 0xb9, 0xbc, 0xc9, 0x02, 0x88, 0xbd, 0x89, 0x3c, 0xa7, 0xb8, 0x97, 0x80, 0xa4, 0x3c, 0x4c, 0xaf, 0x7a, 0xbd, 
0x49, 0xd8, 0x04, 0x3d, 0x5e, 0x6f, 0x2b, 0xbd, 0x76, 0xb7, 0x8f, 0x3d, 0x86, 0xf7, 0x7c, 0x3d, 0x63, 0x2d, 0xa9, 0xbc, 0xe2, 0x55, 0xaa, 0xbd, 0x79, 0x80, 0xa9, 0xbd, 0x7d, 0xd7, 0x44, 0xbd, 
0x3c, 0x28, 0xb1, 0x3d, 0x75, 0xd2, 0xcd, 0xbb, 0x1f, 0xc0, 0x4b, 0x3d, 0x02, 0xa3, 0x9c, 0x3d, 0x2d, 0xfe, 0x66, 0xbd, 0xe8, 0xb0, 0x27, 0xbd, 0xe1, 0x2f, 0xf6, 0xbc, 0xed, 0xfb, 0x59, 0xbd, 
0x13, 0x60, 0x30, 0x3d, 0x22, 0xc0, 0x7a, 0x3b, 0xaf, 0xb1, 0xe4, 0x3c, 0xc4, 0x47, 0x37, 0xbd, 0xb7, 0x08, 0x4f, 0x3d, 0x55, 0xed, 0x9a, 0x3d, 0x95, 0x0a, 0x64, 0xbd, 0xa9, 0x19, 0x86, 0x3c, 
0x67, 0x1d, 0x47, 0x3d, 0xbc, 0xec, 0xb2, 0x3d, 0xf4, 0xf3, 0x55, 0x3d, 0xf3, 0x0a, 0xfc, 0x3c, 0x92, 0xb6, 0x43, 0x3c, 0xfb, 0xfb, 0xa9, 0x3d, 0xbe, 0x98, 0x08, 0xbd, 0xb0, 0x5b, 0xf1, 0xbc, 
0x5a, 0x25, 0x44, 0x3c, 0x2f, 0x09, 0x8a, 0xbd, 0xf9, 0x23, 0x56, 0x3d, 0x02, 0xc8, 0xf4, 0xbc, 0x73, 0xa2, 0x7d, 0x3d, 0x81, 0x93, 0x44, 0xbc, 0x74, 0x05, 0x49, 0x3d, 0x39, 0xbb, 0x00, 0x3d, 
0x4d, 0xfb, 0x99, 0x3c, 0x1b, 0x4c, 0xa9, 0xbd, 0x84, 0xe6, 0x1e, 0x3d, 0x00, 0xb4, 0xe8, 0x3c, 0xdb, 0x12, 0x14, 0x3d, 0x1a, 0x5d, 0xf7, 0x3c, 0x4e, 0x2b, 0x62, 0x3d, 0x28, 0xaa, 0x81, 0x3d, 
0xb3, 0xe7, 0x22, 0x3c, 0xa8, 0x4d, 0xa7, 0xbc, 0x5a, 0x76, 0x8c, 0xbd, 0x5b, 0x39, 0xd8, 0xbc, 0xed, 0x47, 0x59, 0x3d, 0x8b, 0xe1, 0x6e, 0x3d, 0xeb, 0x2e, 0x60, 0xbd, 0xec, 0xf2, 0xb3, 0xbd, 
0x66, 0x0e, 0x3f, 0x3c, 0x81, 0x7f, 0x8e, 0x3d, 0x80, 0x25, 0x69, 0xbd, 0x8e, 0xd7, 0x27, 0x3d, 0xe1, 0xb5, 0x8c, 0xbd, 0x3a, 0x58, 0xb2, 0xbd, 0xe7, 0xb7, 0x8d, 0x3c, 0x97, 0xd1, 0x59, 0xbd, 
0x69, 0x90, 0x49, 0xbd, 0x81, 0x36, 0x54, 0xbd, 0xec, 0x32, 0xc8, 0xbb, 0x24, 0x86, 0xdd, 0x3b, 0xee, 0x0c, 0x2a, 0xbd, 0x98, 0x09, 0x99, 0x3d, 0x70, 0x2a, 0x26, 0xbd, 0xb5, 0x64, 0xa6, 0xbd, 
0xc8, 0x33, 0x4d, 0xbd, 0x64, 0xcb, 0x97, 0xbd, 0x1a, 0x82, 0x64, 0xbc, 0xa1, 0x52, 0x7d, 0x3d, 0xa2, 0xf0, 0xf5, 0xbc, 0xbf, 0xfe, 0x88, 0xbd, 0xfe, 0x9b, 0x51, 0x3c, 0x15, 0xce, 0x21, 0x3d, 
0xdf, 0xab, 0xe3, 0x3c, 0xd3, 0x3a, 0x8f, 0x3d, 0xe4, 0x56, 0x32, 0xbd, 0xbb, 0xf7, 0x9d, 0xbd, 0x5a, 0x92, 0x15, 0xbd, 0x7d, 0x99, 0x95, 0xbd, 0xb1, 0x4c, 0x5e, 0xbd, 0x5c, 0x0d, 0x83, 0xbd, 
0x4a, 0xfd, 0x50, 0x3c, 0xaa, 0x49, 0x99, 0x3c, 0x3d, 0x1d, 0xc9, 0xbb, 0x61, 0x37, 0x8c, 0x3d, 0xc1, 0xa7, 0x84, 0x3d, 0x05, 0x42, 0x85, 0x3d, 0xd3, 0x1c, 0xa2, 0xbc, 0x21, 0x13, 0xb4, 0x3d, 
0xf7, 0x91, 0x3d, 0x3d, 0x33, 0x34, 0x0c, 0xbd, 0xee, 0x26, 0xe0, 0xbc, 0x44, 0xd6, 0xb7, 0xbc, 0x85, 0x41, 0xce, 0xbb, 0x06, 0x3c, 0x87, 0x3d, 0x0f, 0x41, 0x87, 0x3d, 0x74, 0x35, 0xf0, 0x3b, 
0xb9, 0x02, 0x12, 0xbc, 0xe2, 0x37, 0xa7, 0x3d, 0xdf, 0xdc, 0x3b, 0xbd, 0x76, 0x24, 0xa0, 0xbb, 0x17, 0xda, 0x5a, 0x3d, 0xb6, 0xd6, 0x10, 0x3d, 0x93, 0x69, 0xa0, 0xbd, 0xab, 0xd3, 0x72, 0x3d, 
0x57, 0xdc, 0x8c, 0xbd, 0xe9, 0xc4, 0xc9, 0xbb, 0x52, 0x92, 0x88, 0x3d, 0x95, 0x20, 0x4a, 0x3d, 0xb5, 0xc2, 0xa2, 0xbc, 0x0e, 0xbf, 0x3f, 0x3d, 0x4c, 0xf2, 0x86, 0xbc, 0x6f, 0x45, 0xaf, 0xbd, 
0x07, 0xfb, 0x41, 0xbd, 0xd2, 0x1f, 0x91, 0xbd, 0x45, 0x81, 0x9b, 0xbd, 0x61, 0xb0, 0xf4, 0x3b, 0x82, 0xb2, 0xf7, 0xba, 0xe8, 0xe6, 0x80, 0xbb, 0xbc, 0x0e, 0x29, 0x3c, 0x7c, 0x8a, 0x3d, 0xbd, 
0xe7, 0x9d, 0xad, 0x39, 0x57, 0x29, 0x91, 0x3d, 0x1e, 0x86, 0xae, 0x3d, 0xd4, 0x7d, 0xea, 0xbc, 0xa6, 0x43, 0x7f, 0x3d, 0x84, 0x67, 0xed, 0x3c, 0xdd, 0x8f, 0x37, 0xbd, 0xf9, 0xcd, 0x6f, 0x3d, 
0xbf, 0x57, 0xb4, 0xbd, 0x74, 0xcd, 0x3a, 0xbd, 0x60, 0x0e, 0x7a, 0x3b, 0x56, 0xc8, 0xda, 0xbc, 0xca, 0x03, 0x6e, 0xbc, 0x5b, 0xf7, 0x4a, 0xbd, 0x61, 0x15, 0xa6, 0xbc, 0x4a, 0x31, 0xa5, 0x3d, 
0xb5, 0x07, 0x94, 0x3d, 0xb6, 0x0f, 0x63, 0x3a, 0x0c, 0x39, 0x84, 0xbc, 0x6c, 0xd9, 0x2f, 0xbb, 0x32, 0x80, 0x90, 0xbd, 0xa6, 0xdf, 0x82, 0x3d, 0xef, 0x4e, 0x6f, 0x3d, 0xa9, 0x86, 0xa0, 0x3d, 
0x30, 0x1b, 0x6a, 0xbc, 0x2f, 0x78, 0x7d, 0xbd, 0x24, 0xdb, 0x84, 0x3d, 0xb2, 0x34, 0x99, 0xbd, 0x11, 0x86, 0xb4, 0xbc, 0x89, 0x76, 0xe2, 0xbb, 0xf1, 0xd5, 0xad, 0x3b, 0x2a, 0x82, 0xfa, 0x3b, 
0xac, 0xc5, 0xab, 0x3d, 0xce, 0xa0, 0x8d, 0x3d, 0xd1, 0xac, 0x0a, 0x3d, 0x2e, 0x69, 0xae, 0x3d, 0xe5, 0x86, 0x02, 0x3d, 0x86, 0x9a, 0xe8, 0x3b, 0x1e, 0x7a, 0x33, 0x3c, 0x59, 0x38, 0x8f, 0x3d, 
0x3b, 0xee, 0x53, 0x3d, 0x2a, 0x1f, 0x1a, 0x3a, 0xd3, 0x35, 0x4a, 0x3c, 0x5e, 0xf2, 0x36, 0x3d, 0xc7, 0x7a, 0x08, 0x3d, 0x1d, 0xd3, 0xa7, 0xbd, 0xa1, 0x5e, 0xb2, 0xbd, 0x17, 0x54, 0x92, 0xbd, 
0xd7, 0x22, 0x41, 0xbd, 0x46, 0xcc, 0xb2, 0xbd, 0x55, 0xa3, 0x83, 0xbb, 0x06, 0x8d, 0x96, 0xbd, 0x07, 0x8b, 0x16, 0xbd, 0x8f, 0x57, 0xa1, 0x3d, 0x2c, 0xb6, 0xef, 0xbb, 0x74, 0x82, 0x1f, 0x3d, 
0x2d, 0xbb, 0x08, 0x3d, 0xff, 0x45, 0x5a, 0x3d, 0x97, 0x9b, 0xbd, 0xbc, 0x5e, 0x05, 0x4a, 0x3d, 0x21, 0x69, 0xa3, 0xbc, 0xc4, 0x96, 0x22, 0xbd, 0xed, 0xab, 0xa6, 0x3d, 0x2e, 0x74, 0xb0, 0xbc, 
0x98, 0x7b, 0x2d, 0x3d, 0xc3, 0x69, 0x31, 0x3d, 0x27, 0xd7, 0x34, 0xbd, 0x93, 0x2a, 0x74, 0x3d, 0x7c, 0x5b, 0x6b, 0x3d, 0xac, 0xca, 0x51, 0x3d, 0xb4, 0x1f, 0x25, 0xbd, 0x96, 0xa6, 0x57, 0x3d, 
0x38, 0x6f, 0x48, 0xbd, 0xb4, 0x6c, 0x8c, 0xbd, 0x2e, 0x66, 0xf8, 0x3c, 0x3a, 0xdb, 0xa3, 0xbd, 0x3c, 0x71, 0xa1, 0x3d, 0x4d, 0x6d, 0xa9, 0x3d, 0x4d, 0x59, 0x03, 0x3b, 0x56, 0x00, 0x30, 0x3d, 
0x11, 0xc3, 0x36, 0x3d, 0x9c, 0x95, 0xa6, 0x39, 0xa4, 0x40, 0xc0, 0x3c, 0xd6, 0xfb, 0x53, 0x3d, 0x93, 0xb4, 0x94, 0xbc, 0x66, 0x3c, 0x42, 0x3d, 0xc1, 0x2d, 0x3a, 0xbd, 0xb0, 0xf6, 0xe4, 0xbc, 
0x8f, 0x58, 0x87, 0xbd, 0x98, 0x7b, 0xb4, 0x3d, 0xac, 0x7d, 0xa0, 0xbd, 0x14, 0x95, 0x20, 0x3d, 0x3f, 0xc9, 0x7d, 0xbd, 0x26, 0xc6, 0x6d, 0x3d, 0x34, 0x0e, 0xb4, 0xbd, 0x7e, 0xce, 0xaa, 0x3d, 
0x40, 0xe5, 0x69, 0xbd, 0xbe, 0x8a, 0x60, 0xbd, 0x21, 0x49, 0xa4, 0xbd, 0x8c, 0x80, 0x84, 0x3d, 0x6c, 0x17, 0x8d, 0xbd, 0x8d, 0xbd, 0x58, 0xbd, 0xaa, 0x8d, 0xdf, 0x3c, 0x90, 0xa2, 0x08, 0xbd, 
0xd0, 0xcb, 0x4b, 0x3d, 0xf8, 0x93, 0x18, 0xbd, 0x8b, 0x11, 0x62, 0xbc, 0x8f, 0xa8, 0x66, 0x3d, 0xab, 0xa6, 0x6c, 0x3c, 0xe1, 0x1b, 0x87, 0x3d, 0x2f, 0xa2, 0x2f, 0x3d, 0x4e, 0x9b, 0x0d, 0x3d, 
0xf4, 0xc5, 0x82, 0x3d, 0x73, 0xe6, 0xa9, 0xbc, 0x85, 0x95, 0x0d, 0xbd, 0x04, 0x0f, 0xac, 0x3a, 0x1f, 0xc3, 0x93, 0xbd, 0x55, 0x02, 0x3c, 0x3d, 0x0b, 0xfc, 0xa1, 0xbd, 0x50, 0xf8, 0x87, 0xbc, 
0xce, 0xbc, 0x82, 0x3d, 0xd0, 0x2e, 0x70, 0x3d, 0x87, 0x9d, 0x9e, 0xbc, 0xce, 0xd0, 0x13, 0xbb, 0xba, 0x4e, 0xcd, 0xbc, 0x2a, 0xc5, 0xa9, 0x3d, 0xfb, 0x99, 0x91, 0x3d, 0x22, 0xa8, 0x9e, 0xbd, 
0xff, 0x0a, 0xa8, 0xbd, 0x4b, 0xad, 0xbc, 0x3c, 0x80, 0x80, 0x1a, 0xbd, 0xcc, 0x97, 0xd6, 0x3c, 0xe6, 0x7e, 0xab, 0xbc, 0xc6, 0x7b, 0x9f, 0x3d, 0x61, 0xd1, 0x65, 0x3d, 0x3d, 0x4b, 0x93, 0x3c, 
0xab, 0xbb, 0x9f, 0xbd, 0x1e, 0x63, 0x99, 0xbd, 0x8b, 0xa0, 0x0c, 0xbd, 0xb9, 0xa1, 0x8f, 0x3c, 0x18, 0x7a, 0x24, 0xbd, 0x4e, 0x40, 0xb3, 0x3d, 0x17, 0xe2, 0x5f, 0xbd, 0x64, 0x38, 0x8e, 0x3d, 
0xf1, 0x16, 0x99, 0x3d, 0x7e, 0xbd, 0xc0, 0x3c, 0x14, 0x72, 0x28, 0xbd, 0x0d, 0x25, 0xf9, 0xbc, 0x55, 0x80, 0x54, 0xbd, 0xa7, 0xbf, 0x1f, 0x3d, 0xc8, 0x5e, 0xc3, 0xbb, 0xa1, 0xcc, 0x96, 0xbd, 
0xdd, 0x81, 0x74, 0xbd, 0x79, 0x07, 0x89, 0x3d, 0x1e, 0xd0, 0x61, 0xbd, 0x3f, 0x5c, 0xc0, 0x3c, 0x1d, 0x38, 0x45, 0xbd, 0x54, 0x2f, 0xaa, 0x3d, 0x10, 0xc4, 0x6b, 0x3d, 0xc1, 0x92, 0x91, 0xbc, 
0xd1, 0x9e, 0x3a, 0xbd, 0xc0, 0x59, 0x73, 0xbc, 0xe8, 0xe0, 0x6b, 0x3d, 0xe4, 0xfb, 0x89, 0xbd, 0xb5, 0x23, 0x20, 0xbd, 0x39, 0x7b, 0x83, 0x3d, 0x51, 0x03, 0x37, 0x3c, 0x84, 0x4b, 0x97, 0xbd, 
0xe1, 0x90, 0xbc, 0xbc, 0x08, 0x17, 0x52, 0x3d, 0x26, 0xda, 0x1d, 0x3d, 0xf4, 0x7e, 0xdc, 0xbc, 0xe7, 0x8d, 0x55, 0xbd, 0x53, 0x7d, 0x1d, 0xbd, 0x1c, 0x56, 0x08, 0x3c, 0x7e, 0x7a, 0x16, 0xbd, 
0xa0, 0x7b, 0xab, 0xbc, 0x15, 0x66, 0x3a, 0x3c, 0xec, 0xc9, 0x7e, 0xbd, 0xc2, 0x2f, 0xac, 0x3d, 0x0c, 0xe5, 0x94, 0x3d, 0x73, 0xb3, 0xff, 0x3c, 0x19, 0x89, 0x74, 0x3a, 0x8e, 0x1c, 0x30, 0xbd, 
