__attribute__((section("network_model_sec"), aligned(16))) char model_pte[] = {
0x3c, 0x00, 0x00, 0x00, 0x45, 0x54, 0x31, 0x32, 0x65, 0x68, 0x30, 0x30, 0x18, 0x00, 0x00, 0x00, 0xf0, 0x13, 0x00, 0x00, 0x00, 0x00, 0x00, 0x00, 0x00, 0x14, 0x00, 0x00, 0x00, 0x00, 0x00, 0x00, 
0x00, 0x00, 0x00, 0x00, 0x00, 0x00, 0x00, 0x00, 0x00, 0x00, 0x00, 0x00, 0x10, 0x00, 0x18, 0x00, 0x00, 0x00, 0x04, 0x00, 0x08, 0x00, 0x0c, 0x00, 0x10, 0x00, 0x14, 0x00, 0x10, 0x00, 0x00, 0x00, 
0x84, 0x00, 0x00, 0x00, 0x7c, 0x00, 0x00, 0x00, 0x74, 0x00, 0x00, 0x00, 0x50, 0x00, 0x00, 0x00, 0x04, 0x00, 0x00, 0x00, 0x40, 0xfa, 0xff, 0xff, 0x04, 0x00, 0x00, 0x00, 0x07, 0x00, 0x00, 0x00, 
0x00, 0x00, 0x00, 0x00, 0x00, 0x00, 0x00, 0x00, 0x00, 0x00, 0x00, 0x00, 0x00, 0x00, 0x00, 0x00, 0x30, 0x00, 0x00, 0x00, 0x00, 0x00, 0x00, 0x00, 0x40, 0x00, 0x00, 0x00, 0x00, 0x00, 0x00, 0x00, 
0x40, 0x10, 0x00, 0x00, 0x00, 0x00, 0x00, 0x00, 0x80, 0x10, 0x00, 0x00, 0x00, 0x00, 0x00, 0x00, 0x00, 0x11, 0x00, 0x00, 0x00, 0x00, 0x00, 0x00, 0x00, 0x00, 0x00, 0x00, 0x01, 0x00, 0x00, 0x00, 
0x0c, 0x00, 0x00, 0x00, 0x08, 0x00, 0x10, 0x00, 0x00, 0x00, 0x04, 0x00, 0x08, 0x00, 0x00, 0x00, 0x08, 0x11, 0x00, 0x00, 0x00, 0x00, 0x00, 0x00, 0x00, 0x00, 0x00, 0x00, 0x00, 0x00, 0x00, 0x00, 
0x00, 0x00, 0x00, 0x00, 0x01, 0x00, 0x00, 0x00, 0x1c, 0x00, 0x00, 0x00, 0x00, 0x00, 0x16, 0x00, 0x28, 0x00, 0x04, 0x00, 0x08, 0x00, 0x0c, 0x00, 0x10, 0x00, 0x14, 0x00, 0x18, 0x00, 0x1c, 0x00, 
0x20, 0x00, 0x24, 0x00, 0x16, 0x00, 0x00, 0x00, 0xfc, 0x12, 0x00, 0x00, 0xa8, 0x11, 0x00, 0x00, 0x7c, 0x05, 0x00, 0x00, 0x70, 0x05, 0x00, 0x00, 0x64, 0x05, 0x00, 0x00, 0x10, 0x02, 0x00, 0x00, 
0x28, 0x00, 0x00, 0x00, 0x20, 0x00, 0x00, 0x00, 0x04, 0x00, 0x00, 0x00, 0x02, 0x00, 0x00, 0x00, 0x00, 0x00, 0x00, 0x00, 0x00, 0x00, 0x00, 0x00, 0x90, 0x15, 0x00, 0x00, 0x00, 0x00, 0x00, 0x00, 
0x00, 0x00, 0x00, 0x00, 0x00, 0x00, 0x00, 0x00, 0x0a, 0x00, 0x00, 0x00, 0xb4, 0x01, 0x00, 0x00, 0x8c, 0x01, 0x00, 0x00, 0x58, 0x01, 0x00, 0x00, 0x1c, 0x01, 0x00, 0x00, 0xe4, 0x00, 0x00, 0x00, 
0xb4, 0x00, 0x00, 0x00, 0x80, 0x00, 0x00, 0x00, 0x58, 0x00, 0x00, 0x00, 0x30, 0x00, 0x00, 0x00, 0x04, 0x00, 0x00, 0x00, 0xc8, 0xee, 0xff, 0xff, 0x10, 0x00, 0x00, 0x00, 0x04, 0x00, 0x00, 0x00, 
0x03, 0x00, 0x00, 0x00, 0x6f, 0x75, 0x74, 0x00, 0x0e, 0x00, 0x00, 0x00, 0x61, 0x74, 0x65, 0x6e, 0x3a, 0x3a, 0x5f, 0x73, 0x6f, 0x66, 0x74, 0x6d, 0x61, 0x78, 0x00, 0x00, 0xf0, 0xee, 0xff, 0xff, 
0x10, 0x00, 0x00, 0x00, 0x04, 0x00, 0x00, 0x00, 0x03, 0x00, 0x00, 0x00, 0x6f, 0x75, 0x74, 0x00, 0x0b, 0x00, 0x00, 0x00, 0x61, 0x74, 0x65, 0x6e, 0x3a, 0x3a, 0x61, 0x64, 0x64, 0x6d, 0x6d, 0x00, 
0x14, 0xef, 0xff, 0xff, 0x10, 0x00, 0x00, 0x00, 0x04, 0x00, 0x00, 0x00, 0x03, 0x00, 0x00, 0x00, 0x6f, 0x75, 0x74, 0x00, 0x09, 0x00, 0x00, 0x00, 0x61, 0x74, 0x65, 0x6e, 0x3a, 0x3a, 0x63, 0x61, 
0x74, 0x00, 0x00, 0x00, 0x38, 0xef, 0xff, 0xff, 0x14, 0x00, 0x00, 0x00, 0x04, 0x00, 0x00, 0x00, 0x07, 0x00, 0x00, 0x00, 0x69, 0x6e, 0x74, 0x5f, 0x6f, 0x75, 0x74, 0x00, 0x11, 0x00, 0x00, 0x00, 
0x61, 0x74, 0x65, 0x6e, 0x3a, 0x3a, 0x73, 0x65, 0x6c, 0x65, 0x63, 0x74, 0x5f, 0x63, 0x6f, 0x70, 0x79, 0x00, 0x00, 0x00, 0x68, 0xef, 0xff, 0xff, 0x10, 0x00, 0x00, 0x00, 0x04, 0x00, 0x00, 0x00, 
0x03, 0x00, 0x00, 0x00, 0x6f, 0x75, 0x74, 0x00, 0x12, 0x00, 0x00, 0x00, 0x61, 0x74, 0x65, 0x6e, 0x3a, 0x3a, 0x70, 0x65, 0x72, 0x6d, 0x75, 0x74, 0x65, 0x5f, 0x63, 0x6f, 0x70, 0x79, 0x00, 0x00, 
0x94, 0xef, 0xff, 0xff, 0x18, 0x00, 0x00, 0x00, 0x04, 0x00, 0x00, 0x00, 0x08, 0x00, 0x00, 0x00, 0x64, 0x69, 0x6d, 0x73, 0x5f, 0x6f, 0x75, 0x74, 0x00, 0x00, 0x00, 0x00, 0x12, 0x00, 0x00, 0x00, 
0x61, 0x74, 0x65, 0x6e, 0x3a, 0x3a, 0x73, 0x71, 0x75, 0x65, 0x65, 0x7a, 0x65, 0x5f, 0x63, 0x6f, 0x70, 0x79, 0x00, 0x00, 0xc8, 0xef, 0xff, 0xff, 0x10, 0x00, 0x00, 0x00, 0x04, 0x00, 0x00, 0x00, 
0x03, 0x00, 0x00, 0x00, 0x6f, 0x75, 0x74, 0x00, 0x1d, 0x00, 0x00, 0x00, 0x61, 0x74, 0x65, 0x6e, 0x3a, 0x3a, 0x6d, 0x61, 0x78, 0x5f, 0x70, 0x6f, 0x6f, 0x6c, 0x32, 0x64, 0x5f, 0x77, 0x69, 0x74, 
0x68, 0x5f, 0x69, 0x6e, 0x64, 0x69, 0x63, 0x65, 0x73, 0x00, 0x00, 0x00, 0x00, 0xf0, 0xff, 0xff, 0x10, 0x00, 0x00, 0x00, 0x04, 0x00, 0x00, 0x00, 0x03, 0x00, 0x00, 0x00, 0x6f, 0x75, 0x74, 0x00, 
0x14, 0x00, 0x00, 0x00, 0x61, 0x74, 0x65, 0x6e, 0x3a, 0x3a, 0x75, 0x6e, 0x73, 0x71, 0x75, 0x65, 0x65, 0x7a, 0x65, 0x5f, 0x63, 0x6f, 0x70, 0x79, 0x00, 0x00, 0x00, 0x00, 0x30, 0xf0, 0xff, 0xff, 
0x10, 0x00, 0x00, 0x00, 0x04, 0x00, 0x00, 0x00, 0x03, 0x00, 0x00, 0x00, 0x6f, 0x75, 0x74, 0x00, 0x0a, 0x00, 0x00, 0x00, 0x61, 0x74, 0x65, 0x6e, 0x3a, 0x3a, 0x72, 0x65, 0x6c, 0x75, 0x00, 0x00, 
0x54, 0xf0, 0xff, 0xff, 0x10, 0x00, 0x00, 0x00, 0x04, 0x00, 0x00, 0x00, 0x03, 0x00, 0x00, 0x00, 0x6f, 0x75, 0x74, 0x00, 0x11, 0x00, 0x00, 0x00, 0x61, 0x74, 0x65, 0x6e, 0x3a, 0x3a, 0x63, 0x6f, 
0x6e, 0x76, 0x6f, 0x6c, 0x75, 0x74, 0x69, 0x6f, 0x6e, 0x00, 0x00, 0x00, 0x01, 0x00, 0x00, 0x00, 0x10, 0x00, 0x00, 0x00, 0x00, 0x00, 0x0a, 0x00, 0x10, 0x00, 0x04, 0x00, 0x08, 0x00, 0x0c, 0x00, 
0x0a, 0x00, 0x00, 0x00, 0x34, 0x03, 0x00, 0x00, 0x2c, 0x03, 0x00, 0x00, 0x04, 0x00, 0x00, 0x00, 0x0f, 0x00, 0x00, 0x00, 0xd4, 0x02, 0x00, 0x00, 0xa8, 0x02, 0x00, 0x00, 0x78, 0x02, 0x00, 0x00, 
0x34, 0x02, 0x00, 0x00, 0x04, 0x02, 0x00, 0x00, 0xd4, 0x01, 0x00, 0x00, 0xa0, 0x01, 0x00, 0x00, 0x6c, 0x01, 0x00, 0x00, 0x3c, 0x01, 0x00, 0x00, 0x0c, 0x01, 0x00, 0x00, 0xd0, 0x00, 0x00, 0x00, 
0xa4, 0x00, 0x00, 0x00, 0x74, 0x00, 0x00, 0x00, 0x38, 0x00, 0x00, 0x00, 0x04, 0x00, 0x00, 0x00, 0x34, 0xf1, 0xff, 0xff, 0x00, 0x00, 0x00, 0x01, 0x04, 0x00, 0x00, 0x00, 0xf0, 0xf0, 0xff, 0xff, 
0x09, 0x00, 0x00, 0x00, 0x04, 0x00, 0x00, 0x00, 0x05, 0x00, 0x00, 0x00, 0x42, 0x00, 0x00, 0x00, 0x46, 0x00, 0x00, 0x00, 0x47, 0x00, 0x00, 0x00, 0x45, 0x00, 0x00, 0x00, 0x45, 0x00, 0x00, 0x00, 
0x64, 0xf1, 0xff, 0xff, 0x00, 0x00, 0x00, 0x01, 0x04, 0x00, 0x00, 0x00, 0x20, 0xf1, 0xff, 0xff, 0x08, 0x00, 0x00, 0x00, 0x04, 0x00, 0x00, 0x00, 0x07, 0x00, 0x00, 0x00, 0x05, 0x00, 0x00, 0x00, 
0x3d, 0x00, 0x00, 0x00, 0x3e, 0x00, 0x00, 0x00, 0x43, 0x00, 0x00, 0x00, 0x44, 0x00, 0x00, 0x00, 0x42, 0x00, 0x00, 0x00, 0x42, 0x00, 0x00, 0x00, 0x9c, 0xf1, 0xff, 0xff, 0x00, 0x00, 0x00, 0x01, 
0x04, 0x00, 0x00, 0x00, 0x58, 0xf1, 0xff, 0xff, 0x05, 0x00, 0x00, 0x00, 0x04, 0x00, 0x00, 0x00, 0x04, 0x00, 0x00, 0x00, 0x04, 0x00, 0x00, 0x00, 0x41, 0x00, 0x00, 0x00, 0x3e, 0x00, 0x00, 0x00, 
0x3e, 0x00, 0x00, 0x00, 0xc8, 0xf1, 0xff, 0xff, 0x00, 0x00, 0x00, 0x01, 0x04, 0x00, 0x00, 0x00, 0x84, 0xf1, 0xff, 0xff, 0x01, 0x00, 0x00, 0x00, 0x04, 0x00, 0x00, 0x00, 0x03, 0x00, 0x00, 0x00, 
0x3a, 0x00, 0x00, 0x00, 0x3d, 0x00, 0x00, 0x00, 0x3d, 0x00, 0x00, 0x00, 0xf0, 0xf1, 0xff, 0xff, 0x00, 0x00, 0x00, 0x01, 0x04, 0x00, 0x00, 0x00, 0xac, 0xf1, 0xff, 0xff, 0x08, 0x00, 0x00, 0x00, 
0x04, 0x00, 0x00, 0x00, 0x07, 0x00, 0x00, 0x00, 0x03, 0x00, 0x00, 0x00, 0x33, 0x00, 0x00, 0x00, 0x36, 0x00, 0x00, 0x00, 0x3b, 0x00, 0x00, 0x00, 0x3c, 0x00, 0x00, 0x00, 0x3a, 0x00, 0x00, 0x00, 
0x3a, 0x00, 0x00, 0x00, 0x28, 0xf2, 0xff, 0xff, 0x00, 0x00, 0x00, 0x01, 0x04, 0x00, 0x00, 0x00, 0xe4, 0xf1, 0xff, 0xff, 0x05, 0x00, 0x00, 0x00, 0x04, 0x00, 0x00, 0x00, 0x04, 0x00, 0x00, 0x00, 
0x02, 0x00, 0x00, 0x00, 0x39, 0x00, 0x00, 0x00, 0x36, 0x00, 0x00, 0x00, 0x36, 0x00, 0x00, 0x00, 0x54, 0xf2, 0xff, 0xff, 0x00, 0x00, 0x00, 0x01, 0x04, 0x00, 0x00, 0x00, 0x10, 0xf2, 0xff, 0xff, 
0x07, 0x00, 0x00, 0x00, 0x04, 0x00, 0x00, 0x00, 0x04, 0x00, 0x00, 0x00, 0x34, 0x00, 0x00, 0x00, 0x35, 0x00, 0x00, 0x00, 0x33, 0x00, 0x00, 0x00, 0x33, 0x00, 0x00, 0x00, 0x80, 0xf2, 0xff, 0xff, 
0x00, 0x00, 0x00, 0x01, 0x04, 0x00, 0x00, 0x00, 0x3c, 0xf2, 0xff, 0xff, 0x06, 0x00, 0x00, 0x00, 0x04, 0x00, 0x00, 0x00, 0x05, 0x00, 0x00, 0x00, 0x28, 0x00, 0x00, 0x00, 0x31, 0x00, 0x00, 0x00, 
0x32, 0x00, 0x00, 0x00, 0x30, 0x00, 0x00, 0x00, 0x30, 0x00, 0x00, 0x00, 0xb0, 0xf2, 0xff, 0xff, 0x00, 0x00, 0x00, 0x01, 0x04, 0x00, 0x00, 0x00, 0x6c, 0xf2, 0xff, 0xff, 0x06, 0x00, 0x00, 0x00, 
0x04, 0x00, 0x00, 0x00, 0x05, 0x00, 0x00, 0x00, 0x28, 0x00, 0x00, 0x00, 0x2e, 0x00, 0x00, 0x00, 0x2f, 0x00, 0x00, 0x00, 0x2d, 0x00, 0x00, 0x00, 0x2d, 0x00, 0x00, 0x00, 0xe0, 0xf2, 0xff, 0xff, 
0x00, 0x00, 0x00, 0x01, 0x04, 0x00, 0x00, 0x00, 0x9c, 0xf2, 0xff, 0xff, 0x05, 0x00, 0x00, 0x00, 0x04, 0x00, 0x00, 0x00, 0x04, 0x00, 0x00, 0x00, 0x25, 0x00, 0x00, 0x00, 0x2c, 0x00, 0x00, 0x00, 
0x28, 0x00, 0x00, 0x00, 0x28, 0x00, 0x00, 0x00, 0x0c, 0xf3, 0xff, 0xff, 0x00, 0x00, 0x00, 0x01, 0x04, 0x00, 0x00, 0x00, 0xc8, 0xf2, 0xff, 0xff, 0x04, 0x00, 0x00, 0x00, 0x04, 0x00, 0x00, 0x00, 
0x04, 0x00, 0x00, 0x00, 0x15, 0x00, 0x00, 0x00, 0x27, 0x00, 0x00, 0x00, 0x25, 0x00, 0x00, 0x00, 0x25, 0x00, 0x00, 0x00, 0x38, 0xf3, 0xff, 0xff, 0x00, 0x00, 0x00, 0x01, 0x04, 0x00, 0x00, 0x00, 
0xf4, 0xf2, 0xff, 0xff, 0x03, 0x00, 0x00, 0x00, 0x04, 0x00, 0x00, 0x00, 0x09, 0x00, 0x00, 0x00, 0x13, 0x00, 0x00, 0x00, 0x19, 0x00, 0x00, 0x00, 0x1c, 0x00, 0x00, 0x00, 0x1f, 0x00, 0x00, 0x00, 
0x22, 0x00, 0x00, 0x00, 0x23, 0x00, 0x00, 0x00, 0x15, 0x00, 0x00, 0x00, 0x16, 0x00, 0x00, 0x00, 0x24, 0x00, 0x00, 0x00, 0x78, 0xf3, 0xff, 0xff, 0x00, 0x00, 0x00, 0x01, 0x04, 0x00, 0x00, 0x00, 
0x34, 0xf3, 0xff, 0xff, 0x02, 0x00, 0x00, 0x00, 0x04, 0x00, 0x00, 0x00, 0x04, 0x00, 0x00, 0x00, 0x12, 0x00, 0x00, 0x00, 0x14, 0x00, 0x00, 0x00, 0x13, 0x00, 0x00, 0x00, 0x13, 0x00, 0x00, 0x00, 
0xa4, 0xf3, 0xff, 0xff, 0x00, 0x00, 0x00, 0x01, 0x04, 0x00, 0x00, 0x00, 0x60, 0xf3, 0xff, 0xff, 0x01, 0x00, 0x00, 0x00, 0x04, 0x00, 0x00, 0x00, 0x03, 0x00, 0x00, 0x00, 0x07, 0x00, 0x00, 0x00, 
0x12, 0x00, 0x00, 0x00, 0x12, 0x00, 0x00, 0x00, 0xcc, 0xf3, 0xff, 0xff, 0x00, 0x00, 0x00, 0x01, 0x0c, 0x00, 0x00, 0x00, 0x08, 0x00, 0x08, 0x00, 0x00, 0x00, 0x04, 0x00, 0x08, 0x00, 0x00, 0x00, 
0x04, 0x00, 0x00, 0x00, 0x0b, 0x00, 0x00, 0x00, 0x06, 0x00, 0x00, 0x00, 0x00, 0x00, 0x00, 0x00, 0x01, 0x00, 0x00, 0x00, 0x09, 0x00, 0x00, 0x00, 0x0b, 0x00, 0x00, 0x00, 0x0d, 0x00, 0x00, 0x00, 
0x0e, 0x00, 0x00, 0x00, 0x10, 0x00, 0x00, 0x00, 0x11, 0x00, 0x00, 0x00, 0x07, 0x00, 0x00, 0x00, 0x07, 0x00, 0x00, 0x00, 0x00, 0x00, 0x00, 0x00, 0x00, 0x00, 0x00, 0x00, 0x01, 0x00, 0x00, 0x00, 
0x45, 0x00, 0x00, 0x00, 0x01, 0x00, 0x00, 0x00, 0x06, 0x00, 0x00, 0x00, 0x48, 0x00, 0x00, 0x00, 0xd4, 0x0b, 0x00, 0x00, 0x98, 0x0b, 0x00, 0x00, 0x60, 0x0b, 0x00, 0x00, 0x2c, 0x0b, 0x00, 0x00, 
0xf4, 0x0a, 0x00, 0x00, 0xc0, 0x0a, 0x00, 0x00, 0x60, 0x0a, 0x00, 0x00, 0xfc, 0x09, 0x00, 0x00, 0xd8, 0x09, 0x00, 0x00, 0xb4, 0x09, 0x00, 0x00, 0x9c, 0x09, 0x00, 0x00, 0x74, 0x09, 0x00, 0x00, 
0x58, 0x09, 0x00, 0x00, 0x34, 0x09, 0x00, 0x00, 0x20, 0x09, 0x00, 0x00, 0x0c, 0x09, 0x00, 0x00, 0xe8, 0x08, 0x00, 0x00, 0xcc, 0x08, 0x00, 0x00, 0x88, 0x08, 0x00, 0x00, 0x3c, 0x08, 0x00, 0x00, 
0x20, 0x08, 0x00, 0x00, 0xd8, 0x07, 0x00, 0x00, 0x78, 0x07, 0x00, 0x00, 0x5c, 0x07, 0x00, 0x00, 0x40, 0x07, 0x00, 0x00, 0x14, 0x07, 0x00, 0x00, 0xf8, 0x06, 0x00, 0x00, 0xdc, 0x06, 0x00, 0x00, 
0xb0, 0x06, 0x00, 0x00, 0x9c, 0x06, 0x00, 0x00, 0x88, 0x06, 0x00, 0x00, 0x5c, 0x06, 0x00, 0x00, 0x40, 0x06, 0x00, 0x00, 0x24, 0x06, 0x00, 0x00, 0xf8, 0x05, 0x00, 0x00, 0xe4, 0x05, 0x00, 0x00, 
0xc0, 0x05, 0x00, 0x00, 0x78, 0x05, 0x00, 0x00, 0x50, 0x05, 0x00, 0x00, 0x2c, 0x05, 0x00, 0x00, 0xe8, 0x04, 0x00, 0x00, 0xd4, 0x04, 0x00, 0x00, 0xb8, 0x04, 0x00, 0x00, 0x9c, 0x04, 0x00, 0x00, 
0x68, 0x04, 0x00, 0x00, 0x24, 0x04, 0x00, 0x00, 0x08, 0x04, 0x00, 0x00, 0xf4, 0x03, 0x00, 0x00, 0xb0, 0x03, 0x00, 0x00, 0x94, 0x03, 0x00, 0x00, 0x78, 0x03, 0x00, 0x00, 0x38, 0x03, 0x00, 0x00, 
0x14, 0x03, 0x00, 0x00, 0xf4, 0x02, 0x00, 0x00, 0xb0, 0x02, 0x00, 0x00, 0x94, 0x02, 0x00, 0x00, 0x80, 0x02, 0x00, 0x00, 0x54, 0x02, 0x00, 0x00, 0x10, 0x02, 0x00, 0x00, 0xf4, 0x01, 0x00, 0x00, 
0xd8, 0x01, 0x00, 0x00, 0x98, 0x01, 0x00, 0x00, 0x54, 0x01, 0x00, 0x00, 0x34, 0x01, 0x00, 0x00, 0x20, 0x01, 0x00, 0x00, 0xf4, 0x00, 0x00, 0x00, 0xb0, 0x00, 0x00, 0x00, 0x94, 0x00, 0x00, 0x00, 
0x78, 0x00, 0x00, 0x00, 0x34, 0x00, 0x00, 0x00, 0x18, 0x00, 0x00, 0x00, 0x04, 0x00, 0x00, 0x00, 0x54, 0xf5, 0xff, 0xff, 0x00, 0x00, 0x00, 0x03, 0x04, 0x00, 0x00, 0x00, 0x5c, 0xf7, 0xff, 0xff, 
0x64, 0xf5, 0xff, 0xff, 0x00, 0x00, 0x00, 0x02, 0x04, 0x00, 0x00, 0x00, 0x36, 0xf7, 0xff, 0xff, 0x01, 0x00, 0x00, 0x00, 0x00, 0x00, 0x00, 0x00, 0x7c, 0xf5, 0xff, 0xff, 0x00, 0x00, 0x00, 0x05, 
0x04, 0x00, 0x00, 0x00, 0x2e, 0xf7, 0xff, 0xff, 0x00, 0x00, 0x06, 0x01, 0x20, 0x00, 0x00, 0x00, 0x14, 0x00, 0x00, 0x00, 0x04, 0x00, 0x00, 0x00, 0x4c, 0xf5, 0xff, 0xff, 0x01, 0x00, 0x00, 0x00, 
0x00, 0x15, 0x00, 0x00, 0x02, 0x00, 0x00, 0x00, 0x00, 0x01, 0x00, 0x00, 0x02, 0x00, 0x00, 0x00, 0x01, 0x00, 0x00, 0x00, 0x02, 0x00, 0x00, 0x00, 0xbc, 0xf5, 0xff, 0xff, 0x00, 0x00, 0x00, 0x02, 
0x04, 0x00, 0x00, 0x00, 0x8e, 0xf7, 0xff, 0xff, 0x01, 0x00, 0x00, 0x00, 0x00, 0x00, 0x00, 0x00, 0xd4, 0xf5, 0xff, 0xff, 0x00, 0x00, 0x00, 0x02, 0x04, 0x00, 0x00, 0x00, 0xa6, 0xf7, 0xff, 0xff, 
0x01, 0x00, 0x00, 0x00, 0x00, 0x00, 0x00, 0x00, 0xec, 0xf5, 0xff, 0xff, 0x00, 0x00, 0x00, 0x05, 0x04, 0x00, 0x00, 0x00, 0x9e, 0xf7, 0xff, 0xff, 0x00, 0x00, 0x06, 0x01, 0x20, 0x00, 0x00, 0x00, 
0x14, 0x00, 0x00, 0x00, 0x04, 0x00, 0x00, 0x00, 0xbc, 0xf5, 0xff, 0xff, 0x01, 0x00, 0x00, 0x00, 0x80, 0x15, 0x00, 0x00, 0x02, 0x00, 0x00, 0x00, 0x00, 0x01, 0x00, 0x00, 0x02, 0x00, 0x00, 0x00, 
0x01, 0x00, 0x00, 0x00, 0x02, 0x00, 0x00, 0x00, 0x2c, 0xf6, 0xff, 0xff, 0x00, 0x00, 0x00, 0x07, 0x04, 0x00, 0x00, 0x00, 0x56, 0xf7, 0xff, 0xff, 0x04, 0x00, 0x00, 0x00, 0x02, 0x00, 0x00, 0x00, 
0x3f, 0x00, 0x00, 0x00, 0x00, 0x00, 0x00, 0x00, 0x40, 0x00, 0x00, 0x00, 0x00, 0x00, 0x00, 0x00, 0x54, 0xf6, 0xff, 0xff, 0x00, 0x00, 0x00, 0x02, 0x04, 0x00, 0x00, 0x00, 0x5c, 0xf8, 0xff, 0xff, 
0x64, 0xf6, 0xff, 0xff, 0x00, 0x00, 0x00, 0x02, 0x04, 0x00, 0x00, 0x00, 0x46, 0xfc, 0xff, 0xff, 0x01, 0x00, 0x00, 0x00, 0x00, 0x00, 0x00, 0x00, 0x00, 0x00, 0x00, 0x00, 0x80, 0xf6, 0xff, 0xff, 
0x00, 0x00, 0x00, 0x05, 0x04, 0x00, 0x00, 0x00, 0x32, 0xf8, 0xff, 0xff, 0x00, 0x00, 0x06, 0x01, 0x20, 0x00, 0x00, 0x00, 0x14, 0x00, 0x00, 0x00, 0x04, 0x00, 0x00, 0x00, 0x50, 0xf6, 0xff, 0xff, 
0x01, 0x00, 0x00, 0x00, 0x00, 0x15, 0x00, 0x00, 0x02, 0x00, 0x00, 0x00, 0x00, 0x01, 0x00, 0x00, 0x02, 0x00, 0x00, 0x00, 0x10, 0x00, 0x00, 0x00, 0x02, 0x00, 0x00, 0x00, 0xc0, 0xf6, 0xff, 0xff, 
0x00, 0x00, 0x00, 0x05, 0x04, 0x00, 0x00, 0x00, 0x72, 0xf8, 0xff, 0xff, 0x00, 0x00, 0x06, 0x01, 0x1c, 0x00, 0x00, 0x00, 0x10, 0x00, 0x00, 0x00, 0x04, 0x00, 0x00, 0x00, 0xfe, 0xf7, 0xff, 0xff, 
0x01, 0x00, 0x00, 0x00, 0x02, 0x00, 0x00, 0x00, 0x00, 0x01, 0x00, 0x00, 0x02, 0x00, 0x00, 0x00, 0x01, 0x00, 0x00, 0x00, 0x10, 0x00, 0x00, 0x00, 0xfc, 0xf6, 0xff, 0xff, 0x00, 0x00, 0x00, 0x02, 
0x04, 0x00, 0x00, 0x00, 0xce, 0xf8, 0xff, 0xff, 0x01, 0x00, 0x00, 0x00, 0x00, 0x00, 0x00, 0x00, 0x14, 0xf7, 0xff, 0xff, 0x00, 0x00, 0x00, 0x02, 0x04, 0x00, 0x00, 0x00, 0xe6, 0xf8, 0xff, 0xff, 
0x01, 0x00, 0x00, 0x00, 0x00, 0x00, 0x00, 0x00, 0x2c, 0xf7, 0xff, 0xff, 0x00, 0x00, 0x00, 0x05, 0x04, 0x00, 0x00, 0x00, 0xde, 0xf8, 0xff, 0xff, 0x00, 0x00, 0x06, 0x01, 0x20, 0x00, 0x00, 0x00, 
0x14, 0x00, 0x00, 0x00, 0x04, 0x00, 0x00, 0x00, 0xfc, 0xf6, 0xff, 0xff, 0x01, 0x00, 0x00, 0x00, 0x00, 0x15, 0x00, 0x00, 0x02, 0x00, 0x00, 0x00, 0x00, 0x01, 0x00, 0x00, 0x02, 0x00, 0x00, 0x00, 
0x01, 0x00, 0x00, 0x00, 0x10, 0x00, 0x00, 0x00, 0x6c, 0xf7, 0xff, 0xff, 0x00, 0x00, 0x00, 0x07, 0x04, 0x00, 0x00, 0x00, 0x96, 0xf8, 0xff, 0xff, 0x04, 0x00, 0x00, 0x00, 0x02, 0x00, 0x00, 0x00, 
0x37, 0x00, 0x00, 0x00, 0x00, 0x00, 0x00, 0x00, 0x38, 0x00, 0x00, 0x00, 0x00, 0x00, 0x00, 0x00, 0x94, 0xf7, 0xff, 0xff, 0x00, 0x00, 0x00, 0x02, 0x04, 0x00, 0x00, 0x00, 0x9c, 0xf9, 0xff, 0xff, 
0xa4, 0xf7, 0xff, 0xff, 0x00, 0x00, 0x00, 0x02, 0x04, 0x00, 0x00, 0x00, 0x76, 0xf9, 0xff, 0xff, 0x01, 0x00, 0x00, 0x00, 0x00, 0x00, 0x00, 0x00, 0xbc, 0xf7, 0xff, 0xff, 0x00, 0x00, 0x00, 0x05, 
0x04, 0x00, 0x00, 0x00, 0x6e, 0xf9, 0xff, 0xff, 0x00, 0x00, 0x06, 0x01, 0x20, 0x00, 0x00, 0x00, 0x14, 0x00, 0x00, 0x00, 0x04, 0x00, 0x00, 0x00, 0x8c, 0xf7, 0xff, 0xff, 0x01, 0x00, 0x00, 0x00, 
0x00, 0x03, 0x00, 0x00, 0x02, 0x00, 0x00, 0x00, 0x00, 0x01, 0x00, 0x00, 0x02, 0x00, 0x00, 0x00, 0x40, 0x00, 0x00, 0x00, 0x10, 0x00, 0x00, 0x00, 0xfc, 0xf7, 0xff, 0xff, 0x00, 0x00, 0x00, 0x02, 
0x04, 0x00, 0x00, 0x00, 0xde, 0xfd, 0xff, 0xff, 0x01, 0x00, 0x00, 0x00, 0x00, 0x00, 0x00, 0x00, 0x00, 0x00, 0x00, 0x00, 0x18, 0xf8, 0xff, 0xff, 0x00, 0x00, 0x00, 0x0a, 0x04, 0x00, 0x00, 0x00, 
0x42, 0xf9, 0xff, 0xff, 0x04, 0x00, 0x00, 0x00, 0x02, 0x00, 0x00, 0x00, 0x2d, 0x00, 0x00, 0x00, 0x30, 0x00, 0x00, 0x00, 0x38, 0xf8, 0xff, 0xff, 0x00, 0x00, 0x00, 0x05, 0x04, 0x00, 0x00, 0x00, 
0xea, 0xf9, 0xff, 0xff, 0x00, 0x00, 0x06, 0x01, 0x1c, 0x00, 0x00, 0x00, 0x10, 0x00, 0x00, 0x00, 0x04, 0x00, 0x00, 0x00, 0x76, 0xf9, 0xff, 0xff, 0x01, 0x00, 0x00, 0x00, 0x02, 0x00, 0x00, 0x00, 
0x00, 0x01, 0x00, 0x00, 0x02, 0x00, 0x00, 0x00, 0x01, 0x00, 0x00, 0x00, 0x40, 0x00, 0x00, 0x00, 0x74, 0xf8, 0xff, 0xff, 0x00, 0x00, 0x00, 0x02, 0x04, 0x00, 0x00, 0x00, 0x46, 0xfa, 0xff, 0xff, 
0x01, 0x00, 0x00, 0x00, 0x00, 0x00, 0x00, 0x00, 0x8c, 0xf8, 0xff, 0xff, 0x00, 0x00, 0x00, 0x02, 0x04, 0x00, 0x00, 0x00, 0x5e, 0xfa, 0xff, 0xff, 0x02, 0x00, 0x00, 0x00, 0x00, 0x00, 0x00, 0x00, 
0xa4, 0xf8, 0xff, 0xff, 0x00, 0x00, 0x00, 0x05, 0x04, 0x00, 0x00, 0x00, 0x56, 0xfa, 0xff, 0xff, 0x00, 0x00, 0x06, 0x01, 0x20, 0x00, 0x00, 0x00, 0x14, 0x00, 0x00, 0x00, 0x04, 0x00, 0x00, 0x00, 
0x74, 0xf8, 0xff, 0xff, 0x01, 0x00, 0x00, 0x00, 0x00, 0x15, 0x00, 0x00, 0x02, 0x00, 0x00, 0x00, 0x00, 0x01, 0x00, 0x00, 0x02, 0x00, 0x00, 0x00, 0x01, 0x00, 0x00, 0x00, 0x20, 0x00, 0x00, 0x00, 
0xe4, 0xf8, 0xff, 0xff, 0x00, 0x00, 0x00, 0x02, 0x04, 0x00, 0x00, 0x00, 0xec, 0xfa, 0xff, 0xff, 0xf4, 0xf8, 0xff, 0xff, 0x00, 0x00, 0x00, 0x02, 0x04, 0x00, 0x00, 0x00, 0xc6, 0xfa, 0xff, 0xff, 
0x02, 0x00, 0x00, 0x00, 0x00, 0x00, 0x00, 0x00, 0x0c, 0xf9, 0xff, 0xff, 0x00, 0x00, 0x00, 0x05, 0x04, 0x00, 0x00, 0x00, 0xbe, 0xfa, 0xff, 0xff, 0x00, 0x00, 0x06, 0x01, 0x20, 0x00, 0x00, 0x00, 
0x14, 0x00, 0x00, 0x00, 0x04, 0x00, 0x00, 0x00, 0xdc, 0xf8, 0xff, 0xff, 0x01, 0x00, 0x00, 0x00, 0x00, 0x13, 0x00, 0x00, 0x02, 0x00, 0x00, 0x00, 0x00, 0x01, 0x00, 0x00, 0x02, 0x00, 0x00, 0x00, 
0x01, 0x00, 0x00, 0x00, 0x20, 0x00, 0x00, 0x00, 0x4c, 0xf9, 0xff, 0xff, 0x00, 0x00, 0x00, 0x07, 0x04, 0x00, 0x00, 0x00, 0x76, 0xfa, 0xff, 0xff, 0x04, 0x00, 0x00, 0x00, 0x03, 0x00, 0x00, 0x00, 
0x29, 0x00, 0x00, 0x00, 0x00, 0x00, 0x00, 0x00, 0x2a, 0x00, 0x00, 0x00, 0x00, 0x00, 0x00, 0x00, 0x2b, 0x00, 0x00, 0x00, 0x00, 0x00, 0x00, 0x00, 0x7c, 0xf9, 0xff, 0xff, 0x00, 0x00, 0x00, 0x02, 
0x04, 0x00, 0x00, 0x00, 0x4e, 0xfb, 0xff, 0xff, 0x01, 0x00, 0x00, 0x00, 0x00, 0x00, 0x00, 0x00, 0x94, 0xf9, 0xff, 0xff, 0x00, 0x00, 0x00, 0x02, 0x04, 0x00, 0x00, 0x00, 0x66, 0xfb, 0xff, 0xff, 
0x02, 0x00, 0x00, 0x00, 0x00, 0x00, 0x00, 0x00, 0xac, 0xf9, 0xff, 0xff, 0x00, 0x00, 0x00, 0x02, 0x04, 0x00, 0x00, 0x00, 0xb4, 0xfb, 0xff, 0xff, 0xbc, 0xf9, 0xff, 0xff, 0x00, 0x00, 0x00, 0x05, 
0x04, 0x00, 0x00, 0x00, 0x6e, 0xfb, 0xff, 0xff, 0x00, 0x00, 0x06, 0x01, 0x1c, 0x00, 0x00, 0x00, 0x10, 0x00, 0x00, 0x00, 0x04, 0x00, 0x00, 0x00, 0xfa, 0xfa, 0xff, 0xff, 0x01, 0x00, 0x00, 0x00, 
0x03, 0x00, 0x00, 0x00, 0x00, 0x01, 0x02, 0x00, 0x03, 0x00, 0x00, 0x00, 0x01, 0x00, 0x00, 0x00, 0x20, 0x00, 0x00, 0x00, 0x02, 0x00, 0x00, 0x00, 0xfc, 0xf9, 0xff, 0xff, 0x00, 0x00, 0x00, 0x07, 
0x04, 0x00, 0x00, 0x00, 0x26, 0xfb, 0xff, 0xff, 0x04, 0x00, 0x00, 0x00, 0x01, 0x00, 0x00, 0x00, 0x26, 0x00, 0x00, 0x00, 0x00, 0x00, 0x00, 0x00, 0x78, 0xfb, 0xff, 0xff, 0x00, 0x00, 0x00, 0x02, 
0x0c, 0x00, 0x00, 0x00, 0x00, 0x00, 0x06, 0x00, 0x10, 0x00, 0x04, 0x00, 0x06, 0x00, 0x00, 0x00, 0xfe, 0xff, 0xff, 0xff, 0xff, 0xff, 0xff, 0xff, 0x00, 0x00, 0x00, 0x00, 0x40, 0xfa, 0xff, 0xff, 
0x00, 0x00, 0x00, 0x05, 0x04, 0x00, 0x00, 0x00, 0xf2, 0xfb, 0xff, 0xff, 0x00, 0x00, 0x06, 0x01, 0x20, 0x00, 0x00, 0x00, 0x14, 0x00, 0x00, 0x00, 0x04, 0x00, 0x00, 0x00, 0x10, 0xfa, 0xff, 0xff, 
0x01, 0x00, 0x00, 0x00, 0x00, 0x13, 0x00, 0x00, 0x03, 0x00, 0x00, 0x00, 0x00, 0x01, 0x02, 0x00, 0x03, 0x00, 0x00, 0x00, 0x01, 0x00, 0x00, 0x00, 0x02, 0x00, 0x00, 0x00, 0x20, 0x00, 0x00, 0x00, 
0x84, 0xfa, 0xff, 0xff, 0x00, 0x00, 0x00, 0x0a, 0x04, 0x00, 0x00, 0x00, 0xae, 0xfb, 0xff, 0xff, 0x04, 0x00, 0x00, 0x00, 0x02, 0x00, 0x00, 0x00, 0x15, 0x00, 0x00, 0x00, 0x16, 0x00, 0x00, 0x00, 
0xa4, 0xfa, 0xff, 0xff, 0x00, 0x00, 0x00, 0x03, 0x04, 0x00, 0x00, 0x00, 0xac, 0xfc, 0xff, 0xff, 0xb4, 0xfa, 0xff, 0xff, 0x00, 0x00, 0x00, 0x07, 0x04, 0x00, 0x00, 0x00, 0xde, 0xfb, 0xff, 0xff, 
0x04, 0x00, 0x00, 0x00, 0x02, 0x00, 0x00, 0x00, 0x20, 0x00, 0x00, 0x00, 0x00, 0x00, 0x00, 0x00, 0x21, 0x00, 0x00, 0x00, 0x00, 0x00, 0x00, 0x00, 0xdc, 0xfa, 0xff, 0xff, 0x00, 0x00, 0x00, 0x02, 
0x04, 0x00, 0x00, 0x00, 0xae, 0xfc, 0xff, 0xff, 0x01, 0x00, 0x00, 0x00, 0x00, 0x00, 0x00, 0x00, 0xf4, 0xfa, 0xff, 0xff, 0x00, 0x00, 0x00, 0x02, 0x04, 0x00, 0x00, 0x00, 0xc6, 0xfc, 0xff, 0xff, 
0x01, 0x00, 0x00, 0x00, 0x00, 0x00, 0x00, 0x00, 0x0c, 0xfb, 0xff, 0xff, 0x00, 0x00, 0x00, 0x07, 0x04, 0x00, 0x00, 0x00, 0x36, 0xfc, 0xff, 0xff, 0x04, 0x00, 0x00, 0x00, 0x02, 0x00, 0x00, 0x00, 
0x1d, 0x00, 0x00, 0x00, 0x00, 0x00, 0x00, 0x00, 0x1e, 0x00, 0x00, 0x00, 0x00, 0x00, 0x00, 0x00, 0x34, 0xfb, 0xff, 0xff, 0x00, 0x00, 0x00, 0x02, 0x04, 0x00, 0x00, 0x00, 0x3c, 0xfd, 0xff, 0xff, 
0x44, 0xfb, 0xff, 0xff, 0x00, 0x00, 0x00, 0x02, 0x04, 0x00, 0x00, 0x00, 0x4c, 0xfd, 0xff, 0xff, 0x54, 0xfb, 0xff, 0xff, 0x00, 0x00, 0x00, 0x07, 0x04, 0x00, 0x00, 0x00, 0x7e, 0xfc, 0xff, 0xff, 
0x04, 0x00, 0x00, 0x00, 0x02, 0x00, 0x00, 0x00, 0x1a, 0x00, 0x00, 0x00, 0x00, 0x00, 0x00, 0x00, 0x1b, 0x00, 0x00, 0x00, 0x00, 0x00, 0x00, 0x00, 0x7c, 0xfb, 0xff, 0xff, 0x00, 0x00, 0x00, 0x02, 
0x04, 0x00, 0x00, 0x00, 0x4e, 0xfd, 0xff, 0xff, 0x03, 0x00, 0x00, 0x00, 0x00, 0x00, 0x00, 0x00, 0x94, 0xfb, 0xff, 0xff, 0x00, 0x00, 0x00, 0x02, 0x04, 0x00, 0x00, 0x00, 0x66, 0xfd, 0xff, 0xff, 
0x01, 0x00, 0x00, 0x00, 0x00, 0x00, 0x00, 0x00, 0xac, 0xfb, 0xff, 0xff, 0x00, 0x00, 0x00, 0x07, 0x04, 0x00, 0x00, 0x00, 0xd6, 0xfc, 0xff, 0xff, 0x04, 0x00, 0x00, 0x00, 0x02, 0x00, 0x00, 0x00, 
0x17, 0x00, 0x00, 0x00, 0x00, 0x00, 0x00, 0x00, 0x18, 0x00, 0x00, 0x00, 0x00, 0x00, 0x00, 0x00, 0xd4, 0xfb, 0xff, 0xff, 0x00, 0x00, 0x00, 0x02, 0x04, 0x00, 0x00, 0x00, 0xa6, 0xfd, 0xff, 0xff, 
0x03, 0x00, 0x00, 0x00, 0x00, 0x00, 0x00, 0x00, 0xec, 0xfb, 0xff, 0xff, 0x00, 0x00, 0x00, 0x02, 0x04, 0x00, 0x00, 0x00, 0xbe, 0xfd, 0xff, 0xff, 0x01, 0x00, 0x00, 0x00, 0x00, 0x00, 0x00, 0x00, 
0x60, 0xfd, 0xff, 0xff, 0x00, 0x00, 0x00, 0x05, 0x18, 0x00, 0x00, 0x00, 0x00, 0x00, 0x12, 0x00, 0x14, 0x00, 0x07, 0x00, 0x00, 0x00, 0x08, 0x00, 0x0c, 0x00, 0x00, 0x00, 0x00, 0x00, 0x10, 0x00, 
0x12, 0x00, 0x00, 0x00, 0x00, 0x00, 0x00, 0x04, 0x20, 0x00, 0x00, 0x00, 0x14, 0x00, 0x00, 0x00, 0x04, 0x00, 0x00, 0x00, 0xe8, 0xfb, 0xff, 0xff, 0x01, 0x00, 0x00, 0x00, 0x00, 0x13, 0x00, 0x00, 
0x04, 0x00, 0x00, 0x00, 0x00, 0x01, 0x02, 0x03, 0x04, 0x00, 0x00, 0x00, 0x01, 0x00, 0x00, 0x00, 0x02, 0x00, 0x00, 0x00, 0x01, 0x00, 0x00, 0x00, 0x20, 0x00, 0x00, 0x00, 0x60, 0xfc, 0xff, 0xff, 
0x00, 0x00, 0x00, 0x05, 0x04, 0x00, 0x00, 0x00, 0x12, 0xfe, 0xff, 0xff, 0x00, 0x00, 0x06, 0x01, 0x1c, 0x00, 0x00, 0x00, 0x10, 0x00, 0x00, 0x00, 0x04, 0x00, 0x00, 0x00, 0x9e, 0xfd, 0xff, 0xff, 
0x01, 0x00, 0x00, 0x00, 0x04, 0x00, 0x00, 0x00, 0x00, 0x01, 0x02, 0x03, 0x04, 0x00, 0x00, 0x00, 0x01, 0x00, 0x00, 0x00, 0x02, 0x00, 0x00, 0x00, 0x01, 0x00, 0x00, 0x00, 0x20, 0x00, 0x00, 0x00, 
0xa4, 0xfc, 0xff, 0xff, 0x00, 0x00, 0x00, 0x02, 0x04, 0x00, 0x00, 0x00, 0x76, 0xfe, 0xff, 0xff, 0xfe, 0xff, 0xff, 0xff, 0xff, 0xff, 0xff, 0xff, 0xbc, 0xfc, 0xff, 0xff, 0x00, 0x00, 0x00, 0x05, 
0x04, 0x00, 0x00, 0x00, 0x6e, 0xfe, 0xff, 0xff, 0x00, 0x00, 0x06, 0x01, 0x20, 0x00, 0x00, 0x00, 0x14, 0x00, 0x00, 0x00, 0x04, 0x00, 0x00, 0x00, 0x8c, 0xfc, 0xff, 0xff, 0x01, 0x00, 0x00, 0x00, 
0x00, 0x03, 0x00, 0x00, 0x04, 0x00, 0x00, 0x00, 0x00, 0x01, 0x02, 0x03, 0x04, 0x00, 0x00, 0x00, 0x01, 0x00, 0x00, 0x00, 0x02, 0x00, 0x00, 0x00, 0x01, 0x00, 0x00, 0x00, 0x60, 0x00, 0x00, 0x00, 
0x04, 0xfd, 0xff, 0xff, 0x00, 0x00, 0x00, 0x05, 0x04, 0x00, 0x00, 0x00, 0xb6, 0xfe, 0xff, 0xff, 0x00, 0x00, 0x06, 0x01, 0x1c, 0x00, 0x00, 0x00, 0x10, 0x00, 0x00, 0x00, 0x04, 0x00, 0x00, 0x00, 
0x42, 0xfe, 0xff, 0xff, 0x01, 0x00, 0x00, 0x00, 0x03, 0x00, 0x00, 0x00, 0x00, 0x01, 0x02, 0x00, 0x03, 0x00, 0x00, 0x00, 0x01, 0x00, 0x00, 0x00, 0x02, 0x00, 0x00, 0x00, 0x60, 0x00, 0x00, 0x00, 
0x44, 0xfd, 0xff, 0xff, 0x00, 0x00, 0x00, 0x02, 0x04, 0x00, 0x00, 0x00, 0x16, 0xff, 0xff, 0xff, 0x01, 0x00, 0x00, 0x00, 0x00, 0x00, 0x00, 0x00, 0x5c, 0xfd, 0xff, 0xff, 0x00, 0x00, 0x00, 0x07, 
0x04, 0x00, 0x00, 0x00, 0x86, 0xfe, 0xff, 0xff, 0x04, 0x00, 0x00, 0x00, 0x01, 0x00, 0x00, 0x00, 0x0f, 0x00, 0x00, 0x00, 0x00, 0x00, 0x00, 0x00, 0x7c, 0xfd, 0xff, 0xff, 0x00, 0x00, 0x00, 0x02, 
0x04, 0x00, 0x00, 0x00, 0x84, 0xff, 0xff, 0xff, 0x8c, 0xfd, 0xff, 0xff, 0x00, 0x00, 0x00, 0x03, 0x04, 0x00, 0x00, 0x00, 0x94, 0xff, 0xff, 0xff, 0x9c, 0xfd, 0xff, 0xff, 0x00, 0x00, 0x00, 0x07, 
0x04, 0x00, 0x00, 0x00, 0xc6, 0xfe, 0xff, 0xff, 0x04, 0x00, 0x00, 0x00, 0x01, 0x00, 0x00, 0x00, 0x0c, 0x00, 0x00, 0x00, 0x00, 0x00, 0x00, 0x00, 0xbc, 0xfd, 0xff, 0xff, 0x00, 0x00, 0x00, 0x02, 
0x04, 0x00, 0x00, 0x00, 0x8e, 0xff, 0xff, 0xff, 0x01, 0x00, 0x00, 0x00, 0x00, 0x00, 0x00, 0x00, 0xd4, 0xfd, 0xff, 0xff, 0x00, 0x00, 0x00, 0x07, 0x04, 0x00, 0x00, 0x00, 0xfe, 0xfe, 0xff, 0xff, 
0x04, 0x00, 0x00, 0x00, 0x01, 0x00, 0x00, 0x00, 0x0a, 0x00, 0x00, 0x00, 0x00, 0x00, 0x00, 0x00, 0x00, 0x00, 0x00, 0x00, 0xf8, 0xfd, 0xff, 0xff, 0x00, 0x00, 0x00, 0x02, 0x08, 0x00, 0x00, 0x00, 
0x04, 0x00, 0x04, 0x00, 0x04, 0x00, 0x00, 0x00, 0x0c, 0xfe, 0xff, 0xff, 0x00, 0x00, 0x00, 0x07, 0x04, 0x00, 0x00, 0x00, 0x36, 0xff, 0xff, 0xff, 0x04, 0x00, 0x00, 0x00, 0x01, 0x00, 0x00, 0x00, 
0x08, 0x00, 0x00, 0x00, 0x00, 0x00, 0x00, 0x00, 0x88, 0xff, 0xff, 0xff, 0x00, 0x00, 0x00, 0x02, 0x0c, 0x00, 0x00, 0x00, 0x00, 0x00, 0x06, 0x00, 0x0c, 0x00, 0x04, 0x00, 0x06, 0x00, 0x00, 0x00, 
0x01, 0x00, 0x00, 0x00, 0x00, 0x00, 0x00, 0x00, 0xa8, 0xff, 0xff, 0xff, 0x00, 0x00, 0x00, 0x05, 0x18, 0x00, 0x00, 0x00, 0x00, 0x00, 0x12, 0x00, 0x14, 0x00, 0x06, 0x00, 0x00, 0x00, 0x08, 0x00, 
0x0c, 0x00, 0x07, 0x00, 0x00, 0x00, 0x10, 0x00, 0x12, 0x00, 0x00, 0x00, 0x00, 0x00, 0x06, 0x01, 0x20, 0x00, 0x00, 0x00, 0x14, 0x00, 0x00, 0x00, 0x04, 0x00, 0x00, 0x00, 0x30, 0xfe, 0xff, 0xff, 
0x01, 0x00, 0x00, 0x00, 0x00, 0x03, 0x00, 0x00, 0x03, 0x00, 0x00, 0x00, 0x00, 0x01, 0x02, 0x00, 0x03, 0x00, 0x00, 0x00, 0x01, 0x00, 0x00, 0x00, 0x02, 0x00, 0x00, 0x00, 0x60, 0x00, 0x00, 0x00, 
0x08, 0x00, 0x0e, 0x00, 0x07, 0x00, 0x08, 0x00, 0x08, 0x00, 0x00, 0x00, 0x00, 0x00, 0x00, 0x05, 0x18, 0x00, 0x00, 0x00, 0x00, 0x00, 0x12, 0x00, 0x16, 0x00, 0x07, 0x00, 0x00, 0x00, 0x08, 0x00, 
0x0c, 0x00, 0x00, 0x00, 0x00, 0x00, 0x10, 0x00, 0x12, 0x00, 0x00, 0x00, 0x00, 0x00, 0x00, 0x06, 0x24, 0x00, 0x00, 0x00, 0x18, 0x00, 0x00, 0x00, 0x0c, 0x00, 0x00, 0x00, 0x00, 0x00, 0x06, 0x00, 
0x08, 0x00, 0x04, 0x00, 0x06, 0x00, 0x00, 0x00, 0x01, 0x00, 0x00, 0x00, 0x03, 0x00, 0x00, 0x00, 0x00, 0x01, 0x02, 0x00, 0x03, 0x00, 0x00, 0x00, 0x01, 0x00, 0x00, 0x00, 0x01, 0x00, 0x00, 0x00, 
0x64, 0x00, 0x00, 0x00, 0x08, 0xff, 0xff, 0xff, 0x00, 0x00, 0x00, 0x05, 0x04, 0x00, 0x00, 0x00, 0x00, 0xff, 0xff, 0xff, 0x00, 0x00, 0x06, 0x01, 0x14, 0x00, 0x00, 0x00, 0x08, 0x00, 0x00, 0x00, 
0x06, 0x00, 0x00, 0x00, 0x01, 0x00, 0x00, 0x00, 0x00, 0x00, 0x00, 0x00, 0x01, 0x00, 0x00, 0x00, 0x02, 0x00, 0x00, 0x00, 0x38, 0xff, 0xff, 0xff, 0x00, 0x00, 0x00, 0x05, 0x04, 0x00, 0x00, 0x00, 
0x30, 0xff, 0xff, 0xff, 0x00, 0x00, 0x06, 0x01, 0x14, 0x00, 0x00, 0x00, 0x08, 0x00, 0x00, 0x00, 0x05, 0x00, 0x00, 0x00, 0x02, 0x00, 0x00, 0x00, 0x00, 0x01, 0x00, 0x00, 0x02, 0x00, 0x00, 0x00, 
0x02, 0x00, 0x00, 0x00, 0x10, 0x00, 0x00, 0x00, 0x6c, 0xff, 0xff, 0xff, 0x00, 0x00, 0x00, 0x05, 0x04, 0x00, 0x00, 0x00, 0x64, 0xff, 0xff, 0xff, 0x00, 0x00, 0x06, 0x01, 0x14, 0x00, 0x00, 0x00, 
0x08, 0x00, 0x00, 0x00, 0x04, 0x00, 0x00, 0x00, 0x01, 0x00, 0x00, 0x00, 0x00, 0x00, 0x00, 0x00, 0x01, 0x00, 0x00, 0x00, 0x10, 0x00, 0x00, 0x00, 0x9c, 0xff, 0xff, 0xff, 0x00, 0x00, 0x00, 0x05, 
0x04, 0x00, 0x00, 0x00, 0x94, 0xff, 0xff, 0xff, 0x00, 0x00, 0x06, 0x01, 0x14, 0x00, 0x00, 0x00, 0x08, 0x00, 0x00, 0x00, 0x03, 0x00, 0x00, 0x00, 0x02, 0x00, 0x00, 0x00, 0x00, 0x01, 0x00, 0x00, 
0x02, 0x00, 0x00, 0x00, 0x10, 0x00, 0x00, 0x00, 0x40, 0x00, 0x00, 0x00, 0xd0, 0xff, 0xff, 0xff, 0x00, 0x00, 0x00, 0x05, 0x04, 0x00, 0x00, 0x00, 0xc8, 0xff, 0xff, 0xff, 0x00, 0x00, 0x06, 0x01, 
0x14, 0x00, 0x00, 0x00, 0x08, 0x00, 0x00, 0x00, 0x02, 0x00, 0x00, 0x00, 0x01, 0x00, 0x00, 0x00, 0x00, 0x00, 0x00, 0x00, 0x01, 0x00, 0x00, 0x00, 0x02, 0x00, 0x00, 0x00, 0x08, 0x00, 0x0c, 0x00, 
0x07, 0x00, 0x08, 0x00, 0x08, 0x00, 0x00, 0x00, 0x00, 0x00, 0x00, 0x05, 0x14, 0x00, 0x00, 0x00, 0x10, 0x00, 0x14, 0x00, 0x06, 0x00, 0x00, 0x00, 0x08, 0x00, 0x0c, 0x00, 0x07, 0x00, 0x10, 0x00, 
0x10, 0x00, 0x00, 0x00, 0x00, 0x00, 0x06, 0x01, 0x14, 0x00, 0x00, 0x00, 0x08, 0x00, 0x00, 0x00, 0x01, 0x00, 0x00, 0x00, 0x03, 0x00, 0x00, 0x00, 0x00, 0x01, 0x02, 0x00, 0x03, 0x00, 0x00, 0x00, 
0x02, 0x00, 0x00, 0x00, 0x01, 0x00, 0x00, 0x00, 0x05, 0x00, 0x00, 0x00, 0x08, 0x00, 0x0c, 0x00, 0x04, 0x00, 0x08, 0x00, 0x08, 0x00, 0x00, 0x00, 0x48, 0x00, 0x00, 0x00, 0x04, 0x00, 0x00, 0x00, 
0x39, 0x00, 0x00, 0x00, 0x5b, 0x31, 0x2c, 0x20, 0x7b, 0x22, 0x74, 0x79, 0x70, 0x65, 0x22, 0x3a, 0x20, 0x6e, 0x75, 0x6c, 0x6c, 0x2c, 0x20, 0x22, 0x63, 0x6f, 0x6e, 0x74, 0x65, 0x78, 0x74, 0x22, 
0x3a, 0x20, 0x6e, 0x75, 0x6c, 0x6c, 0x2c, 0x20, 0x22, 0x63, 0x68, 0x69, 0x6c, 0x64, 0x72, 0x65, 0x6e, 0x5f, 0x73, 0x70, 0x65, 0x63, 0x22, 0x3a, 0x20, 0x5b, 0x5d, 0x7d, 0x5d, 0x00, 0x00, 0x00, 
0xfe, 0x00, 0x00, 0x00, 0x5b, 0x31, 0x2c, 0x20, 0x7b, 0x22, 0x74, 0x79, 0x70, 0x65, 0x22, 0x3a, 0x20, 0x22, 0x62, 0x75, 0x69, 0x6c, 0x74, 0x69, 0x6e, 0x73, 0x2e, 0x74, 0x75, 0x70, 0x6c, 0x65, 
0x22, 0x2c, 0x20, 0x22, 0x63, 0x6f, 0x6e, 0x74, 0x65, 0x78, 0x74, 0x22, 0x3a, 0x20, 0x22, 0x6e, 0x75, 0x6c, 0x6c, 0x22, 0x2c, 0x20, 0x22, 0x63, 0x68, 0x69, 0x6c, 0x64, 0x72, 0x65, 0x6e, 0x5f, 
0x73, 0x70, 0x65, 0x63, 0x22, 0x3a, 0x20, 0x5b, 0x7b, 0x22, 0x74, 0x79, 0x70, 0x65, 0x22, 0x3a, 0x20, 0x22, 0x62, 0x75, 0x69, 0x6c, 0x74, 0x69, 0x6e, 0x73, 0x2e, 0x74, 0x75, 0x70, 0x6c, 0x65, 
0x22, 0x2c, 0x20, 0x22, 0x63, 0x6f, 0x6e, 0x74, 0x65, 0x78, 0x74, 0x22, 0x3a, 0x20, 0x22, 0x6e, 0x75, 0x6c, 0x6c, 0x22, 0x2c, 0x20, 0x22, 0x63, 0x68, 0x69, 0x6c, 0x64, 0x72, 0x65, 0x6e, 0x5f, 
0x73, 0x70, 0x65, 0x63, 0x22, 0x3a, 0x20, 0x5b, 0x7b, 0x22, 0x74, 0x79, 0x70, 0x65, 0x22, 0x3a, 0x20, 0x6e, 0x75, 0x6c, 0x6c, 0x2c, 0x20, 0x22, 0x63, 0x6f, 0x6e, 0x74, 0x65, 0x78, 0x74, 0x22, 
0x3a, 0x20, 0x6e, 0x75, 0x6c, 0x6c, 0x2c, 0x20, 0x22, 0x63, 0x68, 0x69, 0x6c, 0x64, 0x72, 0x65, 0x6e, 0x5f, 0x73, 0x70, 0x65, 0x63, 0x22, 0x3a, 0x20, 0x5b, 0x5d, 0x7d, 0x5d, 0x7d, 0x2c, 0x20, 
0x7b, 0x22, 0x74, 0x79, 0x70, 0x65, 0x22, 0x3a, 0x20, 0x22, 0x62, 0x75, 0x69, 0x6c, 0x74, 0x69, 0x6e, 0x73, 0x2e, 0x64, 0x69, 0x63, 0x74, 0x22, 0x2c, 0x20, 0x22, 0x63, 0x6f, 0x6e, 0x74, 0x65, 
0x78, 0x74, 0x22, 0x3a, 0x20, 0x22, 0x5b, 0x5d, 0x22, 0x2c, 0x20, 0x22, 0x63, 0x68, 0x69, 0x6c, 0x64, 0x72, 0x65, 0x6e, 0x5f, 0x73, 0x70, 0x65, 0x63, 0x22, 0x3a, 0x20, 0x5b, 0x5d, 0x7d, 0x5d, 
0x7d, 0x5d, 0x00, 0x00, 0x07, 0x00, 0x00, 0x00, 0x66, 0x6f, 0x72, 0x77, 0x61, 0x72, 0x64, 0x00, 0x00, 0x00, 0x00, 0x00, 0x00, 0x00, 0x00, 0x00, 0x00, 0x00, 0x00, 0x00, 0x00, 0x00, 0x00, 0x00, 
0xc0, 0xba, 0x45, 0x3d, 0xbd, 0xcb, 0x32, 0x3e, 0x89, 0xf4, 0xd1, 0x3e, 0x0c, 0xd6, 0x0c, 0x3f, 0x69, 0xee, 0x8f, 0x3e, 0x91, 0x59, 0x84, 0x3e, 0x2b, 0xa4, 0x08, 0x3e, 0x4d, 0x09, 0x62, 0xbe, 
0x6e, 0xfb, 0xca, 0xbe, 0x28, 0x6e, 0x86, 0x3e, 0x00, 0x00, 0x00, 0x00, 0x00, 0x00, 0x00, 0x00, 0x6b, 0x18, 0x28, 0x3f, 0x5d, 0xef, 0xab, 0xbe, 0x00, 0x00, 0x00, 0x00, 0x00, 0x00, 0x00, 0x00, 
0xb3, 0xc0, 0x7c, 0x3b, 0x10, 0xd2, 0x85, 0xbc, 0xf8, 0xf5, 0x95, 0x3d, 0x14, 0x7c, 0x86, 0xbd, 0x71, 0xe1, 0xda, 0xbd, 0xd7, 0x73, 0xf5, 0xbd, 0x95, 0x7a, 0xc3, 0xbd, 0xfe, 0x66, 0x97, 0x3b, 
0x69, 0xab, 0x84, 0x3d, 0x68, 0xe5, 0xed, 0x3d, 0x5f, 0x04, 0x8c, 0xbd, 0x41, 0x0a, 0x40, 0xbd, 0x44, 0x56, 0xd8, 0x3a, 0xe0, 0x12, 0x7e, 0x3d, 0x7b, 0x3b, 0xc7, 0x3d, 0xa5, 0x3b, 0xf0, 0xbd, 
0x9f, 0xc7, 0xf2, 0xbd, 0x6c, 0x6e, 0xe6, 0xbd, 0xe8, 0xc8, 0x3f, 0xbd, 0x7e, 0xb5, 0xc5, 0x3d, 0xcb, 0x15, 0xcc, 0x3d, 0xe0, 0x33, 0xbf, 0x3a, 0x00, 0x3c, 0x8a, 0xbc, 0x92, 0xe4, 0x34, 0x3c, 
0xa4, 0xbf, 0xe2, 0x3d, 0xe7, 0x51, 0x92, 0x3c, 0x3f, 0x87, 0xc1, 0x3d, 0x00, 0x52, 0xb7, 0xba, 0x0f, 0x24, 0xae, 0x3d, 0x7e, 0xff, 0x8f, 0xbd, 0x1d, 0xbd, 0x8f, 0x3d, 0xd0, 0x4f, 0x61, 0x3d, 
0x80, 0xb1, 0xbb, 0xbc, 0xe8, 0x48, 0x9e, 0xbc, 0x58, 0x9a, 0xf3, 0x3d, 0x22, 0xfa, 0xf5, 0xbd, 0x08, 0x63, 0x78, 0x3d, 0x00, 0x72, 0x6f, 0x3d, 0x92, 0x84, 0xf0, 0x3d, 0x0c, 0xe3, 0x50, 0x3d, 
0xa0, 0x2a, 0xf4, 0xbb, 0x72, 0xe7, 0xc0, 0x3d, 0xd0, 0xfb, 0x34, 0x3d, 0x76, 0xf0, 0xca, 0x3d, 0x50, 0x28, 0x02, 0xbc, 0xdc, 0x51, 0x76, 0xbd, 0x8a, 0xe2, 0xfa, 0x3d, 0x4c, 0xd0, 0xa5, 0x3d, 
0x34, 0x13, 0xa1, 0xbd, 0x70, 0x03, 0xe1, 0x3d, 0x68, 0x35, 0xf8, 0x3d, 0xc0, 0xbf, 0x66, 0xbd, 0xcc, 0x53, 0x0f, 0x3d, 0x80, 0xc8, 0x8d, 0x3c, 0x60, 0x79, 0xb5, 0xbd, 0x60, 0x8d, 0x12, 0xbd, 
0x20, 0x1b, 0x16, 0xbd, 0x5c, 0x81, 0x64, 0xbd, 0x38, 0x07, 0x64, 0xbd, 0x12, 0xb2, 0xcc, 0x3d, 0x80, 0xa2, 0x2a, 0x3d, 0xb2, 0x7c, 0xd1, 0x3d, 0x78, 0x3e, 0xcc, 0x3d, 0xa8, 0x74, 0x72, 0xbd, 
0x18, 0xa1, 0xf8, 0xbd, 0x98, 0xe0, 0xbf, 0xbd, 0x10, 0x2b, 0x9a, 0xbc, 0xbc, 0xa5, 0x4c, 0x3d, 0x80, 0x7d, 0x68, 0xbb, 0xde, 0x27, 0xb3, 0x3d, 0x82, 0x1e, 0xe5, 0xbd, 0x80, 0x8a, 0xc3, 0xbc, 
0x20, 0xa5, 0x3d, 0xbc, 0xea, 0xf9, 0xae, 0x3d, 0xb0, 0xa0, 0x70, 0xbd, 0xd8, 0x9a, 0xad, 0xbd, 0xf8, 0x6f, 0xe9, 0xbd, 0x56, 0x4a, 0xbd, 0xbd, 0xc4, 0x22, 0x24, 0x3d, 0xde, 0x73, 0xdc, 0x3d, 
0x64, 0x60, 0xaf, 0x3d, 0x62, 0x7b, 0xe6, 0xbd, 0xe0, 0x42, 0x0b, 0x3c, 0x26, 0xee, 0x88, 0x3d, 0x90, 0xc7, 0xe9, 0x3c, 0x7c, 0x2c, 0x5a, 0x3d, 0x68, 0xd7, 0x97, 0xbc, 0xe0, 0xce, 0xa3, 0x3b, 
0x4a, 0xe3, 0xb1, 0xbd, 0xc2, 0x37, 0x8d, 0xbd, 0x70, 0xa2, 0x68, 0x3d, 0x28, 0x42, 0xb0, 0x3c, 0xe0, 0xdd, 0x94, 0x3d, 0xf0, 0xc7, 0x6f, 0x3c, 0x38, 0x1c, 0xb8, 0x3d, 0xfc, 0xe6, 0x84, 0xbd, 
0x2c, 0xf7, 0x7d, 0xbd, 0x8a, 0x6f, 0xa5, 0xbd, 0x64, 0x1f, 0x67, 0x3d, 0x34, 0x08, 0xdb, 0xbd, 0x58, 0x91, 0xae, 0xbd, 0x90, 0x61, 0x54, 0x3c, 0x78, 0x7d, 0x0d, 0x3d, 0xf8, 0x98, 0xe3, 0xbd, 
0x40, 0x8a, 0x5f, 0x3c, 0x40, 0xa5, 0x07, 0x3b, 0x94, 0x20, 0x29, 0xbd, 0xa0, 0xc3, 0x7b, 0x3d, 0xa8, 0x70, 0x77, 0x3d, 0xe0, 0x08, 0xba, 0xbd, 0x10, 0xb0, 0xd0, 0xbc, 0x60, 0x73, 0x28, 0xbc, 
0x48, 0x4a, 0xab, 0xbc, 0x10, 0x01, 0xb2, 0x3d, 0x60, 0x9c, 0x7b, 0x3d, 0xd8, 0xea, 0x03, 0x3d, 0x54, 0x52, 0x3d, 0x3d, 0x70, 0x9a, 0x7f, 0xbc, 0x5c, 0x46, 0x3d, 0xbd, 0x40, 0x22, 0x99, 0x3b, 
0x3e, 0x41, 0xae, 0xbd, 0x0e, 0x32, 0xd4, 0x3d, 0x20, 0x3f, 0x2e, 0x3d, 0x60, 0xfa, 0x87, 0x3b, 0x20, 0xda, 0xd3, 0x3b, 0x9c, 0x92, 0xce, 0x3d, 0xc8, 0x67, 0xe5, 0x3d, 0x58, 0x84, 0x28, 0xbd, 
0x88, 0x7b, 0x1a, 0x3d, 0x72, 0xa4, 0xa0, 0xbd, 0xa0, 0x04, 0x61, 0xbd, 0x20, 0x5b, 0x2e, 0xbc, 0x90, 0x54, 0x86, 0x3c, 0x90, 0x63, 0x1d, 0xbc, 0xfa, 0xc3, 0xe9, 0xbd, 0x68, 0x24, 0x44, 0xbd, 
0x90, 0x35, 0x11, 0x3d, 0x5e, 0x3a, 0xa0, 0x3d, 0xca, 0x95, 0xef, 0x3d, 0xc0, 0x59, 0x04, 0xbd, 0x88, 0xac, 0xfc, 0x3c, 0xc0, 0x02, 0xfb, 0xbd, 0xf8, 0x69, 0x34, 0xbd, 0x00, 0x3e, 0x99, 0xb9, 
0x0a, 0x1f, 0xf2, 0xbd, 0x0c, 0x2a, 0x5b, 0xbd, 0x48, 0x51, 0xe8, 0xbd, 0x94, 0x2a, 0xe5, 0xbd, 0xa0, 0x79, 0x3d, 0x3d, 0x80, 0x0c, 0x2f, 0xbd, 0x78, 0x85, 0x88, 0x3c, 0x54, 0x5b, 0xd2, 0x3d, 
0x70, 0x3d, 0x8e, 0xbc, 0x88, 0xbc, 0x6c, 0xbd, 0x30, 0xdd, 0xb8, 0xbd, 0x20, 0x3f, 0xa1, 0xbd, 0xd8, 0x77, 0xe6, 0x3d, 0x48, 0xb5, 0x73, 0xbd, 0x68, 0x84, 0xf1, 0x3c, 0x18, 0x4c, 0xaa, 0xbd, 
0x60, 0xcb, 0x8c, 0x3d, 0x70, 0xb1, 0xa0, 0x3c, 0x62, 0x83, 0x8a, 0x3d, 0x56, 0x53, 0xe9, 0xbd, 0xe4, 0xbd, 0x51, 0xbd, 0x00, 0x62, 0xc4, 0x39, 0x3e, 0xaa, 0xfa, 0xbd, 0x08, 0xf0, 0x1e, 0xbd, 
0x80, 0xc5, 0x6e, 0x3c, 0xec, 0x38, 0x31, 0x3d, 0xac, 0x7f, 0xfd, 0xbd, 0xf0, 0xf5, 0xa7, 0xbd, 0x02, 0xfe, 0xf3, 0xbd, 0x00, 0x9f, 0xd5, 0xba, 0xec, 0x43, 0x1f, 0xbd, 0x00, 0x8a, 0x8a, 0x3a, 
0x38, 0xbe, 0x5e, 0xbd, 0xa8, 0x1a, 0xb8, 0xbc, 0x70, 0x29, 0x54, 0x3c, 0xf2, 0x12, 0xdd, 0x3d, 0xd0, 0x6c, 0x4e, 0xbc, 0x76, 0x8c, 0xb6, 0xbd, 0xb8, 0xfd, 0x3b, 0xbd, 0xaa, 0x32, 0x8d, 0x3d, 
0x98, 0xc0, 0x8b, 0x3d, 0x00, 0x9c, 0x94, 0xbd, 0xd0, 0x8a, 0xc3, 0x3d, 0x38, 0x98, 0xcc, 0xbc, 0xb0, 0xad, 0xe5, 0xbd, 0x10, 0xb9, 0x1d, 0x3d, 0x70, 0x6c, 0x64, 0xbd, 0x24, 0xe7, 0x98, 0xbd, 
0x98, 0x6f, 0xb5, 0x3c, 0x00, 0xb8, 0xb1, 0x3b, 0xe0, 0x59, 0xda, 0x3c, 0x98, 0xeb, 0x2a, 0x3d, 0x30, 0x77, 0xe4, 0x3c, 0x98, 0xa7, 0x17, 0x3d, 0xb0, 0x61, 0x7e, 0x3d, 0x2e, 0xcf, 0xf9, 0xbd, 
0xa0, 0x3c, 0xa4, 0xbd, 0x10, 0x74, 0x96, 0xbd, 0x20, 0xe4, 0xa8, 0xbc, 0xea, 0xef, 0xcd, 0x3d, 0x5e, 0x93, 0xf4, 0xbd, 0x50, 0x4a, 0x06, 0x3d, 0x56, 0xc1, 0xeb, 0xbd, 0x08, 0x9a, 0x7d, 0xbd, 
0xf0, 0xe1, 0xaa, 0xbc, 0xe0, 0x1c, 0x1c, 0xbc, 0x50, 0xb6, 0x07, 0x3d, 0x80, 0xa9, 0xdc, 0x3a, 0x78, 0xce, 0x43, 0x3d, 0x68, 0xba, 0x50, 0xbd, 0xd6, 0x1b, 0xc0, 0x3d, 0xbc, 0xf4, 0xef, 0x3d, 
0x00, 0x0b, 0x7f, 0x3c, 0x28, 0xdd, 0xac, 0x3d, 0x78, 0x63, 0x89, 0x3c, 0xb0, 0xb5, 0xf2, 0x3c, 0x48, 0x50, 0x11, 0x3d, 0x60, 0xec, 0x29, 0xbc, 0x5e, 0xb0, 0xb6, 0xbd, 0xc0, 0x99, 0x7b, 0xbd, 
0xc8, 0x95, 0xae, 0x3c, 0x94, 0x03, 0x7e, 0xbd, 0x68, 0xd0, 0x3e, 0x3d, 0x30, 0x52, 0xb7, 0x3d, 0xd4, 0x05, 0xd5, 0xbd, 0x22, 0x1a, 0x97, 0x3d, 0x12, 0xd2, 0xda, 0x3d, 0x5e, 0x23, 0xce, 0xbd, 
0x96, 0xd3, 0xde, 0x3d, 0xa0, 0xc9, 0xeb, 0x3c, 0x3c, 0x63, 0x69, 0x3d, 0x66, 0x74, 0xae, 0x3d, 0x94, 0x0f, 0xb8, 0xbd, 0x8a, 0x6c, 0x97, 0xbd, 0xb8, 0x06, 0x8d, 0x3d, 0x00, 0x00, 0xb1, 0xbd, 
0x10, 0x19, 0x58, 0xbd, 0x8c, 0x57, 0x29, 0x3d, 0x1e, 0xe9, 0xf4, 0xbd, 0x60, 0x78, 0x42, 0xbd, 0x14, 0xf5, 0x64, 0xbd, 0x82, 0xb0, 0xed, 0x3d, 0x00, 0x5f, 0x28, 0x3a, 0x30, 0xec, 0x28, 0x3c, 
0x58, 0x78, 0x93, 0x3d, 0x5c, 0x15, 0x61, 0x3d, 0xd0, 0x37, 0x4e, 0xbc, 0x00, 0x08, 0x09, 0xb9, 0x90, 0x87, 0x33, 0x3d, 0x10, 0x50, 0x89, 0x3d, 0x5c, 0x74, 0xa8, 0x3d, 0xee, 0xb7, 0xdc, 0x3d, 
0xd8, 0xee, 0xa1, 0x3d, 0x00, 0x41, 0x59, 0xba, 0x40, 0x75, 0xfd, 0xbb, 0x60, 0xb6, 0x04, 0x3c, 0x6c, 0x4c, 0xfb, 0x3d, 0x28, 0xc8, 0xe2, 0xbd, 0xdc, 0x13, 0xd1, 0xbd, 0xf4, 0x43, 0x81, 0xbd, 
0x14, 0x16, 0xbc, 0xbd, 0xa8, 0xcf, 0x20, 0x3d, 0xd2, 0x2d, 0xa8, 0x3d, 0x1c, 0xc8, 0x7c, 0x3d, 0x00, 0x02, 0x45, 0x3a, 0x78, 0x31, 0x66, 0xbd, 0xec, 0xb6, 0xe8, 0xbd, 0xfa, 0x5e, 0x88, 0xbd, 
0x9a, 0xf0, 0xcf, 0x3d, 0x92, 0x63, 0xf1, 0x3d, 0x0e, 0xf8, 0xc8, 0x3d, 0x8c, 0xc8, 0x6e, 0x3d, 0xdc, 0x46, 0x17, 0xbd, 0x80, 0xe1, 0x20, 0x3b, 0x9c, 0x0a, 0xa0, 0x3d, 0xc4, 0x2a, 0xb3, 0xbd, 
0x40, 0xc4, 0x75, 0xbd, 0x88, 0x9b, 0xb8, 0xbd, 0xf8, 0x7c, 0xc1, 0xbc, 0x7c, 0x34, 0x51, 0xbd, 0xc8, 0x39, 0x0c, 0xbd, 0x40, 0x83, 0x9f, 0x3c, 0x46, 0x93, 0xa7, 0xbd, 0x18, 0x07, 0xd0, 0xbc, 
0x80, 0x05, 0x62, 0xbb, 0x4a, 0x5b, 0x80, 0x3d, 0x6c, 0xb1, 0x56, 0xbd, 0xde, 0x99, 0xf3, 0xbd, 0xb2, 0xe8, 0xff, 0x3d, 0x18, 0x02, 0x5e, 0x3d, 0x8a, 0xf7, 0xbb, 0x3d, 0x4e, 0x3f, 0xe1, 0xbd, 
0xd8, 0xac, 0xa6, 0xbc, 0x28, 0x11, 0xe3, 0x3c, 0x7a, 0x00, 0x94, 0xbd, 0x58, 0x7e, 0x99, 0x3c, 0x50, 0x0b, 0xf9, 0x3d, 0x18, 0xd6, 0xb8, 0xbc, 0x30, 0x1e, 0xc6, 0xbd, 0x3c, 0x7d, 0x01, 0x3d, 
0x80, 0xf5, 0xa0, 0x3c, 0xaa, 0xab, 0xe9, 0xbd, 0xe0, 0x90, 0xe7, 0xbb, 0x9c, 0x04, 0x98, 0xbd, 0x8c, 0xbf, 0xbb, 0x3d, 0x64, 0xb6, 0xd0, 0xbd, 0x74, 0x4a, 0x1f, 0xbd, 0xac, 0x10, 0x1b, 0xbd, 
0x1a, 0xe3, 0xb7, 0x3d, 0xcc, 0x35, 0x24, 0x3d, 0xc2, 0x21, 0xa9, 0xbd, 0xb8, 0x10, 0x40, 0xbd, 0xb8, 0x9e, 0x8c, 0xbc, 0x30, 0x91, 0xf3, 0xbd, 0x20, 0xf9, 0xdb, 0x3d, 0xbc, 0x3b, 0xae, 0x3d, 
0x6e, 0xd0, 0xa7, 0xbd, 0x9a, 0xe6, 0xd6, 0x3d, 0xd4, 0xa1, 0x55, 0x3d, 0x1e, 0x9f, 0x9d, 0xbd, 0x04, 0x26, 0x17, 0x3d, 0xb4, 0xde, 0xc1, 0x3d, 0x46, 0x03, 0xa9, 0x3d, 0x40, 0x8d, 0x91, 0x3d, 
0x7a, 0x20, 0xe5, 0x3d, 0xac, 0xec, 0x3c, 0xbd, 0x92, 0x04, 0xcc, 0xbd, 0x30, 0xb4, 0x39, 0xbd, 0x26, 0x1a, 0xac, 0x3d, 0x80, 0x5b, 0x8a, 0x3c, 0xb0, 0x9e, 0x57, 0xbc, 0xc0, 0x9c, 0x18, 0xbd, 
0x44, 0x4f, 0x3f, 0xbd, 0xe8, 0xc8, 0xca, 0xbd, 0x40, 0xaf, 0xaf, 0xbb, 0x58, 0xb4, 0x85, 0xbd, 0xd0, 0xbd, 0x31, 0x3d, 0xa6, 0x81, 0x9c, 0x3d, 0x3c, 0xd6, 0x47, 0xbd, 0xd0, 0xf5, 0xc5, 0x3c, 
0x2a, 0x39, 0xe4, 0xbd, 0xee, 0x26, 0xc5, 0xbd, 0xa8, 0x03, 0xb5, 0x3c, 0x88, 0xe4, 0xd8, 0xbc, 0x98, 0x59, 0xd1, 0x3d, 0x20, 0xae, 0x08, 0xbd, 0xa0, 0xbe, 0x17, 0x3c, 0x90, 0x7f, 0xf3, 0xbd, 
0x80, 0xbc, 0xe3, 0x3a, 0x8c, 0xa7, 0xf4, 0xbd, 0xe0, 0xa3, 0xed, 0x3b, 0xd0, 0xa4, 0x6d, 0xbd, 0xf8, 0x24, 0x86, 0x3d, 0x32, 0xfb, 0xbd, 0xbd, 0x50, 0xa2, 0xc9, 0xbd, 0xea, 0xf3, 0x93, 0xbd, 
0xc0, 0x40, 0x47, 0x3b, 0x2c, 0x3e, 0x13, 0x3d, 0xd0, 0xe7, 0x2c, 0x3d, 0x80, 0xa9, 0xe9, 0x3b, 0x48, 0xfc, 0xbb, 0x3d, 0x88, 0x45, 0xd5, 0xbc, 0xba, 0xee, 0x8a, 0xbd, 0x9c, 0xb3, 0x6c, 0xbd, 
0x40, 0x54, 0x42, 0x3b, 0xb2, 0xbd, 0xa5, 0x3d, 0x98, 0x54, 0x56, 0xbd, 0xf4, 0xd8, 0xdd, 0x3d, 0x50, 0xef, 0x7a, 0x3c, 0x80, 0xab, 0xaa, 0xbc, 0x08, 0x56, 0x17, 0x3d, 0x10, 0xba, 0x7b, 0xbc, 
0x96, 0x67, 0xec, 0xbd, 0x06, 0x7b, 0xd2, 0xbd, 0x70, 0x10, 0x17, 0xbc, 0x04, 0x3f, 0x7b, 0xbd, 0xdc, 0x11, 0xdd, 0x3d, 0x80, 0x52, 0x6a, 0x3b, 0x22, 0x9f, 0xf8, 0xbd, 0x90, 0x9c, 0xfb, 0xbd, 
0xdd, 0x49, 0x40, 0x3e, 0x0c, 0x27, 0xab, 0x3a, 0x79, 0x40, 0x98, 0x3d, 0x6b, 0x4b, 0x25, 0x3e, 0x08, 0xe9, 0x04, 0x3d, 0xf2, 0xd3, 0x83, 0x3d, 0x25, 0x50, 0x63, 0x3e, 0xb4, 0x37, 0xc2, 0x3d, 
0x3a, 0xe2, 0xd9, 0x3d, 0x88, 0x6a, 0x29, 0x3e, 0xf3, 0x73, 0x26, 0x3e, 0xf5, 0x27, 0xe5, 0xbb, 0x8f, 0x24, 0xf8, 0x3d, 0x9d, 0xa9, 0x9c, 0x3d, 0x07, 0x88, 0x52, 0x3e, 0xd4, 0x6e, 0x30, 0x3e, 
0x1e, 0x83, 0x1e, 0x3d, 0x5b, 0x2d, 0x50, 0x3e, 0x20, 0x1a, 0x17, 0x3b, 0xa6, 0xb3, 0x06, 0x3e, 0x06, 0x5c, 0x32, 0xbc, 0x99, 0x14, 0x4c, 0x3e, 0x49, 0x7c, 0xd1, 0x3d, 0x13, 0xe3, 0x61, 0x3e, 
0xa3, 0x55, 0x1a, 0x3e, 0x4e, 0xb2, 0xe0, 0x3d, 0xb8, 0xb3, 0xda, 0x3d, 0xac, 0x45, 0x0c, 0x3e, 0x5a, 0x12, 0x9b, 0x3d, 0xfb, 0xa6, 0xe7, 0x3d, 0xed, 0x80, 0x01, 0x3e, 0xf2, 0x15, 0x2f, 0x3e, 
0xfe, 0xf8, 0xe9, 0xbd, 0xc4, 0x1d, 0x39, 0xbd, 0x34, 0x39, 0x3d, 0x3d, 0x04, 0x6c, 0x10, 0x3d, 0x1c, 0x69, 0x09, 0x3d, 0x78, 0x5c, 0xe8, 0x3c, 0x74, 0x02, 0x1f, 0xbd, 0x0c, 0x23, 0xef, 0x3d, 
0x00, 0xd7, 0xaf, 0xba, 0x40, 0x62, 0x2f, 0xbb, 0xc0, 0x00, 0xf4, 0xbb, 0x38, 0x08, 0x6e, 0x3d, 0xaa, 0x4d, 0x82, 0x3d, 0xa6, 0x4c, 0xdd, 0xbd, 0x18, 0x0a, 0xc6, 0x3d, 0xfa, 0xcd, 0xd4, 0xbd, 
0x40, 0x92, 0x08, 0x3d, 0x00, 0xbc, 0xd2, 0x3b, 0x3a, 0x7d, 0xe9, 0xbd, 0x40, 0x45, 0xb6, 0xbd, 0xd2, 0x47, 0x8e, 0xbd, 0x54, 0x51, 0x37, 0x3d, 0xee, 0x7c, 0xda, 0xbd, 0x22, 0xc8, 0x88, 0x3d, 
0xa4, 0xa7, 0x06, 0xbd, 0x40, 0xb8, 0x99, 0xbb, 0xc0, 0x60, 0x03, 0x3b, 0x20, 0x86, 0xd5, 0xbd, 0xb0, 0x5e, 0xe7, 0x3d, 0xfc, 0xaa, 0x7a, 0xbd, 0x52, 0xf8, 0xc2, 0x3d, 0x02, 0xd5, 0xa4, 0x3d, 
0x86, 0x6f, 0xf3, 0x3d, 0xd0, 0x50, 0x05, 0xbc, 0x5c, 0x93, 0xf9, 0xbd, 0xe4, 0x25, 0x24, 0xbd, 0xa4, 0xac, 0x3b, 0x3d, 0x4c, 0x74, 0x3a, 0x3d, 0x16, 0x3f, 0xea, 0x3d, 0x28, 0xab, 0xdb, 0xbd, 
0xf0, 0xd9, 0x4a, 0xbd, 0x14, 0x19, 0x72, 0x3d, 0x24, 0xce, 0xc2, 0xbd, 0x88, 0xb3, 0xa2, 0xbc, 0x78, 0x1a, 0xcb, 0x3c, 0x78, 0x59, 0x19, 0xbd, 0xf8, 0x5b, 0x94, 0xbd, 0xe0, 0x1d, 0x0d, 0xbd, 
0xc0, 0x59, 0x79, 0xbd, 0xf6, 0x06, 0x80, 0x3d, 0x50, 0x55, 0xbd, 0xbd, 0x40, 0x6d, 0xa2, 0x3c, 0x0c, 0x0f, 0x2f, 0x3d, 0x2e, 0x38, 0xb8, 0xbd, 0x04, 0x22, 0x82, 0xbd, 0x54, 0x5d, 0x00, 0xbd, 
0x60, 0x14, 0x85, 0x3c, 0xa8, 0x0c, 0xcf, 0xbc, 0x00, 0x5c, 0x0f, 0xbc, 0xfe, 0x94, 0xe4, 0xbd, 0xc4, 0x09, 0xea, 0xbd, 0xda, 0x3b, 0x83, 0xbd, 0x08, 0xeb, 0x57, 0x3d, 0x4c, 0x96, 0xfa, 0x3d, 
0x40, 0x05, 0xf9, 0x3b, 0x44, 0xf7, 0xd0, 0x3d, 0x60, 0x11, 0xe4, 0x3b, 0x40, 0x9f, 0x73, 0x3d, 0xd0, 0x1e, 0xb5, 0x3c, 0x7c, 0x71, 0xea, 0x3d, 0xe0, 0x00, 0x90, 0xbb, 0x80, 0x96, 0x40, 0xbd, 
0x4c, 0xf9, 0xb0, 0x3d, 0x38, 0x68, 0x81, 0xbd, 0x1c, 0x97, 0xcc, 0xbd, 0x84, 0x8d, 0xb2, 0x3d, 0x48, 0x9e, 0xb0, 0xbc, 0x56, 0xcb, 0xca, 0x3d, 0xf0, 0x16, 0x73, 0x3c, 0x5e, 0x28, 0xdb, 0x3d, 
0x38, 0xce, 0x8c, 0x3c, 0x40, 0xab, 0x5a, 0xbb, 0xb0, 0x4c, 0x0e, 0xbc, 0x98, 0xd3, 0x62, 0x3d, 0xe0, 0x63, 0x12, 0x3c, 0xf0, 0xbf, 0x50, 0x3c, 0x08, 0x20, 0x15, 0x3d, 0x08, 0x64, 0xff, 0x3c, 
0xb8, 0x00, 0xe1, 0xbc, 0x92, 0x54, 0xfb, 0xbd, 0x74, 0x6d, 0x4f, 0xbd, 0x10, 0xd1, 0x4c, 0x3d, 0x02, 0x6b, 0xce, 0xbd, 0x4c, 0x8a, 0xf3, 0x3d, 0xee, 0xaa, 0xc0, 0x3d, 0x34, 0xe4, 0x22, 0x3d, 
0x1d, 0x94, 0xaf, 0xbd, 0x46, 0x51, 0x06, 0xbd, 0x0b, 0xfd, 0x05, 0xbb, 0x04, 0x25, 0x9d, 0xbd, 0x8c, 0x3b, 0xf9, 0x3c, 0x3d, 0xb1, 0x54, 0xbd, 0x85, 0x35, 0x01, 0x3d, 0x51, 0x5f, 0x05, 0xbe, 
0x3f, 0x86, 0x15, 0x3c, 0x7f, 0x89, 0x0b, 0x3d, 0x19, 0x53, 0xfc, 0xbc, 0x95, 0xbb, 0xa7, 0x3d, 0xf0, 0x6d, 0x1d, 0x3d, 0xa3, 0xab, 0xb7, 0xbd, 0x80, 0xfc, 0xc3, 0x3d, 0x79, 0x22, 0x8f, 0xbd, 
0x08, 0x24, 0xe7, 0xbb, 0x23, 0x7a, 0xad, 0x3d, 0xf5, 0xe3, 0xee, 0x3d, 0xb7, 0x1b, 0xce, 0xbd, 0x6b, 0xb3, 0xab, 0x3d, 0xb4, 0xf9, 0x29, 0xbd, 0xda, 0x53, 0x1b, 0x3d, 0x9e, 0xb0, 0xd4, 0xbd, 
0x5b, 0x14, 0xd9, 0x3d, 0x44, 0x42, 0xfa, 0xbc, 0xe2, 0x57, 0xef, 0x3d, 0x2f, 0x6a, 0x8c, 0xbd, 0xdd, 0x52, 0x0d, 0x3d, 0x17, 0x2a, 0x5c, 0x3c, 0xc7, 0xad, 0x22, 0xbd, 0x08, 0xbc, 0xf0, 0x3d, 
0xdc, 0xf2, 0xf9, 0x3d, 0x24, 0x16, 0xd2, 0xbd, 0x30, 0xd6, 0x7c, 0xbd, 0x70, 0x5e, 0x18, 0x3d, 0x64, 0x61, 0xc2, 0xbd, 0x40, 0x1f, 0xdb, 0xbd, 0xbe, 0xd7, 0xa1, 0xbd, 0xb0, 0x48, 0x61, 0x3d, 
0x48, 0x5b, 0xd9, 0x3d, 0x04, 0x26, 0x24, 0x3d, 0x4e, 0xdd, 0x80, 0xbd, 0x3c, 0xa5, 0x14, 0x3d, 0x4e, 0x14, 0xa5, 0x3d, 0x80, 0x54, 0xb9, 0xbb, 0xa0, 0x79, 0xa6, 0x3d, 0xec, 0x8f, 0xb5, 0xbd, 
0x00, 0xc8, 0xc6, 0x3a, 0xb8, 0x5f, 0xd4, 0x3c, 0xf0, 0xbb, 0x2c, 0x3c, 0xe0, 0x0b, 0x37, 0x3d, 0x3c, 0x42, 0xeb, 0x3d, 0xd8, 0xa1, 0xdf, 0xbd, 0x20, 0xaa, 0x6d, 0xbd, 0x2e, 0xd0, 0xb9, 0x3d, 
0x98, 0x5a, 0xe7, 0x3d, 0x40, 0x8f, 0xd6, 0xbd, 0xcc, 0x35, 0x60, 0xbd, 0x1e, 0xe1, 0xb7, 0x3d, 0x70, 0xbd, 0xbb, 0xbd, 0x20, 0xb0, 0xe2, 0xbc, 0xd8, 0xfe, 0x9c, 0x3d, 0x8a, 0x02, 0xe8, 0xbd, 
0xc0, 0x60, 0x16, 0x3b, 0xe8, 0x35, 0x7a, 0xbd, 0x9c, 0x0b, 0x91, 0xbd, 0xe4, 0x7a, 0xfb, 0x3d, 0x50, 0xcf, 0x6d, 0xbd, 0xec, 0xa4, 0xec, 0xbd, 0x4a, 0x5e, 0xae, 0xbd, 0xd6, 0xd4, 0xb5, 0x3d, 
0xb4, 0x3f, 0x9e, 0x3d, 0x10, 0xe4, 0x92, 0xbd, 0x44, 0x03, 0x05, 0xbd, 0x20, 0xd6, 0xb4, 0xbd, 0x60, 0x47, 0xbf, 0xbb, 0xe4, 0x76, 0x58, 0x3d, 0x84, 0x66, 0x11, 0xbd, 0x20, 0xab, 0xd7, 0x3b, 
0x38, 0x00, 0x09, 0xbd, 0x2e, 0x81, 0xc3, 0x3d, 0xee, 0x8c, 0xcf, 0xbd, 0x44, 0x0b, 0xb8, 0xbd, 0x78, 0x7c, 0xe5, 0xbd, 0xd2, 0xc1, 0xbc, 0x3d, 0xc8, 0xb8, 0x12, 0xbd, 0xb8, 0xd1, 0xf1, 0xbc, 
0xb0, 0xf8, 0x7d, 0x3d, 0x52, 0x75, 0xd5, 0x3d, 0x12, 0x2d, 0x9c, 0xbd, 0x76, 0x5a, 0xb6, 0xbd, 0xcc, 0x8d, 0x51, 0xbd, 0xb8, 0x6f, 0x83, 0xbd, 0x34, 0xfa, 0x4f, 0x3d, 0x30, 0x22, 0xa5, 0x3c, 
0x84, 0x02, 0xbf, 0x3d, 0xf6, 0x3e, 0xa2, 0xbd, 0xe4, 0xfb, 0xba, 0xbd, 0x56, 0x4e, 0x8b, 0xbd, 0x7a, 0x5e, 0xa1, 0x3d, 0xd0, 0x4d, 0x6b, 0xbc, 0x36, 0x8e, 0xea, 0x3d, 0xa4, 0xe5, 0xd2, 0xbd, 
0x78, 0xaf, 0x0a, 0x3d, 0x28, 0xff, 0x60, 0x3d, 0x98, 0xc8, 0xc4, 0x3d, 0x22, 0x06, 0xc7, 0xbd, 0x40, 0x74, 0x72, 0xbd, 0x00, 0xd1, 0x97, 0x3a, 0x80, 0x1e, 0x22, 0x3b, 0x6e, 0x73, 0xee, 0xbd, 
0x88, 0x4e, 0x86, 0xbc, 0x20, 0x8a, 0x37, 0x3d, 0x20, 0x72, 0xb7, 0xbb, 0x58, 0x59, 0xe5, 0x3c, 0xe0, 0xf6, 0x03, 0xbd, 0xcc, 0xfe, 0xbd, 0xbd, 0xe8, 0xa9, 0x58, 0x3d, 0xda, 0x5d, 0xb9, 0x3d, 
0x18, 0x42, 0xb4, 0x3d, 0x4c, 0x65, 0xa4, 0xbd, 0x60, 0x64, 0x90, 0xbc, 0xae, 0x1c, 0xf2, 0xbd, 0x20, 0x28, 0x41, 0x3c, 0xd0, 0xea, 0x25, 0xbd, 0xa2, 0x3b, 0xd2, 0x3d, 0xa8, 0xbe, 0xa6, 0xbd, 
0x3c, 0x54, 0x38, 0xbd, 0x00, 0xe4, 0xf4, 0x39, 0x68, 0x5a, 0x2f, 0xbd, 0x54, 0xd6, 0x38, 0xbd, 0x14, 0x08, 0x4e, 0xbd, 0x9c, 0xb3, 0x22, 0x3d, 0xee, 0x09, 0xe1, 0xbd, 0xdc, 0xa5, 0x3e, 0x3d, 
0xa6, 0xcb, 0x90, 0xbd, 0x44, 0x48, 0x10, 0xbd, 0x30, 0x78, 0x1a, 0x3c, 0x30, 0xcf, 0xee, 0x3c, 0x3a, 0x69, 0xff, 0x3d, 0x40, 0x3a, 0x57, 0x3c, 0x7a, 0x1c, 0xab, 0x3d, 0xee, 0xe5, 0xfa, 0xbd, 
0xa0, 0xff, 0xdb, 0x3b, 0xc8, 0x8d, 0xb2, 0xbc, 0x54, 0xbc, 0xd8, 0x3d, 0x6e, 0x6a, 0x83, 0x3d, 0xc0, 0x55, 0x7f, 0x3d, 0x58, 0x52, 0x48, 0x3d, 0x46, 0xd0, 0xe4, 0xbd, 0x62, 0x0f, 0x98, 0xbd, 
0x0e, 0xb1, 0xcf, 0x3d, 0xac, 0x95, 0xbd, 0xbd, 0xa8, 0x80, 0x04, 0xbd, 0x50, 0x02, 0xa6, 0xbd, 0x94, 0x78, 0x07, 0xbd, 0xd0, 0xe7, 0x2a, 0x3d, 0xa0, 0xb1, 0xd0, 0xbd, 0x0e, 0x1f, 0xaa, 0x3d, 
0x90, 0x1f, 0x79, 0x3c, 0x16, 0xac, 0xb5, 0x3d, 0x96, 0xaa, 0xbd, 0x3d, 0x82, 0x2e, 0x8c, 0x3d, 0x20, 0x08, 0xdb, 0xbd, 0x52, 0x22, 0xfb, 0xbd, 0x70, 0xc6, 0x9c, 0xbd, 0xf0, 0xf9, 0x0d, 0xbc, 
0x18, 0x36, 0x39, 0x3d, 0x40, 0xea, 0xce, 0x3c, 0x44, 0xc1, 0x1d, 0xbd, 0x5c, 0xce, 0xe0, 0x3d, 0x64, 0xb6, 0x34, 0x3d, 0xa0, 0xd2, 0x34, 0xbc, 0xc0, 0x47, 0x97, 0x3b, 0x40, 0xa2, 0xf5, 0x3b, 
0x38, 0xd1, 0xa7, 0xbc, 0x14, 0xc7, 0x6b, 0x3d, 0x50, 0x79, 0x74, 0xbc, 0x30, 0x22, 0x0b, 0xbd, 0x66, 0x65, 0xaa, 0xbd, 0xfc, 0x55, 0x9a, 0xbd, 0x00, 0x8c, 0x17, 0x3b, 0xe8, 0x18, 0xad, 0xbc, 
0x32, 0x9a, 0x8f, 0x3d, 0xcc, 0xbc, 0xf8, 0xbd, 0xf0, 0x78, 0x9c, 0x3c, 0xa8, 0xbd, 0x39, 0xbd, 0xd0, 0x4d, 0x70, 0xbd, 0x5e, 0xed, 0xb4, 0x3d, 0x28, 0x3c, 0xbe, 0xbc, 0xd2, 0x46, 0xf4, 0xbd, 
0x4c, 0x2a, 0xb2, 0xbd, 0x78, 0xd9, 0xeb, 0xbc, 0xb0, 0x90, 0x0c, 0xbc, 0xa8, 0x5b, 0x07, 0xbd, 0xf4, 0xb6, 0x95, 0x3d, 0x00, 0x41, 0xe2, 0x3c, 0xd8, 0xf1, 0xb2, 0xbd, 0xe8, 0xb5, 0x7b, 0xbd, 
0x20, 0x5e, 0x5f, 0xbc, 0xd8, 0x1c, 0x3f, 0xbd, 0xb0, 0x8d, 0x7b, 0x3d, 0x90, 0xbc, 0x81, 0x3d, 0x98, 0xe2, 0x1d, 0xbd, 0x6c, 0xae, 0xef, 0xbd, 0x42, 0xd6, 0xd2, 0x3d, 0x9e, 0x03, 0xca, 0x3d, 
0x68, 0xb4, 0xc1, 0xbc, 0xd0, 0xbf, 0x99, 0x3c, 0x40, 0x5c, 0x9a, 0x3c, 0x34, 0x78, 0xfa, 0x3d, 0xf0, 0x7b, 0x2e, 0xbd, 0x02, 0xc9, 0xdc, 0x3d, 0x38, 0xe5, 0xbd, 0x3d, 0xd0, 0xcb, 0xb7, 0x3c, 
0x10, 0x7d, 0x44, 0xbd, 0x48, 0xca, 0x9b, 0xbc, 0x7e, 0x06, 0xdc, 0xbd, 0xe0, 0xe9, 0x31, 0x3d, 0x20, 0x50, 0xee, 0xbd, 0x2c, 0x68, 0xfb, 0xbd, 0x80, 0xed, 0xa5, 0xbc, 0x50, 0x78, 0xa4, 0x3c, 
0xd0, 0xc6, 0x25, 0xbc, 0x00, 0xca, 0x02, 0xbc, 0x14, 0x2d, 0x5e, 0x3d, 0x40, 0x5a, 0x3d, 0x3d, 0xf8, 0x62, 0x6a, 0xbd, 0xe8, 0x91, 0xb5, 0x3c, 0xc0, 0x92, 0x53, 0x3d, 0x00, 0x28, 0xb5, 0x3d, 
0x30, 0x9c, 0x62, 0x3d, 0x00, 0xa5, 0xb0, 0x3b, 0xac, 0x47, 0x50, 0x3d, 0xf4, 0x5a, 0xeb, 0x3d, 0x00, 0x9c, 0x62, 0x3b, 0xd8, 0x19, 0xf5, 0x3c, 0x9c, 0x29, 0x47, 0x3d, 0x48, 0xaf, 0x83, 0xbd, 
0x72, 0xa5, 0xd1, 0xbd, 0x70, 0x0a, 0xf3, 0xbc, 0xe0, 0xd4, 0xeb, 0xbc, 0x94, 0xa3, 0xad, 0x3d, 0x2c, 0xbf, 0x05, 0x3d, 0x24, 0x1b, 0xd5, 0x3d, 0xb0, 0x5a, 0x16, 0x3c, 0xe0, 0x4a, 0x9e, 0xbd, 
0xa0, 0xf2, 0xa9, 0xbb, 0xbc, 0x3f, 0x9d, 0x3d, 0xd4, 0x29, 0xce, 0x3d, 0x98, 0xee, 0xaa, 0xbc, 0x8c, 0x50, 0x4b, 0xbd, 0x90, 0x27, 0x4d, 0x3c, 0x70, 0x2d, 0x28, 0xbd, 0x7a, 0x8a, 0xc8, 0x3d, 
0xc6, 0x1e, 0xe6, 0x3d, 0x5e, 0x91, 0xeb, 0xbd, 0x1c, 0x85, 0x68, 0xbd, 0xd8, 0x20, 0x44, 0xbd, 0xb8, 0x32, 0xde, 0x3c, 0xb6, 0x10, 0x9f, 0x3d, 0x88, 0xfa, 0xcd, 0x3d, 0x3a, 0xcf, 0xc3, 0xbd, 
0x6a, 0x18, 0xfd, 0x3d, 0xc4, 0x41, 0x33, 0x3d, 0x54, 0xae, 0x31, 0xbd, 0x44, 0x77, 0x73, 0x3d, 0xca, 0x70, 0x8f, 0x3d, 0x68, 0xf6, 0xfb, 0x3c, 0x54, 0xb0, 0xd5, 0x3d, 0x46, 0xeb, 0x8c, 0xbd, 
0xe6, 0x89, 0xef, 0x3d, 0x38, 0x76, 0x2e, 0x3d, 0xe6, 0x6c, 0x90, 0x3d, 0x20, 0x3a, 0xa9, 0xbd, 0xf8, 0x32, 0x5a, 0xbd, 0x66, 0x06, 0xb7, 0xbd, 0xe0, 0x05, 0xc0, 0x3b, 0xd8, 0x31, 0x89, 0xbc, 
0x78, 0xf8, 0x40, 0xbd, 0x12, 0x82, 0xa3, 0xbd, 0xb0, 0x16, 0x50, 0x3c, 0xfc, 0xf9, 0x94, 0xbd, 0x00, 0x9a, 0xed, 0xbd, 0xd0, 0xd7, 0x09, 0x3d, 0x70, 0xc9, 0xa7, 0xbd, 0x96, 0x6d, 0xd7, 0xbd, 
0xc0, 0xf3, 0x86, 0xbb, 0x08, 0x2a, 0x68, 0x3d, 0x82, 0xa3, 0xc2, 0xbd, 0xc4, 0x68, 0xb1, 0x3d, 0x80, 0x5b, 0x7f, 0xbd, 0xec, 0xc9, 0x7a, 0xbd, 0x20, 0x96, 0x84, 0xbd, 0x8c, 0xbe, 0x12, 0x3d, 
0x10, 0x98, 0x21, 0x3d, 0xdc, 0xf5, 0xb8, 0x3d, 0xa2, 0x81, 0xa8, 0x3d, 0x80, 0x7e, 0xcb, 0x3b, 0xac, 0x6f, 0xe7, 0x3d, 0x2c, 0xac, 0xee, 0x3d, 0x68, 0x06, 0x8d, 0xbc, 0xb0, 0x5d, 0x47, 0xbc, 
0x40, 0x09, 0x42, 0xbb, 0x6c, 0xf5, 0x94, 0x3d, 0x40, 0x38, 0xba, 0x3d, 0xfe, 0x62, 0xd8, 0xbd, 0x80, 0x16, 0xec, 0xbc, 0xb4, 0xd7, 0x21, 0x3d, 0x28, 0x2c, 0xc0, 0xbd, 0xdc, 0xc0, 0x41, 0xbd, 
0x00, 0x47, 0x8e, 0xba, 0x7c, 0x15, 0xb1, 0xbd, 0x42, 0x50, 0xbc, 0xbd, 0x04, 0x72, 0x2f, 0x3d, 0x50, 0x3d, 0xf9, 0x3c, 0xd4, 0x16, 0xd7, 0x3d, 0x00, 0x2d, 0x80, 0xbc, 0x12, 0x61, 0xd5, 0x3d, 
0x12, 0xc6, 0x1e, 0x3e, 0xed, 0xd4, 0x1c, 0x3e, 0x43, 0xf5, 0x5d, 0xbd, 0x62, 0xb9, 0x16, 0x3e, 0x55, 0x0d, 0x38, 0xbd, 0xe2, 0xf1, 0xd9, 0x3d, 0x32, 0xdf, 0x82, 0xbd, 0x21, 0x03, 0x15, 0x3e, 
0x9b, 0x72, 0x75, 0xbd, 0x83, 0x57, 0xf1, 0x3d, 0x1f, 0x32, 0xaf, 0x3c, 0xb2, 0xfa, 0x79, 0xbd, 0x1a, 0x66, 0x1c, 0x3e, 0x90, 0x67, 0x0c, 0x3e, 0xc8, 0xb1, 0xc6, 0xbc, 0x33, 0xcf, 0x7b, 0x3d, 
0x79, 0xde, 0x19, 0x3e, 0x16, 0xe8, 0xf9, 0x3d, 0x63, 0x4c, 0xc9, 0x3d, 0x09, 0x46, 0xc9, 0xbc, 0x2f, 0x8a, 0xfc, 0xbc, 0x49, 0x4e, 0x19, 0x3e, 0x06, 0x97, 0x12, 0x3e, 0x3d, 0x19, 0xde, 0x3d, 
0xd4, 0xed, 0x6e, 0xbd, 0x0d, 0x4e, 0x70, 0xba, 0x4a, 0xf7, 0x11, 0x3e, 0x99, 0xaf, 0xce, 0x3d, 0xd0, 0xc5, 0x27, 0x3e, 0x57, 0x8c, 0xc0, 0xbc, 0x96, 0xa2, 0x43, 0x3d, 0x8c, 0xad, 0xed, 0x3d, 
0xf4, 0x76, 0x18, 0x3d, 0x20, 0xf1, 0x20, 0xbc, 0xb8, 0x2d, 0xbb, 0xbc, 0xc0, 0x1a, 0x1c, 0x3d, 0xb4, 0x33, 0x18, 0xbd, 0xe8, 0xeb, 0x89, 0x3d, 0xec, 0x61, 0x99, 0xbd, 0x74, 0xbd, 0xeb, 0x3d, 
0x86, 0x90, 0x91, 0x3d, 0x08, 0x40, 0xa1, 0xbc, 0x00, 0x03, 0xbd, 0x3c, 0x48, 0xf7, 0xfb, 0x3c, 0xec, 0x0e, 0xcf, 0xbd, 0xbc, 0xed, 0x28, 0x3d, 0x50, 0x98, 0x62, 0xbc, 0xf0, 0x0c, 0x87, 0xbd, 
0x8e, 0x9f, 0xc1, 0xbd, 0xec, 0xbc, 0x98, 0x3d, 0x7c, 0x3b, 0xaf, 0x3d, 0x58, 0xf5, 0x5e, 0xbd, 0x04, 0x35, 0x3f, 0x3d, 0xc8, 0x1d, 0xca, 0xbd, 0x2c, 0xaa, 0xa8, 0x3d, 0x34, 0x43, 0xd0, 0x3d, 
0xc2, 0xac, 0xdc, 0x3d, 0x68, 0x3b, 0x14, 0xbd, 0xd8, 0x27, 0xd8, 0x3d, 0x30, 0x0c, 0xbf, 0x3d, 0x90, 0xb0, 0x9c, 0x3d, 0x48, 0x05, 0x8b, 0xbc, 0x88, 0x43, 0x93, 0x3c, 0x5c, 0xce, 0xda, 0xbd, 
0xe1, 0x2f, 0x38, 0x3b, 0x56, 0xa9, 0xa1, 0x3c, 0x9c, 0x75, 0x2e, 0x3c, 0xeb, 0xaa, 0x63, 0xbd, 0x73, 0x16, 0x7e, 0x3d, 0x25, 0x8f, 0x9c, 0x3d, 0x92, 0x1d, 0xf7, 0x3c, 0x53, 0x66, 0x56, 0x3d, 
0x0a, 0x80, 0x36, 0x3d, 0xe3, 0xf7, 0x01, 0x3d, 0xc2, 0xe6, 0xab, 0xbd, 0xa6, 0x5e, 0xe6, 0xbd, 0x62, 0x1a, 0x69, 0xbd, 0xb4, 0xe6, 0x0c, 0x3d, 0x99, 0xb5, 0x99, 0x3d, 0x82, 0x55, 0xb1, 0xbb, 
0x44, 0x40, 0xb6, 0xbd, 0x1e, 0x69, 0xe0, 0x3d, 0x87, 0x38, 0x00, 0xbe, 0xd3, 0xa7, 0x2e, 0xbd, 0x7c, 0x13, 0xdc, 0xbd, 0x93, 0x91, 0xe9, 0x3d, 0xd1, 0x60, 0xb9, 0x3b, 0xf0, 0xd9, 0xda, 0xbc, 
0xd7, 0x29, 0xe5, 0xbd, 0xaf, 0xe5, 0xe5, 0x3d, 0x74, 0x5b, 0xc8, 0x3d, 0xbf, 0x3e, 0xeb, 0x3d, 0x5a, 0xe3, 0xb6, 0x3d, 0x23, 0x6f, 0x72, 0xbd, 0x1f, 0x93, 0x8c, 0xbd, 0x3a, 0xf4, 0x05, 0xbe, 
0x7c, 0xde, 0xd4, 0x3d, 0x02, 0xa6, 0xda, 0xbd, 0x78, 0x2a, 0xf7, 0xbc, 0x3c, 0x84, 0xe3, 0x3d, 0x10, 0x47, 0x05, 0x3d, 0xc0, 0xac, 0x78, 0xbb, 0x38, 0x65, 0xde, 0xbd, 0xe4, 0xc1, 0x53, 0xbd, 
0x20, 0x4f, 0xd9, 0x3d, 0x90, 0xba, 0x87, 0xbd, 0xe4, 0x6c, 0x65, 0xbd, 0x60, 0x32, 0xd2, 0x3b, 0xb0, 0x12, 0x92, 0x3d, 0x08, 0x03, 0xaf, 0xbd, 0x3e, 0x45, 0x92, 0x3d, 0x7c, 0x54, 0xc9, 0xbd, 
0x06, 0xcd, 0xc1, 0xbd, 0x04, 0xbf, 0xff, 0xbd, 0x38, 0x6c, 0xee, 0x3d, 0xc4, 0x5d, 0x7c, 0x3d, 0x50, 0x92, 0x4e, 0x3c, 0x80, 0x7a, 0x66, 0x3d, 0x24, 0x2a, 0x5d, 0xbd, 0x18, 0x75, 0xd5, 0xbd, 
0x46, 0x69, 0xcc, 0x3d, 0xc0, 0xf9, 0xd3, 0x3d, 0x34, 0x11, 0xfc, 0xbd, 0x64, 0xa8, 0x5b, 0xbd, 0x50, 0xeb, 0xb7, 0x3c, 0x14, 0xfa, 0x5c, 0x3d, 0x00, 0x9d, 0xcd, 0xbc, 0xbc, 0xd5, 0xc2, 0x3d, 
0xf0, 0xbb, 0xf5, 0x3d, 0x2c, 0x90, 0xcb, 0x3d, 0xea, 0xe6, 0xb8, 0x3d, 0xec, 0x97, 0xbd, 0x3d, 0xfe, 0x0a, 0xd1, 0xbd, 0xf8, 0xd7, 0xfa, 0xbc, 0x08, 0xc9, 0x8c, 0x3d, 0x6e, 0x8e, 0x83, 0x3d, 
0x86, 0x41, 0xa9, 0x3d, 0x98, 0x9e, 0xf0, 0xbc, 0x38, 0xd6, 0xb4, 0xbd, 0x5e, 0x41, 0xf7, 0xbd, 0x90, 0x6e, 0xd1, 0xbc, 0x00, 0x43, 0x35, 0xbb, 0x16, 0x65, 0x85, 0x3d, 0x52, 0xf6, 0xe1, 0x3d, 
0x28, 0xaa, 0xac, 0xbc, 0xf0, 0xb3, 0x09, 0x3c, 0x8a, 0x36, 0xc9, 0xbd, 0x1c, 0x67, 0x37, 0xbd, 0x0e, 0xd2, 0x90, 0xbd, 0xca, 0xfc, 0xf4, 0xbd, 0xda, 0x88, 0xcd, 0xbd, 0xa0, 0x64, 0xee, 0xbd, 
0x6c, 0x6f, 0x2a, 0xbd, 0x7c, 0x0f, 0x93, 0xbd, 0x74, 0xc3, 0xcb, 0x3d, 0x00, 0xca, 0x7f, 0xbc, 0xc0, 0x43, 0xcd, 0xbd, 0xac, 0x7a, 0x7b, 0xbd, 0x7c, 0x2d, 0x5d, 0xbd, 0xc8, 0x05, 0xae, 0xbd, 
0xe2, 0xd4, 0xed, 0x3d, 0x46, 0xcb, 0xb1, 0x3d, 0x00, 0xb2, 0x8b, 0x3a, 0x90, 0x6a, 0xa2, 0xbc, 0xe0, 0xe7, 0xa5, 0xbb, 0xf8, 0x0d, 0x15, 0xbd, 0xd4, 0x7a, 0x5a, 0x3d, 0xac, 0x32, 0xe0, 0x3d, 
0x58, 0x01, 0x03, 0xbd, 0x20, 0xbd, 0xfd, 0x3d, 0xe0, 0x3f, 0x5e, 0xbd, 0xba, 0x26, 0xe2, 0xbd, 0xa4, 0x84, 0xf5, 0xbd, 0xc0, 0xc6, 0xbd, 0xbd, 0x08, 0x8d, 0x10, 0x3d, 0x70, 0x1d, 0x9b, 0xbd, 
0xbc, 0xf6, 0x4d, 0xbd, 0x30, 0x00, 0xc6, 0x3d, 0x3c, 0x56, 0xbd, 0x3d, 0xf0, 0x66, 0x7f, 0x3d, 0x1a, 0x91, 0x8e, 0xbd, 0x7a, 0xad, 0xc2, 0xbd, 0xd0, 0xd1, 0x75, 0x3c, 0x20, 0xf4, 0x8d, 0xbc, 
0x54, 0xbe, 0xed, 0x3d, 0xba, 0xb5, 0x8f, 0x3d, 0xf4, 0xf0, 0x56, 0xbd, 0xc6, 0xf3, 0xe5, 0x3d, 0x78, 0x42, 0xb4, 0x3d, 0x5c, 0xda, 0xa5, 0x3d, 0x2c, 0x67, 0x6d, 0xbd, 0x00, 0x3f, 0x29, 0xba, 
0x0f, 0x1d, 0xbb, 0xbd, 0x40, 0x6f, 0xb1, 0x3d, 0x6a, 0xda, 0xb0, 0xbd, 0x82, 0x80, 0x95, 0xbd, 0xfc, 0x4e, 0xf6, 0xbd, 0x98, 0xc0, 0x72, 0x3d, 0xcc, 0x92, 0x69, 0xbc, 0x14, 0x4d, 0x7e, 0x3d, 
0xdd, 0x3c, 0xca, 0xbd, 0x68, 0xc2, 0xe1, 0xbc, 0x80, 0x8f, 0x19, 0xbb, 0x50, 0xe5, 0x19, 0x3c, 0x48, 0x82, 0x7d, 0xbd, 0x4a, 0x2f, 0x92, 0xbd, 0x83, 0x07, 0x92, 0xbc, 0xc0, 0x66, 0xa7, 0xbd, 
0x3e, 0xf2, 0x49, 0xbe, 0x9a, 0xec, 0x7a, 0x3e, 0x94, 0xfc, 0x86, 0x3d, 0x60, 0x56, 0xdb, 0xbd, 0xde, 0x58, 0x39, 0xbe, 0xa8, 0x15, 0x48, 0x3e, 0x51, 0xa8, 0x90, 0x3e, 0xac, 0x81, 0xd1, 0xbd, 
0x46, 0x84, 0x61, 0xbe, 0x54, 0xd9, 0xc2, 0x3d, 0x34, 0x55, 0x1b, 0xbe, 0x48, 0x06, 0xd4, 0x3d, 0xe0, 0x77, 0xe0, 0x3d, 0x57, 0xb1, 0x6e, 0x3e, 0x21, 0xbf, 0x9e, 0xbd, 0x02, 0xa0, 0x04, 0x3e, 
0xaf, 0xb8, 0x4c, 0x3d, 0xc0, 0x28, 0x8e, 0xbb, 0x8c, 0x11, 0xc3, 0xbd, 0x8a, 0x41, 0x28, 0x3e, 0x7a, 0x57, 0x6b, 0x3e, 0x90, 0x43, 0x6f, 0x3d, 0x5b, 0x33, 0x1f, 0xbf, 0x60, 0xd7, 0x93, 0x3c, 
0xa0, 0x2a, 0x2b, 0xbe, 0xca, 0x9d, 0x31, 0xbe, 0xda, 0x54, 0x3d, 0x3e, 0x86, 0x81, 0x75, 0x3e, 0x2c, 0xa7, 0x85, 0xbd, 0xb1, 0xab, 0x81, 0xbe, 0x46, 0x7e, 0x30, 0x3e, 0xae, 0xc4, 0x7b, 0xbe, 
0x8d, 0x6a, 0x24, 0x3e, 0x4a, 0x25, 0x58, 0xbe, };
