__attribute__((section("network_model_sec"), aligned(16))) char model_pte[] = {
0x3c, 0x00, 0x00, 0x00, 0x45, 0x54, 0x31, 0x32, 0x65, 0x68, 0x30, 0x30, 0x18, 0x00, 0x00, 0x00, 0xf0, 0x12, 0x00, 0x00, 0x00, 0x00, 0x00, 0x00, 0x00, 0x13, 0x00, 0x00, 0x00, 0x00, 0x00, 0x00, 
0x00, 0x00, 0x00, 0x00, 0x00, 0x00, 0x00, 0x00, 0x00, 0x00, 0x00, 0x00, 0x10, 0x00, 0x18, 0x00, 0x00, 0x00, 0x04, 0x00, 0x08, 0x00, 0x0c, 0x00, 0x10, 0x00, 0x14, 0x00, 0x10, 0x00, 0x00, 0x00, 
0x74, 0x00, 0x00, 0x00, 0x6c, 0x00, 0x00, 0x00, 0x64, 0x00, 0x00, 0x00, 0x40, 0x00, 0x00, 0x00, 0x04, 0x00, 0x00, 0x00, 0x68, 0xfa, 0xff, 0xff, 0x04, 0x00, 0x00, 0x00, 0x05, 0x00, 0x00, 0x00, 
0x00, 0x00, 0x00, 0x00, 0x00, 0x00, 0x00, 0x00, 0x00, 0x00, 0x00, 0x00, 0x00, 0x00, 0x00, 0x00, 0x00, 0x05, 0x00, 0x00, 0x00, 0x00, 0x00, 0x00, 0x00, 0x06, 0x00, 0x00, 0x00, 0x00, 0x00, 0x00, 
0x00, 0x46, 0x00, 0x00, 0x00, 0x00, 0x00, 0x00, 0x00, 0x00, 0x00, 0x00, 0x01, 0x00, 0x00, 0x00, 0x0c, 0x00, 0x00, 0x00, 0x08, 0x00, 0x10, 0x00, 0x00, 0x00, 0x04, 0x00, 0x08, 0x00, 0x00, 0x00, 
0x00, 0x48, 0x00, 0x00, 0x00, 0x00, 0x00, 0x00, 0x00, 0x00, 0x00, 0x00, 0x00, 0x00, 0x00, 0x00, 0x00, 0x00, 0x00, 0x00, 0x01, 0x00, 0x00, 0x00, 0x1c, 0x00, 0x00, 0x00, 0x00, 0x00, 0x16, 0x00, 
0x28, 0x00, 0x04, 0x00, 0x08, 0x00, 0x0c, 0x00, 0x10, 0x00, 0x14, 0x00, 0x18, 0x00, 0x1c, 0x00, 0x20, 0x00, 0x24, 0x00, 0x16, 0x00, 0x00, 0x00, 0x0c, 0x12, 0x00, 0x00, 0xb8, 0x10, 0x00, 0x00, 
0x64, 0x05, 0x00, 0x00, 0x58, 0x05, 0x00, 0x00, 0x4c, 0x05, 0x00, 0x00, 0x10, 0x02, 0x00, 0x00, 0x28, 0x00, 0x00, 0x00, 0x20, 0x00, 0x00, 0x00, 0x04, 0x00, 0x00, 0x00, 0x02, 0x00, 0x00, 0x00, 
0x00, 0x00, 0x00, 0x00, 0x00, 0x00, 0x00, 0x00, 0x10, 0x02, 0x01, 0x00, 0x00, 0x00, 0x00, 0x00, 0x00, 0x00, 0x00, 0x00, 0x00, 0x00, 0x00, 0x00, 0x0a, 0x00, 0x00, 0x00, 0xb4, 0x01, 0x00, 0x00, 
0x8c, 0x01, 0x00, 0x00, 0x58, 0x01, 0x00, 0x00, 0x1c, 0x01, 0x00, 0x00, 0xe4, 0x00, 0x00, 0x00, 0xb4, 0x00, 0x00, 0x00, 0x80, 0x00, 0x00, 0x00, 0x58, 0x00, 0x00, 0x00, 0x30, 0x00, 0x00, 0x00, 
0x04, 0x00, 0x00, 0x00, 0xb8, 0xef, 0xff, 0xff, 0x10, 0x00, 0x00, 0x00, 0x04, 0x00, 0x00, 0x00, 0x03, 0x00, 0x00, 0x00, 0x6f, 0x75, 0x74, 0x00, 0x0e, 0x00, 0x00, 0x00, 0x61, 0x74, 0x65, 0x6e, 
0x3a, 0x3a, 0x5f, 0x73, 0x6f, 0x66, 0x74, 0x6d, 0x61, 0x78, 0x00, 0x00, 0xe0, 0xef, 0xff, 0xff, 0x10, 0x00, 0x00, 0x00, 0x04, 0x00, 0x00, 0x00, 0x03, 0x00, 0x00, 0x00, 0x6f, 0x75, 0x74, 0x00, 
0x08, 0x00, 0x00, 0x00, 0x61, 0x74, 0x65, 0x6e, 0x3a, 0x3a, 0x6d, 0x6d, 0x00, 0x00, 0x00, 0x00, 0x04, 0xf0, 0xff, 0xff, 0x10, 0x00, 0x00, 0x00, 0x04, 0x00, 0x00, 0x00, 0x03, 0x00, 0x00, 0x00, 
0x6f, 0x75, 0x74, 0x00, 0x09, 0x00, 0x00, 0x00, 0x61, 0x74, 0x65, 0x6e, 0x3a, 0x3a, 0x63, 0x61, 0x74, 0x00, 0x00, 0x00, 0x28, 0xf0, 0xff, 0xff, 0x14, 0x00, 0x00, 0x00, 0x04, 0x00, 0x00, 0x00, 
0x07, 0x00, 0x00, 0x00, 0x69, 0x6e, 0x74, 0x5f, 0x6f, 0x75, 0x74, 0x00, 0x11, 0x00, 0x00, 0x00, 0x61, 0x74, 0x65, 0x6e, 0x3a, 0x3a, 0x73, 0x65, 0x6c, 0x65, 0x63, 0x74, 0x5f, 0x63, 0x6f, 0x70, 
0x79, 0x00, 0x00, 0x00, 0x58, 0xf0, 0xff, 0xff, 0x10, 0x00, 0x00, 0x00, 0x04, 0x00, 0x00, 0x00, 0x03, 0x00, 0x00, 0x00, 0x6f, 0x75, 0x74, 0x00, 0x12, 0x00, 0x00, 0x00, 0x61, 0x74, 0x65, 0x6e, 
0x3a, 0x3a, 0x70, 0x65, 0x72, 0x6d, 0x75, 0x74, 0x65, 0x5f, 0x63, 0x6f, 0x70, 0x79, 0x00, 0x00, 0x84, 0xf0, 0xff, 0xff, 0x18, 0x00, 0x00, 0x00, 0x04, 0x00, 0x00, 0x00, 0x08, 0x00, 0x00, 0x00, 
0x64, 0x69, 0x6d, 0x73, 0x5f, 0x6f, 0x75, 0x74, 0x00, 0x00, 0x00, 0x00, 0x12, 0x00, 0x00, 0x00, 0x61, 0x74, 0x65, 0x6e, 0x3a, 0x3a, 0x73, 0x71, 0x75, 0x65, 0x65, 0x7a, 0x65, 0x5f, 0x63, 0x6f, 
0x70, 0x79, 0x00, 0x00, 0xb8, 0xf0, 0xff, 0xff, 0x10, 0x00, 0x00, 0x00, 0x04, 0x00, 0x00, 0x00, 0x03, 0x00, 0x00, 0x00, 0x6f, 0x75, 0x74, 0x00, 0x1d, 0x00, 0x00, 0x00, 0x61, 0x74, 0x65, 0x6e, 
0x3a, 0x3a, 0x6d, 0x61, 0x78, 0x5f, 0x70, 0x6f, 0x6f, 0x6c, 0x32, 0x64, 0x5f, 0x77, 0x69, 0x74, 0x68, 0x5f, 0x69, 0x6e, 0x64, 0x69, 0x63, 0x65, 0x73, 0x00, 0x00, 0x00, 0xf0, 0xf0, 0xff, 0xff, 
0x10, 0x00, 0x00, 0x00, 0x04, 0x00, 0x00, 0x00, 0x03, 0x00, 0x00, 0x00, 0x6f, 0x75, 0x74, 0x00, 0x14, 0x00, 0x00, 0x00, 0x61, 0x74, 0x65, 0x6e, 0x3a, 0x3a, 0x75, 0x6e, 0x73, 0x71, 0x75, 0x65, 
0x65, 0x7a, 0x65, 0x5f, 0x63, 0x6f, 0x70, 0x79, 0x00, 0x00, 0x00, 0x00, 0x20, 0xf1, 0xff, 0xff, 0x10, 0x00, 0x00, 0x00, 0x04, 0x00, 0x00, 0x00, 0x03, 0x00, 0x00, 0x00, 0x6f, 0x75, 0x74, 0x00, 
0x0a, 0x00, 0x00, 0x00, 0x61, 0x74, 0x65, 0x6e, 0x3a, 0x3a, 0x72, 0x65, 0x6c, 0x75, 0x00, 0x00, 0x44, 0xf1, 0xff, 0xff, 0x10, 0x00, 0x00, 0x00, 0x04, 0x00, 0x00, 0x00, 0x03, 0x00, 0x00, 0x00, 
0x6f, 0x75, 0x74, 0x00, 0x11, 0x00, 0x00, 0x00, 0x61, 0x74, 0x65, 0x6e, 0x3a, 0x3a, 0x63, 0x6f, 0x6e, 0x76, 0x6f, 0x6c, 0x75, 0x74, 0x69, 0x6f, 0x6e, 0x00, 0x00, 0x00, 0x01, 0x00, 0x00, 0x00, 
0x10, 0x00, 0x00, 0x00, 0x00, 0x00, 0x0a, 0x00, 0x10, 0x00, 0x04, 0x00, 0x08, 0x00, 0x0c, 0x00, 0x0a, 0x00, 0x00, 0x00, 0x1c, 0x03, 0x00, 0x00, 0x14, 0x03, 0x00, 0x00, 0x04, 0x00, 0x00, 0x00, 
0x0f, 0x00, 0x00, 0x00, 0xbc, 0x02, 0x00, 0x00, 0x90, 0x02, 0x00, 0x00, 0x60, 0x02, 0x00, 0x00, 0x1c, 0x02, 0x00, 0x00, 0xec, 0x01, 0x00, 0x00, 0xbc, 0x01, 0x00, 0x00, 0x88, 0x01, 0x00, 0x00, 
0x54, 0x01, 0x00, 0x00, 0x24, 0x01, 0x00, 0x00, 0xf4, 0x00, 0x00, 0x00, 0xc4, 0x00, 0x00, 0x00, 0x98, 0x00, 0x00, 0x00, 0x68, 0x00, 0x00, 0x00, 0x38, 0x00, 0x00, 0x00, 0x04, 0x00, 0x00, 0x00, 
0x24, 0xf2, 0xff, 0xff, 0x00, 0x00, 0x00, 0x01, 0x04, 0x00, 0x00, 0x00, 0xe0, 0xf1, 0xff, 0xff, 0x09, 0x00, 0x00, 0x00, 0x04, 0x00, 0x00, 0x00, 0x05, 0x00, 0x00, 0x00, 0x3e, 0x00, 0x00, 0x00, 
0x40, 0x00, 0x00, 0x00, 0x41, 0x00, 0x00, 0x00, 0x3f, 0x00, 0x00, 0x00, 0x3f, 0x00, 0x00, 0x00, 0x54, 0xf2, 0xff, 0xff, 0x00, 0x00, 0x00, 0x01, 0x04, 0x00, 0x00, 0x00, 0x10, 0xf2, 0xff, 0xff, 
0x08, 0x00, 0x00, 0x00, 0x04, 0x00, 0x00, 0x00, 0x04, 0x00, 0x00, 0x00, 0x39, 0x00, 0x00, 0x00, 0x3a, 0x00, 0x00, 0x00, 0x3e, 0x00, 0x00, 0x00, 0x3e, 0x00, 0x00, 0x00, 0x80, 0xf2, 0xff, 0xff, 
0x00, 0x00, 0x00, 0x01, 0x04, 0x00, 0x00, 0x00, 0x3c, 0xf2, 0xff, 0xff, 0x05, 0x00, 0x00, 0x00, 0x04, 0x00, 0x00, 0x00, 0x04, 0x00, 0x00, 0x00, 0x03, 0x00, 0x00, 0x00, 0x3d, 0x00, 0x00, 0x00, 
0x3a, 0x00, 0x00, 0x00, 0x3a, 0x00, 0x00, 0x00, 0xac, 0xf2, 0xff, 0xff, 0x00, 0x00, 0x00, 0x01, 0x04, 0x00, 0x00, 0x00, 0x68, 0xf2, 0xff, 0xff, 0x01, 0x00, 0x00, 0x00, 0x04, 0x00, 0x00, 0x00, 
0x03, 0x00, 0x00, 0x00, 0x38, 0x00, 0x00, 0x00, 0x39, 0x00, 0x00, 0x00, 0x39, 0x00, 0x00, 0x00, 0xd4, 0xf2, 0xff, 0xff, 0x00, 0x00, 0x00, 0x01, 0x04, 0x00, 0x00, 0x00, 0x90, 0xf2, 0xff, 0xff, 
0x08, 0x00, 0x00, 0x00, 0x04, 0x00, 0x00, 0x00, 0x04, 0x00, 0x00, 0x00, 0x31, 0x00, 0x00, 0x00, 0x34, 0x00, 0x00, 0x00, 0x38, 0x00, 0x00, 0x00, 0x38, 0x00, 0x00, 0x00, 0x00, 0xf3, 0xff, 0xff, 
0x00, 0x00, 0x00, 0x01, 0x04, 0x00, 0x00, 0x00, 0xbc, 0xf2, 0xff, 0xff, 0x05, 0x00, 0x00, 0x00, 0x04, 0x00, 0x00, 0x00, 0x04, 0x00, 0x00, 0x00, 0x02, 0x00, 0x00, 0x00, 0x37, 0x00, 0x00, 0x00, 
0x34, 0x00, 0x00, 0x00, 0x34, 0x00, 0x00, 0x00, 0x2c, 0xf3, 0xff, 0xff, 0x00, 0x00, 0x00, 0x01, 0x04, 0x00, 0x00, 0x00, 0xe8, 0xf2, 0xff, 0xff, 0x07, 0x00, 0x00, 0x00, 0x04, 0x00, 0x00, 0x00, 
0x04, 0x00, 0x00, 0x00, 0x32, 0x00, 0x00, 0x00, 0x33, 0x00, 0x00, 0x00, 0x31, 0x00, 0x00, 0x00, 0x31, 0x00, 0x00, 0x00, 0x58, 0xf3, 0xff, 0xff, 0x00, 0x00, 0x00, 0x01, 0x04, 0x00, 0x00, 0x00, 
0x14, 0xf3, 0xff, 0xff, 0x06, 0x00, 0x00, 0x00, 0x04, 0x00, 0x00, 0x00, 0x05, 0x00, 0x00, 0x00, 0x26, 0x00, 0x00, 0x00, 0x2f, 0x00, 0x00, 0x00, 0x30, 0x00, 0x00, 0x00, 0x2e, 0x00, 0x00, 0x00, 
0x2e, 0x00, 0x00, 0x00, 0x88, 0xf3, 0xff, 0xff, 0x00, 0x00, 0x00, 0x01, 0x04, 0x00, 0x00, 0x00, 0x44, 0xf3, 0xff, 0xff, 0x06, 0x00, 0x00, 0x00, 0x04, 0x00, 0x00, 0x00, 0x05, 0x00, 0x00, 0x00, 
0x26, 0x00, 0x00, 0x00, 0x2c, 0x00, 0x00, 0x00, 0x2d, 0x00, 0x00, 0x00, 0x2b, 0x00, 0x00, 0x00, 0x2b, 0x00, 0x00, 0x00, 0xb8, 0xf3, 0xff, 0xff, 0x00, 0x00, 0x00, 0x01, 0x04, 0x00, 0x00, 0x00, 
0x74, 0xf3, 0xff, 0xff, 0x05, 0x00, 0x00, 0x00, 0x04, 0x00, 0x00, 0x00, 0x04, 0x00, 0x00, 0x00, 0x23, 0x00, 0x00, 0x00, 0x2a, 0x00, 0x00, 0x00, 0x26, 0x00, 0x00, 0x00, 0x26, 0x00, 0x00, 0x00, 
0xe4, 0xf3, 0xff, 0xff, 0x00, 0x00, 0x00, 0x01, 0x04, 0x00, 0x00, 0x00, 0xa0, 0xf3, 0xff, 0xff, 0x04, 0x00, 0x00, 0x00, 0x04, 0x00, 0x00, 0x00, 0x04, 0x00, 0x00, 0x00, 0x13, 0x00, 0x00, 0x00, 
0x25, 0x00, 0x00, 0x00, 0x23, 0x00, 0x00, 0x00, 0x23, 0x00, 0x00, 0x00, 0x10, 0xf4, 0xff, 0xff, 0x00, 0x00, 0x00, 0x01, 0x04, 0x00, 0x00, 0x00, 0xcc, 0xf3, 0xff, 0xff, 0x03, 0x00, 0x00, 0x00, 
0x04, 0x00, 0x00, 0x00, 0x09, 0x00, 0x00, 0x00, 0x11, 0x00, 0x00, 0x00, 0x17, 0x00, 0x00, 0x00, 0x1a, 0x00, 0x00, 0x00, 0x1d, 0x00, 0x00, 0x00, 0x20, 0x00, 0x00, 0x00, 0x21, 0x00, 0x00, 0x00, 
0x13, 0x00, 0x00, 0x00, 0x14, 0x00, 0x00, 0x00, 0x22, 0x00, 0x00, 0x00, 0x50, 0xf4, 0xff, 0xff, 0x00, 0x00, 0x00, 0x01, 0x04, 0x00, 0x00, 0x00, 0x0c, 0xf4, 0xff, 0xff, 0x02, 0x00, 0x00, 0x00, 
0x04, 0x00, 0x00, 0x00, 0x04, 0x00, 0x00, 0x00, 0x10, 0x00, 0x00, 0x00, 0x12, 0x00, 0x00, 0x00, 0x11, 0x00, 0x00, 0x00, 0x11, 0x00, 0x00, 0x00, 0x7c, 0xf4, 0xff, 0xff, 0x00, 0x00, 0x00, 0x01, 
0x04, 0x00, 0x00, 0x00, 0x38, 0xf4, 0xff, 0xff, 0x01, 0x00, 0x00, 0x00, 0x04, 0x00, 0x00, 0x00, 0x03, 0x00, 0x00, 0x00, 0x05, 0x00, 0x00, 0x00, 0x10, 0x00, 0x00, 0x00, 0x10, 0x00, 0x00, 0x00, 
0xa4, 0xf4, 0xff, 0xff, 0x00, 0x00, 0x00, 0x01, 0x0c, 0x00, 0x00, 0x00, 0x08, 0x00, 0x08, 0x00, 0x00, 0x00, 0x04, 0x00, 0x08, 0x00, 0x00, 0x00, 0x04, 0x00, 0x00, 0x00, 0x0b, 0x00, 0x00, 0x00, 
0x04, 0x00, 0x00, 0x00, 0x00, 0x00, 0x00, 0x00, 0x01, 0x00, 0x00, 0x00, 0x07, 0x00, 0x00, 0x00, 0x09, 0x00, 0x00, 0x00, 0x0b, 0x00, 0x00, 0x00, 0x0c, 0x00, 0x00, 0x00, 0x0e, 0x00, 0x00, 0x00, 
0x0f, 0x00, 0x00, 0x00, 0x05, 0x00, 0x00, 0x00, 0x05, 0x00, 0x00, 0x00, 0x00, 0x00, 0x00, 0x00, 0x00, 0x00, 0x00, 0x00, 0x01, 0x00, 0x00, 0x00, 0x3f, 0x00, 0x00, 0x00, 0x01, 0x00, 0x00, 0x00, 
0x04, 0x00, 0x00, 0x00, 0x42, 0x00, 0x00, 0x00, 0xfc, 0x0a, 0x00, 0x00, 0xc0, 0x0a, 0x00, 0x00, 0x88, 0x0a, 0x00, 0x00, 0x50, 0x0a, 0x00, 0x00, 0xf0, 0x09, 0x00, 0x00, 0x8c, 0x09, 0x00, 0x00, 
0x68, 0x09, 0x00, 0x00, 0x44, 0x09, 0x00, 0x00, 0x2c, 0x09, 0x00, 0x00, 0x04, 0x09, 0x00, 0x00, 0xe8, 0x08, 0x00, 0x00, 0xc4, 0x08, 0x00, 0x00, 0xb0, 0x08, 0x00, 0x00, 0x9c, 0x08, 0x00, 0x00, 
0x78, 0x08, 0x00, 0x00, 0x5c, 0x08, 0x00, 0x00, 0x18, 0x08, 0x00, 0x00, 0xcc, 0x07, 0x00, 0x00, 0xb0, 0x07, 0x00, 0x00, 0x68, 0x07, 0x00, 0x00, 0x08, 0x07, 0x00, 0x00, 0xec, 0x06, 0x00, 0x00, 
0xd0, 0x06, 0x00, 0x00, 0xa4, 0x06, 0x00, 0x00, 0x88, 0x06, 0x00, 0x00, 0x6c, 0x06, 0x00, 0x00, 0x40, 0x06, 0x00, 0x00, 0x2c, 0x06, 0x00, 0x00, 0x18, 0x06, 0x00, 0x00, 0xec, 0x05, 0x00, 0x00, 
0xd0, 0x05, 0x00, 0x00, 0xb4, 0x05, 0x00, 0x00, 0x88, 0x05, 0x00, 0x00, 0x74, 0x05, 0x00, 0x00, 0x50, 0x05, 0x00, 0x00, 0x08, 0x05, 0x00, 0x00, 0xe0, 0x04, 0x00, 0x00, 0xbc, 0x04, 0x00, 0x00, 
0x78, 0x04, 0x00, 0x00, 0x64, 0x04, 0x00, 0x00, 0x48, 0x04, 0x00, 0x00, 0x2c, 0x04, 0x00, 0x00, 0xf8, 0x03, 0x00, 0x00, 0xb4, 0x03, 0x00, 0x00, 0x98, 0x03, 0x00, 0x00, 0x84, 0x03, 0x00, 0x00, 
0x40, 0x03, 0x00, 0x00, 0x24, 0x03, 0x00, 0x00, 0x08, 0x03, 0x00, 0x00, 0xc8, 0x02, 0x00, 0x00, 0xa4, 0x02, 0x00, 0x00, 0x84, 0x02, 0x00, 0x00, 0x40, 0x02, 0x00, 0x00, 0x24, 0x02, 0x00, 0x00, 
0x10, 0x02, 0x00, 0x00, 0xe4, 0x01, 0x00, 0x00, 0xa0, 0x01, 0x00, 0x00, 0x5c, 0x01, 0x00, 0x00, 0x18, 0x01, 0x00, 0x00, 0xfc, 0x00, 0x00, 0x00, 0xe8, 0x00, 0x00, 0x00, 0xbc, 0x00, 0x00, 0x00, 
0x78, 0x00, 0x00, 0x00, 0x34, 0x00, 0x00, 0x00, 0x18, 0x00, 0x00, 0x00, 0x04, 0x00, 0x00, 0x00, 0x14, 0xf6, 0xff, 0xff, 0x00, 0x00, 0x00, 0x03, 0x04, 0x00, 0x00, 0x00, 0xbc, 0xf7, 0xff, 0xff, 
0x24, 0xf6, 0xff, 0xff, 0x00, 0x00, 0x00, 0x02, 0x04, 0x00, 0x00, 0x00, 0x96, 0xf7, 0xff, 0xff, 0x01, 0x00, 0x00, 0x00, 0x00, 0x00, 0x00, 0x00, 0x3c, 0xf6, 0xff, 0xff, 0x00, 0x00, 0x00, 0x05, 
0x04, 0x00, 0x00, 0x00, 0x8e, 0xf7, 0xff, 0xff, 0x00, 0x00, 0x06, 0x01, 0x20, 0x00, 0x00, 0x00, 0x14, 0x00, 0x00, 0x00, 0x04, 0x00, 0x00, 0x00, 0x0c, 0xf6, 0xff, 0xff, 0x01, 0x00, 0x00, 0x00, 
0x00, 0x00, 0x01, 0x00, 0x02, 0x00, 0x00, 0x00, 0x00, 0x01, 0x00, 0x00, 0x02, 0x00, 0x00, 0x00, 0x01, 0x00, 0x00, 0x00, 0x02, 0x00, 0x00, 0x00, 0x7c, 0xf6, 0xff, 0xff, 0x00, 0x00, 0x00, 0x05, 
0x04, 0x00, 0x00, 0x00, 0xce, 0xf7, 0xff, 0xff, 0x00, 0x00, 0x06, 0x01, 0x20, 0x00, 0x00, 0x00, 0x14, 0x00, 0x00, 0x00, 0x04, 0x00, 0x00, 0x00, 0x4c, 0xf6, 0xff, 0xff, 0x01, 0x00, 0x00, 0x00, 
0x00, 0x02, 0x01, 0x00, 0x02, 0x00, 0x00, 0x00, 0x00, 0x01, 0x00, 0x00, 0x02, 0x00, 0x00, 0x00, 0x01, 0x00, 0x00, 0x00, 0x02, 0x00, 0x00, 0x00, 0xbc, 0xf6, 0xff, 0xff, 0x00, 0x00, 0x00, 0x07, 
0x04, 0x00, 0x00, 0x00, 0x86, 0xf7, 0xff, 0xff, 0x04, 0x00, 0x00, 0x00, 0x02, 0x00, 0x00, 0x00, 0x3b, 0x00, 0x00, 0x00, 0x00, 0x00, 0x00, 0x00, 0x3c, 0x00, 0x00, 0x00, 0x00, 0x00, 0x00, 0x00, 
0xe4, 0xf6, 0xff, 0xff, 0x00, 0x00, 0x00, 0x02, 0x04, 0x00, 0x00, 0x00, 0x8c, 0xf8, 0xff, 0xff, 0xf4, 0xf6, 0xff, 0xff, 0x00, 0x00, 0x00, 0x02, 0x04, 0x00, 0x00, 0x00, 0x66, 0xf8, 0xff, 0xff, 
0x01, 0x00, 0x00, 0x00, 0x00, 0x00, 0x00, 0x00, 0x0c, 0xf7, 0xff, 0xff, 0x00, 0x00, 0x00, 0x05, 0x04, 0x00, 0x00, 0x00, 0x5e, 0xf8, 0xff, 0xff, 0x00, 0x00, 0x06, 0x01, 0x20, 0x00, 0x00, 0x00, 
0x14, 0x00, 0x00, 0x00, 0x04, 0x00, 0x00, 0x00, 0xdc, 0xf6, 0xff, 0xff, 0x01, 0x00, 0x00, 0x00, 0x00, 0x00, 0x01, 0x00, 0x02, 0x00, 0x00, 0x00, 0x00, 0x01, 0x00, 0x00, 0x02, 0x00, 0x00, 0x00, 
0x40, 0x00, 0x00, 0x00, 0x02, 0x00, 0x00, 0x00, 0x4c, 0xf7, 0xff, 0xff, 0x00, 0x00, 0x00, 0x05, 0x04, 0x00, 0x00, 0x00, 0x9e, 0xf8, 0xff, 0xff, 0x00, 0x00, 0x06, 0x01, 0x20, 0x00, 0x00, 0x00, 
0x14, 0x00, 0x00, 0x00, 0x04, 0x00, 0x00, 0x00, 0x1c, 0xf7, 0xff, 0xff, 0x01, 0x00, 0x00, 0x00, 0x00, 0xc0, 0x00, 0x00, 0x02, 0x00, 0x00, 0x00, 0x00, 0x01, 0x00, 0x00, 0x02, 0x00, 0x00, 0x00, 
0x01, 0x00, 0x00, 0x00, 0x40, 0x00, 0x00, 0x00, 0x8c, 0xf7, 0xff, 0xff, 0x00, 0x00, 0x00, 0x05, 0x04, 0x00, 0x00, 0x00, 0xde, 0xf8, 0xff, 0xff, 0x00, 0x00, 0x06, 0x01, 0x20, 0x00, 0x00, 0x00, 
0x14, 0x00, 0x00, 0x00, 0x04, 0x00, 0x00, 0x00, 0x5c, 0xf7, 0xff, 0xff, 0x01, 0x00, 0x00, 0x00, 0x00, 0x00, 0x01, 0x00, 0x02, 0x00, 0x00, 0x00, 0x00, 0x01, 0x00, 0x00, 0x02, 0x00, 0x00, 0x00, 
0x01, 0x00, 0x00, 0x00, 0x40, 0x00, 0x00, 0x00, 0xcc, 0xf7, 0xff, 0xff, 0x00, 0x00, 0x00, 0x07, 0x04, 0x00, 0x00, 0x00, 0x96, 0xf8, 0xff, 0xff, 0x04, 0x00, 0x00, 0x00, 0x02, 0x00, 0x00, 0x00, 
0x35, 0x00, 0x00, 0x00, 0x00, 0x00, 0x00, 0x00, 0x36, 0x00, 0x00, 0x00, 0x00, 0x00, 0x00, 0x00, 0xf4, 0xf7, 0xff, 0xff, 0x00, 0x00, 0x00, 0x02, 0x04, 0x00, 0x00, 0x00, 0x9c, 0xf9, 0xff, 0xff, 
0x04, 0xf8, 0xff, 0xff, 0x00, 0x00, 0x00, 0x02, 0x04, 0x00, 0x00, 0x00, 0x76, 0xf9, 0xff, 0xff, 0x01, 0x00, 0x00, 0x00, 0x00, 0x00, 0x00, 0x00, 0x1c, 0xf8, 0xff, 0xff, 0x00, 0x00, 0x00, 0x05, 
0x04, 0x00, 0x00, 0x00, 0x6e, 0xf9, 0xff, 0xff, 0x00, 0x00, 0x06, 0x01, 0x20, 0x00, 0x00, 0x00, 0x14, 0x00, 0x00, 0x00, 0x04, 0x00, 0x00, 0x00, 0xec, 0xf7, 0xff, 0xff, 0x01, 0x00, 0x00, 0x00, 
0x00, 0xc0, 0x00, 0x00, 0x02, 0x00, 0x00, 0x00, 0x00, 0x01, 0x00, 0x00, 0x02, 0x00, 0x00, 0x00, 0x40, 0x00, 0x00, 0x00, 0x40, 0x00, 0x00, 0x00, 0x5c, 0xf8, 0xff, 0xff, 0x00, 0x00, 0x00, 0x02, 
0x04, 0x00, 0x00, 0x00, 0xde, 0xfd, 0xff, 0xff, 0x01, 0x00, 0x00, 0x00, 0x00, 0x00, 0x00, 0x00, 0x00, 0x00, 0x00, 0x00, 0x78, 0xf8, 0xff, 0xff, 0x00, 0x00, 0x00, 0x0a, 0x04, 0x00, 0x00, 0x00, 
0x42, 0xf9, 0xff, 0xff, 0x04, 0x00, 0x00, 0x00, 0x02, 0x00, 0x00, 0x00, 0x2b, 0x00, 0x00, 0x00, 0x2e, 0x00, 0x00, 0x00, 0x98, 0xf8, 0xff, 0xff, 0x00, 0x00, 0x00, 0x05, 0x04, 0x00, 0x00, 0x00, 
0xea, 0xf9, 0xff, 0xff, 0x00, 0x00, 0x06, 0x01, 0x1c, 0x00, 0x00, 0x00, 0x10, 0x00, 0x00, 0x00, 0x04, 0x00, 0x00, 0x00, 0x76, 0xf9, 0xff, 0xff, 0x01, 0x00, 0x00, 0x00, 0x02, 0x00, 0x00, 0x00, 
0x00, 0x01, 0x00, 0x00, 0x02, 0x00, 0x00, 0x00, 0x01, 0x00, 0x00, 0x00, 0x40, 0x00, 0x00, 0x00, 0xd4, 0xf8, 0xff, 0xff, 0x00, 0x00, 0x00, 0x02, 0x04, 0x00, 0x00, 0x00, 0x46, 0xfa, 0xff, 0xff, 
0x01, 0x00, 0x00, 0x00, 0x00, 0x00, 0x00, 0x00, 0xec, 0xf8, 0xff, 0xff, 0x00, 0x00, 0x00, 0x02, 0x04, 0x00, 0x00, 0x00, 0x5e, 0xfa, 0xff, 0xff, 0x02, 0x00, 0x00, 0x00, 0x00, 0x00, 0x00, 0x00, 
0x04, 0xf9, 0xff, 0xff, 0x00, 0x00, 0x00, 0x05, 0x04, 0x00, 0x00, 0x00, 0x56, 0xfa, 0xff, 0xff, 0x00, 0x00, 0x06, 0x01, 0x20, 0x00, 0x00, 0x00, 0x14, 0x00, 0x00, 0x00, 0x04, 0x00, 0x00, 0x00, 
0xd4, 0xf8, 0xff, 0xff, 0x01, 0x00, 0x00, 0x00, 0x00, 0x00, 0x01, 0x00, 0x02, 0x00, 0x00, 0x00, 0x00, 0x01, 0x00, 0x00, 0x02, 0x00, 0x00, 0x00, 0x01, 0x00, 0x00, 0x00, 0x20, 0x00, 0x00, 0x00, 
0x44, 0xf9, 0xff, 0xff, 0x00, 0x00, 0x00, 0x02, 0x04, 0x00, 0x00, 0x00, 0xec, 0xfa, 0xff, 0xff, 0x54, 0xf9, 0xff, 0xff, 0x00, 0x00, 0x00, 0x02, 0x04, 0x00, 0x00, 0x00, 0xc6, 0xfa, 0xff, 0xff, 
0x02, 0x00, 0x00, 0x00, 0x00, 0x00, 0x00, 0x00, 0x6c, 0xf9, 0xff, 0xff, 0x00, 0x00, 0x00, 0x05, 0x04, 0x00, 0x00, 0x00, 0xbe, 0xfa, 0xff, 0xff, 0x00, 0x00, 0x06, 0x01, 0x20, 0x00, 0x00, 0x00, 
0x14, 0x00, 0x00, 0x00, 0x04, 0x00, 0x00, 0x00, 0x3c, 0xf9, 0xff, 0xff, 0x01, 0x00, 0x00, 0x00, 0x00, 0xc0, 0x00, 0x00, 0x02, 0x00, 0x00, 0x00, 0x00, 0x01, 0x00, 0x00, 0x02, 0x00, 0x00, 0x00, 
0x01, 0x00, 0x00, 0x00, 0x20, 0x00, 0x00, 0x00, 0xac, 0xf9, 0xff, 0xff, 0x00, 0x00, 0x00, 0x07, 0x04, 0x00, 0x00, 0x00, 0x76, 0xfa, 0xff, 0xff, 0x04, 0x00, 0x00, 0x00, 0x03, 0x00, 0x00, 0x00, 
0x27, 0x00, 0x00, 0x00, 0x00, 0x00, 0x00, 0x00, 0x28, 0x00, 0x00, 0x00, 0x00, 0x00, 0x00, 0x00, 0x29, 0x00, 0x00, 0x00, 0x00, 0x00, 0x00, 0x00, 0xdc, 0xf9, 0xff, 0xff, 0x00, 0x00, 0x00, 0x02, 
0x04, 0x00, 0x00, 0x00, 0x4e, 0xfb, 0xff, 0xff, 0x01, 0x00, 0x00, 0x00, 0x00, 0x00, 0x00, 0x00, 0xf4, 0xf9, 0xff, 0xff, 0x00, 0x00, 0x00, 0x02, 0x04, 0x00, 0x00, 0x00, 0x66, 0xfb, 0xff, 0xff, 
0x02, 0x00, 0x00, 0x00, 0x00, 0x00, 0x00, 0x00, 0x0c, 0xfa, 0xff, 0xff, 0x00, 0x00, 0x00, 0x02, 0x04, 0x00, 0x00, 0x00, 0xb4, 0xfb, 0xff, 0xff, 0x1c, 0xfa, 0xff, 0xff, 0x00, 0x00, 0x00, 0x05, 
0x04, 0x00, 0x00, 0x00, 0x6e, 0xfb, 0xff, 0xff, 0x00, 0x00, 0x06, 0x01, 0x1c, 0x00, 0x00, 0x00, 0x10, 0x00, 0x00, 0x00, 0x04, 0x00, 0x00, 0x00, 0xfa, 0xfa, 0xff, 0xff, 0x01, 0x00, 0x00, 0x00, 
0x03, 0x00, 0x00, 0x00, 0x00, 0x01, 0x02, 0x00, 0x03, 0x00, 0x00, 0x00, 0x01, 0x00, 0x00, 0x00, 0x20, 0x00, 0x00, 0x00, 0x40, 0x00, 0x00, 0x00, 0x5c, 0xfa, 0xff, 0xff, 0x00, 0x00, 0x00, 0x07, 
0x04, 0x00, 0x00, 0x00, 0x26, 0xfb, 0xff, 0xff, 0x04, 0x00, 0x00, 0x00, 0x01, 0x00, 0x00, 0x00, 0x24, 0x00, 0x00, 0x00, 0x00, 0x00, 0x00, 0x00, 0x78, 0xfb, 0xff, 0xff, 0x00, 0x00, 0x00, 0x02, 
0x0c, 0x00, 0x00, 0x00, 0x00, 0x00, 0x06, 0x00, 0x10, 0x00, 0x04, 0x00, 0x06, 0x00, 0x00, 0x00, 0xfe, 0xff, 0xff, 0xff, 0xff, 0xff, 0xff, 0xff, 0x00, 0x00, 0x00, 0x00, 0xa0, 0xfa, 0xff, 0xff, 
0x00, 0x00, 0x00, 0x05, 0x04, 0x00, 0x00, 0x00, 0xf2, 0xfb, 0xff, 0xff, 0x00, 0x00, 0x06, 0x01, 0x20, 0x00, 0x00, 0x00, 0x14, 0x00, 0x00, 0x00, 0x04, 0x00, 0x00, 0x00, 0x70, 0xfa, 0xff, 0xff, 
0x01, 0x00, 0x00, 0x00, 0x00, 0xc0, 0x00, 0x00, 0x03, 0x00, 0x00, 0x00, 0x00, 0x01, 0x02, 0x00, 0x03, 0x00, 0x00, 0x00, 0x01, 0x00, 0x00, 0x00, 0x40, 0x00, 0x00, 0x00, 0x20, 0x00, 0x00, 0x00, 
0xe4, 0xfa, 0xff, 0xff, 0x00, 0x00, 0x00, 0x0a, 0x04, 0x00, 0x00, 0x00, 0xae, 0xfb, 0xff, 0xff, 0x04, 0x00, 0x00, 0x00, 0x02, 0x00, 0x00, 0x00, 0x13, 0x00, 0x00, 0x00, 0x14, 0x00, 0x00, 0x00, 
0x04, 0xfb, 0xff, 0xff, 0x00, 0x00, 0x00, 0x03, 0x04, 0x00, 0x00, 0x00, 0xac, 0xfc, 0xff, 0xff, 0x14, 0xfb, 0xff, 0xff, 0x00, 0x00, 0x00, 0x07, 0x04, 0x00, 0x00, 0x00, 0xde, 0xfb, 0xff, 0xff, 
0x04, 0x00, 0x00, 0x00, 0x02, 0x00, 0x00, 0x00, 0x1e, 0x00, 0x00, 0x00, 0x00, 0x00, 0x00, 0x00, 0x1f, 0x00, 0x00, 0x00, 0x00, 0x00, 0x00, 0x00, 0x3c, 0xfb, 0xff, 0xff, 0x00, 0x00, 0x00, 0x02, 
0x04, 0x00, 0x00, 0x00, 0xae, 0xfc, 0xff, 0xff, 0x01, 0x00, 0x00, 0x00, 0x00, 0x00, 0x00, 0x00, 0x54, 0xfb, 0xff, 0xff, 0x00, 0x00, 0x00, 0x02, 0x04, 0x00, 0x00, 0x00, 0xc6, 0xfc, 0xff, 0xff, 
0x01, 0x00, 0x00, 0x00, 0x00, 0x00, 0x00, 0x00, 0x6c, 0xfb, 0xff, 0xff, 0x00, 0x00, 0x00, 0x07, 0x04, 0x00, 0x00, 0x00, 0x36, 0xfc, 0xff, 0xff, 0x04, 0x00, 0x00, 0x00, 0x02, 0x00, 0x00, 0x00, 
0x1b, 0x00, 0x00, 0x00, 0x00, 0x00, 0x00, 0x00, 0x1c, 0x00, 0x00, 0x00, 0x00, 0x00, 0x00, 0x00, 0x94, 0xfb, 0xff, 0xff, 0x00, 0x00, 0x00, 0x02, 0x04, 0x00, 0x00, 0x00, 0x3c, 0xfd, 0xff, 0xff, 
0xa4, 0xfb, 0xff, 0xff, 0x00, 0x00, 0x00, 0x02, 0x04, 0x00, 0x00, 0x00, 0x4c, 0xfd, 0xff, 0xff, 0xb4, 0xfb, 0xff, 0xff, 0x00, 0x00, 0x00, 0x07, 0x04, 0x00, 0x00, 0x00, 0x7e, 0xfc, 0xff, 0xff, 
0x04, 0x00, 0x00, 0x00, 0x02, 0x00, 0x00, 0x00, 0x18, 0x00, 0x00, 0x00, 0x00, 0x00, 0x00, 0x00, 0x19, 0x00, 0x00, 0x00, 0x00, 0x00, 0x00, 0x00, 0xdc, 0xfb, 0xff, 0xff, 0x00, 0x00, 0x00, 0x02, 
0x04, 0x00, 0x00, 0x00, 0x4e, 0xfd, 0xff, 0xff, 0x03, 0x00, 0x00, 0x00, 0x00, 0x00, 0x00, 0x00, 0xf4, 0xfb, 0xff, 0xff, 0x00, 0x00, 0x00, 0x02, 0x04, 0x00, 0x00, 0x00, 0x66, 0xfd, 0xff, 0xff, 
0x01, 0x00, 0x00, 0x00, 0x00, 0x00, 0x00, 0x00, 0x0c, 0xfc, 0xff, 0xff, 0x00, 0x00, 0x00, 0x07, 0x04, 0x00, 0x00, 0x00, 0xd6, 0xfc, 0xff, 0xff, 0x04, 0x00, 0x00, 0x00, 0x02, 0x00, 0x00, 0x00, 
0x15, 0x00, 0x00, 0x00, 0x00, 0x00, 0x00, 0x00, 0x16, 0x00, 0x00, 0x00, 0x00, 0x00, 0x00, 0x00, 0x34, 0xfc, 0xff, 0xff, 0x00, 0x00, 0x00, 0x02, 0x04, 0x00, 0x00, 0x00, 0xa6, 0xfd, 0xff, 0xff, 
0x03, 0x00, 0x00, 0x00, 0x00, 0x00, 0x00, 0x00, 0x4c, 0xfc, 0xff, 0xff, 0x00, 0x00, 0x00, 0x02, 0x04, 0x00, 0x00, 0x00, 0xbe, 0xfd, 0xff, 0xff, 0x01, 0x00, 0x00, 0x00, 0x00, 0x00, 0x00, 0x00, 
0x60, 0xfd, 0xff, 0xff, 0x00, 0x00, 0x00, 0x05, 0x18, 0x00, 0x00, 0x00, 0x00, 0x00, 0x12, 0x00, 0x14, 0x00, 0x07, 0x00, 0x00, 0x00, 0x08, 0x00, 0x0c, 0x00, 0x00, 0x00, 0x00, 0x00, 0x10, 0x00, 
0x12, 0x00, 0x00, 0x00, 0x00, 0x00, 0x00, 0x04, 0x20, 0x00, 0x00, 0x00, 0x14, 0x00, 0x00, 0x00, 0x04, 0x00, 0x00, 0x00, 0x48, 0xfc, 0xff, 0xff, 0x01, 0x00, 0x00, 0x00, 0x00, 0xc0, 0x00, 0x00, 
0x04, 0x00, 0x00, 0x00, 0x00, 0x01, 0x02, 0x03, 0x04, 0x00, 0x00, 0x00, 0x01, 0x00, 0x00, 0x00, 0x40, 0x00, 0x00, 0x00, 0x01, 0x00, 0x00, 0x00, 0x20, 0x00, 0x00, 0x00, 0xc0, 0xfc, 0xff, 0xff, 
0x00, 0x00, 0x00, 0x05, 0x04, 0x00, 0x00, 0x00, 0x12, 0xfe, 0xff, 0xff, 0x00, 0x00, 0x06, 0x01, 0x1c, 0x00, 0x00, 0x00, 0x10, 0x00, 0x00, 0x00, 0x04, 0x00, 0x00, 0x00, 0x9e, 0xfd, 0xff, 0xff, 
0x01, 0x00, 0x00, 0x00, 0x04, 0x00, 0x00, 0x00, 0x00, 0x01, 0x02, 0x03, 0x04, 0x00, 0x00, 0x00, 0x01, 0x00, 0x00, 0x00, 0x40, 0x00, 0x00, 0x00, 0x01, 0x00, 0x00, 0x00, 0x20, 0x00, 0x00, 0x00, 
0x04, 0xfd, 0xff, 0xff, 0x00, 0x00, 0x00, 0x02, 0x04, 0x00, 0x00, 0x00, 0x76, 0xfe, 0xff, 0xff, 0xfe, 0xff, 0xff, 0xff, 0xff, 0xff, 0xff, 0xff, 0x1c, 0xfd, 0xff, 0xff, 0x00, 0x00, 0x00, 0x05, 
0x04, 0x00, 0x00, 0x00, 0x6e, 0xfe, 0xff, 0xff, 0x00, 0x00, 0x06, 0x01, 0x20, 0x00, 0x00, 0x00, 0x14, 0x00, 0x00, 0x00, 0x04, 0x00, 0x00, 0x00, 0xec, 0xfc, 0xff, 0xff, 0x01, 0x00, 0x00, 0x00, 
0x00, 0x60, 0x00, 0x00, 0x04, 0x00, 0x00, 0x00, 0x00, 0x01, 0x02, 0x03, 0x04, 0x00, 0x00, 0x00, 0x01, 0x00, 0x00, 0x00, 0x40, 0x00, 0x00, 0x00, 0x01, 0x00, 0x00, 0x00, 0x60, 0x00, 0x00, 0x00, 
0x64, 0xfd, 0xff, 0xff, 0x00, 0x00, 0x00, 0x05, 0x04, 0x00, 0x00, 0x00, 0xb6, 0xfe, 0xff, 0xff, 0x00, 0x00, 0x06, 0x01, 0x1c, 0x00, 0x00, 0x00, 0x10, 0x00, 0x00, 0x00, 0x04, 0x00, 0x00, 0x00, 
0x42, 0xfe, 0xff, 0xff, 0x01, 0x00, 0x00, 0x00, 0x03, 0x00, 0x00, 0x00, 0x00, 0x01, 0x02, 0x00, 0x03, 0x00, 0x00, 0x00, 0x01, 0x00, 0x00, 0x00, 0x40, 0x00, 0x00, 0x00, 0x60, 0x00, 0x00, 0x00, 
0xa4, 0xfd, 0xff, 0xff, 0x00, 0x00, 0x00, 0x02, 0x04, 0x00, 0x00, 0x00, 0x16, 0xff, 0xff, 0xff, 0x01, 0x00, 0x00, 0x00, 0x00, 0x00, 0x00, 0x00, 0xbc, 0xfd, 0xff, 0xff, 0x00, 0x00, 0x00, 0x07, 
0x04, 0x00, 0x00, 0x00, 0x86, 0xfe, 0xff, 0xff, 0x04, 0x00, 0x00, 0x00, 0x01, 0x00, 0x00, 0x00, 0x0d, 0x00, 0x00, 0x00, 0x00, 0x00, 0x00, 0x00, 0xdc, 0xfd, 0xff, 0xff, 0x00, 0x00, 0x00, 0x02, 
0x04, 0x00, 0x00, 0x00, 0x84, 0xff, 0xff, 0xff, 0xec, 0xfd, 0xff, 0xff, 0x00, 0x00, 0x00, 0x03, 0x04, 0x00, 0x00, 0x00, 0x94, 0xff, 0xff, 0xff, 0xfc, 0xfd, 0xff, 0xff, 0x00, 0x00, 0x00, 0x07, 
0x04, 0x00, 0x00, 0x00, 0xc6, 0xfe, 0xff, 0xff, 0x04, 0x00, 0x00, 0x00, 0x01, 0x00, 0x00, 0x00, 0x0a, 0x00, 0x00, 0x00, 0x00, 0x00, 0x00, 0x00, 0x1c, 0xfe, 0xff, 0xff, 0x00, 0x00, 0x00, 0x02, 
0x04, 0x00, 0x00, 0x00, 0x8e, 0xff, 0xff, 0xff, 0x01, 0x00, 0x00, 0x00, 0x00, 0x00, 0x00, 0x00, 0x34, 0xfe, 0xff, 0xff, 0x00, 0x00, 0x00, 0x07, 0x04, 0x00, 0x00, 0x00, 0xfe, 0xfe, 0xff, 0xff, 
0x04, 0x00, 0x00, 0x00, 0x01, 0x00, 0x00, 0x00, 0x08, 0x00, 0x00, 0x00, 0x00, 0x00, 0x00, 0x00, 0x00, 0x00, 0x00, 0x00, 0x58, 0xfe, 0xff, 0xff, 0x00, 0x00, 0x00, 0x02, 0x08, 0x00, 0x00, 0x00, 
0x04, 0x00, 0x04, 0x00, 0x04, 0x00, 0x00, 0x00, 0x6c, 0xfe, 0xff, 0xff, 0x00, 0x00, 0x00, 0x07, 0x04, 0x00, 0x00, 0x00, 0x36, 0xff, 0xff, 0xff, 0x04, 0x00, 0x00, 0x00, 0x01, 0x00, 0x00, 0x00, 
0x06, 0x00, 0x00, 0x00, 0x00, 0x00, 0x00, 0x00, 0x88, 0xff, 0xff, 0xff, 0x00, 0x00, 0x00, 0x02, 0x0c, 0x00, 0x00, 0x00, 0x00, 0x00, 0x06, 0x00, 0x0c, 0x00, 0x04, 0x00, 0x06, 0x00, 0x00, 0x00, 
0x01, 0x00, 0x00, 0x00, 0x00, 0x00, 0x00, 0x00, 0xa8, 0xff, 0xff, 0xff, 0x00, 0x00, 0x00, 0x05, 0x18, 0x00, 0x00, 0x00, 0x00, 0x00, 0x12, 0x00, 0x14, 0x00, 0x06, 0x00, 0x00, 0x00, 0x08, 0x00, 
0x0c, 0x00, 0x07, 0x00, 0x00, 0x00, 0x10, 0x00, 0x12, 0x00, 0x00, 0x00, 0x00, 0x00, 0x06, 0x01, 0x20, 0x00, 0x00, 0x00, 0x14, 0x00, 0x00, 0x00, 0x04, 0x00, 0x00, 0x00, 0x90, 0xfe, 0xff, 0xff, 
0x01, 0x00, 0x00, 0x00, 0x00, 0x60, 0x00, 0x00, 0x03, 0x00, 0x00, 0x00, 0x00, 0x01, 0x02, 0x00, 0x03, 0x00, 0x00, 0x00, 0x01, 0x00, 0x00, 0x00, 0x40, 0x00, 0x00, 0x00, 0x60, 0x00, 0x00, 0x00, 
0x08, 0x00, 0x0e, 0x00, 0x07, 0x00, 0x08, 0x00, 0x08, 0x00, 0x00, 0x00, 0x00, 0x00, 0x00, 0x05, 0x18, 0x00, 0x00, 0x00, 0x00, 0x00, 0x12, 0x00, 0x16, 0x00, 0x07, 0x00, 0x00, 0x00, 0x08, 0x00, 
0x0c, 0x00, 0x00, 0x00, 0x00, 0x00, 0x10, 0x00, 0x12, 0x00, 0x00, 0x00, 0x00, 0x00, 0x00, 0x06, 0x24, 0x00, 0x00, 0x00, 0x18, 0x00, 0x00, 0x00, 0x0c, 0x00, 0x00, 0x00, 0x00, 0x00, 0x06, 0x00, 
0x08, 0x00, 0x04, 0x00, 0x06, 0x00, 0x00, 0x00, 0x01, 0x00, 0x00, 0x00, 0x03, 0x00, 0x00, 0x00, 0x00, 0x01, 0x02, 0x00, 0x03, 0x00, 0x00, 0x00, 0x01, 0x00, 0x00, 0x00, 0x01, 0x00, 0x00, 0x00, 
0x64, 0x00, 0x00, 0x00, 0x68, 0xff, 0xff, 0xff, 0x00, 0x00, 0x00, 0x05, 0x04, 0x00, 0x00, 0x00, 0x60, 0xff, 0xff, 0xff, 0x00, 0x00, 0x06, 0x01, 0x14, 0x00, 0x00, 0x00, 0x08, 0x00, 0x00, 0x00, 
0x04, 0x00, 0x00, 0x00, 0x02, 0x00, 0x00, 0x00, 0x00, 0x01, 0x00, 0x00, 0x02, 0x00, 0x00, 0x00, 0x02, 0x00, 0x00, 0x00, 0x40, 0x00, 0x00, 0x00, 0x9c, 0xff, 0xff, 0xff, 0x00, 0x00, 0x00, 0x05, 
0x04, 0x00, 0x00, 0x00, 0x94, 0xff, 0xff, 0xff, 0x00, 0x00, 0x06, 0x01, 0x14, 0x00, 0x00, 0x00, 0x08, 0x00, 0x00, 0x00, 0x03, 0x00, 0x00, 0x00, 0x02, 0x00, 0x00, 0x00, 0x00, 0x01, 0x00, 0x00, 
0x02, 0x00, 0x00, 0x00, 0x40, 0x00, 0x00, 0x00, 0x40, 0x00, 0x00, 0x00, 0xd0, 0xff, 0xff, 0xff, 0x00, 0x00, 0x00, 0x05, 0x04, 0x00, 0x00, 0x00, 0xc8, 0xff, 0xff, 0xff, 0x00, 0x00, 0x06, 0x01, 
0x14, 0x00, 0x00, 0x00, 0x08, 0x00, 0x00, 0x00, 0x02, 0x00, 0x00, 0x00, 0x01, 0x00, 0x00, 0x00, 0x00, 0x00, 0x00, 0x00, 0x01, 0x00, 0x00, 0x00, 0x40, 0x00, 0x00, 0x00, 0x08, 0x00, 0x0c, 0x00, 
0x07, 0x00, 0x08, 0x00, 0x08, 0x00, 0x00, 0x00, 0x00, 0x00, 0x00, 0x05, 0x14, 0x00, 0x00, 0x00, 0x10, 0x00, 0x14, 0x00, 0x06, 0x00, 0x00, 0x00, 0x08, 0x00, 0x0c, 0x00, 0x07, 0x00, 0x10, 0x00, 
0x10, 0x00, 0x00, 0x00, 0x00, 0x00, 0x06, 0x01, 0x14, 0x00, 0x00, 0x00, 0x08, 0x00, 0x00, 0x00, 0x01, 0x00, 0x00, 0x00, 0x03, 0x00, 0x00, 0x00, 0x00, 0x01, 0x02, 0x00, 0x03, 0x00, 0x00, 0x00, 
0x40, 0x00, 0x00, 0x00, 0x01, 0x00, 0x00, 0x00, 0x05, 0x00, 0x00, 0x00, 0x08, 0x00, 0x0c, 0x00, 0x04, 0x00, 0x08, 0x00, 0x08, 0x00, 0x00, 0x00, 0x48, 0x00, 0x00, 0x00, 0x04, 0x00, 0x00, 0x00, 
0x39, 0x00, 0x00, 0x00, 0x5b, 0x31, 0x2c, 0x20, 0x7b, 0x22, 0x74, 0x79, 0x70, 0x65, 0x22, 0x3a, 0x20, 0x6e, 0x75, 0x6c, 0x6c, 0x2c, 0x20, 0x22, 0x63, 0x6f, 0x6e, 0x74, 0x65, 0x78, 0x74, 0x22, 
0x3a, 0x20, 0x6e, 0x75, 0x6c, 0x6c, 0x2c, 0x20, 0x22, 0x63, 0x68, 0x69, 0x6c, 0x64, 0x72, 0x65, 0x6e, 0x5f, 0x73, 0x70, 0x65, 0x63, 0x22, 0x3a, 0x20, 0x5b, 0x5d, 0x7d, 0x5d, 0x00, 0x00, 0x00, 
0xfe, 0x00, 0x00, 0x00, 0x5b, 0x31, 0x2c, 0x20, 0x7b, 0x22, 0x74, 0x79, 0x70, 0x65, 0x22, 0x3a, 0x20, 0x22, 0x62, 0x75, 0x69, 0x6c, 0x74, 0x69, 0x6e, 0x73, 0x2e, 0x74, 0x75, 0x70, 0x6c, 0x65, 
0x22, 0x2c, 0x20, 0x22, 0x63, 0x6f, 0x6e, 0x74, 0x65, 0x78, 0x74, 0x22, 0x3a, 0x20, 0x22, 0x6e, 0x75, 0x6c, 0x6c, 0x22, 0x2c, 0x20, 0x22, 0x63, 0x68, 0x69, 0x6c, 0x64, 0x72, 0x65, 0x6e, 0x5f, 
0x73, 0x70, 0x65, 0x63, 0x22, 0x3a, 0x20, 0x5b, 0x7b, 0x22, 0x74, 0x79, 0x70, 0x65, 0x22, 0x3a, 0x20, 0x22, 0x62, 0x75, 0x69, 0x6c, 0x74, 0x69, 0x6e, 0x73, 0x2e, 0x74, 0x75, 0x70, 0x6c, 0x65, 
0x22, 0x2c, 0x20, 0x22, 0x63, 0x6f, 0x6e, 0x74, 0x65, 0x78, 0x74, 0x22, 0x3a, 0x20, 0x22, 0x6e, 0x75, 0x6c, 0x6c, 0x22, 0x2c, 0x20, 0x22, 0x63, 0x68, 0x69, 0x6c, 0x64, 0x72, 0x65, 0x6e, 0x5f, 
0x73, 0x70, 0x65, 0x63, 0x22, 0x3a, 0x20, 0x5b, 0x7b, 0x22, 0x74, 0x79, 0x70, 0x65, 0x22, 0x3a, 0x20, 0x6e, 0x75, 0x6c, 0x6c, 0x2c, 0x20, 0x22, 0x63, 0x6f, 0x6e, 0x74, 0x65, 0x78, 0x74, 0x22, 
0x3a, 0x20, 0x6e, 0x75, 0x6c, 0x6c, 0x2c, 0x20, 0x22, 0x63, 0x68, 0x69, 0x6c, 0x64, 0x72, 0x65, 0x6e, 0x5f, 0x73, 0x70, 0x65, 0x63, 0x22, 0x3a, 0x20, 0x5b, 0x5d, 0x7d, 0x5d, 0x7d, 0x2c, 0x20, 
0x7b, 0x22, 0x74, 0x79, 0x70, 0x65, 0x22, 0x3a, 0x20, 0x22, 0x62, 0x75, 0x69, 0x6c, 0x74, 0x69, 0x6e, 0x73, 0x2e, 0x64, 0x69, 0x63, 0x74, 0x22, 0x2c, 0x20, 0x22, 0x63, 0x6f, 0x6e, 0x74, 0x65, 
0x78, 0x74, 0x22, 0x3a, 0x20, 0x22, 0x5b, 0x5d, 0x22, 0x2c, 0x20, 0x22, 0x63, 0x68, 0x69, 0x6c, 0x64, 0x72, 0x65, 0x6e, 0x5f, 0x73, 0x70, 0x65, 0x63, 0x22, 0x3a, 0x20, 0x5b, 0x5d, 0x7d, 0x5d, 
0x7d, 0x5d, 0x00, 0x00, 0x07, 0x00, 0x00, 0x00, 0x66, 0x6f, 0x72, 0x77, 0x61, 0x72, 0x64, 0x00, 0x00, 0x00, 0x00, 0x00, 0x00, 0x00, 0x00, 0x00, 0x00, 0x00, 0x00, 0x00, 0x00, 0x00, 0x00, 0x00, 
0x99, 0x42, 0x07, 0x3f, 0x30, 0x8b, 0x7f, 0xbe, 0x90, 0x84, 0x75, 0x3e, 0x52, 0xf8, 0xfb, 0xbe, 0x75, 0xd0, 0x39, 0xbc, 0x1f, 0xef, 0xf4, 0xbe, 0x69, 0x04, 0x5f, 0x3e, 0xc7, 0x24, 0x8b, 0xbe, 
0x08, 0x9a, 0x83, 0x3d, 0xaa, 0x70, 0xf0, 0x3e, 0xb9, 0xa5, 0xad, 0x3e, 0x14, 0x50, 0x20, 0xbe, 0x0e, 0x2a, 0x31, 0xbd, 0x44, 0xb3, 0x29, 0xbe, 0x5c, 0xda, 0x62, 0x3e, 0x98, 0xc9, 0x88, 0xbe, 
0xc5, 0x97, 0xdf, 0xbe, 0x3a, 0x67, 0x9e, 0x3e, 0xce, 0xe4, 0xd2, 0xbe, 0x54, 0xc4, 0x65, 0xbd, 0x4b, 0x71, 0xdb, 0x3e, 0xcf, 0x78, 0x2a, 0xbe, 0x59, 0x24, 0x64, 0x3e, 0x6b, 0x02, 0xfc, 0x3d, 
0x01, 0x20, 0xa5, 0xbe, 0x16, 0xb0, 0xb2, 0xbe, 0xa2, 0x15, 0x85, 0xbe, 0x72, 0x53, 0xca, 0xbe, 0x96, 0x95, 0x4b, 0xbe, 0x8d, 0x2e, 0x81, 0xbe, 0x89, 0x15, 0x37, 0xbe, 0x96, 0x97, 0x8e, 0xbc, 
0x90, 0x5a, 0xda, 0xbe, 0xaf, 0x84, 0x8b, 0xbe, 0x84, 0x7f, 0x1b, 0xbe, 0x58, 0xf2, 0x8f, 0x3d, 0x7f, 0xdb, 0x93, 0x3e, 0xee, 0xb6, 0xce, 0x3e, 0x37, 0x7e, 0xae, 0x3e, 0xb7, 0xc5, 0xb9, 0xbe, 
0xbd, 0x02, 0x99, 0x3d, 0xae, 0xf8, 0xc3, 0xbe, 0xa4, 0x55, 0x73, 0x3e, 0x4b, 0xb4, 0xc5, 0xbe, 0x62, 0xdb, 0xd3, 0x3d, 0xeb, 0x22, 0xda, 0xbe, 0x98, 0xdb, 0x45, 0x3e, 0x88, 0xb7, 0xde, 0xbe, 
0xe6, 0xfc, 0xc2, 0xbe, 0x61, 0x45, 0xab, 0x3c, 0xc7, 0x74, 0xc9, 0xbe, 0xaf, 0x76, 0xd1, 0xbe, 0x0f, 0x59, 0x34, 0x3e, 0x2b, 0x84, 0xc8, 0x3e, 0x13, 0xdc, 0x57, 0xbe, 0xf3, 0x5d, 0x8e, 0xbd, 
0x0c, 0xee, 0xdf, 0x3d, 0x7b, 0x02, 0x8d, 0xbe, 0x04, 0x8c, 0xdc, 0xbe, 0xcc, 0x26, 0xf6, 0xbd, 0x85, 0x04, 0x24, 0x3e, 0x22, 0x70, 0x62, 0x3e, 0xb7, 0xee, 0x5d, 0xbe, 0x6d, 0x03, 0xb8, 0x3e, 
0xbb, 0x71, 0xd6, 0xbd, 0x62, 0x59, 0xe2, 0xbe, 0xf7, 0xd7, 0xa6, 0x3e, 0x05, 0xc9, 0x44, 0xbe, 0x75, 0xa9, 0x93, 0xbe, 0x10, 0x3b, 0xe6, 0x3c, 0x10, 0x2c, 0x08, 0xbe, 0xe2, 0xc8, 0xb7, 0x3d, 
0xed, 0x7c, 0xbe, 0x3e, 0xe0, 0xd9, 0x4e, 0x3e, 0x71, 0x4c, 0xd3, 0x3e, 0x4a, 0xbd, 0x8c, 0x3d, 0x7b, 0x89, 0x6f, 0xbc, 0x31, 0x1a, 0xdf, 0xbe, 0x87, 0x71, 0x50, 0xbb, 0x59, 0x3a, 0xd9, 0x3e, 
0xff, 0x97, 0xb3, 0xbe, 0xbc, 0x9c, 0x92, 0x3d, 0x63, 0x25, 0x58, 0x3e, 0xf7, 0xf5, 0x72, 0x3e, 0x7d, 0x6e, 0x28, 0x3e, 0x80, 0x6f, 0x2a, 0xbd, 0xa6, 0xe9, 0x3b, 0x3e, 0x70, 0x7a, 0x3e, 0x3d, 
0x0a, 0x22, 0x1d, 0xbe, 0xb1, 0xe9, 0x87, 0x3d, 0xf1, 0xb6, 0x9f, 0xbe, 0x7d, 0xb0, 0xdd, 0xbe, 0xf3, 0x45, 0x48, 0x3e, 0x49, 0x32, 0x82, 0x3e, 0x10, 0xa4, 0x9b, 0xbe, 0x2e, 0x5f, 0xd9, 0x3e, 
0x0c, 0xd1, 0xb0, 0xbe, 0xa2, 0x4d, 0x82, 0x3d, 0x5a, 0x2f, 0xf5, 0xbd, 0xc5, 0x55, 0x03, 0x3e, 0x62, 0xe8, 0xa8, 0xbd, 0xde, 0xa2, 0x64, 0x3e, 0x26, 0xc5, 0x07, 0xbe, 0x9e, 0xc3, 0xe4, 0xbe, 
0x3b, 0xd3, 0xa7, 0xbe, 0x59, 0x3f, 0x26, 0xbe, 0xee, 0xb9, 0x40, 0x3e, 0x34, 0x90, 0x60, 0xbe, 0x8b, 0x0f, 0x9e, 0xbe, 0xcd, 0xd1, 0x8f, 0x3e, 0x16, 0x7b, 0x94, 0xbe, 0xe1, 0x13, 0x4a, 0xbe, 
0x48, 0x18, 0x2b, 0xbe, 0x20, 0xd8, 0xa9, 0xbe, 0x2d, 0xa2, 0xdd, 0xbe, 0x9f, 0xe5, 0xbb, 0xbc, 0xc5, 0x4d, 0x53, 0xbe, 0x89, 0xf4, 0xd3, 0x3d, 0xc8, 0xdc, 0x7b, 0xbe, 0x40, 0x98, 0x7d, 0xbe, 
0xf2, 0xb3, 0xa7, 0xbe, 0x99, 0xb2, 0xda, 0xbe, 0x98, 0xf6, 0x93, 0x3e, 0x0e, 0xf4, 0x0a, 0xbe, 0x74, 0x26, 0xc3, 0xbc, 0xfe, 0x81, 0xb7, 0xbe, 0x9a, 0x8e, 0xd3, 0xbd, 0x1c, 0xda, 0x8f, 0xbe, 
0x01, 0x77, 0x83, 0x3e, 0x8c, 0xe2, 0x59, 0xbe, 0x0e, 0x69, 0xe2, 0xbe, 0xb0, 0xe2, 0x70, 0xbe, 0x7f, 0x24, 0x95, 0xbd, 0x0b, 0xb8, 0x7c, 0xbe, 0xe9, 0x20, 0x00, 0x3e, 0xa0, 0x29, 0x42, 0x3e, 
0x79, 0x26, 0x5c, 0xbe, 0x95, 0x5d, 0x22, 0x3e, 0x1b, 0xc2, 0xa1, 0xbd, 0x6d, 0x4a, 0x79, 0x3e, 0xc6, 0x08, 0xdb, 0x3e, 0x0a, 0xd5, 0xca, 0x3e, 0x70, 0x4a, 0xab, 0x3d, 0x73, 0x87, 0xe2, 0x3e, 
0xc5, 0x9f, 0x29, 0xbc, 0x86, 0x5c, 0xc6, 0x3e, 0xfe, 0xab, 0xcd, 0x3e, 0xb1, 0x11, 0xb7, 0xbd, 0x09, 0x8c, 0xc7, 0x3e, 0x7b, 0x10, 0xb1, 0xbd, 0x5b, 0x5a, 0xb2, 0xbd, 0x00, 0xa8, 0xbf, 0xbd, 
0x30, 0xb0, 0xe4, 0x3e, 0xf4, 0x79, 0xd7, 0xbd, 0x2c, 0x7c, 0x57, 0x3e, 0x2e, 0xf9, 0x0f, 0x3e, 0xbc, 0xcf, 0xb6, 0xbe, 0x25, 0x19, 0xa2, 0x3e, 0x8e, 0xc8, 0x95, 0xbe, 0xe6, 0xf0, 0xef, 0x3d, 
0x8c, 0x4e, 0xc6, 0xbe, 0x55, 0xe2, 0x81, 0xbb, 0xc9, 0xa0, 0x5c, 0xbe, 0xb7, 0xec, 0x19, 0x3d, 0x5c, 0xec, 0x25, 0xbe, 0xef, 0xf2, 0x18, 0xbe, 0xbe, 0x9f, 0xcd, 0x3e, 0xe0, 0x59, 0x10, 0xbd, 
0x24, 0x7d, 0x9c, 0xbe, 0xf8, 0xa6, 0x59, 0x3e, 0xce, 0xd1, 0xaf, 0xbe, 0x37, 0xf6, 0x83, 0x3e, 0xec, 0x54, 0xc3, 0xbe, 0xd8, 0xc5, 0x05, 0xbe, 0x63, 0x43, 0xc6, 0xbe, 0x4a, 0xdf, 0x80, 0xbe, 
0x26, 0xeb, 0x10, 0x3e, 0x41, 0xf9, 0x92, 0xbe, 0x4b, 0x4b, 0xd7, 0x3e, 0x26, 0x1d, 0x00, 0x3e, 0xad, 0x2a, 0x62, 0xbd, 0xa4, 0xc9, 0xba, 0x3e, 0x3f, 0x3d, 0xd9, 0xbc, 0x3e, 0xe3, 0x03, 0x3e, 
0x58, 0x15, 0x93, 0xbe, 0xde, 0x56, 0xae, 0x3e, 0x29, 0x3d, 0x8b, 0xbd, 0xd3, 0xd1, 0x07, 0xbe, 0xb8, 0xa2, 0xe2, 0xbe, 0x2e, 0x49, 0x93, 0x3e, 0xc3, 0x19, 0xa3, 0xbc, 0xf1, 0x5f, 0xe1, 0x3e, 
0xd8, 0x74, 0x83, 0xbe, 0x48, 0xaa, 0x23, 0x3e, 0xd7, 0x4f, 0x80, 0x3b, 0x7e, 0x73, 0xf4, 0xbd, 0x7a, 0x0e, 0xcd, 0xbe, 0x69, 0xdd, 0xe4, 0xbe, 0xc3, 0xff, 0xe1, 0x3e, 0x69, 0x98, 0x8d, 0xbe, 
0x2d, 0x5f, 0xc8, 0xbe, 0xa6, 0x4e, 0xc0, 0xbe, 0x12, 0x8c, 0x3b, 0x3e, 0x06, 0x6f, 0xe2, 0x3e, 0x9b, 0x94, 0xd4, 0xbe, 0x1e, 0xce, 0x34, 0xbe, 0x14, 0xb7, 0x89, 0x3e, 0x2b, 0x87, 0x0f, 0xbe, 
0x23, 0x62, 0xa6, 0xbe, 0x31, 0x89, 0xc8, 0xbe, 0xf5, 0x8d, 0x54, 0xbe, 0xf1, 0xae, 0xc6, 0x3d, 0x0d, 0xd8, 0x77, 0xbe, 0xb5, 0x33, 0x09, 0xbc, 0xd0, 0x62, 0xd9, 0x3e, 0x91, 0x9a, 0xb6, 0x3c, 
0xa7, 0xbf, 0x8a, 0xbe, 0xc0, 0x01, 0xd4, 0x3e, 0x96, 0x95, 0xa9, 0xbe, 0x6d, 0x27, 0x87, 0x3e, 0x9e, 0xff, 0x86, 0xbe, 0x25, 0x4e, 0xb4, 0x3d, 0x54, 0x0e, 0xe3, 0xbe, 0x4c, 0xde, 0x88, 0xbe, 
0xd0, 0xd0, 0xb7, 0xbe, 0x31, 0x10, 0x6a, 0xbe, 0x7b, 0xa5, 0x2f, 0xbd, 0x98, 0x90, 0x42, 0x3e, 0x8e, 0xa1, 0x20, 0x3e, 0xaf, 0xc8, 0x5c, 0xbe, 0x28, 0x4f, 0x01, 0xbe, 0xe2, 0xe9, 0x58, 0xbe, 
0x2a, 0x63, 0x9a, 0xbe, 0xb5, 0xa2, 0xa6, 0x3e, 0x50, 0x4a, 0xb2, 0xbe, 0x04, 0xe0, 0x76, 0x3e, 0x42, 0xd0, 0xb6, 0x3e, 0xe9, 0x18, 0xb3, 0xbe, 0xec, 0x82, 0x85, 0x3e, 0x13, 0xa6, 0xbe, 0x3e, 
0xd8, 0xf2, 0xc6, 0x3e, 0x26, 0xd2, 0xd2, 0xbe, 0xc3, 0xac, 0xa7, 0xbd, 0x0e, 0xe0, 0x9c, 0x3e, 0x3e, 0x53, 0x50, 0xbe, 0x16, 0xfb, 0xd4, 0x3e, 0x3c, 0x2f, 0x18, 0xbc, 0x39, 0x4f, 0x8f, 0x3d, 
0x05, 0x65, 0xaa, 0xbd, 0xb1, 0xed, 0x98, 0xbe, 0x38, 0x14, 0x26, 0xbe, 0xfb, 0x12, 0xd7, 0xbe, 0xb8, 0xbf, 0xc9, 0xbe, 0x93, 0x88, 0x3a, 0x3b, 0x98, 0xa3, 0xb6, 0xbd, 0xaa, 0x55, 0xf1, 0x3c, 
0x57, 0xd6, 0x7b, 0x3e, 0xc1, 0xd2, 0x58, 0xbe, 0xaa, 0xd6, 0x29, 0xbd, 0x69, 0x98, 0x9e, 0x3e, 0x3d, 0x6e, 0x89, 0xbe, 0xe9, 0xef, 0xa1, 0xbe, 0xfe, 0xed, 0xa2, 0xbd, 0xd4, 0x38, 0x88, 0x3e, 
0x36, 0x44, 0x0f, 0x3c, 0xc4, 0x47, 0xde, 0x3d, 0x9b, 0x79, 0x13, 0xbe, 0x94, 0x33, 0xdb, 0x3c, 0xd4, 0x49, 0x9e, 0x3d, 0xce, 0x31, 0xc4, 0xbd, 0x93, 0x0f, 0xd8, 0x3d, 0xd7, 0x28, 0xc9, 0xbe, 
0xfc, 0xd7, 0x24, 0xbe, 0xee, 0xae, 0x5e, 0xbe, 0xb1, 0x26, 0x1d, 0x3e, 0xe9, 0x78, 0x2d, 0x3e, 0xe6, 0xb9, 0xa6, 0xbe, 0x11, 0x08, 0x22, 0x3d, 0x4f, 0xdc, 0x8a, 0x3e, 0x00, 0xbc, 0xd8, 0x3e, 
0x46, 0xee, 0xd9, 0x3e, 0x22, 0xff, 0xbd, 0xbe, 0xa8, 0xc0, 0x0d, 0x3e, 0x01, 0x0b, 0x23, 0xbe, 0xdb, 0x64, 0x3d, 0xbe, 0x15, 0x74, 0x0b, 0xbe, 0xf0, 0xf6, 0x9c, 0x3e, 0x5c, 0xb9, 0xc5, 0x3e, 
0xb0, 0x38, 0x97, 0x3e, 0x46, 0xf8, 0xec, 0xbd, 0x49, 0x01, 0xbf, 0xbe, 0x23, 0x14, 0x4d, 0xbe, 0xf0, 0x13, 0x15, 0x3e, 0x16, 0xb1, 0xa5, 0xbe, 0xab, 0x09, 0x18, 0xbc, 0x0e, 0xd6, 0x91, 0x3e, 
0x9e, 0xcc, 0x8b, 0xbe, 0xd0, 0x02, 0x6f, 0x3d, 0xef, 0x4b, 0x6f, 0xbd, 0x10, 0x77, 0x4a, 0x3e, 0x8a, 0x88, 0xa3, 0xbe, 0x9e, 0x5b, 0xd3, 0x3e, 0x72, 0xcb, 0xd1, 0xbc, 0xd4, 0x0f, 0x0d, 0xbc, 
0x9b, 0x09, 0x0c, 0x3e, 0x84, 0xa6, 0x28, 0xbe, 0x76, 0x3a, 0xd2, 0xbe, 0xb9, 0x4e, 0x8c, 0xbe, 0x6c, 0x24, 0x97, 0xbe, 0xde, 0xc9, 0x33, 0xbe, 0xe6, 0xdb, 0x6a, 0xbd, 0x07, 0x4b, 0x3c, 0xbe, 
0x0a, 0xdb, 0x0b, 0x3e, 0xe3, 0xb2, 0x83, 0xbe, 0xcc, 0x4e, 0xb1, 0x3e, 0xed, 0x87, 0xc7, 0xbe, 0x0f, 0x43, 0x33, 0xbe, 0xe9, 0x56, 0xd1, 0x3e, 0xb5, 0xb2, 0x9e, 0x3e, 0xb3, 0xfe, 0x9f, 0xbe, 
0xa9, 0x55, 0xa4, 0x3e, 0x54, 0x94, 0xa0, 0x3f, 0x60, 0x58, 0x3c, 0x3e, 0xb0, 0x5a, 0x40, 0xbc, 0xee, 0xf0, 0xb0, 0xbe, 0x19, 0xb2, 0x97, 0xbe, 0x7b, 0x7e, 0xaa, 0x3d, 0x59, 0x80, 0x6b, 0x3e, 
0x36, 0x34, 0x1f, 0xbe, 0x37, 0x1d, 0xab, 0xbd, 0x32, 0xca, 0xcd, 0x3e, 0xfb, 0x7b, 0xcd, 0x3e, 0x4e, 0x5c, 0xe3, 0xbe, 0xf9, 0x61, 0xf7, 0x3d, 0x68, 0x88, 0xf8, 0xbd, 0x64, 0x35, 0x68, 0x3e, 
0x7f, 0x57, 0xb6, 0x3e, 0x43, 0xa9, 0xaf, 0x3e, 0x57, 0x6b, 0xa2, 0x3e, 0x51, 0x06, 0x21, 0x3e, 0x9e, 0x3e, 0x69, 0xbc, 0xc8, 0x7d, 0xaa, 0xbe, 0x80, 0x8e, 0xb0, 0x3e, 0x72, 0x2a, 0xb9, 0xbe, 
0xce, 0x58, 0xaa, 0x3d, 0x6b, 0x66, 0xda, 0x3e, 0x4f, 0xfc, 0x8c, 0xbe, 0xd5, 0x5c, 0x8e, 0xbd, 0x6b, 0x31, 0x74, 0xbe, 0xae, 0x61, 0xaa, 0x3e, 0xb7, 0x66, 0xcf, 0x3e, 0xc4, 0xd1, 0x26, 0xbd, 
0x73, 0x5b, 0x95, 0x3e, 0xc4, 0xb9, 0x3a, 0xbb, 0x0e, 0x9a, 0x9a, 0x3e, 0x2f, 0x92, 0xde, 0xbe, 0xc1, 0x2e, 0x52, 0x3e, 0xc3, 0x64, 0xb2, 0xbe, 0x22, 0x62, 0x98, 0x3d, 0xbd, 0x6e, 0x83, 0x3e, 
0x70, 0x3b, 0x09, 0xbe, 0x77, 0xda, 0x8b, 0xbc, 0xab, 0x3e, 0xaa, 0x3e, 0x96, 0xa2, 0x9f, 0x3e, 0xa1, 0x17, 0x96, 0xbe, 0x28, 0x90, 0xb3, 0x3e, 0xfd, 0xda, 0x53, 0x3e, 0xdb, 0xea, 0x4d, 0xbc, 
0xff, 0xb9, 0x94, 0xbe, 0x97, 0x6d, 0x9e, 0xbe, 0x01, 0x6e, 0xc1, 0xbd, 0xc6, 0x23, 0x35, 0x3e, 0xb8, 0xe2, 0xc5, 0xbe, 0x9a, 0xfa, 0xc7, 0x3e, 0x55, 0x83, 0x94, 0xbd, 0x8a, 0x50, 0xbe, 0xbd, 
0xb4, 0x15, 0x28, 0x3e, 0x64, 0x9f, 0x99, 0x3e, 0xb5, 0x98, 0xec, 0x3c, 0x5d, 0x2d, 0xbb, 0xbe, 0xc2, 0x56, 0xb6, 0x3e, 0x93, 0x7a, 0x3d, 0x3d, 0x7a, 0x64, 0xbb, 0x3e, 0x83, 0x02, 0xdf, 0x3e, 
0xde, 0x9f, 0x01, 0x3e, 0xd8, 0x12, 0xf4, 0x3d, 0x20, 0xc0, 0x0a, 0xbe, 0x9a, 0xe1, 0x17, 0xbe, 0x82, 0xe5, 0x07, 0xbd, 0x40, 0x2f, 0xbc, 0xbd, 0x8b, 0x94, 0xa0, 0x3d, 0x25, 0x35, 0x26, 0x3e, 
0xb9, 0x1c, 0x16, 0x3e, 0xf4, 0xee, 0x10, 0xbe, 0x89, 0xa2, 0x7a, 0xbb, 0x5f, 0xb2, 0x31, 0x3d, 0x64, 0xa4, 0x89, 0x3d, 0x70, 0x56, 0x88, 0x3d, 0x90, 0xec, 0x31, 0xbd, 0x42, 0x50, 0x02, 0x3e, 
0x7c, 0x1b, 0xbd, 0x3c, 0xfc, 0x53, 0xab, 0x3d, 0x23, 0x61, 0x5b, 0xbd, 0x63, 0x58, 0x52, 0xbe, 0x3b, 0x2e, 0xe3, 0xbc, 0x3f, 0xfa, 0x3b, 0xbe, 0x54, 0xd5, 0x58, 0xbe, 0xdc, 0xe7, 0x12, 0xbd, 
0xac, 0x19, 0xbf, 0x3d, 0x1d, 0x04, 0x96, 0xbc, 0x83, 0xc4, 0x99, 0x3d, 0x49, 0xed, 0x70, 0xbd, 0xc8, 0xa1, 0x0a, 0x3e, 0x84, 0xd8, 0x29, 0xbe, 0xcf, 0x5b, 0x31, 0xbd, 0x8c, 0x91, 0x34, 0x3d, 
0x9a, 0xc1, 0x96, 0xbd, 0xa9, 0x7e, 0x1f, 0xbe, 0x13, 0x12, 0x97, 0x3d, 0x3a, 0x69, 0x4a, 0x3d, 0xf1, 0xda, 0x80, 0xbd, 0x3f, 0x77, 0x36, 0xbe, 0x46, 0x15, 0xc9, 0xbd, 0x37, 0x6f, 0xfb, 0xbd, 
0x7c, 0x6f, 0x21, 0xba, 0x75, 0x49, 0xcc, 0x3c, 0xd2, 0xca, 0x00, 0x3e, 0x8e, 0xe2, 0x4d, 0xbd, 0x52, 0xac, 0x93, 0xbd, 0x4b, 0xf2, 0x28, 0xbe, 0xd9, 0x2a, 0x40, 0xbe, 0x96, 0x5d, 0x26, 0xbe, 
0x4a, 0x4e, 0x91, 0xbd, 0x6a, 0xda, 0x1b, 0xbe, 0x5b, 0x73, 0x45, 0xbd, 0x8c, 0x0c, 0x19, 0xbc, 0x6d, 0xf3, 0x02, 0x3d, 0x37, 0xc0, 0xf9, 0x3d, 0x10, 0x14, 0x76, 0x3d, 0x56, 0x33, 0x1d, 0xbd, 
0x21, 0xee, 0xe5, 0xbd, 0x62, 0xf6, 0x3a, 0xbe, 0xe4, 0x6f, 0x76, 0x3d, 0x2b, 0x2e, 0xc6, 0x3d, 0xf8, 0x9b, 0x4b, 0xbd, 0x9c, 0xda, 0x4c, 0xbd, 0xda, 0x24, 0x1d, 0xbd, 0x48, 0x03, 0x31, 0x3a, 
0x2e, 0x55, 0xde, 0xbe, 0x45, 0x99, 0xc3, 0xbe, 0x67, 0x16, 0xf2, 0xbc, 0x27, 0xc2, 0x3f, 0xbe, 0xc7, 0x98, 0xa3, 0xbe, 0xe5, 0xa3, 0xf8, 0x3c, 0xc0, 0xec, 0x8e, 0xbe, 0x15, 0x7a, 0xb2, 0xbd, 
0xec, 0x30, 0x87, 0xbd, 0xe9, 0xb0, 0x05, 0xbd, 0x0f, 0xf0, 0x90, 0x3b, 0x0c, 0xc1, 0x67, 0x3b, 0x61, 0xe7, 0xcf, 0xbb, 0xe9, 0x70, 0x27, 0x3e, 0x7e, 0x51, 0x18, 0x3c, 0xa1, 0x73, 0xaf, 0x3d, 
0xcc, 0xb6, 0x29, 0x3e, 0xf1, 0xf7, 0x5f, 0x3e, 0x90, 0xf3, 0x58, 0x3e, 0x77, 0x66, 0x08, 0x39, 0xae, 0xe3, 0x1d, 0x3e, 0xf7, 0x29, 0x2b, 0xbd, 0x1e, 0xc9, 0x62, 0xbe, 0x56, 0x22, 0xbe, 0xbd, 
0x86, 0x29, 0x28, 0x3e, 0x56, 0xbd, 0x6d, 0x3e, 0xdc, 0xb0, 0x6b, 0x3e, 0xa4, 0xd5, 0x17, 0xbe, 0xa8, 0xa5, 0xbc, 0x3d, 0x52, 0xc7, 0x0e, 0xbe, 0xa0, 0x2e, 0xa8, 0x3d, 0xb6, 0x44, 0x7e, 0xbe, 
0x92, 0x73, 0xc6, 0xbd, 0x1c, 0x23, 0x17, 0x3e, 0x64, 0x13, 0x32, 0x3e, 0x84, 0x9e, 0x7d, 0x3e, 0xfd, 0x72, 0x8b, 0x3e, 0x3d, 0xc9, 0x5a, 0x3e, 0x86, 0x26, 0x96, 0x3d, 0x6f, 0x04, 0x4a, 0xbe, 
0x9a, 0x1a, 0x9a, 0xbd, 0xf6, 0x2f, 0x60, 0xbd, 0xd0, 0xde, 0x1c, 0xbd, 0xb0, 0x2f, 0x73, 0xbe, 0x58, 0x65, 0x43, 0xbe, 0x0f, 0xe8, 0xad, 0xbd, 0x7c, 0x07, 0x0e, 0xbd, 0xcb, 0x0f, 0x39, 0xbe, 
0x22, 0xaf, 0x57, 0xbe, 0x00, 0xd4, 0xa3, 0xbe, 0x85, 0xc4, 0x48, 0xbe, 0x72, 0x0e, 0x24, 0xbd, 0x13, 0x4a, 0xbb, 0x3d, 0xe8, 0xbb, 0x52, 0xbd, 0x0c, 0x0d, 0x89, 0xbd, 0xe9, 0x43, 0xa2, 0xbe, 
0xf2, 0xb8, 0x12, 0xbe, 0x3c, 0xaa, 0xa1, 0xbe, 0xaa, 0x18, 0xfa, 0xbd, 0x8d, 0x5c, 0xa0, 0xbd, 0x73, 0xbf, 0xab, 0xbc, 0x33, 0xe9, 0x49, 0xbd, 0x83, 0x86, 0xea, 0xbd, 0x5e, 0x74, 0x53, 0x3c, 
0x03, 0x3e, 0xa5, 0x3e, 0xfe, 0x51, 0x69, 0x3e, 0xca, 0x0e, 0xbd, 0xbd, 0x5a, 0x57, 0x39, 0xbe, 0x41, 0x4e, 0xe5, 0xbd, 0x5b, 0x0b, 0xb1, 0x3c, 0x51, 0x57, 0x19, 0x3e, 0x16, 0xcd, 0x44, 0x3e, 
0x7e, 0x9a, 0xd4, 0x3d, 0x13, 0x63, 0x92, 0xbc, 0x9d, 0x6b, 0xe5, 0xbc, 0x0a, 0x5e, 0x40, 0x3e, 0xe0, 0xc5, 0x97, 0x3d, 0x23, 0x39, 0x9f, 0xbc, 0x9b, 0x96, 0x41, 0xbe, 0xd2, 0x4d, 0xf0, 0xbd, 
0xc4, 0x84, 0x3b, 0xbe, 0x80, 0xea, 0x10, 0x3d, 0x64, 0xde, 0x9f, 0x3c, 0x64, 0xfe, 0x62, 0x3e, 0x1c, 0xf8, 0x28, 0x3c, 0x51, 0x10, 0x2f, 0xbe, 0x19, 0xe8, 0x68, 0xbe, 0xba, 0x15, 0xc9, 0xbd, 
0x0f, 0x2c, 0xc6, 0x3d, 0xac, 0xfd, 0xff, 0x3b, 0x8b, 0xb7, 0x7c, 0x3c, 0x08, 0x68, 0x2a, 0xbe, 0xdb, 0x25, 0x41, 0x3e, 0x61, 0x18, 0x7f, 0xbe, 0x2e, 0xa5, 0x89, 0xbe, 0x21, 0xed, 0x15, 0xbe, 
0x56, 0x4c, 0x29, 0xbf, 0x5b, 0xec, 0x3c, 0xbe, 0x1f, 0x19, 0x4e, 0x3e, 0x93, 0x3a, 0x17, 0x3e, 0xb3, 0xf4, 0xd4, 0x3c, 0xcd, 0x36, 0x35, 0xbe, 0xa1, 0xcc, 0xa8, 0xbe, 0x3a, 0x01, 0xb1, 0xbe, 
0x10, 0x63, 0xb4, 0xbe, 0x0c, 0x21, 0x95, 0xbe, 0x6f, 0xb3, 0x62, 0xbd, 0x55, 0x39, 0x7a, 0xbe, 0xf9, 0x3d, 0x3c, 0x3d, 0x03, 0x72, 0x3f, 0xbd, 0x12, 0x40, 0xa5, 0x3d, 0xc5, 0xee, 0x02, 0x3e, 
0x39, 0xc3, 0x00, 0x3d, 0x68, 0xa5, 0x9b, 0xbe, 0xa2, 0xe4, 0xc7, 0xbd, 0xff, 0xac, 0x02, 0xbe, 0x75, 0x04, 0xf7, 0x3d, 0x53, 0xd0, 0xe2, 0x3e, 0x45, 0x55, 0x4a, 0x3e, 0xbc, 0xf7, 0xc7, 0x3d, 
0xc4, 0x67, 0xe1, 0xbd, 0x00, 0x93, 0x82, 0xbd, 0x1a, 0xc6, 0x49, 0xbd, 0x07, 0xac, 0xd2, 0x3d, 0xc0, 0x5f, 0x0f, 0x3e, 0xbf, 0x53, 0x5d, 0x3e, 0x59, 0x41, 0xa2, 0x3e, 0x60, 0x88, 0x81, 0xbd, 
0x31, 0xea, 0x28, 0x3e, 0x07, 0xf8, 0x7e, 0x3d, 0x57, 0xe1, 0x35, 0xbc, 0x54, 0x8c, 0x09, 0xbe, 0x6a, 0xc9, 0x32, 0xbd, 0x93, 0xd5, 0xb7, 0xbc, 0x69, 0x25, 0x77, 0x3d, 0x90, 0xc0, 0x08, 0x3c, 
0x34, 0x06, 0xa4, 0x3a, 0x8e, 0x9b, 0xba, 0x3d, 0xf0, 0xd7, 0x3a, 0x3d, 0x19, 0x54, 0x1e, 0x3e, 0xab, 0xbb, 0x28, 0x3d, 0x3f, 0xf8, 0xf6, 0xbd, 0xef, 0xd5, 0xec, 0xbd, 0x21, 0xdd, 0x41, 0x3e, 
0x16, 0x9e, 0x84, 0x3d, 0xe1, 0xac, 0x74, 0x3d, 0x2e, 0xa4, 0x53, 0x3d, 0xaa, 0x21, 0x7d, 0x3e, 0x6c, 0xa5, 0x16, 0x3c, 0xc4, 0x1b, 0x58, 0x3e, 0x71, 0xd7, 0x96, 0x3d, 0xd3, 0x64, 0xdd, 0xbc, 
0x06, 0x94, 0x71, 0x3e, 0x92, 0xec, 0x28, 0x3d, 0x08, 0xf6, 0x40, 0xbd, 0x87, 0x25, 0x50, 0x3e, 0xbe, 0x93, 0x16, 0xbe, 0x4b, 0xf3, 0x51, 0x3e, 0x86, 0xf0, 0x2b, 0xbd, 0x08, 0x5a, 0xdf, 0x3d, 
0x03, 0x16, 0x83, 0x3e, 0xfd, 0x2b, 0xd1, 0x3d, 0x5e, 0x75, 0x48, 0xbc, 0x9c, 0xb0, 0x54, 0x3e, 0xbe, 0x47, 0x13, 0x3e, 0xcc, 0x25, 0x14, 0x3e, 0x80, 0xab, 0x8c, 0xbd, 0xe2, 0xa2, 0xc9, 0x3d, 
0x53, 0x8f, 0x9c, 0x3d, 0xa7, 0x9e, 0x06, 0x3e, 0xda, 0xbc, 0x19, 0x3e, 0xda, 0x70, 0xa3, 0x3e, 0x56, 0x82, 0xbb, 0xbd, 0xb9, 0xdf, 0x3c, 0x3e, 0x51, 0xc6, 0x5d, 0x3e, 0xaf, 0x77, 0xd9, 0x3c, 
0xf8, 0xa6, 0x8e, 0x3b, 0xec, 0x18, 0x15, 0x3e, 0xe7, 0x69, 0xa9, 0x3b, 0xa2, 0x54, 0x85, 0x3e, 0x33, 0xcc, 0x08, 0x3e, 0x4e, 0x81, 0x83, 0xbc, 0xee, 0xd1, 0x25, 0x3e, 0xae, 0x0a, 0x1e, 0x3e, 
0x54, 0x6d, 0x53, 0xbd, 0x22, 0xfc, 0x73, 0xbd, 0x49, 0x5f, 0xf9, 0x3c, 0xac, 0x69, 0x99, 0x3d, 0x6b, 0x47, 0xe6, 0x3c, 0x7a, 0x51, 0x13, 0x3d, 0xb1, 0xc3, 0x4c, 0x3e, 0x75, 0x23, 0x65, 0x3e, 
0x4d, 0xa3, 0x8d, 0x3e, 0x5f, 0xf3, 0x5a, 0x3e, 0x6f, 0x86, 0xba, 0x3e, 0x59, 0xe1, 0x76, 0x3e, 0x74, 0x19, 0x98, 0x3e, 0xf1, 0xff, 0x58, 0x3e, 0x6e, 0x13, 0x5c, 0xbe, 0xf4, 0xf8, 0x34, 0x3e, 
0xf0, 0xc3, 0xdb, 0x3d, 0xb4, 0xa6, 0xe2, 0xbc, 0x66, 0x7f, 0xe7, 0xbd, 0x9d, 0x2c, 0x91, 0x3d, 0x00, 0x93, 0xe7, 0xbd, 0xa2, 0x49, 0xb7, 0xbd, 0x82, 0x15, 0xd1, 0xbd, 0x61, 0xb6, 0xdc, 0xbe, 
0xe6, 0x70, 0xdf, 0xbe, 0xe5, 0x36, 0x7e, 0xbd, 0xab, 0xd7, 0x7d, 0x3d, 0xfc, 0xaa, 0xc2, 0x3d, 0x28, 0x0e, 0xbe, 0x3c, 0x27, 0x6a, 0x4c, 0xbe, 0x83, 0x19, 0x9e, 0xbe, 0x89, 0x17, 0x1d, 0x3d, 
0xc3, 0xae, 0xc5, 0x3d, 0x87, 0x26, 0xb8, 0x3e, 0x5f, 0x15, 0xde, 0x3d, 0x6e, 0x49, 0x3f, 0xbe, 0xcc, 0x60, 0xd3, 0xbd, 0xca, 0xc2, 0x0b, 0xbf, 0xa1, 0xf3, 0xd3, 0xbc, 0x4b, 0x4b, 0xfd, 0x3d, 
0x7d, 0xe7, 0x9b, 0xbe, 0x25, 0xa6, 0x82, 0xbe, 0xd0, 0x08, 0xc5, 0xbe, 0xe7, 0x1c, 0xd2, 0xbe, 0xdf, 0xaa, 0x4d, 0xbe, 0x40, 0x21, 0x09, 0xbe, 0x12, 0x97, 0x43, 0x3d, 0x90, 0xfd, 0xa8, 0x3d, 
0x20, 0xfb, 0x5a, 0xbe, 0x7b, 0xeb, 0x4d, 0xbe, 0x0f, 0x04, 0xb4, 0xbd, 0xaf, 0x16, 0x7d, 0xbd, 0x34, 0x30, 0xc8, 0x3d, 0xbb, 0xbe, 0xd2, 0x3c, 0x2e, 0xf7, 0x4d, 0x3e, 0x0a, 0xdf, 0x36, 0x3e, 
0x4e, 0x6b, 0x87, 0x3d, 0x42, 0x33, 0x2d, 0xbe, 0x9d, 0x21, 0x7b, 0x3d, 0xbd, 0x63, 0xc5, 0x3d, 0xda, 0x1e, 0x7f, 0x3e, 0x5c, 0x9a, 0xfb, 0x3e, 0x1b, 0x7e, 0x3a, 0x3e, 0x5b, 0xe2, 0x04, 0xbc, 
0x76, 0x2b, 0xbc, 0xbe, 0x11, 0x16, 0x1b, 0xbd, 0x20, 0x93, 0x61, 0x3e, 0xb1, 0x84, 0xb6, 0x3e, 0xdd, 0xd3, 0xe5, 0x3e, 0x3e, 0xf9, 0x68, 0x3e, 0x83, 0xe9, 0xc9, 0x3d, 0xf8, 0x02, 0x82, 0xbe, 
0xfa, 0xe0, 0x08, 0x3e, 0x6b, 0xc2, 0x09, 0x3e, 0xe0, 0x90, 0x27, 0x3e, 0x2d, 0x29, 0x62, 0x3e, 0xde, 0xa9, 0xe6, 0x3c, 0x3f, 0x7c, 0x8a, 0x3e, 0xf5, 0xc1, 0x69, 0x3e, 0x73, 0x13, 0xb6, 0x3d, 
0x00, 0x67, 0xe9, 0x3d, 0x58, 0x33, 0x82, 0x3b, 0xdc, 0x17, 0xa6, 0x3d, 0x06, 0x82, 0xcf, 0x3d, 0x16, 0x20, 0x99, 0x3b, 0x6b, 0x8e, 0x30, 0x3d, 0xec, 0xd6, 0x1b, 0x3e, 0xc6, 0xf0, 0xc7, 0x3c, 
0xd5, 0x22, 0x5b, 0x3c, 0xcb, 0x81, 0x3f, 0xbd, 0x98, 0xf7, 0x87, 0xbc, 0x18, 0xe4, 0x16, 0x3e, 0xb6, 0x3e, 0x52, 0x3e, 0xc9, 0x32, 0x8a, 0x3d, 0x76, 0x27, 0xfa, 0x3c, 0x58, 0x92, 0x86, 0x3d, 
0x14, 0x05, 0x21, 0x3d, 0x80, 0x32, 0x9e, 0x3d, 0x9c, 0x69, 0x6b, 0x3e, 0x22, 0x63, 0xad, 0x3d, 0x84, 0xf4, 0x4d, 0x3d, 0xa0, 0x9b, 0x1c, 0x3e, 0xa0, 0xc9, 0x44, 0x3d, 0x2e, 0x9e, 0x3e, 0x3e, 
0x76, 0x7d, 0x66, 0xbb, 0xdd, 0x99, 0x4b, 0xbd, 0xc0, 0x3a, 0x51, 0xbd, 0xd2, 0x10, 0xd2, 0xbd, 0xab, 0xa8, 0x7c, 0xbe, 0x1b, 0xe7, 0x77, 0xbe, 0xd6, 0x7c, 0xb9, 0xbe, 0xe2, 0x92, 0x36, 0xbe, 
0xa3, 0x48, 0x71, 0xbe, 0x41, 0x12, 0x25, 0xbe, 0x41, 0x49, 0xa6, 0xbe, 0x6e, 0xb0, 0xf5, 0xbd, 0xfb, 0xa3, 0xc1, 0xbd, 0x1f, 0x4f, 0x84, 0xbe, 0x82, 0x5d, 0x1d, 0xbc, 0x2c, 0x6e, 0xe7, 0x3d, 
0x06, 0xf8, 0x79, 0xbd, 0xbc, 0xa3, 0xe0, 0x3c, 0x54, 0xde, 0x39, 0xbd, 0x48, 0xc0, 0x7b, 0xbe, 0x61, 0x60, 0x8d, 0xbe, 0xfa, 0x81, 0xd2, 0xbe, 0xcb, 0x7e, 0x54, 0xbe, 0x03, 0x41, 0x10, 0xbd, 
0xa9, 0xa0, 0x3b, 0xbe, 0x74, 0x3b, 0x54, 0xbe, 0x68, 0x4e, 0x75, 0xbe, 0xae, 0xdd, 0x3e, 0xbe, 0x2b, 0xa5, 0x9d, 0xbe, 0x77, 0x0c, 0x08, 0xbe, 0x5d, 0x2d, 0x49, 0xbe, 0x58, 0x8d, 0x72, 0xbe, 
0xac, 0x51, 0xd8, 0x3d, 0x92, 0xb5, 0x5e, 0x3d, 0x7c, 0x03, 0x9a, 0x3c, 0xe9, 0x87, 0x27, 0xbe, 0xfd, 0x65, 0x68, 0x3d, 0xaa, 0x7a, 0xd3, 0xbc, 0xe1, 0x72, 0x22, 0x3e, 0x16, 0xcd, 0x66, 0x3d, 
0xed, 0x44, 0xac, 0x3d, 0xe4, 0xa2, 0x27, 0x3e, 0xab, 0x13, 0x4b, 0x3e, 0xf7, 0x13, 0x95, 0xbb, 0xa0, 0x00, 0xaa, 0xbd, 0x79, 0x31, 0x36, 0xbc, 0x44, 0x7d, 0x83, 0x3b, 0x89, 0xfd, 0x1e, 0xbd, 
0x9c, 0x9d, 0x35, 0x3e, 0xb7, 0x5a, 0xda, 0x3c, 0x91, 0x7b, 0x7d, 0xbd, 0xae, 0xbd, 0xf4, 0x3d, 0x40, 0x18, 0xc8, 0x3c, 0xcb, 0x64, 0x18, 0x3e, 0xa4, 0xb2, 0x98, 0xbc, 0x0e, 0x37, 0x72, 0x3c, 
0x63, 0xef, 0xc3, 0x3e, 0x20, 0xb7, 0x7e, 0x3d, 0x06, 0xa2, 0xe5, 0x3d, 0x24, 0x5f, 0xa8, 0x3e, 0x9a, 0x6b, 0x3f, 0xbe, 0xaf, 0x73, 0xcb, 0x3d, 0x45, 0x33, 0x71, 0xbd, 0x3b, 0x5d, 0x8a, 0x3d, 
0x87, 0x7c, 0x6e, 0x3e, 0xd0, 0x66, 0xc2, 0x3d, 0x8d, 0xf0, 0x40, 0x3e, 0x23, 0x36, 0x14, 0x3e, 0xf6, 0xb1, 0x53, 0x3e, 0xd1, 0xf5, 0x7d, 0x3d, 0x80, 0x4e, 0x00, 0x3e, 0x14, 0x58, 0x0c, 0x3e, 
0x5a, 0xb6, 0x95, 0x3c, 0x39, 0xfd, 0x98, 0x3e, 0x57, 0x93, 0x3b, 0xbc, 0x0a, 0xc2, 0x89, 0x3e, 0xd7, 0x89, 0x42, 0x3c, 0x7b, 0x14, 0x07, 0x3e, 0xc6, 0xf3, 0x4d, 0x3d, 0x92, 0x7a, 0x51, 0x3e, 
0x8d, 0x65, 0x25, 0xbd, 0xfa, 0x7a, 0xfd, 0x3d, 0xf5, 0x1f, 0xb3, 0xba, 0xa2, 0x68, 0xcc, 0x3c, 0xe1, 0xd0, 0xed, 0x3d, 0xa4, 0x79, 0xb3, 0xbd, 0xd0, 0x48, 0x0f, 0xbd, 0xa8, 0xc6, 0x19, 0x3e, 
0xe3, 0x53, 0xfd, 0xbd, 0xfd, 0x16, 0x83, 0xbd, 0x6a, 0xde, 0x1e, 0x3e, 0x68, 0x9e, 0xc0, 0x3d, 0xbd, 0x94, 0x62, 0x3e, 0xa4, 0x8a, 0x42, 0xbc, 0x86, 0xcf, 0x23, 0x3e, 0x55, 0x0c, 0x6b, 0x3e, 
0xae, 0x4b, 0xa8, 0xbd, 0x80, 0x59, 0x26, 0x3d, 0x4d, 0xb1, 0x21, 0x3e, 0x1d, 0x66, 0x8e, 0xbd, 0x90, 0x39, 0x2b, 0xbe, 0x67, 0xea, 0x71, 0xbd, 0xa5, 0x6e, 0x0b, 0xbd, 0x68, 0x9d, 0x4a, 0x3e, 
0x11, 0x85, 0x5b, 0xbd, 0x3b, 0x07, 0x64, 0xbe, 0xbc, 0xbe, 0x76, 0xbc, 0x41, 0xba, 0xb9, 0x3d, 0x5f, 0x42, 0x89, 0x3e, 0xac, 0x0e, 0x8b, 0x3e, 0xe6, 0x78, 0x08, 0xbe, 0x38, 0xc8, 0x85, 0xbe, 
0x55, 0x71, 0x00, 0xbf, 0xc6, 0x61, 0x0b, 0xbe, 0x72, 0xe1, 0xa6, 0xbd, 0x74, 0x2b, 0xc2, 0x3d, 0x60, 0x09, 0x9c, 0x3e, 0x1b, 0x6c, 0xcd, 0x3c, 0x58, 0x24, 0xdd, 0xbd, 0x22, 0x58, 0x5b, 0x3e, 
0xc2, 0x41, 0x29, 0xbe, 0x79, 0x65, 0xdd, 0x3d, 0xa4, 0xe4, 0x79, 0x3e, 0x3b, 0x61, 0xbb, 0x3b, 0xfa, 0xbe, 0xd6, 0xbd, 0x62, 0x59, 0x93, 0xbe, 0x8a, 0xcd, 0xf9, 0xbd, 0x98, 0x13, 0xa9, 0xbd, 
0x40, 0xda, 0x7f, 0xbe, 0x6d, 0x21, 0x08, 0xbf, 0xa9, 0x13, 0x81, 0xbe, 0xa4, 0x7c, 0x14, 0xbe, 0xe4, 0xbe, 0xc4, 0xbd, 0x6a, 0x02, 0x5b, 0x3e, 0x82, 0x7c, 0x9a, 0x3d, 0x0d, 0xd1, 0x1a, 0xbe, 
0x9b, 0x81, 0x82, 0x3e, 0x70, 0x04, 0x31, 0x3e, 0x95, 0x68, 0x52, 0x3e, 0xa6, 0x74, 0x41, 0xbe, 0x79, 0x6f, 0x31, 0xbe, 0x1b, 0xba, 0xf9, 0xbd, 0x89, 0x55, 0x01, 0xbe, 0xe6, 0x4b, 0x83, 0x3e, 
0x24, 0xf5, 0xde, 0x3e, 0xfd, 0x64, 0x4a, 0x3e, 0x35, 0x2c, 0x87, 0x3e, 0x04, 0xa8, 0x36, 0xbc, 0x20, 0x64, 0xcc, 0xbe, 0x8b, 0x92, 0x10, 0xbd, 0xe3, 0xef, 0x0c, 0x3d, 0xeb, 0xfa, 0x9c, 0x3e, 
0x4b, 0xf4, 0x46, 0x3e, 0xc8, 0xf0, 0xa5, 0xbc, 0xf2, 0x9d, 0x29, 0xbe, 0x6b, 0x74, 0xb3, 0xbd, 0xd4, 0x50, 0x68, 0x3d, 0xca, 0x53, 0x1f, 0x3e, 0xb8, 0xa0, 0x44, 0x3d, 0x97, 0x9f, 0x4f, 0xbe, 
0xdd, 0xf2, 0x50, 0xbe, 0xda, 0xf8, 0xb5, 0xbe, 0x57, 0xa7, 0xd2, 0x3d, 0x0d, 0x65, 0x3a, 0x3e, 0x4d, 0x3f, 0x97, 0xbe, 0x8c, 0xd8, 0x99, 0xbd, 0x5f, 0x5f, 0xd5, 0xbe, 0x5d, 0x3f, 0x35, 0xbe, 
0x92, 0xdc, 0x8e, 0x3c, 0xfd, 0xa2, 0xc7, 0x3c, 0x82, 0x2c, 0xc2, 0xbd, 0x2a, 0x77, 0xb2, 0xbc, 0x02, 0x41, 0x1b, 0x3d, 0x19, 0x26, 0x6d, 0x3e, 0xa6, 0xe2, 0xed, 0x3e, 0x36, 0x80, 0x8c, 0x3e, 
0xef, 0x62, 0x1b, 0x3e, 0xaf, 0x55, 0xea, 0x3d, 0x4e, 0x9b, 0x8c, 0x3e, 0xd2, 0x09, 0x2f, 0xbe, 0xe5, 0xa8, 0x66, 0x3d, 0x01, 0xe6, 0x88, 0x3d, 0x4f, 0xdb, 0x0e, 0x3e, 0xf0, 0x5a, 0x99, 0x3e, 
0x09, 0x7e, 0x17, 0x3c, 0x16, 0xa5, 0xfc, 0x3b, 0x7f, 0x1f, 0xed, 0xbd, 0xa7, 0xe6, 0xc9, 0xbe, 0xf7, 0xc6, 0x81, 0xbe, 0x0f, 0xae, 0x95, 0x3d, 0x8c, 0x2f, 0x9e, 0x3e, 0x38, 0x96, 0xa3, 0x3c, 
0xc6, 0x2d, 0x4f, 0x3e, 0x4e, 0xaf, 0x68, 0x3e, 0x10, 0x11, 0xb0, 0x3c, 0x46, 0xc4, 0x71, 0xbb, 0x0d, 0x47, 0x34, 0x3e, 0xb9, 0xa2, 0x3c, 0x3e, 0x37, 0x26, 0x8c, 0x3e, 0x55, 0x19, 0x53, 0xbd, 
0x6a, 0x66, 0x46, 0xbe, 0x64, 0x37, 0x7b, 0xbe, 0x62, 0x2c, 0x77, 0x3d, 0x3b, 0x32, 0x0c, 0xbe, 0xcd, 0xff, 0x20, 0xbd, 0x9b, 0x5b, 0xee, 0xbe, 0x43, 0xc8, 0x6d, 0xbe, 0xcb, 0xb4, 0xe2, 0xbd, 
0xa7, 0x16, 0x98, 0x3e, 0x71, 0x7a, 0x1a, 0x3e, 0x81, 0xc5, 0xad, 0x3e, 0x3b, 0x6f, 0x0d, 0x3d, 0x3a, 0x80, 0x75, 0xbe, 0x88, 0xaf, 0xf3, 0xbd, 0xd4, 0x83, 0xc9, 0xbe, 0x6c, 0x11, 0x6a, 0xbe, 
0x69, 0xc3, 0xc7, 0x3d, 0x52, 0xf4, 0x01, 0x3e, 0x66, 0xc2, 0x64, 0x3e, 0x5b, 0x1d, 0xa2, 0x3e, 0xf7, 0x53, 0x0b, 0x3e, 0x5a, 0x10, 0x2d, 0xbe, 0x7d, 0x4f, 0x5e, 0xbe, 0xc6, 0x14, 0x79, 0xbe, 
0xc5, 0x1e, 0x62, 0x3e, 0x51, 0x5e, 0x10, 0x3e, 0x6e, 0x26, 0x03, 0xbf, 0xa2, 0x4e, 0x2f, 0xbf, 0x1c, 0x6c, 0x0c, 0xbf, 0xc2, 0xf2, 0x5c, 0xbf, 0x08, 0x29, 0xeb, 0xbe, 0x1e, 0x2a, 0x52, 0xbf, 
0x57, 0x07, 0x0e, 0xbf, 0x5c, 0x09, 0x0e, 0xbe, 0xc5, 0x17, 0x4d, 0xbe, 0x05, 0xfd, 0xd3, 0xbe, 0x51, 0x22, 0xf0, 0xbe, 0x8e, 0x39, 0xf4, 0xbe, 0x3c, 0x38, 0xbc, 0xbd, 0xc3, 0x16, 0x4a, 0xbe, 
0x3a, 0x78, 0x0e, 0x3e, 0x7c, 0x35, 0xda, 0x3d, 0xd8, 0x9c, 0x6c, 0xbe, 0xd7, 0xa7, 0x86, 0x3d, 0xd8, 0x97, 0x64, 0xbe, 0xdd, 0xfb, 0x37, 0xbd, 0x76, 0xf5, 0x84, 0x3c, 0xd6, 0x57, 0x5e, 0x3e, 
0xd9, 0x99, 0x03, 0x3e, 0x03, 0x7f, 0x4a, 0xbf, 0xe1, 0xd5, 0x3f, 0xbf, 0x10, 0x59, 0xa5, 0xbe, 0x6e, 0xe2, 0x68, 0xbf, 0x20, 0x0a, 0x45, 0xbe, 0xbb, 0xb7, 0xeb, 0xbd, 0x77, 0x9c, 0x5e, 0x3c, 
0x01, 0x64, 0x0d, 0x3e, 0x9b, 0xaa, 0xc7, 0x3b, 0x1d, 0x0c, 0x72, 0x3d, 0xef, 0x89, 0x5f, 0x3d, 0x36, 0xe2, 0xec, 0x3d, 0x3b, 0x88, 0x36, 0xbd, 0xf7, 0x7f, 0x86, 0x3d, 0xb9, 0x9e, 0x28, 0x3e, 
0x1f, 0x04, 0x01, 0x3c, 0x88, 0x25, 0x71, 0x3e, 0xfa, 0x70, 0x84, 0x3d, 0x65, 0xce, 0x62, 0x3e, 0x5b, 0x99, 0xfa, 0xbd, 0x80, 0x11, 0x6d, 0x3e, 0xa8, 0x96, 0x92, 0x3d, 0xd7, 0x82, 0x58, 0x3e, 
0x00, 0x5d, 0x7a, 0x3c, 0x76, 0x25, 0x8f, 0x3e, 0xff, 0xc4, 0x7b, 0xbc, 0xe2, 0x8d, 0x3f, 0x3e, 0xe1, 0xb1, 0x57, 0x3d, 0x95, 0x10, 0xa2, 0x3d, 0x4b, 0x52, 0xea, 0x3d, 0xa6, 0xdf, 0xce, 0xbd, 
0xd8, 0x94, 0x22, 0x3d, 0x9a, 0xc6, 0x22, 0xbc, 0xfc, 0xc5, 0x19, 0x3e, 0x30, 0xd7, 0x56, 0xbb, 0x9f, 0x7a, 0x91, 0x3d, 0x4f, 0x53, 0xb8, 0x3c, 0x97, 0xa2, 0x3a, 0xbc, 0x27, 0x5f, 0x97, 0x3e, 
0x96, 0xf8, 0x04, 0x3e, 0xfa, 0xa3, 0x3e, 0xbd, 0xa3, 0x8d, 0xd0, 0xbd, 0xdf, 0xe0, 0x8e, 0x3d, 0xd8, 0x04, 0xea, 0x3b, 0x0c, 0x7e, 0xfa, 0xbb, 0xa4, 0x37, 0xea, 0xbd, 0xf3, 0x14, 0x09, 0xbd, 
0x9a, 0x87, 0x09, 0xbd, 0x79, 0x92, 0x89, 0x3c, 0x54, 0x66, 0x73, 0xbb, 0x2f, 0x9a, 0xc3, 0xbd, 0xf0, 0x0e, 0x32, 0xbe, 0xd5, 0x7b, 0x2d, 0x3d, 0x92, 0x0d, 0xd8, 0x3d, 0xeb, 0x01, 0x31, 0xbe, 
0x7e, 0x78, 0x09, 0xbe, 0x7b, 0x3a, 0x24, 0xbe, 0x1e, 0xfd, 0xe2, 0xbd, 0x39, 0x2f, 0x01, 0xbe, 0xd0, 0xae, 0x16, 0x3d, 0x76, 0x4b, 0x1a, 0xbe, 0x9a, 0xb9, 0x5a, 0xbd, 0xab, 0x2c, 0x09, 0xbe, 
0xa7, 0x95, 0x90, 0xbe, 0x23, 0x2a, 0xcf, 0xbd, 0xdc, 0x03, 0xe7, 0xbc, 0x1c, 0x34, 0x83, 0xbd, 0x9e, 0x01, 0x3e, 0xbc, 0x09, 0x1b, 0x7f, 0xbd, 0xee, 0x31, 0x76, 0xbe, 0xc3, 0xc6, 0x41, 0xbe, 
0x12, 0x82, 0xe4, 0xbd, 0xa1, 0x35, 0x6c, 0xbd, 0xcf, 0xc8, 0x60, 0xbd, 0x70, 0x23, 0x6c, 0xbd, 0xcc, 0x73, 0x1e, 0xbe, 0x4a, 0xb6, 0xdb, 0xbd, 0xe9, 0x7d, 0x49, 0xbe, 0x73, 0x59, 0x6f, 0xbe, 
0x2a, 0x8e, 0xaf, 0x3d, 0x10, 0xc3, 0x30, 0xbd, 0xc8, 0xa0, 0xd5, 0x3d, 0xd4, 0x56, 0xe2, 0x3d, 0xdd, 0xef, 0xe9, 0x3d, 0x45, 0x25, 0x03, 0x3d, 0x36, 0x16, 0x0a, 0xbe, 0x46, 0x64, 0x82, 0xbd, 
0x18, 0x5c, 0x12, 0xbd, 0x5b, 0x46, 0xe2, 0xbc, 0x8e, 0xe1, 0x8f, 0x3d, 0xfe, 0xea, 0xf5, 0x3d, 0xd2, 0x79, 0x38, 0xbe, 0x86, 0x51, 0x5b, 0xbe, 0x32, 0x31, 0xd7, 0x3d, 0xbd, 0x6d, 0x35, 0x3e, 
0xd7, 0x31, 0x98, 0x3d, 0xfb, 0xfe, 0x83, 0x3d, 0x5e, 0xce, 0xca, 0x3d, 0x81, 0x4c, 0xda, 0x3c, 0x32, 0x04, 0xda, 0x3d, 0x81, 0x5b, 0xf4, 0xbc, 0x2f, 0x7a, 0xdf, 0x3d, 0x4d, 0x4a, 0x12, 0xbe, 
0x12, 0x24, 0x88, 0xbe, 0x4a, 0x63, 0xda, 0xbe, 0x30, 0x0f, 0x45, 0xbd, 0x84, 0xaa, 0x82, 0xbe, 0x44, 0x4b, 0x22, 0xbe, 0xcf, 0x01, 0x0a, 0x3e, 0x59, 0x88, 0xd0, 0x3d, 0x55, 0xec, 0xcb, 0x3e, 
0x19, 0x66, 0xa4, 0xbe, 0x82, 0xce, 0xac, 0xbe, 0x32, 0xcc, 0xe8, 0xbe, 0x6c, 0x88, 0xca, 0xbe, 0x6b, 0x3f, 0xd3, 0xbe, 0xa0, 0xac, 0xa4, 0x3c, 0x73, 0xde, 0xc1, 0x3d, 0xdf, 0x73, 0xbe, 0x3c, 
0x11, 0x62, 0x51, 0x3e, 0xe2, 0x49, 0x6a, 0x3e, 0xbc, 0x6a, 0xa0, 0x3d, 0xe1, 0xfe, 0x2a, 0xbf, 0x2f, 0x14, 0x11, 0xbf, 0x04, 0xba, 0xd2, 0xbd, 0x3c, 0x8e, 0xa4, 0xbe, 0xa0, 0x41, 0x8c, 0xbe, 
0x1c, 0xc7, 0x6a, 0x3e, 0x4b, 0x1e, 0xd2, 0x3e, 0x62, 0xe4, 0x28, 0x3e, 0xa4, 0x08, 0xd7, 0xbe, 0x00, 0x91, 0xf8, 0xbd, 0x61, 0x21, 0x92, 0xbe, 0xd0, 0x74, 0x26, 0xbc, 0x54, 0xe0, 0x9c, 0x3e, 
0x31, 0x0e, 0x15, 0xbe, 0x79, 0x33, 0xba, 0x3b, 0xc8, 0x13, 0xb1, 0x3d, 0xaf, 0x74, 0x50, 0x3d, 0xab, 0x1b, 0xfa, 0x3b, 0xad, 0x1c, 0xdd, 0x3d, 0xa9, 0x09, 0x80, 0x3d, 0x95, 0x24, 0xf4, 0x3d, 
0x3e, 0xb9, 0x10, 0x3e, 0x32, 0x29, 0x11, 0x3e, 0xdf, 0xfe, 0x89, 0x3e, 0xab, 0x0f, 0x92, 0x3e, 0xc3, 0xb3, 0xa4, 0x3e, 0xfb, 0x15, 0x0a, 0xbe, 0x8b, 0xa0, 0x15, 0xbd, 0x4f, 0x6a, 0xc2, 0xbd, 
0x9c, 0xa7, 0x19, 0xbd, 0xd1, 0x34, 0x95, 0xbd, 0xfb, 0xe7, 0x4d, 0xbe, 0x98, 0xdf, 0x44, 0xbd, 0x06, 0xcf, 0x3a, 0x3d, 0x9e, 0x99, 0x9b, 0x3d, 0x25, 0xc5, 0x64, 0x3e, 0xa8, 0xda, 0xd7, 0xbd, 
0xfc, 0xc7, 0xc4, 0xbe, 0xa8, 0x73, 0xc0, 0xbe, 0x26, 0xa1, 0xee, 0xbc, 0xd1, 0xb0, 0x98, 0x3e, 0x6d, 0x0c, 0x24, 0x3e, 0x0b, 0xe3, 0x44, 0x3e, 0xc0, 0x96, 0xc4, 0xbe, 0xe5, 0x59, 0x19, 0xbf, 
0x47, 0x1f, 0x90, 0x3e, 0x60, 0xec, 0xac, 0x3e, 0x12, 0x65, 0x7f, 0xbe, 0x1d, 0xed, 0x94, 0xbe, 0x23, 0x82, 0xcb, 0xbe, 0xdc, 0xa9, 0x26, 0xbf, 0xb0, 0x56, 0xba, 0xbe, 0xd7, 0xb1, 0x1b, 0xbf, 
0x19, 0xa3, 0x47, 0xbe, 0xfd, 0xc7, 0xa4, 0x3d, 0xfd, 0x01, 0x83, 0xbe, 0x15, 0x6d, 0xcf, 0xbe, 0x82, 0xb6, 0xa9, 0xbe, 0xbb, 0xc7, 0x06, 0xbf, 0x06, 0x82, 0xa2, 0xbe, 0x04, 0x86, 0x3d, 0xbe, 
0x02, 0x98, 0x81, 0xbc, 0x11, 0xde, 0x36, 0x3d, 0x36, 0x97, 0xb5, 0xbd, 0x03, 0x48, 0x5b, 0x3e, 0xf1, 0x10, 0x5b, 0xbe, 0x2c, 0x6a, 0x12, 0xbd, 0xf3, 0xec, 0x46, 0x3d, 0xf0, 0x6b, 0x00, 0x3e, 
0x2b, 0xb5, 0xe0, 0xbd, 0x4f, 0x8c, 0x33, 0xbf, 0x8a, 0x1f, 0xe0, 0xbe, 0x94, 0x32, 0x12, 0xbe, 0x77, 0x69, 0x00, 0xbf, 0x10, 0x51, 0x86, 0xbd, 0xf6, 0x8c, 0x39, 0xbe, 0x0e, 0x00, 0x07, 0x3e, 
0xc8, 0x5e, 0x15, 0x3d, 0xcb, 0x6c, 0xc1, 0x3c, 0xbe, 0x82, 0x15, 0x3d, 0x57, 0x70, 0xdd, 0x3d, 0x8d, 0x03, 0x97, 0x3d, 0x4d, 0x38, 0x29, 0x3d, 0x17, 0x18, 0xa9, 0xbc, 0x74, 0x1e, 0x53, 0x3e, 
0x86, 0xe8, 0xe4, 0x3d, 0xaa, 0x58, 0x06, 0x3e, 0x03, 0xe6, 0x13, 0x3d, 0x92, 0xbe, 0x16, 0x3e, 0xac, 0xfc, 0xac, 0x3d, 0x26, 0xee, 0x88, 0x3e, 0xe0, 0x05, 0xa4, 0x3e, 0x96, 0x95, 0xef, 0x3d, 
0x53, 0x76, 0x9e, 0x3d, 0xd9, 0xd4, 0x7a, 0x3e, 0x90, 0xb4, 0xee, 0xbd, 0x36, 0x98, 0xde, 0x3d, 0x02, 0x95, 0x00, 0x3d, 0x6e, 0x37, 0x11, 0x3d, 0x02, 0x1d, 0x2a, 0xbe, 0xc7, 0x8b, 0x47, 0xbd, 
0x72, 0xc0, 0x44, 0xbd, 0x13, 0x7c, 0xb1, 0xbd, 0x6a, 0x68, 0xc2, 0x3d, 0x8a, 0xdb, 0x8c, 0xbd, 0xd1, 0xa7, 0xc7, 0x3d, 0xb6, 0xa7, 0x8c, 0xbd, 0x71, 0xd7, 0xb3, 0x3d, 0x63, 0x80, 0x12, 0x3e, 
0x28, 0x7f, 0xbb, 0x3c, 0x88, 0x22, 0xa3, 0x3d, 0xd3, 0x6e, 0x89, 0xbd, 0x5f, 0x50, 0xdb, 0xbc, 0xcc, 0xd0, 0x90, 0xbd, 0x91, 0x9a, 0x6c, 0xbe, 0x06, 0x73, 0x19, 0xbc, 0x44, 0x14, 0x29, 0xbd, 
0x9d, 0x97, 0x17, 0x3d, 0xa9, 0xf2, 0x12, 0x3d, 0x2d, 0x0b, 0x71, 0xbc, 0x4b, 0xb6, 0xa5, 0x3d, 0x19, 0x28, 0xdb, 0x3c, 0x03, 0xa9, 0x85, 0xbd, 0xb7, 0x8f, 0x3c, 0xbe, 0x4d, 0xd7, 0xdd, 0x3d, 
0xe6, 0x28, 0xb9, 0x3d, 0x42, 0x5c, 0xb2, 0x3d, 0x5d, 0xe6, 0x31, 0x3d, 0x40, 0x17, 0x3b, 0x3e, 0x7b, 0x8a, 0x28, 0xbe, 0x63, 0x5c, 0xe7, 0x3d, 0xc9, 0x92, 0x17, 0x3d, 0xf0, 0xfe, 0x4f, 0xbd, 
0x58, 0xd9, 0x8c, 0x3e, 0x28, 0x0e, 0x44, 0xbe, 0xa0, 0xd1, 0xf5, 0xbd, 0x48, 0x4a, 0x8b, 0x3e, 0x58, 0xd8, 0x63, 0xbe, 0x60, 0x39, 0x3a, 0x3e, 0xc6, 0x08, 0x82, 0xbd, 0x9f, 0x6f, 0x12, 0x3e, 
0xe1, 0xd1, 0x6d, 0x3b, 0x4e, 0x10, 0xce, 0xbd, 0xa2, 0x2d, 0xc4, 0xbc, 0x1d, 0x8e, 0x33, 0x3d, 0xd3, 0x11, 0x83, 0x3d, 0x72, 0x82, 0x49, 0x3c, 0x09, 0x89, 0x9d, 0x3c, 0x6a, 0x4d, 0xa8, 0x3d, 
0xf9, 0xa2, 0xf9, 0xbc, 0x8f, 0xb9, 0xc7, 0x3c, 0x98, 0xd6, 0x3a, 0xbd, 0xdc, 0x6f, 0x10, 0x3e, 0x46, 0x66, 0xe6, 0xbd, 0x52, 0x09, 0x84, 0x3d, 0x96, 0xfb, 0xf9, 0x3d, 0x7e, 0x2d, 0xa6, 0xbc, 
0xe6, 0x34, 0x24, 0xbe, 0x7e, 0x73, 0x79, 0x3e, 0x2f, 0xcf, 0x00, 0xbd, 0x99, 0xa1, 0x80, 0x3d, 0x6b, 0x5c, 0xad, 0x3d, 0x0b, 0x35, 0x75, 0xbd, 0xf0, 0x3d, 0x9c, 0xbd, 0x1b, 0x99, 0xe0, 0x3d, 
0xcb, 0xae, 0x1e, 0xbd, 0xee, 0x32, 0x38, 0x3d, 0x7e, 0x8f, 0xf4, 0x3c, 0x67, 0xea, 0x1b, 0x3d, 0x36, 0x48, 0xd7, 0x3a, 0x2d, 0x26, 0xb0, 0xbd, 0xd4, 0x1d, 0x05, 0x3d, 0x60, 0xb6, 0x08, 0x3e, 
0x2e, 0xe0, 0x99, 0x3d, 0x0f, 0xef, 0x31, 0x3e, 0x4f, 0xcb, 0xb7, 0x3e, 0x7d, 0x04, 0xd9, 0x3e, 0x3c, 0xb5, 0x82, 0x3e, 0x09, 0xd4, 0x8a, 0x3e, 0x50, 0x57, 0xc3, 0xbc, 0x9b, 0xdf, 0x89, 0x3e, 
0x81, 0xd7, 0x5f, 0x3e, 0x7e, 0x8e, 0x43, 0x3c, 0xda, 0x97, 0x44, 0xbe, 0x62, 0x12, 0x8a, 0x3d, 0x7e, 0xbd, 0x97, 0x3d, 0xf0, 0x9b, 0xbb, 0xbd, 0x0d, 0xed, 0x5a, 0xbe, 0xca, 0xe9, 0xdd, 0xbe, 
0x82, 0x82, 0xc5, 0xbe, 0xa3, 0x67, 0x1c, 0xbe, 0x87, 0x35, 0x14, 0x3e, 0xce, 0xb4, 0x9c, 0x3d, 0x3a, 0x6b, 0xa0, 0xbc, 0x72, 0xa5, 0x21, 0xbe, 0xa8, 0x83, 0x05, 0xbf, 0x32, 0x58, 0x7a, 0xbe, 
0x0a, 0x23, 0x94, 0xbe, 0x33, 0x65, 0x94, 0x3e, 0xb4, 0xc1, 0x98, 0x3e, 0x56, 0x72, 0xf3, 0x3d, 0x95, 0xa6, 0xa7, 0x3d, 0xf0, 0xff, 0xf2, 0xbe, 0xf2, 0xe2, 0x74, 0xbe, 0x7f, 0x24, 0x3c, 0xbc, 
0xc5, 0xb7, 0xd6, 0xbe, 0x3e, 0x5f, 0xb7, 0xbe, 0x39, 0xbe, 0xdf, 0xbe, 0x7d, 0x07, 0x9d, 0xbe, 0x36, 0xa9, 0x1d, 0xbe, 0xe8, 0x7e, 0x2b, 0x3e, 0x68, 0x0e, 0xd4, 0x3c, 0x31, 0xd2, 0x87, 0xbd, 
0x1f, 0x4e, 0x36, 0xbe, 0x45, 0x7f, 0x4c, 0xbe, 0xe8, 0x3b, 0x31, 0x3d, 0x9f, 0x13, 0x1f, 0x3e, 0x3e, 0x0d, 0x41, 0x3e, 0x76, 0xb4, 0x42, 0x3e, 0xf2, 0x42, 0x96, 0xbc, 0x6e, 0x10, 0xe7, 0xbd, 
0x11, 0xb9, 0xa2, 0x3d, 0xb3, 0x77, 0x5d, 0xbd, 0xeb, 0x37, 0xc2, 0x3c, 0x96, 0x8d, 0xb2, 0xbd, 0x31, 0xb1, 0x80, 0xbd, 0x57, 0xe2, 0xbd, 0x3e, 0x35, 0xf9, 0xee, 0x3e, 0xec, 0x08, 0x4b, 0x3e, 
0x79, 0x47, 0x4e, 0xbe, 0x80, 0xa4, 0x7b, 0xbe, 0xff, 0x3b, 0x0f, 0xbd, 0x97, 0xc2, 0x18, 0x3e, 0x42, 0xbe, 0xd2, 0x3e, 0x11, 0x80, 0xec, 0x3e, 0xb4, 0x09, 0x4c, 0x3e, 0xb3, 0x31, 0xe4, 0xbd, 
0xa2, 0xb6, 0xee, 0x3c, 0x57, 0x53, 0x69, 0x3e, 0x42, 0xcd, 0xfb, 0x3e, 0x8b, 0x63, 0x36, 0x3e, 0x70, 0x0d, 0x5c, 0xbe, 0xd9, 0x2d, 0x4a, 0xbe, 0x08, 0x09, 0xa9, 0xbe, 0x94, 0x0a, 0x3d, 0xbd, 
0xf3, 0x68, 0x9e, 0xbd, 0x7e, 0xc8, 0xf9, 0xbd, 0x29, 0x21, 0x0e, 0xbe, 0x02, 0xa9, 0x40, 0x3d, 0xe6, 0xe8, 0x15, 0x3e, 0x06, 0x25, 0x14, 0xbe, 0x31, 0x32, 0x22, 0xbe, 0xf4, 0x86, 0x76, 0xbe, 
0xcb, 0xf1, 0x40, 0xbe, 0xdf, 0x6d, 0xa2, 0x3e, 0xda, 0xf7, 0x46, 0x3e, 0xc5, 0xc7, 0x59, 0x3e, 0x37, 0x1c, 0x0e, 0xbc, 0x63, 0xc8, 0xc2, 0xbb, 0x4f, 0xdc, 0x8d, 0xbd, 0xe1, 0x4a, 0xfd, 0x3d, 
0x1b, 0xb6, 0xcf, 0x3c, 0x2b, 0x2c, 0xf3, 0x3d, 0xea, 0xe3, 0x23, 0xbc, 0xee, 0x4d, 0x62, 0xbe, 0x96, 0x78, 0xe1, 0x3c, 0xae, 0x22, 0x1f, 0x3e, 0x05, 0xc1, 0x10, 0x3e, 0x07, 0x6f, 0x06, 0xbd, 
0x0c, 0x51, 0x20, 0xbe, 0xbe, 0x8e, 0xd2, 0xbe, 0xb9, 0x63, 0x1c, 0xbf, 0xf0, 0x19, 0x87, 0x3d, 0x93, 0xa0, 0x86, 0x3e, 0x40, 0x5c, 0x76, 0x3e, 0x91, 0xc7, 0xd5, 0x3e, 0x24, 0xa9, 0xb5, 0x3d, 
0x1f, 0x13, 0x7c, 0x3e, 0xd0, 0x7e, 0x25, 0xbd, 0x16, 0xed, 0x32, 0xbe, 0x97, 0x47, 0x81, 0xbe, 0x03, 0x78, 0xcc, 0xbd, 0x75, 0xd1, 0xde, 0x3d, 0x38, 0x66, 0x01, 0x3e, 0x5d, 0x50, 0xed, 0xbc, 
0xe8, 0xe1, 0x0b, 0xbe, 0x3a, 0x30, 0x0a, 0xbf, 0x13, 0x12, 0xf4, 0xbd, 0x11, 0xbc, 0x87, 0x3e, 0xf6, 0xec, 0x21, 0x3d, 0x8c, 0xbd, 0xc3, 0x3e, 0x28, 0x89, 0x37, 0xbc, 0x30, 0x40, 0x0f, 0xbe, 
0x7d, 0x28, 0x14, 0xbe, 0xbe, 0xe2, 0xc1, 0x3d, 0xa5, 0x73, 0xb1, 0x3c, 0x62, 0x9e, 0x60, 0x3e, 0x29, 0x19, 0x1d, 0xbd, 0x6e, 0x62, 0x76, 0xbe, 0x75, 0xba, 0xa9, 0xbc, 0x27, 0x9e, 0xb2, 0x3d, 
0x90, 0x11, 0x85, 0x3d, 0x03, 0xc3, 0x06, 0x3d, 0xc8, 0xef, 0x07, 0x3b, 0xcd, 0x1d, 0x55, 0xbe, 0x14, 0xb0, 0x4b, 0xbd, 0x33, 0x47, 0x9c, 0xbd, 0xc6, 0x70, 0xbb, 0xbd, 0x2c, 0x1b, 0x4c, 0xbe, 
0xcd, 0x39, 0x22, 0xbe, 0x31, 0x43, 0x1c, 0xbd, 0xfd, 0x2b, 0x3a, 0xbd, 0x2a, 0xfc, 0x55, 0x3d, 0x37, 0xab, 0x0f, 0xbe, 0x45, 0x7a, 0xb8, 0xbd, 0x2d, 0xe0, 0x2d, 0xbe, 0x1a, 0x21, 0xc7, 0x3c, 
0x1e, 0xc5, 0xb7, 0x3d, 0xb5, 0x5a, 0x6d, 0xbd, 0x9e, 0xa7, 0xe7, 0x3b, 0x8b, 0xe5, 0xb5, 0xbd, 0x4b, 0x9f, 0x2a, 0xbe, 0x0c, 0xb2, 0xa4, 0x3c, 0x61, 0x64, 0x46, 0xbd, 0x29, 0x83, 0x75, 0xbd, 
0xa4, 0xf0, 0xa8, 0x3e, 0xdf, 0x12, 0x99, 0x3d, 0x11, 0x0b, 0xd8, 0xbd, 0x1b, 0x4d, 0x3f, 0x3e, 0xf5, 0x62, 0xf5, 0xbd, 0x89, 0x97, 0x01, 0x3e, 0xd1, 0xc0, 0xdc, 0xbd, 0x9f, 0xfc, 0x7c, 0x3d, 
0xcf, 0xcb, 0xb8, 0x3b, 0x8d, 0x76, 0x57, 0xbe, 0x67, 0x22, 0xbf, 0x3c, 0x30, 0x31, 0xbc, 0x3c, 0xdd, 0x8a, 0x44, 0x3d, 0xc8, 0xa9, 0x78, 0x3b, 0x7f, 0x73, 0x41, 0xbd, 0xe3, 0xea, 0x80, 0xbc, 
0x49, 0xb5, 0x69, 0xbd, 0x1e, 0x01, 0xaa, 0x39, 0x0a, 0x11, 0xb9, 0xba, 0x79, 0x57, 0xe7, 0xbc, 0x7a, 0x26, 0x86, 0xbd, 0x48, 0xd9, 0x19, 0x3e, 0x06, 0xe3, 0x5d, 0x3e, 0xe5, 0xa6, 0x1e, 0x3e, 
0xc3, 0x31, 0xd6, 0xbd, 0xb4, 0xea, 0x9f, 0xbc, 0xe0, 0x7d, 0x11, 0xbd, 0x58, 0x2c, 0xd3, 0xbc, 0x43, 0x78, 0x10, 0xbd, 0xe3, 0x23, 0x60, 0xbe, 0xde, 0x21, 0x6b, 0xbd, 0xfb, 0xbf, 0xc0, 0x3c, 
0x5c, 0x37, 0x7a, 0xbd, 0x4d, 0xa4, 0xc2, 0xbd, 0x8d, 0xb6, 0x8e, 0x3d, 0xe7, 0xdf, 0xc1, 0xbd, 0xb5, 0xa5, 0x05, 0xbe, 0x38, 0xf4, 0x14, 0x3c, 0x16, 0xda, 0xa7, 0xbc, 0x48, 0x80, 0x52, 0x3d, 
0x89, 0xb3, 0x70, 0x3e, 0x2f, 0x97, 0x8e, 0x3e, 0xfe, 0x47, 0x91, 0x3d, 0xe5, 0xab, 0xb4, 0x3c, 0xcf, 0x56, 0xc4, 0x3d, 0x34, 0xbe, 0x45, 0xbe, 0xe8, 0x81, 0x45, 0x3e, 0x4d, 0x54, 0x8f, 0x3d, 
0xfc, 0xa3, 0xf0, 0x3c, 0x38, 0x99, 0xab, 0x3d, 0xfd, 0x36, 0x4e, 0x3e, 0xae, 0x40, 0xe5, 0x3c, 0xfc, 0x13, 0xb4, 0xbd, 0x73, 0xc7, 0x0d, 0xbe, 0x88, 0x45, 0x29, 0xbc, 0x39, 0x2a, 0x4c, 0x3e, 
0x35, 0x6b, 0x6e, 0x3d, 0x0d, 0x14, 0x17, 0x3e, 0xde, 0x6a, 0x0f, 0x3b, 0xb0, 0xf3, 0x50, 0x3e, 0xca, 0x70, 0xd1, 0x3b, 0xdb, 0x9b, 0x34, 0x3e, 0xd3, 0x63, 0xbc, 0x3d, 0x63, 0x04, 0x4a, 0xbb, 
0x0d, 0x40, 0xc9, 0x3e, 0xb0, 0x12, 0x10, 0xbd, 0xbd, 0x16, 0x0b, 0xbd, 0x11, 0x68, 0x0f, 0x3e, 0x22, 0x2d, 0xa1, 0xbd, 0x75, 0xbe, 0x3c, 0x3e, 0x50, 0xf5, 0x05, 0x3e, 0xbb, 0xc2, 0x80, 0x3e, 
0xc5, 0xf1, 0x60, 0x3e, 0x26, 0x85, 0xc5, 0x3d, 0x42, 0x1e, 0x01, 0x3e, 0x0b, 0xdc, 0x13, 0x3e, 0x08, 0x88, 0x7d, 0x3e, 0x1a, 0xa6, 0x2d, 0xbc, 0xb5, 0x89, 0xd2, 0x3c, 0x91, 0x0c, 0x7c, 0x3e, 
0x38, 0x40, 0x43, 0x3d, 0xa2, 0xab, 0x44, 0x3e, 0x79, 0x60, 0x0d, 0x3e, 0xd5, 0x34, 0x82, 0x3e, 0xd5, 0x06, 0xd4, 0x3d, 0x00, 0xac, 0x8f, 0x3d, 0x51, 0x15, 0x96, 0x3e, 0x6b, 0x73, 0xf5, 0x3d, 
0xf8, 0x68, 0x1a, 0x3e, 0x10, 0x11, 0x5e, 0x3e, 0x11, 0x0b, 0x0f, 0xbb, 0xb9, 0x5b, 0x04, 0x3e, 0xea, 0xae, 0xd0, 0x3d, 0xf3, 0xed, 0x06, 0xbe, 0xe3, 0x5e, 0xf0, 0x3d, 0x9f, 0xe9, 0xaf, 0x3d, 
0x96, 0xfd, 0x3c, 0xbe, 0x46, 0x60, 0xbc, 0x3d, 0xfb, 0xd4, 0x84, 0x3d, 0xa4, 0xb2, 0x18, 0xbd, 0xc7, 0x65, 0x38, 0x3e, 0x83, 0xfe, 0x99, 0x3d, 0x70, 0x95, 0xa3, 0x3b, 0xd1, 0xef, 0x30, 0x3e, 
0xc2, 0xfe, 0x03, 0x3e, 0x29, 0x6a, 0xd3, 0x3d, 0xed, 0x5d, 0x9a, 0x3e, 0x47, 0xe9, 0x0b, 0x3e, 0x46, 0x04, 0x9b, 0x3e, 0xe2, 0x9e, 0x58, 0x3e, 0x24, 0x82, 0x81, 0xbd, 0x63, 0x0c, 0x9a, 0x3e, 
0x00, 0xe5, 0x4b, 0x3d, 0x23, 0x99, 0xc8, 0x3c, 0x24, 0xea, 0x92, 0x3d, 0x71, 0x66, 0x8c, 0x3d, 0x99, 0x72, 0x3f, 0x3b, 0x52, 0x9e, 0x05, 0xbd, 0x97, 0xdb, 0xce, 0xbe, 0x04, 0x1f, 0xb5, 0xbe, 
0x87, 0xa3, 0xeb, 0xbe, 0xa7, 0x1e, 0xbd, 0xbe, 0xd2, 0xd8, 0x0b, 0xbb, 0xf3, 0x10, 0x55, 0xbd, 0x67, 0xc0, 0x1f, 0xbd, 0xb3, 0xd6, 0x46, 0xbd, 0x97, 0xa8, 0xca, 0x3b, 0x8c, 0x9a, 0x4e, 0x3e, 
0x5c, 0xcd, 0xef, 0xbd, 0xd2, 0xac, 0x3c, 0x3e, 0x1b, 0x8c, 0x85, 0x3c, 0xa3, 0xe4, 0x0b, 0x3d, 0x91, 0x8b, 0xd4, 0x3c, 0x77, 0xfb, 0xbc, 0xbe, 0xd2, 0x97, 0xd6, 0x3b, 0x69, 0x1e, 0xd4, 0x3d, 
0x0f, 0xda, 0xd3, 0xbe, 0xa8, 0x25, 0xec, 0xbe, 0xde, 0x8c, 0xd7, 0xbe, 0x79, 0x3d, 0xfd, 0xbd, 0xaf, 0xeb, 0x3f, 0xbe, 0x3e, 0x06, 0x9d, 0x3e, 0xa0, 0xc2, 0xac, 0x3e, 0x85, 0x2b, 0x87, 0x3e, 
0x46, 0x39, 0xc2, 0x3d, 0x39, 0x3c, 0xbb, 0x3c, 0x4a, 0xc7, 0x9b, 0xbc, 0x36, 0x9c, 0xc9, 0xbd, 0x0e, 0xb7, 0x7a, 0x3d, 0x9b, 0xa6, 0x37, 0x3e, 0xea, 0x49, 0x1a, 0x3e, 0x1b, 0x8b, 0x8c, 0x3e, 
0xc6, 0xf8, 0x7e, 0x3e, 0x5a, 0xa9, 0x7b, 0xbc, 0x90, 0x80, 0x13, 0x3e, 0xff, 0xd8, 0x7b, 0xbd, 0x09, 0xcd, 0x20, 0xbe, 0x01, 0x57, 0x23, 0x3e, 0x88, 0x50, 0x11, 0x3d, 0x65, 0x66, 0xa6, 0xbd, 
0x6b, 0xc1, 0x09, 0xbe, 0xf5, 0xc0, 0x97, 0xbc, 0x14, 0xfc, 0x00, 0xbe, 0x08, 0xaa, 0x19, 0x3e, 0xa3, 0xe0, 0x63, 0x3e, 0x99, 0xfa, 0x8a, 0x3e, 0xaf, 0xf2, 0x19, 0xbd, 0x9b, 0x4c, 0x05, 0xbf, 
0x48, 0xab, 0x4a, 0xbe, 0xbc, 0xb7, 0xcc, 0xbc, 0xe9, 0xab, 0x32, 0x3e, 0x96, 0xe1, 0x83, 0x3e, 0x22, 0x03, 0x7d, 0xbe, 0xee, 0xf0, 0xb9, 0xbe, 0x15, 0xfb, 0x19, 0xbf, 0x2c, 0xd5, 0xe2, 0xbd, 
0x65, 0xe5, 0x49, 0xbe, 0x05, 0xb3, 0x66, 0xbd, 0xbc, 0x93, 0x0f, 0xbe, 0xcb, 0x72, 0x38, 0xbe, 0x5e, 0xb5, 0xe8, 0x3d, 0x81, 0xe0, 0x7c, 0x3e, 0x6e, 0x39, 0xa1, 0x3d, 0xd6, 0xf8, 0x08, 0x3d, 
0x8f, 0x04, 0x8a, 0xbe, 0x45, 0x06, 0x2f, 0xbe, 0x6e, 0x41, 0xfe, 0x3d, 0xad, 0x6b, 0x03, 0xbd, 0x3f, 0x20, 0x1a, 0x3e, 0xd3, 0x78, 0xef, 0xbd, 0x52, 0xd0, 0x37, 0xbd, 0xc0, 0x81, 0x8b, 0x3d, 
0x7d, 0x01, 0x8c, 0xbe, 0xb4, 0x93, 0xfd, 0x3c, 0xe3, 0x20, 0x2c, 0x3e, 0x61, 0xe0, 0x4d, 0x3e, 0x35, 0x1c, 0x74, 0x3e, 0x8b, 0x24, 0x85, 0xb9, 0x66, 0x52, 0x2f, 0xbd, 0xcd, 0xfd, 0x7f, 0xbe, 
0x04, 0x44, 0x88, 0xbe, 0x22, 0x53, 0x3c, 0xbe, 0x8d, 0x8b, 0x82, 0xbe, 0x1d, 0x13, 0x41, 0x3d, 0xb8, 0xd8, 0xbd, 0x3e, 0x3f, 0x7e, 0x2c, 0x3f, 0xdd, 0x0e, 0x0a, 0x3f, 0x82, 0xa3, 0x1b, 0xbd, 
0x0c, 0xf2, 0xac, 0xbc, 0x38, 0x3b, 0x16, 0xbe, 0xbb, 0x7a, 0x55, 0x3d, 0x54, 0xbd, 0x9a, 0x3b, 0x4b, 0x12, 0x00, 0xbd, 0x99, 0x39, 0x68, 0xbd, 0x4e, 0xb1, 0xe9, 0xbb, 0xf8, 0x37, 0xf8, 0x3c, 
0x3b, 0x20, 0x5e, 0x3e, 0x38, 0x72, 0xb6, 0x3d, 0xb7, 0xaf, 0xca, 0x3d, 0x93, 0x32, 0xa5, 0xbe, 0x39, 0xf1, 0xb1, 0xbe, 0xb2, 0x22, 0x3e, 0xbe, 0xfc, 0xb8, 0x8f, 0x3d, 0x0d, 0xfc, 0x32, 0x3e, 
0x6a, 0xf1, 0x81, 0x3e, 0x77, 0x5a, 0x87, 0x3d, 0xef, 0x01, 0x93, 0xbe, 0x78, 0xfb, 0x8a, 0xbe, 0xdd, 0xf7, 0xa4, 0xbe, 0xf3, 0x65, 0x1a, 0xbe, 0xfa, 0x20, 0x42, 0x3d, 0xc7, 0x1e, 0xe2, 0x3d, 
0xa0, 0x61, 0x4a, 0x3e, 0x0e, 0xfc, 0x1c, 0x3e, 0x14, 0x2b, 0x38, 0x3e, 0xc6, 0xff, 0x2f, 0x3e, 0xc9, 0x1d, 0x43, 0x3e, 0x2e, 0x83, 0x92, 0x3e, 0x2c, 0x33, 0x76, 0x3d, 0x16, 0xbb, 0x54, 0x3c, 
0x06, 0x79, 0x75, 0xbb, 0xa6, 0x5c, 0xf8, 0x3d, 0x92, 0x99, 0xac, 0x3d, 0xc6, 0xec, 0x40, 0xbd, 0xa3, 0x3f, 0x0d, 0x3e, 0x04, 0x7e, 0x3c, 0xbd, 0x34, 0xc4, 0xd8, 0x3c, 0x34, 0xb2, 0x63, 0xbd, 
0x68, 0x69, 0xbe, 0xbd, 0x5a, 0x24, 0x2a, 0xbe, 0xc7, 0xd3, 0x33, 0xbe, 0xc9, 0x52, 0xa6, 0x3c, 0xca, 0x91, 0x31, 0x3e, 0xc4, 0x7c, 0x84, 0xbe, 0x62, 0x31, 0xca, 0xbd, 0x5e, 0xa4, 0x0c, 0xbe, 
0xd4, 0xe4, 0x04, 0xbf, 0x09, 0x4c, 0x8a, 0xbe, 0x8a, 0x7a, 0x0a, 0x3e, 0xa3, 0x01, 0xa5, 0x3d, 0x5f, 0x2a, 0x9a, 0x3e, 0x6b, 0x69, 0x8a, 0xbd, 0x00, 0x3a, 0x85, 0xbe, 0x0a, 0x83, 0xcf, 0xbe, 
0xe4, 0x62, 0xc5, 0xbd, 0xc5, 0x28, 0xa3, 0x3d, 0x06, 0xf2, 0xc6, 0x3d, 0x3e, 0x97, 0xe3, 0xbd, 0xc1, 0xe1, 0x5a, 0xbe, 0xec, 0xf9, 0xf2, 0x3d, 0x59, 0x6e, 0x35, 0x3c, 0xc6, 0x4e, 0x66, 0x3b, 
0x15, 0x25, 0x27, 0x3e, 0xd3, 0x7d, 0x8c, 0xbd, 0xb3, 0xa7, 0xa7, 0xbc, 0xd3, 0x61, 0xf1, 0xbd, 0x0f, 0x42, 0x85, 0xbc, 0xe9, 0x94, 0x03, 0x3e, 0xb0, 0x74, 0x8e, 0xbd, 0x59, 0xe9, 0x23, 0x3c, 
0x61, 0xf0, 0xad, 0xbd, 0x63, 0xf3, 0xaf, 0xbd, 0xc7, 0xdb, 0x65, 0x3e, 0xf1, 0x07, 0x67, 0xbd, 0xfc, 0xd4, 0x9a, 0xbe, 0x59, 0xe2, 0xa9, 0xbd, 0x49, 0xbe, 0x34, 0x3b, 0x66, 0xa8, 0x17, 0x3e, 
0x22, 0x2b, 0xdd, 0x3e, 0xb5, 0xb7, 0x81, 0x3e, 0xc7, 0x45, 0x8d, 0xbe, 0xa9, 0x07, 0xf2, 0xbe, 0xda, 0xaa, 0xbe, 0xbe, 0xe9, 0xb9, 0x52, 0x3e, 0xdb, 0x6f, 0x63, 0x3e, 0x09, 0x14, 0xb4, 0x3e, 
0x40, 0xe8, 0x16, 0x3a, 0x18, 0xc1, 0x36, 0x3e, 0xbb, 0x44, 0x3d, 0xbd, 0x18, 0x55, 0x22, 0x3e, 0xe1, 0x8e, 0xb3, 0xbb, 0x88, 0x05, 0xff, 0x3d, 0x26, 0x1e, 0x88, 0x3e, 0x0a, 0xce, 0x84, 0x3d, 
0x33, 0x44, 0x37, 0x3e, 0xf7, 0x33, 0x78, 0x3d, 0xbc, 0x46, 0x15, 0x3e, 0x11, 0x15, 0xe9, 0x3d, 0xf9, 0x36, 0x27, 0xbd, 0xe1, 0xbc, 0x4e, 0xbb, 0xaa, 0xfe, 0xa3, 0x3d, 0xaf, 0xdf, 0x27, 0x3d, 
0xe7, 0x4c, 0xbd, 0x3d, 0x4f, 0x40, 0xdb, 0xbc, 0x3f, 0x4e, 0x5f, 0x3d, 0x55, 0x4e, 0xb3, 0x3d, 0xb6, 0x18, 0x22, 0xbd, 0x91, 0x2b, 0xe1, 0x3d, 0xfd, 0xe7, 0x27, 0x3e, 0x9f, 0x72, 0xa1, 0x3d, 
0x4e, 0x48, 0x37, 0x3e, 0x6c, 0xfc, 0x6e, 0x3e, 0x49, 0xea, 0xd4, 0x3d, 0x12, 0x1a, 0x53, 0x3e, 0xbf, 0xb1, 0x1b, 0x3e, 0x35, 0x92, 0x2e, 0x3e, 0x14, 0xc5, 0xf1, 0x3c, 0xff, 0x12, 0x16, 0x3e, 
0x1e, 0x1e, 0x76, 0xbd, 0x60, 0x9d, 0xd0, 0x3d, 0x11, 0xde, 0x96, 0xbd, 0x90, 0x04, 0x5c, 0xbe, 0x16, 0xd4, 0x86, 0xbd, 0x5e, 0x03, 0x9e, 0xbe, 0x08, 0xd9, 0x5b, 0xbe, 0xcb, 0x2b, 0x0f, 0xbe, 
0x1f, 0x96, 0x5b, 0xbe, 0x66, 0x3c, 0x6b, 0xbe, 0xd8, 0xb5, 0xa9, 0xbe, 0x1d, 0x83, 0x88, 0xbe, 0x81, 0xbc, 0x06, 0xbe, 0x83, 0xf8, 0x8b, 0xbe, 0x60, 0x4b, 0xd5, 0xbd, 0x16, 0xf9, 0x0d, 0x3d, 
0x6e, 0x02, 0x81, 0xbd, 0xc4, 0x87, 0xf8, 0x3d, 0x0f, 0x45, 0x03, 0xbe, 0x21, 0x41, 0x5d, 0xbe, 0x01, 0x26, 0x71, 0xbe, 0xc1, 0x40, 0x8a, 0xbe, 0x63, 0x46, 0x30, 0xbe, 0x92, 0x4c, 0x87, 0xbc, 
0x5d, 0x3d, 0x7e, 0xbe, 0xb0, 0x2b, 0x45, 0xbe, 0xf4, 0x08, 0xa6, 0xbe, 0x36, 0xc2, 0xa7, 0xbe, 0x06, 0x63, 0x7b, 0xbd, 0x11, 0xf2, 0xb6, 0xbe, 0xb1, 0x4f, 0x8b, 0xbe, 0x7b, 0x6b, 0x01, 0xbe, 
0x50, 0xa1, 0xd3, 0xba, 0x85, 0xd3, 0x26, 0xbd, 0x76, 0xe3, 0xfb, 0xb8, 0xdc, 0xd0, 0x0d, 0xbe, 0x21, 0xc0, 0x1a, 0x3e, 0x22, 0x6b, 0x8c, 0xbe, 0xba, 0x43, 0xa6, 0xbc, 0x6a, 0x4a, 0x8b, 0xbe, 
0xbf, 0xb6, 0x19, 0xbe, 0x73, 0xa0, 0xff, 0xbd, 0x26, 0x8a, 0x0c, 0x3e, 0x9b, 0x68, 0x02, 0xbe, 0x2d, 0x8d, 0x1f, 0xbe, 0x40, 0xc1, 0xb2, 0xbe, 0x7e, 0xcb, 0x5b, 0xbd, 0x0f, 0xbc, 0x61, 0xbe, 
0x54, 0x25, 0x29, 0xbe, 0xbf, 0xac, 0x77, 0xbe, 0xe4, 0x36, 0x88, 0xbe, 0xe0, 0x47, 0x38, 0x3e, 0x2a, 0xf7, 0x5e, 0x3e, 0x63, 0x74, 0xd7, 0x3e, 0x7a, 0x40, 0x75, 0x3e, 0xce, 0x44, 0x8e, 0x3e, 
0xef, 0xe4, 0xc0, 0x3e, 0x91, 0x02, 0xa1, 0xbd, 0x13, 0x31, 0x1b, 0xbc, 0x9b, 0x17, 0xf3, 0x3d, 0x60, 0xcc, 0xf1, 0xbc, 0xeb, 0x40, 0xca, 0x3d, 0x13, 0xcd, 0xcc, 0x3d, 0x74, 0x21, 0x90, 0x3e, 
0x36, 0x04, 0x82, 0x3e, 0x6a, 0x5a, 0x47, 0x3e, 0x66, 0x42, 0xbd, 0x3a, 0x47, 0x22, 0x10, 0x3d, 0xbe, 0xdd, 0x6a, 0x3e, 0x64, 0xa3, 0xcf, 0x3c, 0x3d, 0x86, 0xc5, 0x3d, 0x5f, 0x47, 0xe8, 0x3d, 
0x1f, 0xf8, 0x42, 0x3e, 0xb0, 0x1c, 0x54, 0x3e, 0xde, 0x9f, 0x8d, 0xbd, 0x01, 0xb9, 0x75, 0xbd, 0x49, 0x1d, 0x19, 0x3e, 0x02, 0x96, 0xb2, 0x3e, 0xc1, 0x5a, 0x04, 0x3f, 0x9f, 0x8f, 0xd2, 0x3e, 
0x1d, 0xea, 0x2a, 0x3e, 0x3b, 0x9d, 0x6c, 0x3e, 0xc2, 0xf1, 0xa1, 0x3e, 0xaf, 0x47, 0x9d, 0x3d, 0x04, 0xe5, 0x39, 0xbe, 0x02, 0x4d, 0xa4, 0xbe, 0x43, 0x64, 0x00, 0xbf, 0x66, 0xe7, 0xb9, 0xbe, 
0x4c, 0xc0, 0x05, 0xbf, 0x8c, 0xb3, 0xb7, 0xbe, 0xd1, 0x81, 0x84, 0xbe, 0xef, 0xbd, 0xb4, 0xbe, 0xb7, 0xd8, 0x1b, 0xbe, 0x0c, 0x34, 0xbf, 0xbe, 0xf4, 0xbc, 0x33, 0xbe, 0x20, 0x33, 0x8a, 0xbe, 
0xa8, 0xcc, 0xa6, 0xbe, 0x09, 0xad, 0xcf, 0xbe, 0x5a, 0x28, 0xc8, 0xbe, 0xae, 0x7d, 0x39, 0xbe, 0xa4, 0x74, 0x05, 0xbe, 0x44, 0x73, 0x4c, 0x3d, 0x46, 0xf0, 0x00, 0x3d, 0x03, 0xf9, 0x58, 0xbe, 
0xe0, 0xf1, 0xfe, 0xbb, 0x8e, 0x47, 0xd8, 0x3d, 0x27, 0x2d, 0xd2, 0xbc, 0xe5, 0xa7, 0xf5, 0xbd, 0x30, 0x6b, 0x99, 0xbc, 0xec, 0x3f, 0x9c, 0xbc, 0x0a, 0xb4, 0x46, 0x3e, 0xcc, 0xc6, 0x3f, 0x3e, 
0x40, 0xed, 0x5e, 0x3e, 0x01, 0x79, 0xda, 0x3e, 0xf9, 0x7e, 0x5b, 0x3e, 0x9e, 0xaf, 0xfe, 0xbd, 0xfe, 0x73, 0x4f, 0xbd, 0x5c, 0x33, 0x24, 0x3d, 0x5c, 0x14, 0xea, 0x3d, 0x25, 0xf3, 0x57, 0x3d, 
0x85, 0x61, 0xc4, 0x3d, 0x60, 0xb3, 0x52, 0x3d, 0x85, 0xff, 0xc6, 0x3d, 0x0b, 0xdd, 0x44, 0xbe, 0xa7, 0xfd, 0x4b, 0xbd, 0x10, 0x03, 0x09, 0xbe, 0xce, 0xea, 0xf8, 0x3d, 0xe9, 0x45, 0x01, 0x3e, 
0x94, 0xd5, 0x44, 0x3d, 0xa1, 0x6b, 0xa4, 0xbb, 0x44, 0x09, 0xeb, 0x3d, 0x7d, 0xb5, 0x0a, 0x3d, 0x06, 0x8f, 0x94, 0xbe, 0xd5, 0x75, 0xb2, 0xbe, 0x57, 0xb0, 0xa9, 0xbe, 0xd6, 0x3b, 0x62, 0xbd, 
0x75, 0xa2, 0x34, 0xbd, 0x35, 0x10, 0xcb, 0x3c, 0xb9, 0xe7, 0x7a, 0x3c, 0x21, 0xeb, 0x21, 0xbe, 0xb6, 0xe9, 0xf2, 0xbd, 0xc1, 0xb6, 0x6e, 0xbe, 0xcb, 0x1d, 0x46, 0xbe, 0x2e, 0x46, 0x82, 0xbe, 
0x55, 0xf1, 0xbc, 0xbe, 0xa9, 0x79, 0x9c, 0xbe, 0x5f, 0xca, 0x0e, 0x3e, 0xf3, 0x9c, 0x09, 0x3e, 0x75, 0x49, 0x3f, 0xbd, 0xc7, 0x3e, 0x07, 0x3d, 0x00, 0x74, 0xa6, 0xbe, 0xe2, 0x9b, 0x8c, 0xbe, 
0x04, 0xf7, 0x3c, 0xbe, 0xef, 0xe7, 0x5b, 0xbd, 0x54, 0xa8, 0xa2, 0xbe, 0xe2, 0x49, 0xf7, 0xbc, 0xd9, 0x35, 0x85, 0xbe, 0x4d, 0xc9, 0x81, 0x3d, 0x1c, 0x78, 0x27, 0x3d, 0x94, 0x59, 0xb6, 0xbd, 
0xc8, 0xf7, 0x43, 0x3e, 0xe3, 0x11, 0xc4, 0xbb, 0x82, 0x75, 0xdf, 0x3c, 0x4e, 0x94, 0xbe, 0x3d, 0xfa, 0xb7, 0x34, 0x3c, 0x0b, 0xd9, 0x52, 0x3d, 0x0f, 0x39, 0x02, 0xbe, 0xee, 0x44, 0x33, 0xbd, 
0x39, 0x7e, 0x5d, 0x3e, 0xbd, 0x26, 0x1d, 0xbc, 0x08, 0xe2, 0x06, 0x3d, 0xdd, 0xbc, 0x63, 0x3d, 0x61, 0x0a, 0x90, 0x3d, 0xc5, 0x03, 0x15, 0x3d, 0xc6, 0x53, 0x9c, 0xbd, 0x88, 0xbe, 0x53, 0xbd, 
0xae, 0x97, 0x94, 0x3d, 0x31, 0x06, 0x61, 0xbd, 0x4f, 0x1c, 0xae, 0xbd, 0x1d, 0x4a, 0x2a, 0xbe, 0xc9, 0x20, 0x2c, 0xbe, 0x21, 0x67, 0x19, 0xbe, 0x14, 0xf0, 0xdc, 0xbd, 0x86, 0xbc, 0x24, 0xbe, 
0x2f, 0xdc, 0xf7, 0xbc, 0xd4, 0x5d, 0x88, 0x3b, 0x54, 0x9c, 0x7b, 0xbd, 0x17, 0xd1, 0xbd, 0xbd, 0xa5, 0xc1, 0x17, 0x3c, 0x70, 0x5d, 0xab, 0xbd, 0xd2, 0x0e, 0x00, 0xbd, 0x07, 0x54, 0xea, 0x3c, 
0xe3, 0x01, 0x1c, 0x3e, 0x81, 0x55, 0xbf, 0x3d, 0xa1, 0x17, 0x24, 0x3e, 0x0e, 0x19, 0x81, 0xbd, 0x3d, 0xb5, 0x9c, 0xbe, 0xc7, 0xc8, 0xd4, 0xbd, 0x63, 0x3b, 0x1c, 0x3d, 0x0b, 0x29, 0xda, 0xbd, 
0xfe, 0x93, 0x71, 0xbe, 0xf1, 0xb2, 0x36, 0xbe, 0xfd, 0xe5, 0x0a, 0x3e, 0xee, 0xde, 0xbe, 0xbd, 0x1c, 0xde, 0x9a, 0xbe, 0x06, 0xb8, 0x64, 0x3d, 0x40, 0x4d, 0xa3, 0x3d, 0x97, 0x34, 0x1a, 0x3c, 
0x16, 0xd4, 0x48, 0x3d, 0x34, 0x60, 0x59, 0xbe, 0x9d, 0x21, 0xfd, 0xbd, 0xed, 0x2c, 0x9f, 0xbd, 0x0a, 0x2e, 0x31, 0xbe, 0x33, 0x78, 0x40, 0x3d, 0x36, 0x5b, 0x0e, 0x3e, 0x57, 0xae, 0xaa, 0x3d, 
0x5f, 0x31, 0x2e, 0x3d, 0x86, 0x20, 0x68, 0xbd, 0x56, 0x24, 0x47, 0xbe, 0x88, 0x1a, 0x03, 0xbe, 0xb7, 0x1d, 0x5b, 0xbd, 0xd2, 0x80, 0x45, 0xbc, 0x4c, 0x0b, 0xc5, 0xbd, 0xf8, 0xc6, 0x42, 0xbc, 
0x7c, 0xbf, 0x77, 0xbe, 0x7d, 0x55, 0x94, 0xbe, 0x42, 0x42, 0x32, 0xbd, 0x92, 0x7c, 0x87, 0x3e, 0x8e, 0x3a, 0xe4, 0x3e, 0x27, 0xb9, 0xd9, 0x3e, 0x9e, 0xcf, 0x7d, 0x3d, 0x0c, 0xed, 0x36, 0xbe, 
0xc0, 0x09, 0x17, 0xbd, 0x49, 0x4e, 0x1a, 0xbe, 0x88, 0x72, 0x21, 0x3e, 0xa3, 0x39, 0x4d, 0x3e, 0xf6, 0x56, 0x1b, 0x3e, 0xb4, 0x52, 0x37, 0xbc, 0xb5, 0x5d, 0x81, 0x3d, 0xcf, 0x36, 0x7f, 0xbd, 
0xf3, 0x05, 0xac, 0xbd, 0x3d, 0x69, 0x8d, 0x3d, 0x2b, 0xe4, 0x84, 0x3d, 0x4e, 0x60, 0x8a, 0xbe, 0x36, 0x1b, 0x79, 0xbd, 0xf6, 0xd3, 0x17, 0xbe, 0x41, 0xa0, 0x57, 0x3e, 0xc0, 0xe0, 0x79, 0x3e, 
0x7d, 0x48, 0x03, 0xbe, 0xac, 0x9e, 0x38, 0xbe, 0x98, 0x83, 0xd7, 0xbd, 0x56, 0xe4, 0x80, 0xbe, 0x35, 0x4e, 0x9b, 0x3c, 0xcf, 0xc9, 0x75, 0xbe, 0x16, 0xbc, 0xe9, 0xbd, 0xea, 0x62, 0xfe, 0xbb, 
0x16, 0x90, 0x54, 0x3d, 0xa4, 0xb3, 0xe1, 0x3d, 0x61, 0xd3, 0x81, 0xbe, 0x3b, 0x3d, 0x30, 0xbf, 0xf3, 0xe0, 0x30, 0xbf, 0x4d, 0x9d, 0x30, 0xbe, 0xe8, 0xac, 0xd2, 0xbb, 0xd8, 0x19, 0xdb, 0x3d, 
0x9a, 0x70, 0x1e, 0x3d, 0x7f, 0x57, 0xe9, 0x3a, 0x4b, 0x21, 0x6c, 0xbe, 0xc7, 0xf4, 0xcc, 0xbe, 0xc4, 0xfa, 0x45, 0xbe, 0xa1, 0x52, 0xef, 0x3c, 0x56, 0x74, 0xe7, 0xbb, 0x90, 0x6a, 0xe0, 0xbc, 
0xba, 0x28, 0x1b, 0x3e, 0xd8, 0xbd, 0x25, 0x3d, 0x6a, 0x97, 0x26, 0x3e, 0xd5, 0x03, 0x1e, 0x3e, 0xaa, 0x23, 0xa6, 0xbc, 0xf2, 0xca, 0xd2, 0x3d, 0x1b, 0xa5, 0xfc, 0x3c, 0x47, 0x7a, 0x7f, 0xbd, 
0x80, 0xd4, 0x4d, 0x3e, 0x06, 0x96, 0xab, 0x3e, 0xc5, 0x29, 0xd6, 0x3e, 0x99, 0x0e, 0xad, 0x3e, 0xb8, 0x1f, 0x34, 0x3e, 0x2b, 0xa9, 0x86, 0x3e, 0x4e, 0xfe, 0xe1, 0x3d, 0x2c, 0x30, 0x2e, 0xbe, 
0xc1, 0x04, 0xf2, 0x3c, 0x77, 0xa7, 0xed, 0xbc, 0x0b, 0x1d, 0xa4, 0xbd, 0xaf, 0x73, 0x58, 0xbe, 0xb8, 0x46, 0x65, 0xbe, 0x1d, 0x2a, 0x6f, 0x3d, 0x3a, 0x39, 0xd3, 0x3d, 0x98, 0xee, 0x0b, 0x3e, 
0x61, 0x17, 0xd1, 0xbd, 0xd9, 0x41, 0xd6, 0xbc, 0x31, 0xd1, 0x64, 0xbe, 0x6a, 0xb5, 0x84, 0x3e, 0x21, 0x7a, 0x02, 0x3e, 0x9f, 0x8c, 0x0d, 0x3e, 0x16, 0x84, 0xab, 0x3d, 0xe5, 0x64, 0xb4, 0xbb, 
0xba, 0x22, 0x76, 0x3c, 0xa6, 0x96, 0x39, 0xbc, 0x4a, 0x9b, 0xbd, 0x3c, 0x28, 0xb8, 0x05, 0xbc, 0xe6, 0xe4, 0x51, 0x3e, 0x94, 0x16, 0xbc, 0xbd, 0x5d, 0x19, 0xad, 0xbd, 0x5a, 0x27, 0x81, 0xbd, 
0xf3, 0xfb, 0x11, 0xbe, 0x7e, 0xcc, 0xfe, 0x3d, 0x75, 0xd8, 0xdc, 0xbc, 0x6f, 0x92, 0xc3, 0x3c, 0x38, 0x6c, 0x03, 0x3f, 0xe1, 0x94, 0x4b, 0x3e, 0xba, 0x9b, 0x03, 0xbe, 0x55, 0xe4, 0xff, 0xbe, 
0x55, 0xa6, 0xf7, 0xbd, 0xc0, 0x63, 0x02, 0x3e, 0x96, 0x9a, 0x13, 0x3f, 0x87, 0xa7, 0xd7, 0x3e, 0xd3, 0x5d, 0xa5, 0x3d, 0x16, 0x2c, 0xac, 0xbd, 0xe6, 0x14, 0x6a, 0xbe, 0xd2, 0xd0, 0xb6, 0xbe, 
0x77, 0x8b, 0x9d, 0x3c, 0x75, 0x96, 0xd7, 0x3a, 0x1b, 0x98, 0x26, 0xbe, 0x09, 0x90, 0x78, 0xbe, 0x4c, 0x1c, 0x80, 0xbd, 0x56, 0xe8, 0xb2, 0x3d, 0x85, 0x40, 0x0c, 0x3d, 0x78, 0x9a, 0x21, 0xbd, 
0xca, 0xe6, 0x4b, 0x3b, 0xdc, 0x00, 0x9a, 0xbe, 0x68, 0x73, 0xf0, 0x3c, 0x3b, 0x7a, 0xa0, 0xbe, 0xbd, 0x61, 0xbf, 0xbd, 0x61, 0xd1, 0x84, 0x3e, 0x89, 0x0d, 0xf7, 0xbc, 0x73, 0xaf, 0x97, 0x3e, 
0x58, 0xe0, 0x03, 0x3e, 0xbf, 0xab, 0xa2, 0x3d, 0x0c, 0x6c, 0x73, 0xbe, 0xcf, 0x10, 0xd7, 0xbe, 0x32, 0x79, 0xda, 0xbe, 0x83, 0xb2, 0xa0, 0x3d, 0x92, 0x7b, 0xa0, 0x3e, 0x3a, 0x23, 0xc0, 0x3e, 
0x54, 0x64, 0xa0, 0xbc, 0x30, 0x6b, 0x69, 0x3e, 0xde, 0x5f, 0x92, 0x3c, 0x39, 0xdb, 0xc9, 0xbd, 0x3e, 0x62, 0xa9, 0xbc, 0xc6, 0x70, 0x5a, 0xbd, 0xd5, 0xda, 0x18, 0x3e, 0xc6, 0x31, 0x23, 0x3d, 
0x80, 0xf9, 0x1f, 0xbc, 0xb4, 0xdb, 0x73, 0xbc, 0x90, 0x37, 0x9d, 0xbb, 0xe9, 0xa9, 0x00, 0xbe, 0x8e, 0xb1, 0x19, 0x3d, 0x92, 0xec, 0xe1, 0xbd, 0x78, 0x94, 0x2d, 0xbd, 0x83, 0x3b, 0x9a, 0xbc, 
0x91, 0x6b, 0x83, 0x3c, 0x10, 0x97, 0xe0, 0x3b, 0xae, 0x68, 0x39, 0xbe, 0x02, 0x54, 0x02, 0x3e, 0x8a, 0x35, 0x16, 0xbc, 0xa3, 0x22, 0x28, 0x3c, 0x0f, 0x5a, 0x8c, 0xbd, 0x75, 0x3b, 0x80, 0x3c, 
0x7b, 0x6f, 0x52, 0x3e, 0x3c, 0xb8, 0x13, 0x3c, 0x2c, 0x8f, 0xef, 0xbd, 0xfe, 0xfa, 0x88, 0x3e, 0x5e, 0xf6, 0xef, 0xbd, 0xd4, 0x3e, 0x0f, 0x3e, 0x50, 0x5a, 0x09, 0xbd, 0x01, 0x56, 0x13, 0x3e, 
0x41, 0x30, 0xcb, 0x3d, 0x96, 0x25, 0xea, 0x3c, 0xb8, 0x52, 0xb3, 0x3d, 0xc3, 0xd6, 0x43, 0xbb, 0xf3, 0x65, 0x8b, 0x3d, 0x6a, 0x36, 0x1a, 0xbc, 0x22, 0xf3, 0x17, 0xbe, 0x7a, 0xa8, 0x01, 0x3e, 
0x96, 0x69, 0xa4, 0x3d, 0x5f, 0x36, 0x60, 0x3c, 0x89, 0x57, 0x05, 0xbd, 0x48, 0x55, 0x3e, 0x3e, 0x20, 0x8b, 0x2a, 0xbe, 0xbf, 0xe1, 0xab, 0x3d, 0x43, 0xec, 0x55, 0x3c, 0xf9, 0x83, 0x9f, 0x3a, 
0x5c, 0xa5, 0xe0, 0xbd, 0x34, 0xf3, 0xd1, 0x3d, 0x8c, 0xaf, 0x71, 0xbd, 0xd8, 0xdf, 0x22, 0x3e, 0x02, 0x7b, 0xfc, 0x3d, 0x58, 0x85, 0x81, 0xbd, 0xe6, 0xf5, 0x5b, 0x3d, 0xeb, 0x9d, 0x7d, 0xbc, 
0x14, 0xe6, 0x44, 0xbd, 0x04, 0xab, 0xcb, 0xbd, 0x63, 0xc0, 0x02, 0xbc, 0x82, 0x9c, 0x27, 0xbe, 0x20, 0xef, 0xdb, 0x3d, 0xf9, 0xcd, 0x45, 0xbd, 0x77, 0x18, 0x8a, 0x3d, 0x36, 0xe4, 0x4e, 0x3e, 
0xef, 0xe2, 0xc9, 0x3d, 0x11, 0x67, 0x56, 0xbd, 0x57, 0xab, 0x84, 0x3e, 0x89, 0x3b, 0x56, 0x3e, 0x12, 0xbe, 0x8e, 0x3c, 0x79, 0x0f, 0xdc, 0xbd, 0xdd, 0x19, 0x9b, 0xbe, 0x5f, 0x72, 0x76, 0x3d, 
0x4d, 0xf0, 0x35, 0xbd, 0xf3, 0x91, 0xb9, 0xbc, 0x7c, 0xd9, 0xb7, 0xbd, 0xa9, 0x52, 0xf2, 0x3d, 0xa1, 0x00, 0x88, 0xbc, 0x44, 0xbb, 0xde, 0x3d, 0x18, 0x06, 0x2b, 0xbe, 0xed, 0xa4, 0xe6, 0xbd, 
0x06, 0xab, 0xc0, 0xbd, 0x7a, 0xbe, 0xc9, 0xbc, 0x46, 0x5a, 0x4c, 0x3e, 0x8e, 0xf8, 0x17, 0xbc, 0x3e, 0x1e, 0xaa, 0x3a, 0x02, 0xfe, 0x04, 0x3d, 0x7a, 0x7a, 0x2c, 0x3e, 0x86, 0x83, 0xbd, 0x3d, 
0x53, 0x18, 0x29, 0xbe, 0xd5, 0x7e, 0x38, 0xbc, 0x67, 0x4e, 0x87, 0xbe, 0x6b, 0xa8, 0xe8, 0xbe, 0x1b, 0xa5, 0x7e, 0xbe, 0xb4, 0xf7, 0xd4, 0xbd, 0x1a, 0xe0, 0x9d, 0x3e, 0x8e, 0xce, 0x64, 0x3e, 
0x82, 0x3d, 0xa5, 0xbe, 0xc1, 0x24, 0xd8, 0xbe, 0xa7, 0x0d, 0xe1, 0xbe, 0x81, 0x7f, 0x71, 0xbe, 0x22, 0x52, 0x3c, 0xbe, 0x8e, 0x52, 0x8a, 0x3e, 0x18, 0x83, 0xa9, 0x3e, 0xbd, 0x04, 0x86, 0x3e, 
0xe3, 0x3f, 0x97, 0x3e, 0x18, 0x7f, 0x79, 0xbc, 0x22, 0x4b, 0x43, 0xbe, 0x95, 0x24, 0xa6, 0xbe, 0x0b, 0x0f, 0xc3, 0xbd, 0x68, 0xa0, 0x99, 0x3d, 0x2e, 0xfd, 0xe9, 0x3c, 0x1b, 0x03, 0x8a, 0xbd, 
0x5e, 0x86, 0xf6, 0x3d, 0x87, 0xd9, 0x3c, 0xbe, 0x55, 0x23, 0x08, 0x3e, 0x63, 0xad, 0xed, 0x3d, 0xc2, 0x36, 0xe1, 0xbc, 0x7e, 0xed, 0x7f, 0x3d, 0xc8, 0xf0, 0x43, 0xbe, 0xd6, 0xd3, 0x8e, 0xbe, 
0xc8, 0x01, 0xf3, 0xbd, 0xab, 0x36, 0x3b, 0x3e, 0xf4, 0xa7, 0x8a, 0x3e, 0xa6, 0x2b, 0x81, 0x3e, 0xcb, 0xd8, 0x05, 0xbd, 0xf3, 0x9d, 0xfb, 0xbd, 0x49, 0x6d, 0x6e, 0xbe, 0xb9, 0x88, 0xcc, 0xbe, 
0x8e, 0xd3, 0x73, 0xbe, 0xd5, 0x41, 0x97, 0xbe, 0x25, 0x32, 0xae, 0x3d, 0x0b, 0x4e, 0xac, 0xbd, 0xdd, 0x6a, 0xce, 0xbe, 0xde, 0x09, 0x76, 0xbe, 0x94, 0xf2, 0xea, 0xbe, 0x1a, 0x51, 0x81, 0x3d, 
0xb7, 0x41, 0x04, 0xbe, 0x7a, 0x0d, 0x97, 0xbe, 0xf0, 0x17, 0xbf, 0xbe, 0x46, 0x9a, 0x50, 0xbe, 0x07, 0xf2, 0xa0, 0xbd, 0xdb, 0xb6, 0x02, 0x3d, 0x4c, 0x73, 0xc3, 0xbd, 0x58, 0x09, 0x5b, 0xbe, 
0x7c, 0xfd, 0xe3, 0xbd, 0x14, 0x8b, 0xe3, 0x3d, 0xeb, 0x01, 0x94, 0x3e, 0x72, 0x8d, 0x31, 0x3d, 0x1f, 0x43, 0xcd, 0xba, 0xa6, 0x37, 0x8b, 0xbe, 0xa6, 0x1d, 0xcc, 0xbe, 0x5a, 0xe6, 0x7c, 0xbe, 
0xee, 0x22, 0x8d, 0x3d, 0x99, 0x62, 0xa3, 0x3e, 0x00, 0xc4, 0x01, 0x3e, 0xbe, 0x84, 0x1a, 0xbe, 0xb3, 0x6d, 0x69, 0x3e, 0xa7, 0x17, 0x8a, 0xbd, 0xc2, 0x2f, 0x8d, 0xbd, 0xef, 0xbe, 0x1a, 0x3d, 
0xce, 0x21, 0x18, 0xbf, 0x63, 0xff, 0xaa, 0xbe, 0x98, 0x34, 0xaf, 0xbd, 0xd8, 0x84, 0xc7, 0x3e, 0xee, 0xc9, 0xdc, 0x3e, 0x72, 0x3d, 0xab, 0x3e, 0x3e, 0xa5, 0x16, 0x3e, 0xdd, 0x41, 0xe1, 0xbd, 
0x76, 0xee, 0x7c, 0xbd, 0xa1, 0x9b, 0x2c, 0xbe, 0xba, 0x97, 0x81, 0x3d, 0xf5, 0x4b, 0x62, 0xba, 0xf0, 0xf7, 0x45, 0x3e, 0x10, 0xfc, 0x3e, 0xbe, 0x10, 0xec, 0x91, 0x3d, 0xe7, 0x71, 0x16, 0x3e, 
0x44, 0xe9, 0x8d, 0x3e, 0x06, 0xca, 0x4c, 0x3d, 0x4e, 0x77, 0x11, 0xbe, 0x7f, 0x37, 0x91, 0xbd, 0xb9, 0x79, 0x3e, 0x3d, 0x93, 0xff, 0x3d, 0x3e, 0x74, 0xc2, 0x18, 0x3e, 0x75, 0x70, 0x4d, 0xbe, 
0x75, 0x9e, 0x9e, 0xbe, 0x3e, 0xe3, 0x94, 0xbe, 0x0e, 0xc9, 0xbe, 0x3d, 0x18, 0xea, 0x88, 0x3e, 0x94, 0x96, 0xd9, 0xbc, 0xa3, 0x6b, 0x7d, 0xbd, 0x44, 0xc0, 0x60, 0xbd, 0x7a, 0x94, 0x72, 0xbe, 
0xbd, 0xbb, 0x1f, 0xbd, 0xf8, 0x98, 0xba, 0x3c, 0xe2, 0xeb, 0x13, 0xbd, 0x8a, 0x8a, 0x64, 0xbe, 0x14, 0x03, 0xfb, 0xbd, 0x7f, 0x2b, 0x6a, 0xbe, 0xe0, 0x82, 0x0b, 0x3e, 0x13, 0x10, 0xbd, 0x3c, 
0xc4, 0x36, 0xa4, 0x3d, 0xd7, 0x6b, 0x50, 0xbd, 0xf7, 0x6b, 0x30, 0x3e, 0x07, 0x75, 0xcf, 0x3d, 0xf4, 0xac, 0x03, 0xbe, 0x8b, 0x00, 0x99, 0xbd, 0xa4, 0xe2, 0x74, 0xbd, 0x4b, 0x98, 0x63, 0x3c, 
0xe4, 0xa7, 0xad, 0x3d, 0x70, 0xef, 0xf9, 0xbd, 0x41, 0x14, 0x84, 0xbd, 0xe1, 0xe7, 0xdd, 0x3c, 0x64, 0x76, 0xb4, 0xbd, 0x2d, 0x86, 0x1b, 0xbb, 0xac, 0x1a, 0x37, 0xbc, 0x0d, 0x94, 0x97, 0xbd, 
0x39, 0xc3, 0x92, 0x3e, 0x00, 0x74, 0x87, 0xbd, 0xc8, 0x5d, 0xa3, 0x3c, 0xae, 0x1e, 0x38, 0x3d, 0xc0, 0x36, 0xb8, 0xbd, 0x12, 0x66, 0x88, 0x3e, 0x0f, 0x8e, 0x03, 0x3e, 0xba, 0x12, 0x16, 0x3e, 
0xae, 0x48, 0x20, 0x3c, 0x31, 0xe1, 0x5d, 0x3c, 0xfc, 0xab, 0xd8, 0xbc, 0x17, 0xf3, 0x37, 0x3d, 0x9a, 0x8d, 0xd5, 0x3a, 0x98, 0x0b, 0x01, 0x3c, 0x05, 0x70, 0xad, 0xbd, 0x81, 0xf1, 0xa8, 0x3d, 
0x9a, 0x0f, 0x33, 0x3c, 0xdc, 0x54, 0x8a, 0x3c, 0xf1, 0x77, 0x78, 0xbc, 0x8e, 0xe1, 0x74, 0x3c, 0xe6, 0xca, 0x4a, 0xbc, 0x27, 0x63, 0xf7, 0xbd, 0xb7, 0x36, 0x1f, 0xbd, 0xbc, 0x3a, 0x4c, 0x3d, 
0x8c, 0xb3, 0xc7, 0x3c, 0x00, 0xa2, 0xa1, 0x3d, 0x41, 0x2c, 0x5e, 0xbd, 0xf2, 0x52, 0x4b, 0xbd, 0x99, 0x30, 0xbd, 0x3d, 0x72, 0x8f, 0x52, 0xbe, 0xdd, 0xb8, 0x59, 0x3c, 0x4e, 0x75, 0x33, 0x3d, 
0x87, 0x75, 0x1b, 0xbe, 0xc1, 0xa0, 0x14, 0xbb, 0x69, 0x96, 0x87, 0xbd, 0xa5, 0x93, 0x52, 0x3c, 0x02, 0x08, 0xf2, 0x3d, 0x0a, 0xc6, 0xf3, 0xbd, 0x1c, 0x64, 0x06, 0xbe, 0xc1, 0xcb, 0x36, 0x3e, 
0x86, 0x16, 0xde, 0xbe, 0x61, 0x49, 0x19, 0xbf, 0x4c, 0xa2, 0xf8, 0xbe, 0x85, 0x88, 0x86, 0xbe, 0x43, 0xd0, 0x0b, 0x3c, 0xcd, 0xd7, 0xe4, 0x3e, 0x1e, 0xfb, 0xb1, 0x3e, 0x81, 0x50, 0x9a, 0x3e, 
0xfb, 0x5f, 0x3e, 0x3e, 0x1e, 0xa5, 0xff, 0x3c, 0x2c, 0xd6, 0x6d, 0x3e, 0x99, 0x36, 0xd2, 0x3d, 0x0c, 0xf1, 0x8f, 0x3d, 0x43, 0x8c, 0x9f, 0x3e, 0x93, 0xa9, 0xf4, 0x3d, 0x42, 0xc1, 0x83, 0xbc, 
0xa4, 0xee, 0x36, 0x3d, 0xee, 0xc8, 0x45, 0x3e, 0x20, 0x70, 0x16, 0x3e, 0x8e, 0xea, 0x88, 0xbe, 0x61, 0x80, 0x57, 0xbe, 0x7b, 0xd6, 0x82, 0xbe, 0xaa, 0x00, 0x04, 0xbe, 0x50, 0xf6, 0x38, 0x3b, 
0x27, 0x58, 0xa3, 0x3d, 0x76, 0x15, 0xab, 0x3e, 0x56, 0xd4, 0x74, 0xbb, 0x3b, 0x48, 0x93, 0xbe, 0x77, 0x39, 0x36, 0x3d, 0x19, 0x05, 0xf6, 0xbd, 0x6a, 0x97, 0xd5, 0x3d, 0x3a, 0xc4, 0x7d, 0x3d, 
0x35, 0x52, 0x47, 0x3e, 0x67, 0xcf, 0x06, 0x3f, 0x8a, 0x91, 0x99, 0x3e, 0xf9, 0x9a, 0x40, 0x3e, 0x08, 0x4b, 0x91, 0xbd, 0xfc, 0xbd, 0x1a, 0xbe, 0x7e, 0xa7, 0xaa, 0xbd, 0x80, 0x65, 0xf9, 0x3d, 
0xb4, 0x9d, 0x3a, 0x3b, 0x4b, 0xd7, 0x82, 0x3d, 0x1b, 0x68, 0x31, 0x3d, 0x1b, 0x76, 0x8c, 0xbd, 0x82, 0x26, 0x1d, 0x3e, 0x63, 0x52, 0xf2, 0x3c, 0xa8, 0xe0, 0x5a, 0xbe, 0xfc, 0xf6, 0x57, 0xbe, 
0x9b, 0x2d, 0x8d, 0xbe, 0xc3, 0xb3, 0xe3, 0xbe, 0x28, 0xc1, 0x25, 0x3d, 0x34, 0x8d, 0xd5, 0xbd, 0x07, 0x81, 0x39, 0x3e, 0xa0, 0x19, 0x44, 0x3d, 0x81, 0xe5, 0x44, 0xbe, 0xa2, 0xe4, 0x93, 0xbe, 
0x1c, 0x6a, 0x3e, 0xbe, 0xf6, 0xff, 0xaa, 0xbc, 0xa2, 0x9a, 0x27, 0xbe, 0xbc, 0xf5, 0xd5, 0x3c, 0x4f, 0x2e, 0xee, 0xbd, 0xfd, 0xb6, 0x69, 0xbe, 0xc6, 0xc6, 0x3e, 0xbe, 0x6a, 0x93, 0x77, 0xbe, 
0xe0, 0x90, 0x22, 0xbd, 0x71, 0x51, 0x8a, 0xbc, 0x13, 0x56, 0x9e, 0x3d, 0xf5, 0x54, 0xb8, 0x3d, 0xbe, 0xa2, 0xc3, 0xbd, 0x65, 0x18, 0x7b, 0x3d, 0xc5, 0x9b, 0xc4, 0xbd, 0x89, 0xf4, 0xa3, 0x3d, 
0x7d, 0x50, 0x86, 0x3e, 0x22, 0x42, 0xd1, 0xbc, 0xea, 0xfd, 0xd8, 0x3d, 0x8c, 0x78, 0x24, 0xbd, 0x69, 0x23, 0x0d, 0xbe, 0x3a, 0xce, 0xf1, 0x3d, 0xeb, 0x5d, 0x51, 0x3e, 0x17, 0x70, 0x87, 0xbd, 
0x11, 0x6a, 0x3d, 0xbe, 0x84, 0xb6, 0xc5, 0xbd, 0x5e, 0xb3, 0x83, 0x3e, 0xdb, 0x99, 0x61, 0xbd, 0x69, 0x02, 0xa3, 0x3d, 0x65, 0xe9, 0xc9, 0x3c, 0x1e, 0x0f, 0xa9, 0xbd, 0xe2, 0x5f, 0xd7, 0x3d, 
0xb9, 0x5f, 0x9c, 0xba, 0xda, 0x5c, 0x35, 0xbd, 0xfc, 0x87, 0x6c, 0x3d, 0xa9, 0xc0, 0xf1, 0xbe, 0xc9, 0x1d, 0x4d, 0xbe, 0xd9, 0xfa, 0x00, 0xbe, 0x40, 0xd1, 0x1e, 0x3b, 0xab, 0x61, 0x31, 0x3e, 
0xdb, 0x74, 0xd7, 0xbe, 0xad, 0xc5, 0xdd, 0xbe, 0x4c, 0x03, 0xf5, 0xbe, 0xc7, 0xeb, 0x8a, 0x3d, 0xb4, 0x97, 0x67, 0x3e, 0xb0, 0xe9, 0x9b, 0x3e, 0xdd, 0xdd, 0xed, 0x3d, 0xef, 0x5d, 0xab, 0x3c, 
0xad, 0x91, 0x8f, 0xbd, 0xf1, 0x0a, 0xa7, 0x3d, 0x0b, 0xb3, 0x49, 0x3e, 0x9b, 0x23, 0x52, 0x3e, 0xe2, 0x25, 0x8a, 0x3e, 0xc7, 0xf6, 0x6f, 0xbe, 0xab, 0x0e, 0x9b, 0x3d, 0xa6, 0x1f, 0xea, 0x3d, 
0x82, 0xd7, 0x5f, 0x3e, 0x8c, 0x5a, 0xdb, 0xbc, 0xd7, 0x1c, 0x3d, 0x3e, 0xfb, 0x25, 0x6b, 0x3e, 0xa0, 0xc8, 0x5a, 0x3e, 0x82, 0x6e, 0x6a, 0x3d, 0xc7, 0x6f, 0x66, 0xbe, 0x64, 0x2c, 0x58, 0xbe, 
0xce, 0x92, 0x07, 0xbd, 0xae, 0x12, 0x90, 0xbc, 0x04, 0x92, 0x95, 0x3e, 0x3b, 0x06, 0xf0, 0x3e, 0x2c, 0x6c, 0xf3, 0x3d, 0xda, 0xde, 0x4c, 0xbe, 0x2e, 0x28, 0xcf, 0xbe, 0x9f, 0xe2, 0x24, 0xbf, 
0x8c, 0x15, 0x99, 0x3d, 0xde, 0x65, 0xca, 0x3d, 0xb9, 0x41, 0x39, 0xbe, 0x95, 0x18, 0xde, 0xbd, 0xff, 0x56, 0xf8, 0xbd, 0xd1, 0x7c, 0xc1, 0x3d, 0x99, 0xf0, 0xda, 0x3d, 0xb1, 0xcd, 0xd0, 0x3d, 
0xed, 0xd1, 0xaa, 0x3d, 0x9c, 0x38, 0x19, 0xbd, 0x1b, 0x45, 0x00, 0xbe, 0xc6, 0xc7, 0x70, 0xbe, 0x3d, 0xfc, 0x07, 0xbe, 0xd0, 0x7d, 0xe5, 0x3d, 0x75, 0xe0, 0xd4, 0x3b, 0xa5, 0x97, 0xb3, 0x3d, 
0x67, 0x3e, 0x9d, 0xbd, 0x1f, 0xf9, 0x03, 0xbc, 0x45, 0x66, 0xc5, 0xbd, 0x12, 0x7e, 0xff, 0xbd, 0x94, 0x6d, 0x10, 0xbd, 0x88, 0xda, 0xcd, 0xbd, 0x5d, 0xe3, 0x37, 0x3e, 0x07, 0xc6, 0xfe, 0xbd, 
0x99, 0x09, 0xbe, 0xbe, 0xc5, 0x64, 0x88, 0xbe, 0x6a, 0x4c, 0x8c, 0xbd, 0x2d, 0x0d, 0x4e, 0xbd, 0x85, 0x76, 0x44, 0x3d, 0xe4, 0xbf, 0xf2, 0xbd, 0x70, 0x73, 0xd0, 0xbc, 0xdb, 0x74, 0x17, 0xbe, 
0x97, 0x0f, 0xa1, 0xbe, 0x60, 0x9d, 0xb8, 0xbd, 0xc3, 0x09, 0xc0, 0x3d, 0x70, 0x04, 0x8e, 0x3d, 0x9b, 0x24, 0xe4, 0x3b, 0x9b, 0x67, 0x9b, 0xbd, 0xcf, 0xaa, 0x90, 0xbe, 0x96, 0x04, 0xfe, 0xbd, 
0xa8, 0x3e, 0x8e, 0xbe, 0xde, 0x9e, 0x31, 0xbc, 0xa6, 0x9f, 0x28, 0xbe, 0x7b, 0x0d, 0x69, 0xbe, 0x82, 0x35, 0x72, 0x3b, 0x5a, 0xa0, 0x1a, 0xbb, 0xac, 0xa3, 0x1a, 0xbe, 0x5c, 0x54, 0x75, 0xbd, 
0xfd, 0x37, 0xad, 0x3d, 0xc2, 0x6f, 0x4b, 0x3e, 0x3f, 0x5e, 0x63, 0x3e, 0x77, 0xb1, 0x0c, 0xbe, 0xbd, 0xb3, 0xab, 0xbe, 0x6e, 0x3d, 0x98, 0xbe, 0x02, 0xc7, 0x4d, 0xbe, 0xf5, 0x06, 0x94, 0xbb, 
0x18, 0xe0, 0x63, 0x3e, 0x70, 0xf3, 0x02, 0x3e, 0x25, 0x48, 0x08, 0x3e, 0xfc, 0x3e, 0xe1, 0x3d, 0xa2, 0xa5, 0x84, 0xbe, 0xf3, 0x29, 0x2d, 0xbe, 0x12, 0x5e, 0x3f, 0xbe, 0xef, 0xcc, 0xfb, 0x3b, 
0xda, 0x79, 0x02, 0xbe, 0x86, 0x33, 0x05, 0xbe, 0xb7, 0xce, 0xa7, 0xbe, 0x83, 0x25, 0x99, 0xbd, 0xe8, 0x32, 0x2b, 0xbc, 0xa8, 0xb3, 0x4a, 0x3e, 0xad, 0xd4, 0xd4, 0x3d, 0xc0, 0x7d, 0xf9, 0x3d, 
0xfa, 0xb3, 0xaf, 0x3d, 0x14, 0x1a, 0x76, 0xbb, 0x18, 0x25, 0x2d, 0xbe, 0x7a, 0x63, 0xce, 0xbd, 0x67, 0x99, 0x28, 0xbe, 0x1b, 0xe1, 0x09, 0x3d, 0x06, 0x7e, 0xf6, 0x3e, 0x09, 0xe0, 0xa7, 0x3e, 
0x03, 0xd5, 0xb4, 0x3d, 0x1d, 0x48, 0x4d, 0xbe, 0xc9, 0x4c, 0xce, 0xbd, 0xc0, 0x44, 0x88, 0xbe, 0xc7, 0xb8, 0xb3, 0xbc, 0x4b, 0x43, 0x6d, 0x3d, 0x5d, 0xd5, 0x9f, 0x3c, 0x77, 0xca, 0xc7, 0xbc, 
0x68, 0xdc, 0xc3, 0xbe, 0xc0, 0xae, 0x2f, 0xbd, 0x0e, 0x75, 0x4c, 0x3e, 0x26, 0xc6, 0x1c, 0xbe, 0x5c, 0xa9, 0xfe, 0x3c, 0x06, 0x8d, 0x5d, 0x3d, 0x82, 0xcf, 0xb2, 0xbd, 0x15, 0x45, 0x00, 0x3e, 
0x6c, 0x0b, 0x06, 0x3e, 0x04, 0x54, 0xa4, 0x3e, 0xcb, 0x07, 0xad, 0x3e, 0x4d, 0xad, 0x02, 0x3e, 0x75, 0x19, 0x65, 0x3e, 0x8e, 0x39, 0x82, 0xbd, 0x9f, 0x45, 0xd6, 0xbc, 0x61, 0x0f, 0xb2, 0xbd, 
0xf3, 0x84, 0xa4, 0x3c, 0x81, 0x7e, 0x35, 0xbe, 0x5d, 0x38, 0x83, 0x3e, 0x67, 0x95, 0x55, 0x3e, 0x96, 0xfb, 0x9f, 0x3e, 0xb3, 0xa6, 0x30, 0xbe, 0x88, 0x77, 0xff, 0xbe, 0x8a, 0xe7, 0xd9, 0xbe, 
0xfd, 0xf5, 0x0d, 0xbe, 0x4f, 0xad, 0xba, 0x3d, 0xef, 0xb0, 0xe2, 0x3d, 0xbf, 0x0b, 0xf7, 0x3c, 0x3a, 0x15, 0x10, 0xbe, 0xd6, 0x07, 0x57, 0x3c, 0x42, 0xac, 0x19, 0xbe, 0xdc, 0x22, 0x9d, 0xbd, 
0x53, 0xed, 0xdf, 0x3d, 0x9c, 0x9a, 0x72, 0xbc, 0x63, 0xf5, 0x5c, 0xbe, 0xfe, 0x2f, 0xa0, 0xbd, 0xd1, 0xca, 0x08, 0xbe, 0x46, 0xc0, 0xce, 0x3d, 0xea, 0x94, 0x27, 0xbe, 0xbf, 0xd3, 0xbb, 0xbd, 
0xd4, 0xad, 0x52, 0xbe, 0x14, 0x51, 0x84, 0xbe, 0x49, 0x7c, 0xc7, 0x3d, 0x60, 0x80, 0x87, 0x3d, 0xd8, 0xb6, 0xc1, 0x3c, 0xd6, 0xb8, 0x80, 0x3e, 0x23, 0x01, 0x60, 0xbe, 0x1a, 0xa6, 0x71, 0x3d, 
0x05, 0x1e, 0x0d, 0x3e, 0xa8, 0xcb, 0xa9, 0x3b, 0x1b, 0x04, 0x73, 0x3b, 0x89, 0x2a, 0x78, 0x3e, 0xa3, 0xa6, 0x16, 0xbc, 0xcb, 0x4a, 0xa0, 0x3e, 0x7b, 0x45, 0x63, 0x3e, 0xad, 0xba, 0x12, 0x3e, 
0x60, 0x29, 0xef, 0xbd, 0xdd, 0x6d, 0xc1, 0xbd, 0x10, 0x85, 0x0b, 0x3e, 0x6a, 0x14, 0x45, 0x3e, 0x65, 0xbe, 0x88, 0x3c, 0x82, 0xd2, 0x7b, 0xbb, 0xd5, 0x71, 0xee, 0xbd, 0x10, 0xb4, 0x8e, 0x3c, 
0x49, 0x3b, 0x1d, 0x3b, 0xcf, 0x9f, 0x39, 0x3e, 0x31, 0x28, 0x1e, 0x3e, 0xd3, 0x0e, 0x11, 0xbe, 0xc6, 0x5c, 0x6b, 0xbe, 0xcd, 0x8d, 0xe4, 0xbe, 0x3b, 0x4a, 0x5b, 0xbe, 0x39, 0xc3, 0x0d, 0xbe, 
0xc6, 0x67, 0x28, 0x3e, 0x0f, 0xc7, 0x02, 0x3e, 0x9e, 0x0e, 0x51, 0xbd, 0xc8, 0x02, 0x1e, 0xbe, 0xf5, 0xd6, 0xc8, 0x3c, 0xf9, 0x00, 0xb3, 0x3e, 0xf6, 0x59, 0xc4, 0x3e, 0x44, 0xb9, 0x94, 0x3d, 
0x65, 0x15, 0x2b, 0x3e, 0xae, 0xba, 0x23, 0xbe, 0xed, 0xcb, 0x10, 0x3e, 0x74, 0x3a, 0x9f, 0xbe, 0xea, 0xad, 0x47, 0xbe, 0xfd, 0xcb, 0x8a, 0xbe, 0x2e, 0xca, 0x53, 0xbe, 0xbd, 0x14, 0x0f, 0x3d, 
0x6c, 0xa7, 0x3f, 0x3d, 0x97, 0xc8, 0x53, 0xbe, 0x05, 0x7a, 0x8c, 0x3d, 0xb2, 0x91, 0x68, 0xbe, 0xe0, 0xc4, 0x29, 0xbe, 0x1c, 0x3a, 0x1e, 0x3e, 0x31, 0x9b, 0x19, 0x3c, 0x05, 0x66, 0x57, 0xbe, 
0xa4, 0x33, 0x35, 0xbe, 0x33, 0x47, 0xb7, 0xbe, 0x43, 0x6d, 0x57, 0xbe, 0xe4, 0xc3, 0x38, 0x3e, 0xf0, 0x5f, 0xc6, 0x3e, 0xbd, 0xd8, 0xbd, 0x3e, 0x2d, 0xdb, 0xb2, 0x3c, 0xfb, 0x3c, 0x00, 0xbe, 
0xf0, 0x13, 0x43, 0xbe, 0x25, 0xe7, 0xa0, 0xbd, 0x33, 0x3b, 0xaf, 0xbd, 0x85, 0x99, 0x7c, 0x3c, 0xf7, 0x86, 0xbe, 0x3d, 0xbb, 0x43, 0x1c, 0x3e, 0x97, 0xb8, 0x14, 0x3d, 0xf3, 0xc8, 0x60, 0x3e, 
0x91, 0xe7, 0x09, 0x3e, 0x9a, 0x7e, 0x0a, 0xbc, 0xff, 0x72, 0x24, 0xbe, 0x02, 0x98, 0xac, 0x3d, 0xe5, 0x84, 0x49, 0x3e, 0x30, 0x6e, 0x29, 0xbd, 0x57, 0x43, 0x28, 0xbe, 0x33, 0xba, 0xaf, 0xbd, 
0xc0, 0xda, 0x91, 0x3c, 0xf7, 0x7f, 0x7a, 0x3e, 0xad, 0xbd, 0x05, 0xbd, 0x1e, 0x35, 0xc4, 0xbd, 0xa5, 0x7d, 0xef, 0xbd, 0x9b, 0x17, 0x7d, 0xbe, 0x8f, 0xe9, 0x8b, 0x3e, 0xad, 0x83, 0xb4, 0x3e, 
0x17, 0x6b, 0xa7, 0xbd, 0x55, 0xf4, 0x1e, 0xbd, 0x2e, 0x5a, 0xe4, 0xbe, 0xc6, 0xdb, 0x7f, 0xbe, 0xb4, 0x37, 0xb8, 0x3e, 0x75, 0x46, 0x1a, 0x3d, 0xc8, 0x02, 0x0b, 0x3e, 0x38, 0xfa, 0x59, 0xbe, 
0xe7, 0x79, 0x03, 0xbe, 0xed, 0x04, 0xd3, 0xbd, 0xbc, 0x3e, 0xef, 0xbd, 0x9e, 0x85, 0xbc, 0xbe, 0xcf, 0x38, 0xaf, 0xbe, 0x42, 0x1b, 0x4b, 0xbe, 0xf0, 0x70, 0x76, 0xbe, 0x3f, 0xc4, 0xe3, 0xbe, 
0x70, 0x20, 0xaa, 0xbe, 0xc4, 0x67, 0x1b, 0xbe, 0x8c, 0xae, 0x6d, 0xbd, 0x72, 0x8f, 0x9c, 0xbe, 0xc9, 0xad, 0x04, 0x3e, 0x81, 0x3f, 0x67, 0x3e, 0x40, 0xcf, 0xcd, 0xbd, 0xa5, 0x46, 0x54, 0xbc, 
0xd2, 0x38, 0xb8, 0xbd, 0x50, 0xfa, 0xad, 0xbe, 0xb4, 0x11, 0xcc, 0x3e, 0xd1, 0x9e, 0xbf, 0x3e, 0x53, 0x60, 0xe1, 0x3e, 0xe2, 0xf1, 0xa8, 0x3e, 0x67, 0x2a, 0x47, 0xbe, 0x44, 0x4a, 0xbc, 0xbd, 
0xd3, 0x44, 0xc1, 0x3d, 0x8e, 0x58, 0x02, 0x3f, 0xfd, 0x05, 0x24, 0x3f, 0xa7, 0x33, 0x88, 0x3e, 0x79, 0xcd, 0x52, 0xbe, 0x94, 0x18, 0x0e, 0xbe, 0x15, 0x29, 0xce, 0x3d, 0xb2, 0x2e, 0x89, 0x3e, 
0x7c, 0x9b, 0x83, 0x3e, 0x24, 0x7c, 0x17, 0x3e, 0xeb, 0x35, 0x68, 0x3e, 0x4d, 0x61, 0x8d, 0xbe, 0xeb, 0x3c, 0xd9, 0xbe, 0xd5, 0xf7, 0x5a, 0xbe, 0x2c, 0xdb, 0x7d, 0xbd, 0x32, 0xb2, 0x9f, 0x3e, 
0x73, 0x83, 0xfd, 0xbd, 0x11, 0x04, 0x41, 0xbe, 0xfa, 0xb3, 0x8a, 0xbe, 0x64, 0xf3, 0xe9, 0xbc, 0x20, 0xb0, 0xec, 0x3d, 0xf9, 0x35, 0xf4, 0x3d, 0x8e, 0xa0, 0x0f, 0xbe, 0xe0, 0x80, 0x12, 0xbe, 
0x46, 0xf8, 0xf4, 0xbd, 0xe5, 0xc9, 0xd3, 0x3d, 0x11, 0xe2, 0x88, 0xbd, 0x8b, 0x24, 0x40, 0x3e, 0x53, 0x38, 0x9d, 0x3e, 0x49, 0x27, 0xba, 0x3c, 0x9d, 0x6b, 0xb3, 0x3d, 0x0d, 0x66, 0x4c, 0x3e, 
0xf4, 0xa7, 0x71, 0xbd, 0x0e, 0x88, 0x85, 0x3d, 0x3f, 0x9b, 0x02, 0xbd, 0x93, 0x4a, 0x0c, 0xbe, 0x7e, 0xba, 0xa7, 0x3e, 0x35, 0x78, 0x69, 0x3e, 0x57, 0x6a, 0xd0, 0xbc, 0x0a, 0x72, 0x98, 0xbe, 
0x05, 0x58, 0xce, 0xbe, 0x50, 0x99, 0x6b, 0xbe, 0x17, 0x70, 0x77, 0x3e, 0x23, 0xd4, 0x98, 0x3e, 0xcf, 0x7c, 0x94, 0x3e, 0x34, 0x42, 0x2e, 0xbe, 0x09, 0xdd, 0xd2, 0xbe, 0x99, 0x0b, 0xe9, 0xbe, 
0x81, 0xbd, 0x0c, 0x3d, 0xe4, 0xaa, 0x21, 0xbd, 0xf5, 0x25, 0x14, 0xbd, 0xb9, 0x64, 0x8b, 0xbe, 0xb3, 0x16, 0xa6, 0xbe, 0xb4, 0xf3, 0x5c, 0x3c, 0xcc, 0x6e, 0xee, 0x3d, 0xe9, 0x5b, 0x77, 0x3e, 
0x73, 0xf9, 0x00, 0x3e, 0x14, 0x6e, 0x90, 0xbe, 0x94, 0x9b, 0x13, 0xbd, 0xdb, 0xe1, 0x17, 0xbe, 0x0c, 0x08, 0xe6, 0x3d, 0xa3, 0x72, 0xae, 0x3e, 0x34, 0x50, 0xc6, 0x3d, 0x9d, 0x64, 0x15, 0x3e, 
0xd0, 0x04, 0x61, 0x3e, 0xe0, 0xbe, 0x31, 0x3e, 0x01, 0x0c, 0x70, 0xbd, 0x42, 0xbb, 0xd2, 0xbd, 0x62, 0xb1, 0x0c, 0xbe, 0xda, 0x99, 0x11, 0x3e, 0x68, 0x9e, 0x09, 0x3e, 0x05, 0x36, 0xd9, 0x3d, 
0xf6, 0xb6, 0xe6, 0x3d, 0x82, 0xc3, 0x05, 0xbd, 0x9f, 0xf3, 0x74, 0xbc, 0xfc, 0x4f, 0x77, 0xbe, 0xcc, 0x7d, 0x3e, 0xbd, 0x76, 0x20, 0x12, 0xbe, 0x6c, 0xf7, 0xb0, 0x3d, 0x15, 0x0e, 0x00, 0xbe, 
0xa8, 0x3e, 0x39, 0x3c, 0x6e, 0x85, 0x22, 0x3d, 0xdc, 0x85, 0x35, 0x3e, 0xd1, 0x2a, 0xbe, 0x3d, 0x9b, 0xc0, 0xab, 0xbd, 0x47, 0x40, 0x7a, 0xbe, 0xd4, 0xfe, 0x1d, 0xbe, 0x74, 0x71, 0x2a, 0x3e, 
0xf8, 0x94, 0xca, 0x3c, 0x31, 0x56, 0xed, 0xbd, 0x96, 0x80, 0x70, 0x3d, 0x83, 0x46, 0x4d, 0x3c, 0x09, 0x6f, 0x32, 0x3d, 0x22, 0xc0, 0x96, 0x3d, 0xce, 0x45, 0x42, 0xbc, 0x3c, 0xc3, 0x2c, 0x3d, 
0x78, 0xf5, 0xad, 0x3e, 0xeb, 0xd8, 0x2a, 0x3d, 0x12, 0xc8, 0xcb, 0x3c, 0x18, 0xef, 0x08, 0x3e, 0xbc, 0x1a, 0x62, 0xbe, 0x04, 0x22, 0x4c, 0x3e, 0x0a, 0xea, 0xbe, 0x3d, 0x99, 0x66, 0xcc, 0x3d, 
0x10, 0x1a, 0xf1, 0x3d, 0x1d, 0xae, 0xee, 0x3d, 0x2b, 0x49, 0x74, 0x3d, 0x5d, 0x50, 0x9f, 0x3d, 0x9b, 0xff, 0xfb, 0x3d, 0x86, 0x75, 0xc8, 0xbb, 0xfb, 0x00, 0x47, 0xbd, 0x06, 0x55, 0x14, 0x3e, 
0x0c, 0x2c, 0x34, 0x3d, 0x30, 0x82, 0x51, 0x3d, 0xeb, 0x06, 0x29, 0x3d, 0xd5, 0xd4, 0x3b, 0x3e, 0x30, 0x3b, 0x39, 0xbe, 0x38, 0x9d, 0x87, 0x3d, 0xcd, 0xdf, 0x53, 0x3e, 0xee, 0x12, 0x0b, 0x3e, 
0x56, 0x7c, 0x14, 0xbe, 0xc9, 0xd5, 0x56, 0x3e, 0xb3, 0x1c, 0x43, 0xbe, 0xf0, 0x16, 0x3e, 0x3e, 0x13, 0x02, 0x5c, 0x3d, 0xb2, 0xd8, 0xc8, 0xbd, 0xb2, 0xa2, 0x4f, 0x3a, 0xb4, 0xc1, 0xb8, 0x3d, 
0x28, 0x5e, 0x7c, 0xbd, 0x7f, 0x79, 0x11, 0xbe, 0x16, 0x8b, 0xa2, 0xbd, 0xa5, 0x67, 0xca, 0xbb, 0x24, 0x98, 0xf4, 0x3d, 0x3f, 0xd5, 0x5c, 0xba, 0xa0, 0x7c, 0xeb, 0x3d, 0x32, 0xbe, 0xb8, 0x3d, 
0x06, 0xbe, 0xd7, 0xbe, 0xdc, 0x64, 0x09, 0xbf, 0x04, 0x36, 0x0d, 0xbf, 0x17, 0x24, 0x81, 0xbe, 0x64, 0xd3, 0x89, 0x3d, 0x18, 0xd3, 0x80, 0x3e, 0xa0, 0x9c, 0x36, 0x3e, 0xb4, 0xeb, 0x3c, 0x3e, 
0xc8, 0xe3, 0xa8, 0x3c, 0x81, 0x5f, 0x0e, 0xbd, 0x79, 0x60, 0xd8, 0x3d, 0xc9, 0xa8, 0x2d, 0x3d, 0xb2, 0x69, 0x2b, 0x3e, 0x65, 0xc7, 0xe8, 0xbc, 0x61, 0xa8, 0x28, 0x3d, 0x43, 0x4d, 0x60, 0xbd, 
0x96, 0xec, 0x2f, 0x3e, 0x85, 0x16, 0x3e, 0x3e, 0x0a, 0x3d, 0x8e, 0x3d, 0x5d, 0x90, 0x56, 0xbe, 0x4f, 0xd5, 0x91, 0x3e, 0xb7, 0xe3, 0xb4, 0x3c, 0x49, 0xb0, 0xc8, 0xbd, 0x87, 0x05, 0x5f, 0xbe, 
0xc1, 0x36, 0x93, 0xbe, 0xb2, 0x3a, 0xb6, 0x3e, 0x0a, 0xce, 0x97, 0x3e, 0x6f, 0x45, 0xc6, 0x3d, 0xbe, 0x53, 0x9f, 0x3e, 0x36, 0x46, 0xc5, 0x3d, 0x5a, 0xe0, 0x97, 0xbd, 0x1c, 0x2e, 0x5a, 0xbe, 
0x83, 0x39, 0x0e, 0x3e, 0x1a, 0xf3, 0x04, 0x3f, 0x86, 0x7a, 0xf6, 0x3e, 0x7f, 0xe9, 0xdd, 0x3d, 0xf2, 0x72, 0x8d, 0xbc, 0x91, 0x0c, 0xcb, 0xbd, 0x59, 0x6d, 0xe3, 0xbd, 0xcf, 0xf9, 0x0c, 0x3e, 
